node {
  name: "global_step/Initializer/zeros"
  op: "Const"
  attr {
    key: "_class"
    value {
      list {
        s: "loc:@global_step"
      }
    }
  }
  attr {
    key: "_output_shapes"
    value {
      list {
        shape {
        }
      }
    }
  }
  attr {
    key: "dtype"
    value {
      type: DT_INT64
    }
  }
  attr {
    key: "value"
    value {
      tensor {
        dtype: DT_INT64
        tensor_shape {
        }
        int64_val: 0
      }
    }
  }
}
node {
  name: "global_step"
  op: "VariableV2"
  attr {
    key: "_class"
    value {
      list {
        s: "loc:@global_step"
      }
    }
  }
  attr {
    key: "_output_shapes"
    value {
      list {
        shape {
        }
      }
    }
  }
  attr {
    key: "container"
    value {
      s: ""
    }
  }
  attr {
    key: "dtype"
    value {
      type: DT_INT64
    }
  }
  attr {
    key: "shape"
    value {
      shape {
      }
    }
  }
  attr {
    key: "shared_name"
    value {
      s: ""
    }
  }
}
node {
  name: "global_step/Assign"
  op: "Assign"
  input: "global_step"
  input: "global_step/Initializer/zeros"
  attr {
    key: "T"
    value {
      type: DT_INT64
    }
  }
  attr {
    key: "_class"
    value {
      list {
        s: "loc:@global_step"
      }
    }
  }
  attr {
    key: "_output_shapes"
    value {
      list {
        shape {
        }
      }
    }
  }
  attr {
    key: "use_locking"
    value {
      b: true
    }
  }
  attr {
    key: "validate_shape"
    value {
      b: true
    }
  }
}
node {
  name: "global_step/read"
  op: "Identity"
  input: "global_step"
  attr {
    key: "T"
    value {
      type: DT_INT64
    }
  }
  attr {
    key: "_class"
    value {
      list {
        s: "loc:@global_step"
      }
    }
  }
  attr {
    key: "_output_shapes"
    value {
      list {
        shape {
        }
      }
    }
  }
}
node {
  name: "global_step/IsVariableInitialized"
  op: "IsVariableInitialized"
  input: "global_step"
  attr {
    key: "_class"
    value {
      list {
        s: "loc:@global_step"
      }
    }
  }
  attr {
    key: "_output_shapes"
    value {
      list {
        shape {
        }
      }
    }
  }
  attr {
    key: "dtype"
    value {
      type: DT_INT64
    }
  }
}
node {
  name: "global_step/cond/Switch"
  op: "Switch"
  input: "global_step/IsVariableInitialized"
  input: "global_step/IsVariableInitialized"
  attr {
    key: "T"
    value {
      type: DT_BOOL
    }
  }
  attr {
    key: "_output_shapes"
    value {
      list {
        shape {
        }
        shape {
        }
      }
    }
  }
}
node {
  name: "global_step/cond/switch_t"
  op: "Identity"
  input: "global_step/cond/Switch:1"
  attr {
    key: "T"
    value {
      type: DT_BOOL
    }
  }
  attr {
    key: "_output_shapes"
    value {
      list {
        shape {
        }
      }
    }
  }
}
node {
  name: "global_step/cond/switch_f"
  op: "Identity"
  input: "global_step/cond/Switch"
  attr {
    key: "T"
    value {
      type: DT_BOOL
    }
  }
  attr {
    key: "_output_shapes"
    value {
      list {
        shape {
        }
      }
    }
  }
}
node {
  name: "global_step/cond/pred_id"
  op: "Identity"
  input: "global_step/IsVariableInitialized"
  attr {
    key: "T"
    value {
      type: DT_BOOL
    }
  }
  attr {
    key: "_output_shapes"
    value {
      list {
        shape {
        }
      }
    }
  }
}
node {
  name: "global_step/cond/read"
  op: "Identity"
  input: "global_step/cond/read/Switch:1"
  attr {
    key: "T"
    value {
      type: DT_INT64
    }
  }
  attr {
    key: "_output_shapes"
    value {
      list {
        shape {
        }
      }
    }
  }
}
node {
  name: "global_step/cond/read/Switch"
  op: "RefSwitch"
  input: "global_step"
  input: "global_step/cond/pred_id"
  attr {
    key: "T"
    value {
      type: DT_INT64
    }
  }
  attr {
    key: "_class"
    value {
      list {
        s: "loc:@global_step"
      }
    }
  }
  attr {
    key: "_output_shapes"
    value {
      list {
        shape {
        }
        shape {
        }
      }
    }
  }
}
node {
  name: "global_step/cond/Switch_1"
  op: "Switch"
  input: "global_step/Initializer/zeros"
  input: "global_step/cond/pred_id"
  attr {
    key: "T"
    value {
      type: DT_INT64
    }
  }
  attr {
    key: "_class"
    value {
      list {
        s: "loc:@global_step"
      }
    }
  }
  attr {
    key: "_output_shapes"
    value {
      list {
        shape {
        }
        shape {
        }
      }
    }
  }
}
node {
  name: "global_step/cond/Merge"
  op: "Merge"
  input: "global_step/cond/Switch_1"
  input: "global_step/cond/read"
  attr {
    key: "N"
    value {
      i: 2
    }
  }
  attr {
    key: "T"
    value {
      type: DT_INT64
    }
  }
  attr {
    key: "_output_shapes"
    value {
      list {
        shape {
        }
        shape {
        }
      }
    }
  }
}
node {
  name: "global_step/add/y"
  op: "Const"
  attr {
    key: "_output_shapes"
    value {
      list {
        shape {
        }
      }
    }
  }
  attr {
    key: "dtype"
    value {
      type: DT_INT64
    }
  }
  attr {
    key: "value"
    value {
      tensor {
        dtype: DT_INT64
        tensor_shape {
        }
        int64_val: 0
      }
    }
  }
}
node {
  name: "global_step/add"
  op: "Add"
  input: "global_step/cond/Merge"
  input: "global_step/add/y"
  attr {
    key: "T"
    value {
      type: DT_INT64
    }
  }
  attr {
    key: "_output_shapes"
    value {
      list {
        shape {
        }
      }
    }
  }
}
node {
  name: "Const"
  op: "Const"
  device: "/device:CPU:0"
  attr {
    key: "_output_shapes"
    value {
      list {
        shape {
          dim {
            size: 1000
          }
          dim {
            size: 1
          }
        }
      }
    }
  }
  attr {
    key: "dtype"
    value {
      type: DT_FLOAT
    }
  }
  attr {
    key: "value"
    value {
      tensor {
        dtype: DT_FLOAT
        tensor_shape {
          dim {
            size: 1000
          }
          dim {
            size: 1
          }
        }
        tensor_content: "\023K\212@\"\205|@\367S\325?{\"\213?iE\351>^\300\272@;\263\331?\224\315\303?\371Am@\311.I@T\036\257@\345\"\032@\244I\007@\363\205\207@5R\266@\321\024\257@9\017??sY\234@8\022\254@\356\237_@+\023\320?f$\004@\337S\215@\264>\367?\310\204\324?M\302\344?\n#\222>\255dL@&~\244>\000\222\035@\330\201\263?\223\203>?\247+J?\362V\252?\037N\210@\3424Q@\373\310~@\262DN@\214\302\255@\305G\207?\361=\262@\353]\307@S\224\371?\233,\276@\017\310\302?\2043\232@8\004e>\330\2557@bf\244@HR\312=.\247\251@O\230\226?\3204\202@LU:?X\031\235@I\374y@\"M\240?\214\360\005@\030l\247@\267\226\202@\266\347\241@\221Z@@\207Z@?\356\321\204?\255\260\n@O?\350?\030\023\203@\356X\312>\216\226\"@\'x\355?\354\203\004@\350\001]@\235\326\027@\004\271.@\347\353v@\032\235\013<\3766\263@D\357\243@\267\325\215?j\3609?R\2602@\267G\030?z\340\365?\323\030\243@\246J\231@\217\323\227@\240{d@.5\231@\027\311]@,\n\226@\302\220\203@[T\033@by3@\270\220k@\325r$@[+\326?\033\0224@A\340_@\033\305\222?\340\2102@n\206\220@\022\260\030@y\263\246?f\363\326?\000~\270@C\357Q?t\334\342?q\204\227@\227\344`@\214\362\225@s?\224@\272\326\345?\2255l@P\003\273@/\'\035@\211\013\244?\213\375\200@\324>(@\261\366k?\214b\350?\342\305+@k\232E@Mhj?\223\351\010>\324\331]@\370\003\254?\320\003S@\367\255\363?\013a\211?\210(\303@\264\265\270@\322\372\206@\312E\255@wA\350?\227\202\305@o\302\330?\244~\334?\277&\227@\237K\254@\340\025P@97\262@\333\3232@\345y\200?\3432\n@\010\336\243@K\271\204@k\370\260@\2673#@<F\300@\202\003<@\364l.>\355C\227@\355%\014@\335\036\035@\350\244:@\210Vp@\321\355c@\242\307\375?`\371\376?\255n\250@)\342:@F\002\337?\340V\367>F`\242@\376~\366?o\206/@\3752\207@\027|\005?\237\326\366?\337e]@m\034\220@\364\336\200@\272\252\267@\235j\270@\227\323z@\276\340\301@\356\266e@\014\312X?\303%\304@\367l\236@z\356I@IH\352?\253\311\305@\247\306\240@Pc\250@i\254\212@\222hQ@\t`m?5\362\006@\010\341\252@\\\307\025@\262\225\211@K?\267@\370\210\002@fH\307@U\177\346?dT\001?H\'\263@!\355\274@\2046\231@\311\240\266@\255\n\305@\260X\361?]\"\010@\251*\246@\347\'\261@\325F\253@\340\241\231@;}\333?7\303h@\336-,>V\330\222@\326_s@\022\203\200@Ev\001>\\\232\326?*\325\014@\336\242M?\221\034|@\335C\306@oo\224?\214t\305@(\362v@\371\271\202>\207\365\244?\375\223\210?R\316\336?\221\371h@\024X\343?(\250\227@4\300\273@Y6\231@\023\237\275@\270\013\205@\254\334\261@\334&b@\3312<@\204\250\306@\214x\222@-2\'@\215\367I@\337\275\006@\0048\262@@\016j@\344\0360@\320-\037@\037l\234@6\374`@Hx\215@\230\372\367?V3\254?SA7?\356j\322?\246\300\237@\247P\203@\206\366/@ 7\263?O\272\026@H\224.@2\345\301?k\343->\0036\036?\234\336\222@p\265~>2\325\355?\000S\251@\271#\036@\307\017\326??X)@\021\321\234@H\2461@\365\371\275?\311K\206@\306\355\212@>\216%@\274\230\033@\r:\210?\020m\254@\2376\301@\305\312\220@\324\234\000@\225\340\022>\325\355\202?\017\351T@\231*s@\352r\261?Z\017 @\037\213\250@\203\376\257?\211g9@\331g\201@\263\351\302@\264=\037?\321\201\300@\332\352\253@\n\r\235@\211T\206@\036\'\246@\367\303\255?\271\222u@F;\240@\365\242<?\351=\241?\235\352\"@wj\207@z\023\205@\216F\332?5c\347=\213)\006@\343G&@v\366C@\344,\233@\222\3038>\2778\003@3\031\311>\347u\213@z\244\026@\010\010\177@\027%\212@\227\316T@ir\211@\205\347\214@S\001\237@\277d\006@A\271\006?\025G\225@I\365I@\312\230\334?\236\231\356?Y\345\325?\2755\243@\24275@\363\n\216>K\241#@e\250i@\344\271\303@\252\032H@T\r\027@\243sd@I@\363?\205\033\214@jd\332?iw\267@\335\304\344?r\275\223@\365*5@\014h\244@f\360\372=\347{\257?b\310 >\177\221\251?\244\245\313>\303\221\251@\236\343V@Z\317\031@ \220\257@1\255Y@&\000Y>\313\356\241@\3273\203?G\272\364>\004\265\010@Y9\310?@w\240@t\006\t?\r\ng@x;`@)jX@H\227\327?=P[@u\245\325?Y\233\236@\330\302\251>\352Y\203?\217\n\254@?\247K@K\017x@\021\035\035@d>\037?3\367;@\317F^@\037\021\223@)\326\276?x\247i@\317\3656@w\241\250?\263JN@J\377D@\261?\224@b\276O@\235\362\231@DG\256@\233cN@\222\245\030@_&\026?\254\305\024@%\204\212@_\201\344?\326M\252@P\3773?\245\013<?\304\234W@e\260-@\351<\233@\363\330\235@,y\034@6\2079@<=\310@\226\3725@\213\221\303@V\367D@S\177\211@2\271\307?\357\215\t@\013\265\205?D\336\247@\304\211\231@\373z\304@,\022d@\275U\177?h\220\270@\221i\000@Q:R@M\332\222@\211\206\022?H\326\255@f\230 @\026\327\234?\302\363M@\021p\244@a\311\366?\336g\234?Vl4@c5a>M\271\006?\000\221\266@T\355\\@U\241\235@\250;\272@k\264g?\367V\252@\035\353Z@\320,\325?\252\225\227@\304Q\206@By\244@\020\002s@*\257\236@\027\032\363?(\235|@\336\315\254@\365+\274@LkB@^{`>l\232\303@\233\330\017@M\254l@\231\271\227@\370\206\250?G=\306@\356j\266@\267b\312?\277\260l@f\372\306@\036O\325?7a\013@\315x\252@\235N\351?\344\"\346?\342\201;?Z\010\231?\253\037\324?\275\247\201@\375\211\301>\300\347\020?\030\251\'@\225\003\203@\304Te@\301hB@\327\266\236@V\r\366?\200-\344>\177\222\224>\3229\266@Rt @GM:@\013\210\205@\337T\034@\362\312\211@\223JR@\020\360\261@\366\303\211@\306d\266@\232\217p@P\002\275@\264\324\010@\242\306\224?\307\200\310@j\305\330?\332\332&@\222\350\221@\036\216c@~*\357>D\210\241@\340\275\236?x\344|?x.\266@AE\221@\374P\272@$xo@:l2@)2\225@\333\202\207@\335\246\262@{\251\341?\343\361\223?\264\377V@5\362\275?{c\207@n\360\266?AS$@hI+@E\016x@\2263\205@w\200\035@\257\320q@\213\004\224>\300\353[?A\324[@jo @\353:\212=\225f\225@\265\000\255@\301\031\034?\330W\031?\325C\224@v\034\346?\177\302X@\000\262\240>9\370\370?\374\025S>\302\001R@P\202b>\003\265\010@\227\352\243@C\343\272@\037\256\262@\264\262\344?\272\312\216@R\330\327?+\351b?)su@K\037@@\275\364(@\037\364\302@k\333\030@k\010\027@\335\224\273@8|\262@\215\224\373?\220K\273@\267Y\201?M\010{@u\274\275?\312\275\234@\303\257\275;\271\207\365?p^\013@!\206a@Z:\275@[+$@\314)\303?\237\036V@)\233\262@\236\310\202@s\251\220@\345\274\234?\375\177.@\177\336\255@\030\035\266>\017\006\241@\276hN@\344\335\240@\326\004I?{\337\245?\204\221\261?\035b\304@$\360\327?\343\020n@i\034<@\325\263\266@\341\235\273?#E&@\225\215\206@\034\234\000?L/q@\227\"\240@\224@\005@\274\225 @f\216\256>-\204\241?\246\002m@\242\033\260@\020\345v@\306\224\237@}\301\245@m\275\304@\230\206\300>\013mQ@\352m\224?\313U,@V\2354?\207\363)?$\020\211@\027\223[@\256\007\263?O*\273@\206e_@\211\347\305@\262\037\262@\343\305\032@\036\374H@\312\023\021?\270\210\r?\252\033\244@\325\367\014@\004\223\025?\304\360\250@\361\270\262@Y\330\022@\210\317\327?\004\212\217@\312\n\202@\'K\261@\r^\210@\2317\263?\235\024\217@f\000`@R\200U@)\325\352=P\346`@\003\225\257@\325\004\203@\252\r\272@\323B`@D\245\236@\025\220\275@I\034\346?\302\'\221>\310\333\275@\034}\226@\350G\213@\3474\300@X\251s@\252/\276@\271\2443>\006\375\206@\364\233B?\202\251l@4\337\242@\014\013\205?\313\013T@i-z@\223\035\236@\271\220\202>I\275\007@I\233\212@<\376D?\203\333H?GJ\250>~\036\253@\312\220\237@2\272\201@\373\351\\?\367\321u@\333\261$@\353\000\244@A\266\322?\254\342\270?\376Z_?ur\215@\2636\231@\021\340\213@y\275C@\246\350\253@}\345k@\354\2319@\r\035M@\240?\206?\213\251+@n\352\234@\3524\020@\371\024\226@\205\253\201?\256\2755@\274%I@\034\032\223@\266\235\205?^\005\246@\237\362d@\210##@\010\276\330?\'\306\215@\016\346\033?\261\267?@\005\356\231@\350i\352?\007.\226@\301y\314>\200\332L@.\264\206@\021\220\"?R\353\376?\335\371\221@\207\373\200@1\224\272@\204\035\036@\365\372#@b\256\335?\246\254\225?n\322\202@\340\006\037@\342\235\223=\362\377R?8\351\215@h\232K@\007/\244@\242\301\202?\361\362C@d\262\343?5\356\244@1\n\201@A2/@k\230^@i\207$@\215\023\254@|\370\372?$\"\200@W\364\t@\261\252i@\345\272\037@w\205\353?\3105\261@\"\3760?jM7@\006\002\272@\272\371/@9@\213@9\342o?\335=7?,c(@\341\235\034?\\(\240@\257\000\363?\377\010\212@~6\237@\010\372\n@m\330C@\0306\215>Q\346b?\356\300?@\244`\301@5\016\356?R\245\272@{\330u@\205OT@\3344\\@W:}@\021q\254>\306\340\307@6A`>@\261\272@\021\375\036@P\274\304@VT6?\252\332\203@\3270c?\260\007^@qF#@\370\n\216@\330\263\310@\034\207D@\375\363\216@\005\235\265@\271e\224@\367Gl@E\273#?3\n\230?\305\334\016@N\312\230@-\305\027@\237.\246@\"\327\257<\277\355\245@!\235\207@\006X\215@\252\331\034@km\275?\037!(@Rn\200@\314n\035@A\245\206@\276\250\231@Lg\275@B\177\302@\375:L@q\236r@\237G\300@\202\270\225@\3544\305@_\2617@\267\'\200@\251\364=@*\217\263?\333\3729@\010\333\322?\204\304\240@\002\3637@\005\222,@\323\260\305@e\226\235@\235\312\367?bt\301@\221Az@,I\352?\240\301\304?\365\201\300@\265g\230@\324<\240@s\250\225@\304G\366?\256\316\347?\207&\265@TY\255@\360\357:?\0130V?h\276\310?\356G\345?\034U\264>E\276\021@\035U\201@\\+\217@\245d\364?\242c\206@PP>@\326D @\267\370\007?\033\267\217@\010\0005@\306\226\301@\303\317]@\275\202\364>\324\205\252?S0\224@<\2016?\217\252\033@g=}@\254\323E?\036\335o@\374\245\031?]\370\345>\2165\252@\035+\370?E\250\036@\366\304\332?\210\311\255@\215nd@\223\371v@<\203\275@\371\316\221@~\016\204@[\353\222@\306\010\236@\247\277\375?\312Ze@p\3734@\226\026\236@\275v\301@\377\030\016@\265\202\253@\325x\270?,\352\243@C\033\034>\252<\226?Vr\221@m\004}@U\032\240@\032\374\262@_\311\017@N^\261?M\253\221>\262\221\235@\026\315:@\210\031\226@\300\002\270@\302\224C@\332\342\215@\230\035\216?Y\367\350>\255\263\245@\023$\260?\237\020\034@\245r\211@\376O\233@y\177\271@r\211\250@\330\354\224@O\350\270@p\315\247@\362\257|?\241\034o@\017\362\207@\371W\230?\301\366\363?\'\215f=\345\243p?&8\230@\274\177\n?\232\357\206@\n\003\210@\301\023\271@\373\3757@\337\302\373>g\356!@\026CW@\327\355b@\177\025,@\256\314\243??\201\240@4w\243?\025\235\260@\213\030_@\245\241\265@\236\017\205@\234+?@\311\363>@f\261\035@\375\266G?\312H\237@{7\345?\003\2341@\333zL@\231\323\202@B\025\255@e\306g@Q \241@=\340\212><#\275@\336-\025@\365\252s@\273\025g@e\222\231@\020F\214@\357\256$@\007P\212@\234\265\214@\271\344\002@{\030\300@)\306\255@\201\254\347?\313\177\020?\364B\023@\305\262\r@\221%\223?\241\346\262@\225d\013?\202\203%@\243\306#@\2218\277@\2405\032@\314\004\300@\254\210\301?\300B\242?\\f\322?\311\017H@\335VS??\276\007=\345\262\231@\013.\340?c\333\262?s\313\230@\366C\234>\267\203\222@\003\"\326?*`\246@\354\013+@\231\330\237@\316I\274>\275\2512@\3618 ?L\r\215@H~\256@\021\236c@\302N\302>U&\307?\304\211\204?=\202&@\223%\224?$\363n@\034q\235?"
      }
    }
  }
}
node {
  name: "Const_1"
  op: "Const"
  device: "/device:CPU:0"
  attr {
    key: "_output_shapes"
    value {
      list {
        shape {
          dim {
            size: 1000
          }
          dim {
            size: 1
          }
        }
      }
    }
  }
  attr {
    key: "dtype"
    value {
      type: DT_FLOAT
    }
  }
  attr {
    key: "value"
    value {
      tensor {
        dtype: DT_FLOAT
        tensor_shape {
          dim {
            size: 1000
          }
          dim {
            size: 1
          }
        }
        tensor_content: "\000\000\200?\000\000\200?\000\000\200?\000\000\200?\000\000\200?\000\000\200?\000\000\200?\000\000\200?\000\000\200?\000\000\200?\000\000\200?\000\000\200?\000\000\200?\000\000\200?\000\000\200?\000\000\200?\000\000\200?\000\000\200?\000\000\200?\000\000\200?\000\000\200?\000\000\200?\000\000\200?\000\000\200?\000\000\200?\000\000\200?\000\000\200?\000\000\200?\000\000\200?\000\000\200?\000\000\200?\000\000\200?\000\000\200?\000\000\200?\000\000\200?\000\000\200?\000\000\200?\000\000\200?\000\000\200?\000\000\200?\000\000\200?\000\000\200?\000\000\200?\000\000\200?\000\000\200?\000\000\200?\000\000\200?\000\000\200?\000\000\200?\000\000\200?\000\000\200?\000\000\200?\000\000\200?\000\000\200?\000\000\200?\000\000\200?\000\000\200?\000\000\200?\000\000\200?\000\000\200?\000\000\200?\000\000\200?\000\000\200?\000\000\200?\000\000\200?\000\000\200?\000\000\200?\000\000\200?\000\000\200?\000\000\200?\000\000\200?\000\000\200?\000\000\200?\000\000\200?\000\000\200?\000\000\200?\000\000\200?\000\000\200?\000\000\200?\000\000\200?\000\000\200?\000\000\200?\000\000\200?\000\000\200?\000\000\200?\000\000\200?\000\000\200?\000\000\200?\000\000\200?\000\000\200?\000\000\200?\000\000\200?\000\000\200?\000\000\200?\000\000\200?\000\000\200?\000\000\200?\000\000\200?\000\000\200?\000\000\200?\000\000\200?\000\000\200?\000\000\200?\000\000\200?\000\000\200?\000\000\200?\000\000\200?\000\000\200?\000\000\200?\000\000\200?\000\000\200?\000\000\200?\000\000\200?\000\000\200?\000\000\200?\000\000\200?\000\000\200?\000\000\200?\000\000\200?\000\000\200?\000\000\200?\000\000\200?\000\000\200?\000\000\200?\000\000\200?\000\000\200?\000\000\200?\000\000\200?\000\000\200?\000\000\200?\000\000\200?\000\000\200?\000\000\200?\000\000\200?\000\000\200?\000\000\200?\000\000\200?\000\000\200?\000\000\200?\000\000\200?\000\000\200?\000\000\200?\000\000\200?\000\000\200?\000\000\200?\000\000\200?\000\000\200?\000\000\200?\000\000\200?\000\000\200?\000\000\200?\000\000\200?\000\000\200?\000\000\200?\000\000\200?\000\000\200?\000\000\200?\000\000\200?\000\000\200?\000\000\200?\000\000\200?\000\000\200?\000\000\200?\000\000\200?\000\000\200?\000\000\200?\000\000\200?\000\000\200?\000\000\200?\000\000\200?\000\000\200?\000\000\200?\000\000\200?\000\000\200?\000\000\200?\000\000\200?\000\000\200?\000\000\200?\000\000\200?\000\000\200?\000\000\200?\000\000\200?\000\000\200?\000\000\200?\000\000\200?\000\000\200?\000\000\200?\000\000\200?\000\000\200?\000\000\200?\000\000\200?\000\000\200?\000\000\200?\000\000\200?\000\000\200?\000\000\200?\000\000\200?\000\000\200?\000\000\200?\000\000\200?\000\000\200?\000\000\200?\000\000\200?\000\000\200?\000\000\200?\000\000\200?\000\000\200?\000\000\200?\000\000\200?\000\000\200?\000\000\200?\000\000\200?\000\000\200?\000\000\200?\000\000\200?\000\000\200?\000\000\200?\000\000\200?\000\000\200?\000\000\200?\000\000\200?\000\000\200?\000\000\200?\000\000\200?\000\000\200?\000\000\200?\000\000\200?\000\000\200?\000\000\200?\000\000\200?\000\000\200?\000\000\200?\000\000\200?\000\000\200?\000\000\200?\000\000\200?\000\000\200?\000\000\200?\000\000\200?\000\000\200?\000\000\200?\000\000\200?\000\000\200?\000\000\200?\000\000\200?\000\000\200?\000\000\200?\000\000\200?\000\000\200?\000\000\200?\000\000\200?\000\000\200?\000\000\200?\000\000\200?\000\000\200?\000\000\200?\000\000\200?\000\000\200?\000\000\200?\000\000\200?\000\000\200?\000\000\200?\000\000\200?\000\000\200?\000\000\200?\000\000\200?\000\000\200?\000\000\200?\000\000\200?\000\000\200?\000\000\200?\000\000\200?\000\000\200?\000\000\200?\000\000\200?\000\000\200?\000\000\200?\000\000\200?\000\000\200?\000\000\200?\000\000\200?\000\000\200?\000\000\200?\000\000\200?\000\000\200?\000\000\200?\000\000\200?\000\000\200?\000\000\200?\000\000\200?\000\000\200?\000\000\200?\000\000\200?\000\000\200?\000\000\200?\000\000\200?\000\000\200?\000\000\200?\000\000\200?\000\000\200?\000\000\200?\000\000\200?\000\000\200?\000\000\200?\000\000\200?\000\000\200?\000\000\200?\000\000\200?\000\000\200?\000\000\200?\000\000\200?\000\000\200?\000\000\200?\000\000\200?\000\000\200?\000\000\200?\000\000\200?\000\000\200?\000\000\200?\000\000\200?\000\000\200?\000\000\200?\000\000\200?\000\000\200?\000\000\200?\000\000\200?\000\000\200?\000\000\200?\000\000\200?\000\000\200?\000\000\200?\000\000\200?\000\000\200?\000\000\200?\000\000\200?\000\000\200?\000\000\200?\000\000\200?\000\000\200?\000\000\200?\000\000\200?\000\000\200?\000\000\200?\000\000\200?\000\000\200?\000\000\200?\000\000\200?\000\000\200?\000\000\200?\000\000\200?\000\000\200?\000\000\200?\000\000\200?\000\000\200?\000\000\200?\000\000\200?\000\000\200?\000\000\200?\000\000\200?\000\000\200?\000\000\200?\000\000\200?\000\000\200?\000\000\200?\000\000\200?\000\000\200?\000\000\200?\000\000\200?\000\000\200?\000\000\200?\000\000\200?\000\000\200?\000\000\200?\000\000\200?\000\000\200?\000\000\200?\000\000\200?\000\000\200?\000\000\200?\000\000\200?\000\000\200?\000\000\200?\000\000\200?\000\000\200?\000\000\200?\000\000\200?\000\000\200?\000\000\200?\000\000\200?\000\000\200?\000\000\200?\000\000\200?\000\000\200?\000\000\200?\000\000\200?\000\000\200?\000\000\200?\000\000\200?\000\000\200?\000\000\200?\000\000\200?\000\000\200?\000\000\200?\000\000\200?\000\000\200?\000\000\200?\000\000\200?\000\000\200?\000\000\200?\000\000\200?\000\000\200?\000\000\200?\000\000\200?\000\000\200?\000\000\200?\000\000\200?\000\000\200?\000\000\200?\000\000\200?\000\000\200?\000\000\200?\000\000\200?\000\000\200?\000\000\200?\000\000\200?\000\000\200?\000\000\200?\000\000\200?\000\000\200?\000\000\200?\000\000\200?\000\000\200?\000\000\200?\000\000\200?\000\000\200?\000\000\200?\000\000\200?\000\000\200?\000\000\200?\000\000\200?\000\000\200?\000\000\200?\000\000\200?\000\000\200?\000\000\200?\000\000\200?\000\000\200?\000\000\200?\000\000\200?\000\000\200?\000\000\200?\000\000\200?\000\000\200?\000\000\200?\000\000\200?\000\000\200?\000\000\200?\000\000\200?\000\000\200?\000\000\200?\000\000\200?\000\000\200?\000\000\200?\000\000\200?\000\000\200?\000\000\200?\000\000\200?\000\000\200?\000\000\200?\000\000\200?\000\000\200?\000\000\200?\000\000\200?\000\000\200?\000\000\200?\000\000\200?\000\000\200?\000\000\200?\000\000\200?\000\000\200?\000\000\200?\000\000\200?\000\000\200?\000\000\200?\000\000\200?\000\000\200?\000\000\200?\000\000\200?\000\000\200?\000\000\200?\000\000\200?\000\000\200?\000\000\200?\000\000\200?\000\000\200?\000\000\200?\000\000\200?\000\000\200?\000\000\200?\000\000\200?\000\000\200?\000\000\200?\000\000\200?\000\000\200?\000\000\200?\000\000\200?\000\000\200?\000\000\200?\000\000\200?\000\000\200?\000\000\200?\000\000\200?\000\000\200?\000\000\200?\000\000\200?\000\000\200?\000\000\200?\000\000\200?\000\000\200?\000\000\200?\000\000\200?\000\000\200?\000\000\200?\000\000\200?\000\000\200?\000\000\200?\000\000\200?\000\000\200?\000\000\200?\000\000\200?\000\000\200?\000\000\200?\000\000\200?\000\000\200?\000\000\200?\000\000\200?\000\000\200?\000\000\200?\000\000\200?\000\000\200?\000\000\200?\000\000\200?\000\000\200?\000\000\200?\000\000\200?\000\000\200?\000\000\200?\000\000\200?\000\000\200?\000\000\200?\000\000\200?\000\000\200?\000\000\200?\000\000\200?\000\000\200?\000\000\200?\000\000\200?\000\000\200?\000\000\200?\000\000\200?\000\000\200?\000\000\200?\000\000\200?\000\000\200?\000\000\200?\000\000\200?\000\000\200?\000\000\200?\000\000\200?\000\000\200?\000\000\200?\000\000\200?\000\000\200?\000\000\200?\000\000\200?\000\000\200?\000\000\200?\000\000\200?\000\000\200?\000\000\200?\000\000\200?\000\000\200?\000\000\200?\000\000\200?\000\000\200?\000\000\200?\000\000\200?\000\000\200?\000\000\200?\000\000\200?\000\000\200?\000\000\200?\000\000\200?\000\000\200?\000\000\200?\000\000\200?\000\000\200?\000\000\200?\000\000\200?\000\000\200?\000\000\200?\000\000\200?\000\000\200?\000\000\200?\000\000\200?\000\000\200?\000\000\200?\000\000\200?\000\000\200?\000\000\200?\000\000\200?\000\000\200?\000\000\200?\000\000\200?\000\000\200?\000\000\200?\000\000\200?\000\000\200?\000\000\200?\000\000\200?\000\000\200?\000\000\200?\000\000\200?\000\000\200?\000\000\200?\000\000\200?\000\000\200?\000\000\200?\000\000\200?\000\000\200?\000\000\200?\000\000\200?\000\000\200?\000\000\200?\000\000\200?\000\000\200?\000\000\200?\000\000\200?\000\000\200?\000\000\200?\000\000\200?\000\000\200?\000\000\200?\000\000\200?\000\000\200?\000\000\200?\000\000\200?\000\000\200?\000\000\200?\000\000\200?\000\000\200?\000\000\200?\000\000\200?\000\000\200?\000\000\200?\000\000\200?\000\000\200?\000\000\200?\000\000\200?\000\000\200?\000\000\200?\000\000\200?\000\000\200?\000\000\200?\000\000\200?\000\000\200?\000\000\200?\000\000\200?\000\000\200?\000\000\200?\000\000\200?\000\000\200?\000\000\200?\000\000\200?\000\000\200?\000\000\200?\000\000\200?\000\000\200?\000\000\200?\000\000\200?\000\000\200?\000\000\200?\000\000\200?\000\000\200?\000\000\200?\000\000\200?\000\000\200?\000\000\200?\000\000\200?\000\000\200?\000\000\200?\000\000\200?\000\000\200?\000\000\200?\000\000\200?\000\000\200?\000\000\200?\000\000\200?\000\000\200?\000\000\200?\000\000\200?\000\000\200?\000\000\200?\000\000\200?\000\000\200?\000\000\200?\000\000\200?\000\000\200?\000\000\200?\000\000\200?\000\000\200?\000\000\200?\000\000\200?\000\000\200?\000\000\200?\000\000\200?\000\000\200?\000\000\200?\000\000\200?\000\000\200?\000\000\200?\000\000\200?\000\000\200?\000\000\200?\000\000\200?\000\000\200?\000\000\200?\000\000\200?\000\000\200?\000\000\200?\000\000\200?\000\000\200?\000\000\200?\000\000\200?\000\000\200?\000\000\200?\000\000\200?\000\000\200?\000\000\200?\000\000\200?\000\000\200?\000\000\200?\000\000\200?\000\000\200?\000\000\200?\000\000\200?\000\000\200?\000\000\200?\000\000\200?\000\000\200?\000\000\200?\000\000\200?\000\000\200?\000\000\200?\000\000\200?\000\000\200?\000\000\200?\000\000\200?\000\000\200?\000\000\200?\000\000\200?\000\000\200?\000\000\200?\000\000\200?\000\000\200?\000\000\200?\000\000\200?\000\000\200?\000\000\200?\000\000\200?\000\000\200?\000\000\200?\000\000\200?\000\000\200?\000\000\200?\000\000\200?\000\000\200?\000\000\200?\000\000\200?\000\000\200?\000\000\200?\000\000\200?\000\000\200?\000\000\200?\000\000\200?\000\000\200?\000\000\200?\000\000\200?\000\000\200?\000\000\200?\000\000\200?\000\000\200?\000\000\200?\000\000\200?\000\000\200?\000\000\200?\000\000\200?\000\000\200?\000\000\200?\000\000\200?\000\000\200?\000\000\200?\000\000\200?\000\000\200?\000\000\200?\000\000\200?\000\000\200?\000\000\200?\000\000\200?\000\000\200?\000\000\200?\000\000\200?\000\000\200?\000\000\200?\000\000\200?\000\000\200?\000\000\200?\000\000\200?\000\000\200?\000\000\200?\000\000\200?\000\000\200?\000\000\200?\000\000\200?\000\000\200?\000\000\200?\000\000\200?\000\000\200?\000\000\200?\000\000\200?\000\000\200?\000\000\200?\000\000\200?\000\000\200?\000\000\200?\000\000\200?\000\000\200?\000\000\200?\000\000\200?\000\000\200?\000\000\200?\000\000\200?\000\000\200?\000\000\200?\000\000\200?\000\000\200?\000\000\200?\000\000\200?\000\000\200?\000\000\200?\000\000\200?\000\000\200?\000\000\200?\000\000\200?\000\000\200?\000\000\200?\000\000\200?\000\000\200?\000\000\200?\000\000\200?\000\000\200?\000\000\200?\000\000\200?\000\000\200?\000\000\200?\000\000\200?\000\000\200?\000\000\200?\000\000\200?\000\000\200?\000\000\200?\000\000\200?\000\000\200?\000\000\200?\000\000\200?\000\000\200?\000\000\200?\000\000\200?\000\000\200?\000\000\200?\000\000\200?\000\000\200?\000\000\200?\000\000\200?\000\000\200?\000\000\200?\000\000\200?\000\000\200?\000\000\200?\000\000\200?\000\000\200?\000\000\200?\000\000\200?\000\000\200?\000\000\200?\000\000\200?\000\000\200?\000\000\200?\000\000\200?\000\000\200?\000\000\200?\000\000\200?\000\000\200?\000\000\200?\000\000\200?\000\000\200?\000\000\200?\000\000\200?\000\000\200?\000\000\200?\000\000\200?\000\000\200?\000\000\200?\000\000\200?\000\000\200?\000\000\200?\000\000\200?\000\000\200?\000\000\200?\000\000\200?\000\000\200?\000\000\200?\000\000\200?\000\000\200?\000\000\200?\000\000\200?\000\000\200?\000\000\200?\000\000\200?\000\000\200?\000\000\200?\000\000\200?\000\000\200?\000\000\200?\000\000\200?\000\000\200?\000\000\200?\000\000\200?\000\000\200?\000\000\200?\000\000\200?\000\000\200?\000\000\200?\000\000\200?\000\000\200?\000\000\200?\000\000\200?\000\000\200?\000\000\200?\000\000\200?\000\000\200?\000\000\200?\000\000\200?\000\000\200?\000\000\200?\000\000\200?\000\000\200?\000\000\200?\000\000\200?\000\000\200?\000\000\200?\000\000\200?\000\000\200?\000\000\200?\000\000\200?\000\000\200?\000\000\200?\000\000\200?\000\000\200?\000\000\200?\000\000\200?\000\000\200?\000\000\200?\000\000\200?\000\000\200?\000\000\200?\000\000\200?\000\000\200?\000\000\200?\000\000\200?\000\000\200?\000\000\200?\000\000\200?\000\000\200?\000\000\200?\000\000\200?\000\000\200?\000\000\200?\000\000\200?\000\000\200?\000\000\200?\000\000\200?\000\000\200?\000\000\200?\000\000\200?\000\000\200?\000\000\200?\000\000\200?\000\000\200?\000\000\200?"
      }
    }
  }
}
node {
  name: "Const_2"
  op: "Const"
  device: "/device:CPU:0"
  attr {
    key: "_output_shapes"
    value {
      list {
        shape {
          dim {
            size: 1000
          }
          dim {
            size: 1
          }
        }
      }
    }
  }
  attr {
    key: "dtype"
    value {
      type: DT_FLOAT
    }
  }
  attr {
    key: "value"
    value {
      tensor {
        dtype: DT_FLOAT
        tensor_shape {
          dim {
            size: 1000
          }
          dim {
            size: 1
          }
        }
        tensor_content: "\371%\263>\276}0@+\361D@\307\021F@\357\370\026@\032\355\360>\023*\316?H\362f@\365\334B@\302/\207@\034k\213@b\223\236@\301\311\273@\347P\251@\030\344q@\003.\273@\274\246\346?`\275\'@\263\305\313?\000\334\021@q\342\021>^\331\271@A]j<A\237.?\024\210\241@0R\257@\200;\235@\214\345\255@z\262\253?\010f~@P\310\213@\316\013\262@{\206\025>\025\2458?,\365\230@\025\223\257>?\363A@\202\307\267@\243\327\245@\325\025\233@\036\036\205@7\206\216?6\216\035@\221\236\272?\331\3330@\t\325\242@\340\251\341?]\333V?\033\214v@\\\274\301@$\276\203@_>\023@*F\201@\225\226\261@h\260\373?\016\336\273@\236\235\307@=U!@u\242N@\r\367\331?\032\217\213>a\347d?\236U\213?\r\332\023@\033FD@w\322\376<\304\200Q@\306\266}?Y\037\224@\253\276\214?y\227\306@\331\016\316=\273\r\203@\346\245!?f\247\241@\0362\225@K\016\202@a\ny@\"\002\242@@\032j>\262\003\231@t\014\202>\347n\270@\340\304\264@\273\262y@\311\327\330?U\336\023@hTD@D\334P<u\352\257@\204\356\264?:\3167@\303\035\241@\304\200\007?\205\272I@%\274=@\017\037\253?\014\231X@\035~\347?\226x\255?LmI?\026\336\300@\216O\223@\273\265\307@\224\005\260@\320#\201@\320a\300>\017h\245@$\3045=\030\205x?\266&(@\347S\344?\365,\256@\t\331\274@\215\010\206@\250H\312?%\003\302@ \014\306@\275\035\r@`}V@\273\025\220@\232Z8@\316,+?\326\005\244@R\375\233?\226\212\n@5\255\252@\003\'\346?\352[\264@\344\310\365>z\266\325?\300\353\203?g\256\265@\307K\304@\213\334\222?\353\310\210>[\022\250@Bi\272@\346\320\243@\000L\037>\013\373\263@\222\253\">\275\264F@\216\3517@D\314\333?\256\021A@)\211Z@\357\235\227@o\3345@\330T2@$\214u@c\t\027?f\274\233@\306\205u@\210S\355?\347v\020@\005K\352>&\312\242@x\240\223@\027i\304=\2113\266@\023\343\264?w\231\266@\334\200Y@\025L\267@\020@\211@\363\017\222?V5\265@\366|\276?\237\272\310@\224dD@m\022a@0\253\247@oI\277@w2R@\325>\230@\207\257\222@te\253@\340\'\227@~\205\235?hd\270>e\336\205@^\234\001>\021S\356?\023}\017@\276\304\341?\356\020\305@\023\026f@\202\255\324>\367\241\207@\037\202\215@M\251\232@\374\355\263@\002Y>@\006\313\250@\351Hs@\346\356\334?A\017\310@\370\233\307@\"W\275@\230w\255@}\253\016@\202?\371?\027\306\302@\003\363z@*.\270@\331\202Y>\"\367\300@\207e\225@\304\016\230?\023G\221@zx\247@\241\346\211@\002\000\230@4\336\301@x9\365>\005:\247@\331\320\333?7k\226@\277\352;@K\003\301?\023\350\252?Uc\321?\306\364\235@\203T\202@\317\213\002@>\337\235@kb\270@\343\2450@\340\343\000@\377\003\271@b\257\301?\026P\374>\035:9?\243H\367?\3036\220@\205\363\262@f\214\344>\275N\230=\026\010\241@Z\364\245?\031@\220?\203\314K@N\375L@\3465\247@\242X=?\221|U@\240<\244>J\273\250@zX\330?I\241\t@\013q\233@\325\320\'@\227\372\237?B\027\315?u\350\316?\331\314=@\\\260\307?\362\217\307@W\333\270@[\313\260?\305\372\214@.4>@\326\242\002@-\272\177@\367\255_@\002+\264?\003\247j@.\t\245@`\366o@\0349\255@\030i\216@\310\354<@\024g\234?\332\247\203@T\275c?F#\243@\220f=@\352\354\200@\003\341b@\017d$?\035\321\025?1\340.@\221G\027@\235\323i@iQ\302@n\243\354?\nB\272>\346)3@2\246\007?c\230\221@\221\005\023@\227\n\245@\371\373l@da\311?\034\275q@\004\232L@\013<q@\026?s@\260w9@\220\370\301?\205zH@\232\260\213@\255\273\217@c\317\221@\277*\260?\025j\316?\005\201\241@8\002\351>\244\360C?\331\322\201>\374a\261@VP\244@\341zs@^\t\323?\374\246\r@{\340u@\014\340\212@\355\310\321?\0264\211@\220\2663?\034\364\207>\024\377#@;\276z?g\367\212@z\\9@\031\007y@\210\260a@\361V\017?\3634\235@\221\003s@h\230-@\304\343\262@H\221\266=\204\237{@V\352R@\325v\225@\036+\260@5\367(@\026b\225@\342Ux@&\240}@\252\226\261@\3055\256@c\346\230@\300_\265?)\333E?\276\251\000@\237\331\257?i\277:@\360\007\211@\347\"\225@\014\223Q@.\366\325?\264=\271@\226En@\361pm@U\216$@d\222\251@G,D@\013\347\230@{\013\304@\241N\307@\352\360P?\362\216\004@/JT@\372\tU@/\363z@\263\313\n@\035Z\277@\242f\305?TN @\227\223\256@\375\237\177@\230p>@Nq\235@Y}\210?\3374\342?,\261\303@\265\313\253@\360\"\234@\350\261\004@\325\263\222@\313t\247@D\237l@\013\235\005@>\313\210@\353\367\214@\357\366\231@.]\260@\216G\304@^\236\222@J\240t?y}F?\251\\\206@\312Sm?\261&\032?U%\177>W\327\235@2\247F?SgN@k\201\177@\211\276 ?#\366\250@{,Y@oh^@\367J\234@\2244\215@\034\273\260@\372\247\245@\300pY@\223,\265@\207J\023@\264\247\'@.w\225=\332Ec@T\203\206>X\230\004?\320\317\223?\215~\321?\340\326\236@\274\034\274@h\356\222@/\234q@\236\261\023@(\243\016@\355\374\212?o\214\204@\376M-?] \303@\302X\220@B\332\270@\345E\275?pU)?(\312\340?\010\301\243?\035\\n@\273\222G@\265\206r@\213E\362?\017j\r@\274e\211@\320#\231?\360\016\231@gw\215@\\\353\265@\336\246\004>\245`\251@\226\302\374?=u\237@`\0336@[D\325>8\342x@\323Ht@\3745 @\205\252\005?\273\253\010@0h\355?\326!0@\013\257\241@\305f!@\364[\277@&\256\201@\340\203Y@?\202\264@F\213\002?\227R\246@\2114\240@\005EL@>\3560?\3670\310@\210\006,@f\020G@v<\247@c\272\207@\252\211\376?\241K\271?\317&9@{\236\207@\200\256\256?\221(2@\024&\261@\302\277,=\322\030\376?td\215@\276h\\@\374\300\213@\374}\242@6rs@\025\216S?\203\334\222@\313\304j?\324\346\225@]\314\244@-\343\245@\224r\344>\375\243\261?\243\2165@(\302p>P\250\022?\264k\374?t\311G@:/\261?\250\006o@y\230\250@\272\342K@P\177\367?`-A@\344\361\301?\304\275\310@\262\300\241?\250\3508?\2341l@C2O@\013\346.?\027k\320>\234\313\215@M\375\237@\304\022\202@\352:\034@IM\302@6}\306?K\000\006>\031\373\323?\023\233\017@M\346\264@\r\224\310@-8\240?\261\354\026@v}\235?\250\316\241@#\016\262@\274X\212?|?\034@-\006\220@\205\306\372>\310\373\235@\276,(@\251\324\346?\271\252\277=OC\317?w\253H@V\t\026?U\214&>\020zJ@H\275\200@*\261g@<K\250@\014-:@:\2267@v\315\210@Q\367\\@\027\341\"@\376#$@U,\352?\214Y\233@\nHF@\004S\300@\010\303\220@\177d\222@\274\032\203?&\304\241?\303Z\212@T\333\241?\267\225h?m\322\217?[\340\034?^9\220@\365\261Q@V\304\272@\034\353\227>\033\022\260@\271\322\207?e\006\326>xIi@e\235P@\177\241\005@\000S\303?\315\340\303?\310^\232@\003_\337>kf;@L~\217>\014\254\n>sF*@A\226\237@\273F\310@-\255\235@\226E\t@\257o\334?!\312\177@2\213\023?kxf@\265c*?u\201\250@\2412\001@\020\224!?\r\3214@\026\245\226@)B3@L\211\251?\224h@@\025T_@d\237\304@\2147g@\025C\\@_\373\206?\220#\265@\341\035\266@\344\240$@\270\354\222?2\236g@=\303\277@%\331L<*\320\244@SuF@\300\372t@zW0?\351\360\221@\335Z\250@\201\\.@F\334\'?\006\246\372?\"u\253@\271a@?\017\032\246@cq\241@r\354\253@\3403\345?\300\3720@|\324\'?\244\251\354?o\347\217@\2234;@\036\335\311?\357#\263?lt\201?6h%@\276\235\207@m\372\212@\264\020,?O\2135@\251m]@i\215\300@\303\275a@\252\n\215@}\365\253@7\226\n@\270)\037@\320J\202?\274\262\275>\2038\212@\215\016\353?1\'\227@\275v\033?\217\263\035@\323d|@\375\261\247?\242e\266@\0357/>\371\333\271?1\004N@\025\257\363=-\205h@\2438\202@\350\232\273@\247\030#=\336\301:@\242\213\260@E\314\370<\201z\256>\325\025g@Gc\341?\010\256\270@i\3510@1A\010?\211\205\247>\010p\001@\362)\206@G\251q?:*\324?\264\233\255@\345=\027@\216\323\217@2\034M@<z\213?\250\217\217@A\202\n@\031\311\275@\263$\272@S4\222@\343\366X@g\320\205@H\342\270@\343_\031@\022\200\010?\2244\350?\271\342O@5\202\347?c\200:@\253{G@!\366\246?\037\345\253@\313\320\031?\205\"9@\005\314\230@\217\004\223@\376\367?@\217\300\035@\3667\377? \201\037?\337E\322?*\226t?b\253\320?\327\036\036@\033\031\250@(\013p@](\032@X$(=20\331=\253\256X?\227\021\224?S\272\225@\022\343\273@_\242%@\357F]>)pH@\333\333\232@@\017\024@\206\361\306@\313-:?\326N\273@\034\236U@*\257X@\305yT@6\363>@-\360E@\230\203\246@\327pn?Dj\213@\033\213\275@\205\333\245@\204\210\272@\006\'\234?\034\330W@\360\013\202?Q.I@c0\236@q\023P>\274\205\263@\271^\225@\3753e@j\201\n@\024\005\034@60\250?\224\221\265@\004Vr@\267\345\236@\255\231\207@O:\250@\360\206+@1f0>\321\272\002@\200m\260@dQ\247@\262\357\224@\263U\200?\205)\225@A\374\310?]\302\254@\302\350\256@$\263\252?\212Q\203?\031m\250?\366uq@\266]\317?E\247\036@(\252~@\367w\206?\372\354\305@\302\267\251@P\026\305@|\270y@p.\n@_0\360?F3\272?\356\276M?\003\371\304@\211$\303@e\3713@\365\302C@\213\214\302?\255j\213@\257\236W@\037\231\367?\034\214F@o\264\037@\243\021L@\210\230\247@}\222,>8\r(@\334\201\262@8Y^@\255\022R@\362\330/@w\210\270@\311\266\010@\332dr@eNL?\222\331\264@\237^\207@3l\250@\3311\246@\207\n4@\336z\242@pn\306@\'\260d@$\271O=\367\253\235?\343rf@\354\2061?bD3@\257\313\224@[\034\225@@\243\243@s\264@?\227l\030@<tC@/J\304@\274\327y@X\r\345?\375\313\250@\235\361M@?\251\275@\362\336_?\027\331\217?\333\033w?N\236O@[\201\024@\302\371Q@\r\020\036@*p\300@\261\213\272@\035:\270>\200\202\245>C\300\244@\271o\006@\261\275\214>\355#\220@\220N\216@\272uD@[\3130?\324\203M@\036`\n@\317\321\243?\321\230\211@\205\353Q@I\257\306?\322\013S@wu\214?\330k\027@\363\217\320?L\320z@\271\313\206@\013\264\201@\315\013\250@\001<w?\006\023^@\3344\224?I\035\020@J\237\227?\3752\004@??\203@nE\273@\262\256\177@J\252\\@8\356\245?\364\375U@0\233\313?\357/\236?\271\177q@\274}\333?\256\366l@bfI@\300\303S?\210;+@\203\354\244@\n\037A?\006\'\223@\311k\236@\265@\261@\276\276y@\312\220\214?\225\271\322?\236\037\030@\315QH@\375Ot?COU@\037\032\226@\311\323Z@\3579\262@\331\246y?\237F\244@\3423|@\214\027\244@K\2154@9\342<@nu>@x\005\233@I\314`@\010I4@\03035?\024\002K@\315\177\263?\206\217\256@\337\206\255@\225D\207>\261\275\262@\215\242\261@\366\010\274@\355\277\225@\361D\333?\203\205~@t%\235@\270\t\303?\240\337\204@g\2476>!@\241@\274C\247@k\331\231@\372e\257@\022@t?\256&T@\016\330\223@\'\002\264?6\271f@\335\202\334?\336\361\340?\217\267\247@4\343\345;X\010A@1\274\036@tl\206?P\213&>\202\376j>\273\337\363?\372\371\305@ \262[@\030\'\223@\306_\257?\345\021\261?\315\356\250?\016\023\223@\314U\220@3{\314?\242n\271@\205?B?p\373\025@$\347U?I\214V@\252K\332?\205i\341>\217\001\007@0\022\257@\241\177\210@\001v\307@\346\2130@q\204\024@\246\035\222>B#\027@p-\r@\234B\244@^\362\322?\353LR@F\343\245?^t\257@\265yD<\321\262\'?M\327\207@\025\223H=\361\324\\@d+\206?\007\346\231@t(\202@]4\233@\231f\372?\374\306\241@\262\201Z@\312\234%?d\220\210@%%\214?\337\037g?h\3472@Fi\374>\344>U@\036Q\242?\014x\023?\222n`@IMr?<2e@"
      }
    }
  }
}
node {
  name: "Const_3"
  op: "Const"
  device: "/device:CPU:0"
  attr {
    key: "_output_shapes"
    value {
      list {
        shape {
          dim {
            size: 1000
          }
          dim {
            size: 1
          }
        }
      }
    }
  }
  attr {
    key: "dtype"
    value {
      type: DT_FLOAT
    }
  }
  attr {
    key: "value"
    value {
      tensor {
        dtype: DT_FLOAT
        tensor_shape {
          dim {
            size: 1000
          }
          dim {
            size: 1
          }
        }
        tensor_content: "\000\000\200?\000\000\200?\000\000\200?\000\000\200?\000\000\200?\000\000\200?\000\000\200?\000\000\200?\000\000\200?\000\000\200?\000\000\200?\000\000\200?\000\000\200?\000\000\200?\000\000\200?\000\000\200?\000\000\200?\000\000\200?\000\000\200?\000\000\200?\000\000\200?\000\000\200?\000\000\200?\000\000\200?\000\000\200?\000\000\200?\000\000\200?\000\000\200?\000\000\200?\000\000\200?\000\000\200?\000\000\200?\000\000\200?\000\000\200?\000\000\200?\000\000\200?\000\000\200?\000\000\200?\000\000\200?\000\000\200?\000\000\200?\000\000\200?\000\000\200?\000\000\200?\000\000\200?\000\000\200?\000\000\200?\000\000\200?\000\000\200?\000\000\200?\000\000\200?\000\000\200?\000\000\200?\000\000\200?\000\000\200?\000\000\200?\000\000\200?\000\000\200?\000\000\200?\000\000\200?\000\000\200?\000\000\200?\000\000\200?\000\000\200?\000\000\200?\000\000\200?\000\000\200?\000\000\200?\000\000\200?\000\000\200?\000\000\200?\000\000\200?\000\000\200?\000\000\200?\000\000\200?\000\000\200?\000\000\200?\000\000\200?\000\000\200?\000\000\200?\000\000\200?\000\000\200?\000\000\200?\000\000\200?\000\000\200?\000\000\200?\000\000\200?\000\000\200?\000\000\200?\000\000\200?\000\000\200?\000\000\200?\000\000\200?\000\000\200?\000\000\200?\000\000\200?\000\000\200?\000\000\200?\000\000\200?\000\000\200?\000\000\200?\000\000\200?\000\000\200?\000\000\200?\000\000\200?\000\000\200?\000\000\200?\000\000\200?\000\000\200?\000\000\200?\000\000\200?\000\000\200?\000\000\200?\000\000\200?\000\000\200?\000\000\200?\000\000\200?\000\000\200?\000\000\200?\000\000\200?\000\000\200?\000\000\200?\000\000\200?\000\000\200?\000\000\200?\000\000\200?\000\000\200?\000\000\200?\000\000\200?\000\000\200?\000\000\200?\000\000\200?\000\000\200?\000\000\200?\000\000\200?\000\000\200?\000\000\200?\000\000\200?\000\000\200?\000\000\200?\000\000\200?\000\000\200?\000\000\200?\000\000\200?\000\000\200?\000\000\200?\000\000\200?\000\000\200?\000\000\200?\000\000\200?\000\000\200?\000\000\200?\000\000\200?\000\000\200?\000\000\200?\000\000\200?\000\000\200?\000\000\200?\000\000\200?\000\000\200?\000\000\200?\000\000\200?\000\000\200?\000\000\200?\000\000\200?\000\000\200?\000\000\200?\000\000\200?\000\000\200?\000\000\200?\000\000\200?\000\000\200?\000\000\200?\000\000\200?\000\000\200?\000\000\200?\000\000\200?\000\000\200?\000\000\200?\000\000\200?\000\000\200?\000\000\200?\000\000\200?\000\000\200?\000\000\200?\000\000\200?\000\000\200?\000\000\200?\000\000\200?\000\000\200?\000\000\200?\000\000\200?\000\000\200?\000\000\200?\000\000\200?\000\000\200?\000\000\200?\000\000\200?\000\000\200?\000\000\200?\000\000\200?\000\000\200?\000\000\200?\000\000\200?\000\000\200?\000\000\200?\000\000\200?\000\000\200?\000\000\200?\000\000\200?\000\000\200?\000\000\200?\000\000\200?\000\000\200?\000\000\200?\000\000\200?\000\000\200?\000\000\200?\000\000\200?\000\000\200?\000\000\200?\000\000\200?\000\000\200?\000\000\200?\000\000\200?\000\000\200?\000\000\200?\000\000\200?\000\000\200?\000\000\200?\000\000\200?\000\000\200?\000\000\200?\000\000\200?\000\000\200?\000\000\200?\000\000\200?\000\000\200?\000\000\200?\000\000\200?\000\000\200?\000\000\200?\000\000\200?\000\000\200?\000\000\200?\000\000\200?\000\000\200?\000\000\200?\000\000\200?\000\000\200?\000\000\200?\000\000\200?\000\000\200?\000\000\200?\000\000\200?\000\000\200?\000\000\200?\000\000\200?\000\000\200?\000\000\200?\000\000\200?\000\000\200?\000\000\200?\000\000\200?\000\000\200?\000\000\200?\000\000\200?\000\000\200?\000\000\200?\000\000\200?\000\000\200?\000\000\200?\000\000\200?\000\000\200?\000\000\200?\000\000\200?\000\000\200?\000\000\200?\000\000\200?\000\000\200?\000\000\200?\000\000\200?\000\000\200?\000\000\200?\000\000\200?\000\000\200?\000\000\200?\000\000\200?\000\000\200?\000\000\200?\000\000\200?\000\000\200?\000\000\200?\000\000\200?\000\000\200?\000\000\200?\000\000\200?\000\000\200?\000\000\200?\000\000\200?\000\000\200?\000\000\200?\000\000\200?\000\000\200?\000\000\200?\000\000\200?\000\000\200?\000\000\200?\000\000\200?\000\000\200?\000\000\200?\000\000\200?\000\000\200?\000\000\200?\000\000\200?\000\000\200?\000\000\200?\000\000\200?\000\000\200?\000\000\200?\000\000\200?\000\000\200?\000\000\200?\000\000\200?\000\000\200?\000\000\200?\000\000\200?\000\000\200?\000\000\200?\000\000\200?\000\000\200?\000\000\200?\000\000\200?\000\000\200?\000\000\200?\000\000\200?\000\000\200?\000\000\200?\000\000\200?\000\000\200?\000\000\200?\000\000\200?\000\000\200?\000\000\200?\000\000\200?\000\000\200?\000\000\200?\000\000\200?\000\000\200?\000\000\200?\000\000\200?\000\000\200?\000\000\200?\000\000\200?\000\000\200?\000\000\200?\000\000\200?\000\000\200?\000\000\200?\000\000\200?\000\000\200?\000\000\200?\000\000\200?\000\000\200?\000\000\200?\000\000\200?\000\000\200?\000\000\200?\000\000\200?\000\000\200?\000\000\200?\000\000\200?\000\000\200?\000\000\200?\000\000\200?\000\000\200?\000\000\200?\000\000\200?\000\000\200?\000\000\200?\000\000\200?\000\000\200?\000\000\200?\000\000\200?\000\000\200?\000\000\200?\000\000\200?\000\000\200?\000\000\200?\000\000\200?\000\000\200?\000\000\200?\000\000\200?\000\000\200?\000\000\200?\000\000\200?\000\000\200?\000\000\200?\000\000\200?\000\000\200?\000\000\200?\000\000\200?\000\000\200?\000\000\200?\000\000\200?\000\000\200?\000\000\200?\000\000\200?\000\000\200?\000\000\200?\000\000\200?\000\000\200?\000\000\200?\000\000\200?\000\000\200?\000\000\200?\000\000\200?\000\000\200?\000\000\200?\000\000\200?\000\000\200?\000\000\200?\000\000\200?\000\000\200?\000\000\200?\000\000\200?\000\000\200?\000\000\200?\000\000\200?\000\000\200?\000\000\200?\000\000\200?\000\000\200?\000\000\200?\000\000\200?\000\000\200?\000\000\200?\000\000\200?\000\000\200?\000\000\200?\000\000\200?\000\000\200?\000\000\200?\000\000\200?\000\000\200?\000\000\200?\000\000\200?\000\000\200?\000\000\200?\000\000\200?\000\000\200?\000\000\200?\000\000\200?\000\000\200?\000\000\200?\000\000\200?\000\000\200?\000\000\200?\000\000\200?\000\000\200?\000\000\200?\000\000\200?\000\000\200?\000\000\200?\000\000\200?\000\000\200?\000\000\200?\000\000\200?\000\000\200?\000\000\200?\000\000\200?\000\000\200?\000\000\200?\000\000\200?\000\000\200?\000\000\200?\000\000\200?\000\000\200?\000\000\200?\000\000\200?\000\000\200?\000\000\200?\000\000\200?\000\000\200?\000\000\200?\000\000\200?\000\000\200?\000\000\200?\000\000\200?\000\000\200?\000\000\200?\000\000\200?\000\000\200?\000\000\200?\000\000\200?\000\000\200?\000\000\200?\000\000\200?\000\000\200?\000\000\200?\000\000\200?\000\000\200?\000\000\200?\000\000\200?\000\000\200?\000\000\200?\000\000\200?\000\000\200?\000\000\200?\000\000\200?\000\000\200?\000\000\200?\000\000\200?\000\000\200?\000\000\200?\000\000\200?\000\000\200?\000\000\200?\000\000\200?\000\000\200?\000\000\200?\000\000\200?\000\000\200?\000\000\200?\000\000\200?\000\000\200?\000\000\200?\000\000\200?\000\000\200?\000\000\200?\000\000\200?\000\000\200?\000\000\200?\000\000\200?\000\000\200?\000\000\200?\000\000\200?\000\000\200?\000\000\200?\000\000\200?\000\000\200?\000\000\200?\000\000\200?\000\000\200?\000\000\200?\000\000\200?\000\000\200?\000\000\200?\000\000\200?\000\000\200?\000\000\200?\000\000\200?\000\000\200?\000\000\200?\000\000\200?\000\000\200?\000\000\200?\000\000\200?\000\000\200?\000\000\200?\000\000\200?\000\000\200?\000\000\200?\000\000\200?\000\000\200?\000\000\200?\000\000\200?\000\000\200?\000\000\200?\000\000\200?\000\000\200?\000\000\200?\000\000\200?\000\000\200?\000\000\200?\000\000\200?\000\000\200?\000\000\200?\000\000\200?\000\000\200?\000\000\200?\000\000\200?\000\000\200?\000\000\200?\000\000\200?\000\000\200?\000\000\200?\000\000\200?\000\000\200?\000\000\200?\000\000\200?\000\000\200?\000\000\200?\000\000\200?\000\000\200?\000\000\200?\000\000\200?\000\000\200?\000\000\200?\000\000\200?\000\000\200?\000\000\200?\000\000\200?\000\000\200?\000\000\200?\000\000\200?\000\000\200?\000\000\200?\000\000\200?\000\000\200?\000\000\200?\000\000\200?\000\000\200?\000\000\200?\000\000\200?\000\000\200?\000\000\200?\000\000\200?\000\000\200?\000\000\200?\000\000\200?\000\000\200?\000\000\200?\000\000\200?\000\000\200?\000\000\200?\000\000\200?\000\000\200?\000\000\200?\000\000\200?\000\000\200?\000\000\200?\000\000\200?\000\000\200?\000\000\200?\000\000\200?\000\000\200?\000\000\200?\000\000\200?\000\000\200?\000\000\200?\000\000\200?\000\000\200?\000\000\200?\000\000\200?\000\000\200?\000\000\200?\000\000\200?\000\000\200?\000\000\200?\000\000\200?\000\000\200?\000\000\200?\000\000\200?\000\000\200?\000\000\200?\000\000\200?\000\000\200?\000\000\200?\000\000\200?\000\000\200?\000\000\200?\000\000\200?\000\000\200?\000\000\200?\000\000\200?\000\000\200?\000\000\200?\000\000\200?\000\000\200?\000\000\200?\000\000\200?\000\000\200?\000\000\200?\000\000\200?\000\000\200?\000\000\200?\000\000\200?\000\000\200?\000\000\200?\000\000\200?\000\000\200?\000\000\200?\000\000\200?\000\000\200?\000\000\200?\000\000\200?\000\000\200?\000\000\200?\000\000\200?\000\000\200?\000\000\200?\000\000\200?\000\000\200?\000\000\200?\000\000\200?\000\000\200?\000\000\200?\000\000\200?\000\000\200?\000\000\200?\000\000\200?\000\000\200?\000\000\200?\000\000\200?\000\000\200?\000\000\200?\000\000\200?\000\000\200?\000\000\200?\000\000\200?\000\000\200?\000\000\200?\000\000\200?\000\000\200?\000\000\200?\000\000\200?\000\000\200?\000\000\200?\000\000\200?\000\000\200?\000\000\200?\000\000\200?\000\000\200?\000\000\200?\000\000\200?\000\000\200?\000\000\200?\000\000\200?\000\000\200?\000\000\200?\000\000\200?\000\000\200?\000\000\200?\000\000\200?\000\000\200?\000\000\200?\000\000\200?\000\000\200?\000\000\200?\000\000\200?\000\000\200?\000\000\200?\000\000\200?\000\000\200?\000\000\200?\000\000\200?\000\000\200?\000\000\200?\000\000\200?\000\000\200?\000\000\200?\000\000\200?\000\000\200?\000\000\200?\000\000\200?\000\000\200?\000\000\200?\000\000\200?\000\000\200?\000\000\200?\000\000\200?\000\000\200?\000\000\200?\000\000\200?\000\000\200?\000\000\200?\000\000\200?\000\000\200?\000\000\200?\000\000\200?\000\000\200?\000\000\200?\000\000\200?\000\000\200?\000\000\200?\000\000\200?\000\000\200?\000\000\200?\000\000\200?\000\000\200?\000\000\200?\000\000\200?\000\000\200?\000\000\200?\000\000\200?\000\000\200?\000\000\200?\000\000\200?\000\000\200?\000\000\200?\000\000\200?\000\000\200?\000\000\200?\000\000\200?\000\000\200?\000\000\200?\000\000\200?\000\000\200?\000\000\200?\000\000\200?\000\000\200?\000\000\200?\000\000\200?\000\000\200?\000\000\200?\000\000\200?\000\000\200?\000\000\200?\000\000\200?\000\000\200?\000\000\200?\000\000\200?\000\000\200?\000\000\200?\000\000\200?\000\000\200?\000\000\200?\000\000\200?\000\000\200?\000\000\200?\000\000\200?\000\000\200?\000\000\200?\000\000\200?\000\000\200?\000\000\200?\000\000\200?\000\000\200?\000\000\200?\000\000\200?\000\000\200?\000\000\200?\000\000\200?\000\000\200?\000\000\200?\000\000\200?\000\000\200?\000\000\200?\000\000\200?\000\000\200?\000\000\200?\000\000\200?\000\000\200?\000\000\200?\000\000\200?\000\000\200?\000\000\200?\000\000\200?\000\000\200?\000\000\200?\000\000\200?\000\000\200?\000\000\200?\000\000\200?\000\000\200?\000\000\200?\000\000\200?\000\000\200?\000\000\200?\000\000\200?\000\000\200?\000\000\200?\000\000\200?\000\000\200?\000\000\200?\000\000\200?\000\000\200?\000\000\200?\000\000\200?\000\000\200?\000\000\200?\000\000\200?\000\000\200?\000\000\200?\000\000\200?\000\000\200?\000\000\200?\000\000\200?\000\000\200?\000\000\200?\000\000\200?\000\000\200?\000\000\200?\000\000\200?\000\000\200?\000\000\200?\000\000\200?\000\000\200?\000\000\200?\000\000\200?\000\000\200?\000\000\200?\000\000\200?\000\000\200?\000\000\200?\000\000\200?\000\000\200?\000\000\200?\000\000\200?\000\000\200?\000\000\200?\000\000\200?\000\000\200?\000\000\200?\000\000\200?\000\000\200?\000\000\200?\000\000\200?\000\000\200?\000\000\200?\000\000\200?\000\000\200?\000\000\200?\000\000\200?\000\000\200?\000\000\200?\000\000\200?\000\000\200?\000\000\200?\000\000\200?\000\000\200?\000\000\200?\000\000\200?\000\000\200?\000\000\200?\000\000\200?\000\000\200?\000\000\200?\000\000\200?\000\000\200?\000\000\200?\000\000\200?\000\000\200?\000\000\200?\000\000\200?\000\000\200?\000\000\200?\000\000\200?\000\000\200?\000\000\200?\000\000\200?\000\000\200?\000\000\200?\000\000\200?\000\000\200?\000\000\200?\000\000\200?\000\000\200?\000\000\200?\000\000\200?\000\000\200?\000\000\200?\000\000\200?\000\000\200?\000\000\200?\000\000\200?\000\000\200?\000\000\200?\000\000\200?\000\000\200?\000\000\200?\000\000\200?\000\000\200?\000\000\200?\000\000\200?\000\000\200?\000\000\200?\000\000\200?\000\000\200?\000\000\200?\000\000\200?\000\000\200?\000\000\200?\000\000\200?\000\000\200?\000\000\200?\000\000\200?\000\000\200?\000\000\200?\000\000\200?\000\000\200?\000\000\200?\000\000\200?\000\000\200?\000\000\200?\000\000\200?\000\000\200?\000\000\200?\000\000\200?\000\000\200?\000\000\200?\000\000\200?\000\000\200?\000\000\200?\000\000\200?\000\000\200?\000\000\200?\000\000\200?\000\000\200?"
      }
    }
  }
}
node {
  name: "Const_4"
  op: "Const"
  device: "/device:CPU:0"
  attr {
    key: "_output_shapes"
    value {
      list {
        shape {
          dim {
            size: 1000
          }
          dim {
            size: 1
          }
        }
      }
    }
  }
  attr {
    key: "dtype"
    value {
      type: DT_FLOAT
    }
  }
  attr {
    key: "value"
    value {
      tensor {
        dtype: DT_FLOAT
        tensor_shape {
          dim {
            size: 1000
          }
          dim {
            size: 1
          }
        }
        tensor_content: "\331{v@\271\010\033?\363\177\323<\302!\224@M%!?\225{\r@*\244\n@2\224\225@Z\361\036@\n\337\234@\241n\001@\020\377\215?\2219\256@t_\226@}@\231@)\307\231?E,\207?\245\325\255@\t\257\206@7S@@\343;\226@\0361\215@\307\242\251@\323qU@\314\212\202@\021\232^?\222\274I?v#\025@0!\270@\255\262\277@\252\203\236@qo\240@\312\221d@\321J\273@?\023\201@\256\347/@\254K\220@x\342\237?\266bk@\026\177\255@p\324\271>o\332\231@<\232\222?\2367k@\360\345J@\325\000\005@\212\367\234@\356R\366?\030\376>?K\333\233=\240!\267?/m\177@0\205W?\335\035(>{*\003@]i\214@\325w\200@\317hg@\324+\247@ \276p@\222\331\023@?\354\212@\036\222\373?\201q+@\013j\020@mA\023?\321\024S@53\243@\272\216\215@1\244\275@15\321? pa@\325\177\322?\323\021E?A}7>\330\246\226@\341L\241?\327\264\210@\031\004\200@Z\266d@\357\3256@\335\375z@\373-w@9\273c@\017\346\302?\260!#?\036V\260@\334z\233@O\037\177@L7y@\210\005x@\323\261\276@\301\307\303@\273F\266@\201]\243@\266s\321?Nq\"@\352\031\233@\377\375\252?\000\334\000@\230;\224>\014`\302@\265\224y@_\034\250@\005\230\304@q\212\246@]\323\302@c\327\305@\365s\310?\237\375~?\370\235_=\232\034\213@\245\"\220@\250^\230?\205\215\253@</U@\275\3524@6\005\262@\264\315\177?\257\177\264@$}\225@Fo\274@\2128E?\225\245\300@\177$\340>4\266.>&g&@Yy\265@\263\350\231@\0160\262@4\266\000?c\275_@)\363\300@\024Y:?\321\033y@i\327\302@\343W\213@\014\016\244@\2512\217?`|q?f\026\301=}\262\306@\2725\213@\002\275\235@\")\255@\210N\227@D\363O?q\030u@\324\232`?\262\357\276@\001\215\207?\255{*@1\312\240@\230\352\251@O\252\207@E\245\300? \326X@\223\000\266@\tK\037>\037\301\266@R\374\207@\345\257A@\247\366V@\221\342\033>0\303V@^\260\254@\013\311\002@3\235J@z\016\227?h\021\275@\231\325\304@\301\241I@\316\n\304@\361\'5@\353\340l@g5U@\240r\207@\360\214\230?0\206\033@\330=\274>]\321W@\355\364\255@\312\362>?\246]c?<p\203@(v\354?\333W\322?r\353\256@\025\216\237?\350\371\303@\362\n\377?\246\215A>\035\031\240?\346st@2\203[@\303}\275>,\374\253?\261DL>5=\016?&t\001@3\330\325?m\252\224=\225\204?@?\r\247@\025\342s@_\3422?1W\247@\301\236,@\370U,@\201M%@$\025\n?\323\223\022?\014S\252@\232\013\237@\003\273a@0xr@\306\275^@P\320\233@o1\307@\325\035Y?S\371\276@\237\314i>\322\216\307?\200A\245@s\331G@\277\371\271@\374\326v@\377\344\334?\225\260_@\362\343\236@\362\020i@E\005\235>\3631\342?\204\001\006@o\276\223@\001\253\256@4\233\221@8o\312?\255\366\202@\3019\256@{\237\252>\361h\255@1\304T@\310\375\311?\251\010\266@\357M\375?\335od@\350,\001@C\031x@a`M@\311\331\000@\014\246\273@QY\225?-\021\235?\377\332\241@s\020\227?{8\211@c+\376?\010\361\231?{\366\246>\262E\261@\220b\275@q\371\270@\207\013\235@\261\266:@\026h\303@\367\n\367>j\006\240@1\205\263>\305\016X@\203\020\252@#\215\274@\331\321\203@\033\234E@\245\371\250@\210\362/?\253\267*@\310Du@\374!$@\361\365\201@\274\3454@\022 \251@\246B\327=<\361e@]d\257?\004\342l?\017\251\304@\247\332\202=\315\346\303@@~\037>]*,@*\360\256?q\r\266@\335\212P@\337\345\320?\222\0012@\365\344\225@\265\254\273@\003\371\224@\222\310\202@\206\\\003=\243\336\304@nmJ@\304\356\307@M\271L@\301\232\305@V\216\223@D\301\004@\272\313\315?\024\322a?q+\246@\370\262/@id\304@@\345\374?y\210\267@r\2030@\343M\016@\006\257\264@\220;\204?\020t+?\014\331\221@<\204\201@\027\234\266?\346\246\203?\231\245>@\206\000\237@De\201?\342\314\253@e\236\344?\377\254^>+\311\245@\272\034\250@F^h>I\332\r?H\271\243@fV\310@M\002H@\206L\017@\210Rm@^+\316?\017\031\261@\327\203L>\333]]@\2632!@\221\357\237@\370y\255?\353X:@\306\326\224?*\321g@\301\263\350>\371r\213@5\177]@\367\027r@\354\254\023@\322\224\250>\255\201t@\222\330\\??Y\263@\255\006c@\005\266\206@\202\241\307@T\310\225?\346\301\305@2I|>(\237u@CX\255>\3168\253@&\334\207==s\214@\312\035\242?\315\037\227@\334\0108@5L\277@\r\364\254@\373\333\004@\030\353\222@\367\360\210?nt\264@\2727\025@f\027\252?a\252\212@\330\375\036@\303\240\201@\273Bn@\332$\267@\216\031\260@1C\023@\334\315B?\364\302\240@\352\"m@\202\023\203@\324fp@\264\257\305@\221\201\200<\3035\204?\2406d@\275\037\305?\361\243\244@S`\256@\021\200\222?\370~\206@\030\211E@s\201\033?\017I\277@\343\306\222@\224\360\370?]\023\277@@.\270@\014\341\247?\214uU@\034\362\247@gS\205?\203.\212@\312\356o@\244\234\217@\372C\033@\243\217#@\020D\037@\223\226\206@S\314\204@\311,\022?\225)\262?\377\351\234@ck\302@1\256\302?\n\242\354?h\210\200@\225\004\336?\200\272h?\366\022\376>\207\277\230?\271\361\241?\3200J@\260\260\224@\243\024\373?\335\262\014@\224\nV@\331\253\301@.\031}@\2622\302@\220M7@OH\247@e\006\266@\373y\272@\363\362\261@\364a3@\210\302\251@v\2631@\'\205\312?\224\376l@\360S\210?*\356\304?\037N\346?~n\233?\234y\271?\263\262A@\344\334\255>\271\006\263?\314\235\264@R\rm@\314Gz@\364\233\215@}\270\215@\225\227\241@\351\211\240@.\263}@q\242\027@hm!@\231@\243?o\343\245@\211\363\313?\344\326\224@\311\347\005@\337\357q@C8\260@jS4@\356\310\212<\204\333\250?\\\001J?\316g\232@\245\251!@\231\035\317?\206\234d@h\266\373?*2\371?\200\037\247@\030]\026@\377n\020@\230\207\213@\373_\243?\260$\275@\255\253\331?\350\300%@\3132$@\324I\210@{uo@\211\306d@\323^\033@\224\374\303?T\001h>\030\325C@\010\341\216@\3759\262?C\374\323?\307C\256@\355[\267@V\305\227@\024\243\202@\373\321\266?\204D@>\354\242M@h%\007@\240\202e@\370\273\270>\240\016\232>\211\265\215@\204\200:@\225\014\203@\305\016\033@\303g\264@\277\027r@\240\020\222?\343\2738@*0\312>\227I\261?\021B\305?\361&\350=\271\263\257?\n!\017@\010]\367?\031\260[@&\353\350?\220\270\340?\252\275\243?uO\257?\034\216B@\303\227\273?\027\266(@y\"\245@\326\211\006>\375W\211@\341\2230?\216\345=?\241\352\221@\225\300\226@\010\261\270@g\212\306@e\203\242@9\237x@\246\242\254@\331\265\205>\006\"\256@j\2023@wU\211@T\277\257?\013\2020@\203\033\251?MK\256>\363\311u@rq\\@\310\301C?J\220\274<\277\357\315?\270\245\204@YO\267@\rh\250@\267\036\213@zCJ?\225\211H@\306\312\261?Ex\356?\367\016n?k\351\200@,\365\262@3\250r@g\225\231?=\354\233>\321\366a@\232Z\314?\023\247\343?\201I\243=\342&\207@\221\033o>J\"\261@LX_@\276\242\222@u\212\203@Jw\230?G\244\303@\353\273{@v\227\010@ %\270@Hg)@\216\322R@\221^\262@\334\3473?\220s\272@#\275 @t,T>\007\034\207>B>!@5\006\332?\0245\301@\224\254i@f\267H@\346\204\246@\305\243\230@\223\272\232@;\017\305@\3418\022@\301u\274@o\314\246? \264\215@\001;\200@\224\027\205@(A\224@\025B\253@N\032k@Gc\226?4\010\223@\251\265\320?\315\255\217@\347\274\033@[\"N?\327\377\204@6\346i?s}\266@gHc?\206\246{@/\001\214@\205!\307?\352\347\361>\030\213\357?fJ4@@\025\375>\366\021\215@,\354\022@?I\200@rI\261@sN\226@~&\324?\213t\235@\322\230N?\320\320\233@\005F,?\207CQ?\360t\223@l\017x@\247\272&@\037\207>@\303A\241@F\267\"@h\031\201@\016\305\263@\324\204\211@2\367\222@j\307\356=\367z\252?\3601\321?\265\376\362?\240\363D@\203\266\314=\375\365.?\177v\234@\325\234\307>?(Z@c\020Z@\033\"\263@f\275\225?\213\320\342?\215\222\010@s\267]@\237\353\254@\277\347\202@d\316\032?\276\332\270@\302\263:?\241\347\265@_\262\324>`M\247@\000\255\326>s\2729@\007\300\276@\344\037\311?%a\265@E\365\246@\232\310\303@\206,;@x\226\305@9\262n@\257\305W@\035\240&@\022\034\243@\337\364\216@\231\324\"@P\364\363?\371F\315>?b\217@\334\221\313?s!U@\001\373W@H\\\254@x2O@\217Q\017@\356\364\236@\322\217\251@\236\001\252<\025s\033@\252\217W@o\272\217?po\200?\244\353\306@\304\352\251@%\242\320?3\n\r@\334\207\334?T\033A@\352\350c@\211\241\343?`\307\244@\231\210\307@\264\353\025@\236\3767@\0030<@\024W\267@.\346\320?`\006\204@1\217,@Z\222\257?P\003\246@(n(@\027\213\210@\204\255\214@\264\253\301@\217\001)@\205mT@A\373\310@\346\024Q?\022\352\203?\324\'T@O\3221?\024x\357?\356\"\371>\224\016\366=\2007\223@R>\264@[\3704=\353p>@\240\253\267@X\363\010@\224\211y@\022\242\r@\032\243t@\344\221r@l\226\273?z\nV?\245\325\000?\215\020\336?\266\335\250@\010W\203@\306\367\244>#\347\350?f\267\366?\005[\026@\262\265\275@\245\312l@\353\223\265@\320\273\304@\001\026\271=\304\017\262@\321X\201>;G{?\031Z\247?\271\237&@T\031\215@\364\213\372?\275\205\255?}\364\032@\371\313\331?\206\266\236@\332\330g@|\007\215@\271/\241@\rS\371?\030\033\350?\303\2231@t`\212@\0142\020@a/\010@\335\264\202@\355\235\007@\357\335\330?\253\035\217@\2500\307?+\005\035@\230\2337@\352\363\262@JiT@\355|Z@$\316\254@\315\2723@\261\034l?c\246\211?\032\253*@\343\000\305?\374\300\233@\234.\021@y0\364?gA\255@\333\311\371?@\030\240@\204sx?\206\307\260@\347\215\246@e~7?\303\022v@\031\210|?\370)\250@\316\246\310@\244!\342?\305\233U@:\373\304@\"\244\234@\"\372\271@\003AX@Z$\251@\201\350\004@\236\256\347?)U\013@`\201\256@0\266t?*9\356?\031|u@\235\261??\312(\362?hhX@\030\276\267@\315\351\247@\377\020\253?E\t\257@\364\303\270>Cr\306@\341\366\004@?\t\234@\000\300:?\241\205\264@\274x\225@e9~@>\227\033@z\2121@<\350\276>1\'\254?d*\252@\355\356\255@6\221\240@\032d\341?\315\032\216?\344\263-@\206\"1@*\232+?\3244\027?\277a\333?\313\021\302?6(!@\272\014m?\'\356(@\374\036\242@\216\314\021?\207\256\266@?\001\240@h\361j?o\245\005@\337\2436?9\0108@\270l\036?\024\265\036@h\327\226@\240?\233?\'\334\267@\321\342\230?%\337\305?\364\023e@\010?m@\220\027,@\\\310\310@\260\227\226@]\277\002?y2\274@\253\337\035@m\311\221@\366\026=@B\313\265@~\227\242@u\337A?\022*+@\246\016\241?|\362\205?\323\330\300?|<\266@b\253\360?\200\0314@a\031@?\036\202\325?K6\222@\206\334`@\240\3660@\025\216?@\274\3269@\333\222\220@\256\201\262@\037\0238@;\367\302@\265\351\377?\034MD@~m\227>\372F\312>9Hw@\347qa?\214;\242>\033\355\310@\366\013.@\020\304\246@\233\034\221?\233\237\277@\303\033\371>\005ul@Q\364H>6\006`?\025!\221@>\206:@\275\344&@BV\031@\007\006E>~\311p@\205\320`@\336\\\250@/\021\202@\026\r\'@Ku8@\202\257O?r\t\206@\\\376\217?\305nU?)\251\216@\351\"\224@\325;\254@\353\256>@\032\006=@ \001\263@\262\373\037@\205\255\374?\035\243\251?\033?\305@\307k\260@PO\017@\333=\027?\320O\200@\230\236>@\370Pm@\257\002\275@\034\222\001@\370|\216@\033\344s@\355%\210@S\\\265?\355\037\250?\345\263\263>\245%R?7\005\177@\'B\314?\241\370\002?\336\253\202@_\245\243@\272\376\260@\323L4@\236iO@\246[\307@\344\3016?\027\007<@J\0340@=\'\030=]\262\253@L&\223@\374\314p@V\014\241@\2738a@+?\227>\003\245\002>\222Vq@\t]i@\370\254\023?P\"M@\312\260[=*\334\237@\240\243[?)jo@\337I\342?\205\001)?\330\315\227@\241\327X@"
      }
    }
  }
}
node {
  name: "Const_5"
  op: "Const"
  device: "/device:CPU:0"
  attr {
    key: "_output_shapes"
    value {
      list {
        shape {
          dim {
            size: 1000
          }
          dim {
            size: 1
          }
        }
      }
    }
  }
  attr {
    key: "dtype"
    value {
      type: DT_FLOAT
    }
  }
  attr {
    key: "value"
    value {
      tensor {
        dtype: DT_FLOAT
        tensor_shape {
          dim {
            size: 1000
          }
          dim {
            size: 1
          }
        }
        tensor_content: "\000\000\200?\000\000\200?\000\000\200?\000\000\200?\000\000\200?\000\000\200?\000\000\200?\000\000\200?\000\000\200?\000\000\200?\000\000\200?\000\000\200?\000\000\200?\000\000\200?\000\000\200?\000\000\200?\000\000\200?\000\000\200?\000\000\200?\000\000\200?\000\000\200?\000\000\200?\000\000\200?\000\000\200?\000\000\200?\000\000\200?\000\000\200?\000\000\200?\000\000\200?\000\000\200?\000\000\200?\000\000\200?\000\000\200?\000\000\200?\000\000\200?\000\000\200?\000\000\200?\000\000\200?\000\000\200?\000\000\200?\000\000\200?\000\000\200?\000\000\200?\000\000\200?\000\000\200?\000\000\200?\000\000\200?\000\000\200?\000\000\200?\000\000\200?\000\000\200?\000\000\200?\000\000\200?\000\000\200?\000\000\200?\000\000\200?\000\000\200?\000\000\200?\000\000\200?\000\000\200?\000\000\200?\000\000\200?\000\000\200?\000\000\200?\000\000\200?\000\000\200?\000\000\200?\000\000\200?\000\000\200?\000\000\200?\000\000\200?\000\000\200?\000\000\200?\000\000\200?\000\000\200?\000\000\200?\000\000\200?\000\000\200?\000\000\200?\000\000\200?\000\000\200?\000\000\200?\000\000\200?\000\000\200?\000\000\200?\000\000\200?\000\000\200?\000\000\200?\000\000\200?\000\000\200?\000\000\200?\000\000\200?\000\000\200?\000\000\200?\000\000\200?\000\000\200?\000\000\200?\000\000\200?\000\000\200?\000\000\200?\000\000\200?\000\000\200?\000\000\200?\000\000\200?\000\000\200?\000\000\200?\000\000\200?\000\000\200?\000\000\200?\000\000\200?\000\000\200?\000\000\200?\000\000\200?\000\000\200?\000\000\200?\000\000\200?\000\000\200?\000\000\200?\000\000\200?\000\000\200?\000\000\200?\000\000\200?\000\000\200?\000\000\200?\000\000\200?\000\000\200?\000\000\200?\000\000\200?\000\000\200?\000\000\200?\000\000\200?\000\000\200?\000\000\200?\000\000\200?\000\000\200?\000\000\200?\000\000\200?\000\000\200?\000\000\200?\000\000\200?\000\000\200?\000\000\200?\000\000\200?\000\000\200?\000\000\200?\000\000\200?\000\000\200?\000\000\200?\000\000\200?\000\000\200?\000\000\200?\000\000\200?\000\000\200?\000\000\200?\000\000\200?\000\000\200?\000\000\200?\000\000\200?\000\000\200?\000\000\200?\000\000\200?\000\000\200?\000\000\200?\000\000\200?\000\000\200?\000\000\200?\000\000\200?\000\000\200?\000\000\200?\000\000\200?\000\000\200?\000\000\200?\000\000\200?\000\000\200?\000\000\200?\000\000\200?\000\000\200?\000\000\200?\000\000\200?\000\000\200?\000\000\200?\000\000\200?\000\000\200?\000\000\200?\000\000\200?\000\000\200?\000\000\200?\000\000\200?\000\000\200?\000\000\200?\000\000\200?\000\000\200?\000\000\200?\000\000\200?\000\000\200?\000\000\200?\000\000\200?\000\000\200?\000\000\200?\000\000\200?\000\000\200?\000\000\200?\000\000\200?\000\000\200?\000\000\200?\000\000\200?\000\000\200?\000\000\200?\000\000\200?\000\000\200?\000\000\200?\000\000\200?\000\000\200?\000\000\200?\000\000\200?\000\000\200?\000\000\200?\000\000\200?\000\000\200?\000\000\200?\000\000\200?\000\000\200?\000\000\200?\000\000\200?\000\000\200?\000\000\200?\000\000\200?\000\000\200?\000\000\200?\000\000\200?\000\000\200?\000\000\200?\000\000\200?\000\000\200?\000\000\200?\000\000\200?\000\000\200?\000\000\200?\000\000\200?\000\000\200?\000\000\200?\000\000\200?\000\000\200?\000\000\200?\000\000\200?\000\000\200?\000\000\200?\000\000\200?\000\000\200?\000\000\200?\000\000\200?\000\000\200?\000\000\200?\000\000\200?\000\000\200?\000\000\200?\000\000\200?\000\000\200?\000\000\200?\000\000\200?\000\000\200?\000\000\200?\000\000\200?\000\000\200?\000\000\200?\000\000\200?\000\000\200?\000\000\200?\000\000\200?\000\000\200?\000\000\200?\000\000\200?\000\000\200?\000\000\200?\000\000\200?\000\000\200?\000\000\200?\000\000\200?\000\000\200?\000\000\200?\000\000\200?\000\000\200?\000\000\200?\000\000\200?\000\000\200?\000\000\200?\000\000\200?\000\000\200?\000\000\200?\000\000\200?\000\000\200?\000\000\200?\000\000\200?\000\000\200?\000\000\200?\000\000\200?\000\000\200?\000\000\200?\000\000\200?\000\000\200?\000\000\200?\000\000\200?\000\000\200?\000\000\200?\000\000\200?\000\000\200?\000\000\200?\000\000\200?\000\000\200?\000\000\200?\000\000\200?\000\000\200?\000\000\200?\000\000\200?\000\000\200?\000\000\200?\000\000\200?\000\000\200?\000\000\200?\000\000\200?\000\000\200?\000\000\200?\000\000\200?\000\000\200?\000\000\200?\000\000\200?\000\000\200?\000\000\200?\000\000\200?\000\000\200?\000\000\200?\000\000\200?\000\000\200?\000\000\200?\000\000\200?\000\000\200?\000\000\200?\000\000\200?\000\000\200?\000\000\200?\000\000\200?\000\000\200?\000\000\200?\000\000\200?\000\000\200?\000\000\200?\000\000\200?\000\000\200?\000\000\200?\000\000\200?\000\000\200?\000\000\200?\000\000\200?\000\000\200?\000\000\200?\000\000\200?\000\000\200?\000\000\200?\000\000\200?\000\000\200?\000\000\200?\000\000\200?\000\000\200?\000\000\200?\000\000\200?\000\000\200?\000\000\200?\000\000\200?\000\000\200?\000\000\200?\000\000\200?\000\000\200?\000\000\200?\000\000\200?\000\000\200?\000\000\200?\000\000\200?\000\000\200?\000\000\200?\000\000\200?\000\000\200?\000\000\200?\000\000\200?\000\000\200?\000\000\200?\000\000\200?\000\000\200?\000\000\200?\000\000\200?\000\000\200?\000\000\200?\000\000\200?\000\000\200?\000\000\200?\000\000\200?\000\000\200?\000\000\200?\000\000\200?\000\000\200?\000\000\200?\000\000\200?\000\000\200?\000\000\200?\000\000\200?\000\000\200?\000\000\200?\000\000\200?\000\000\200?\000\000\200?\000\000\200?\000\000\200?\000\000\200?\000\000\200?\000\000\200?\000\000\200?\000\000\200?\000\000\200?\000\000\200?\000\000\200?\000\000\200?\000\000\200?\000\000\200?\000\000\200?\000\000\200?\000\000\200?\000\000\200?\000\000\200?\000\000\200?\000\000\200?\000\000\200?\000\000\200?\000\000\200?\000\000\200?\000\000\200?\000\000\200?\000\000\200?\000\000\200?\000\000\200?\000\000\200?\000\000\200?\000\000\200?\000\000\200?\000\000\200?\000\000\200?\000\000\200?\000\000\200?\000\000\200?\000\000\200?\000\000\200?\000\000\200?\000\000\200?\000\000\200?\000\000\200?\000\000\200?\000\000\200?\000\000\200?\000\000\200?\000\000\200?\000\000\200?\000\000\200?\000\000\200?\000\000\200?\000\000\200?\000\000\200?\000\000\200?\000\000\200?\000\000\200?\000\000\200?\000\000\200?\000\000\200?\000\000\200?\000\000\200?\000\000\200?\000\000\200?\000\000\200?\000\000\200?\000\000\200?\000\000\200?\000\000\200?\000\000\200?\000\000\200?\000\000\200?\000\000\200?\000\000\200?\000\000\200?\000\000\200?\000\000\200?\000\000\200?\000\000\200?\000\000\200?\000\000\200?\000\000\200?\000\000\200?\000\000\200?\000\000\200?\000\000\200?\000\000\200?\000\000\200?\000\000\200?\000\000\200?\000\000\200?\000\000\200?\000\000\200?\000\000\200?\000\000\200?\000\000\200?\000\000\200?\000\000\200?\000\000\200?\000\000\200?\000\000\200?\000\000\200?\000\000\200?\000\000\200?\000\000\200?\000\000\200?\000\000\200?\000\000\200?\000\000\200?\000\000\200?\000\000\200?\000\000\200?\000\000\200?\000\000\200?\000\000\200?\000\000\200?\000\000\200?\000\000\200?\000\000\200?\000\000\200?\000\000\200?\000\000\200?\000\000\200?\000\000\200?\000\000\200?\000\000\200?\000\000\200?\000\000\200?\000\000\200?\000\000\200?\000\000\200?\000\000\200?\000\000\200?\000\000\200?\000\000\200?\000\000\200?\000\000\200?\000\000\200?\000\000\200?\000\000\200?\000\000\200?\000\000\200?\000\000\200?\000\000\200?\000\000\200?\000\000\200?\000\000\200?\000\000\200?\000\000\200?\000\000\200?\000\000\200?\000\000\200?\000\000\200?\000\000\200?\000\000\200?\000\000\200?\000\000\200?\000\000\200?\000\000\200?\000\000\200?\000\000\200?\000\000\200?\000\000\200?\000\000\200?\000\000\200?\000\000\200?\000\000\200?\000\000\200?\000\000\200?\000\000\200?\000\000\200?\000\000\200?\000\000\200?\000\000\200?\000\000\200?\000\000\200?\000\000\200?\000\000\200?\000\000\200?\000\000\200?\000\000\200?\000\000\200?\000\000\200?\000\000\200?\000\000\200?\000\000\200?\000\000\200?\000\000\200?\000\000\200?\000\000\200?\000\000\200?\000\000\200?\000\000\200?\000\000\200?\000\000\200?\000\000\200?\000\000\200?\000\000\200?\000\000\200?\000\000\200?\000\000\200?\000\000\200?\000\000\200?\000\000\200?\000\000\200?\000\000\200?\000\000\200?\000\000\200?\000\000\200?\000\000\200?\000\000\200?\000\000\200?\000\000\200?\000\000\200?\000\000\200?\000\000\200?\000\000\200?\000\000\200?\000\000\200?\000\000\200?\000\000\200?\000\000\200?\000\000\200?\000\000\200?\000\000\200?\000\000\200?\000\000\200?\000\000\200?\000\000\200?\000\000\200?\000\000\200?\000\000\200?\000\000\200?\000\000\200?\000\000\200?\000\000\200?\000\000\200?\000\000\200?\000\000\200?\000\000\200?\000\000\200?\000\000\200?\000\000\200?\000\000\200?\000\000\200?\000\000\200?\000\000\200?\000\000\200?\000\000\200?\000\000\200?\000\000\200?\000\000\200?\000\000\200?\000\000\200?\000\000\200?\000\000\200?\000\000\200?\000\000\200?\000\000\200?\000\000\200?\000\000\200?\000\000\200?\000\000\200?\000\000\200?\000\000\200?\000\000\200?\000\000\200?\000\000\200?\000\000\200?\000\000\200?\000\000\200?\000\000\200?\000\000\200?\000\000\200?\000\000\200?\000\000\200?\000\000\200?\000\000\200?\000\000\200?\000\000\200?\000\000\200?\000\000\200?\000\000\200?\000\000\200?\000\000\200?\000\000\200?\000\000\200?\000\000\200?\000\000\200?\000\000\200?\000\000\200?\000\000\200?\000\000\200?\000\000\200?\000\000\200?\000\000\200?\000\000\200?\000\000\200?\000\000\200?\000\000\200?\000\000\200?\000\000\200?\000\000\200?\000\000\200?\000\000\200?\000\000\200?\000\000\200?\000\000\200?\000\000\200?\000\000\200?\000\000\200?\000\000\200?\000\000\200?\000\000\200?\000\000\200?\000\000\200?\000\000\200?\000\000\200?\000\000\200?\000\000\200?\000\000\200?\000\000\200?\000\000\200?\000\000\200?\000\000\200?\000\000\200?\000\000\200?\000\000\200?\000\000\200?\000\000\200?\000\000\200?\000\000\200?\000\000\200?\000\000\200?\000\000\200?\000\000\200?\000\000\200?\000\000\200?\000\000\200?\000\000\200?\000\000\200?\000\000\200?\000\000\200?\000\000\200?\000\000\200?\000\000\200?\000\000\200?\000\000\200?\000\000\200?\000\000\200?\000\000\200?\000\000\200?\000\000\200?\000\000\200?\000\000\200?\000\000\200?\000\000\200?\000\000\200?\000\000\200?\000\000\200?\000\000\200?\000\000\200?\000\000\200?\000\000\200?\000\000\200?\000\000\200?\000\000\200?\000\000\200?\000\000\200?\000\000\200?\000\000\200?\000\000\200?\000\000\200?\000\000\200?\000\000\200?\000\000\200?\000\000\200?\000\000\200?\000\000\200?\000\000\200?\000\000\200?\000\000\200?\000\000\200?\000\000\200?\000\000\200?\000\000\200?\000\000\200?\000\000\200?\000\000\200?\000\000\200?\000\000\200?\000\000\200?\000\000\200?\000\000\200?\000\000\200?\000\000\200?\000\000\200?\000\000\200?\000\000\200?\000\000\200?\000\000\200?\000\000\200?\000\000\200?\000\000\200?\000\000\200?\000\000\200?\000\000\200?\000\000\200?\000\000\200?\000\000\200?\000\000\200?\000\000\200?\000\000\200?\000\000\200?\000\000\200?\000\000\200?\000\000\200?\000\000\200?\000\000\200?\000\000\200?\000\000\200?\000\000\200?\000\000\200?\000\000\200?\000\000\200?\000\000\200?\000\000\200?\000\000\200?\000\000\200?\000\000\200?\000\000\200?\000\000\200?\000\000\200?\000\000\200?\000\000\200?\000\000\200?\000\000\200?\000\000\200?\000\000\200?\000\000\200?\000\000\200?\000\000\200?\000\000\200?\000\000\200?\000\000\200?\000\000\200?\000\000\200?\000\000\200?\000\000\200?\000\000\200?\000\000\200?\000\000\200?\000\000\200?\000\000\200?\000\000\200?\000\000\200?\000\000\200?\000\000\200?\000\000\200?\000\000\200?\000\000\200?\000\000\200?\000\000\200?\000\000\200?\000\000\200?\000\000\200?\000\000\200?\000\000\200?\000\000\200?\000\000\200?\000\000\200?\000\000\200?\000\000\200?\000\000\200?\000\000\200?\000\000\200?\000\000\200?\000\000\200?\000\000\200?\000\000\200?\000\000\200?\000\000\200?\000\000\200?\000\000\200?\000\000\200?\000\000\200?\000\000\200?\000\000\200?\000\000\200?\000\000\200?\000\000\200?\000\000\200?\000\000\200?\000\000\200?\000\000\200?\000\000\200?\000\000\200?\000\000\200?\000\000\200?\000\000\200?\000\000\200?\000\000\200?\000\000\200?\000\000\200?\000\000\200?\000\000\200?\000\000\200?\000\000\200?\000\000\200?\000\000\200?\000\000\200?\000\000\200?\000\000\200?\000\000\200?\000\000\200?\000\000\200?\000\000\200?\000\000\200?\000\000\200?\000\000\200?\000\000\200?\000\000\200?\000\000\200?\000\000\200?\000\000\200?\000\000\200?\000\000\200?\000\000\200?\000\000\200?\000\000\200?\000\000\200?\000\000\200?\000\000\200?\000\000\200?\000\000\200?\000\000\200?\000\000\200?\000\000\200?\000\000\200?\000\000\200?\000\000\200?\000\000\200?\000\000\200?\000\000\200?\000\000\200?\000\000\200?\000\000\200?\000\000\200?\000\000\200?\000\000\200?\000\000\200?\000\000\200?\000\000\200?\000\000\200?\000\000\200?\000\000\200?\000\000\200?\000\000\200?\000\000\200?\000\000\200?\000\000\200?\000\000\200?\000\000\200?\000\000\200?\000\000\200?\000\000\200?\000\000\200?\000\000\200?\000\000\200?\000\000\200?\000\000\200?\000\000\200?\000\000\200?\000\000\200?\000\000\200?\000\000\200?\000\000\200?\000\000\200?\000\000\200?\000\000\200?\000\000\200?\000\000\200?\000\000\200?\000\000\200?\000\000\200?\000\000\200?\000\000\200?\000\000\200?\000\000\200?\000\000\200?"
      }
    }
  }
}
node {
  name: "concat/axis"
  op: "Const"
  device: "/device:CPU:0"
  attr {
    key: "_output_shapes"
    value {
      list {
        shape {
        }
      }
    }
  }
  attr {
    key: "dtype"
    value {
      type: DT_INT32
    }
  }
  attr {
    key: "value"
    value {
      tensor {
        dtype: DT_INT32
        tensor_shape {
        }
        int_val: 1
      }
    }
  }
}
node {
  name: "concat"
  op: "ConcatV2"
  input: "Const"
  input: "Const_2"
  input: "Const_4"
  input: "concat/axis"
  device: "/device:CPU:0"
  attr {
    key: "N"
    value {
      i: 3
    }
  }
  attr {
    key: "T"
    value {
      type: DT_FLOAT
    }
  }
  attr {
    key: "Tidx"
    value {
      type: DT_INT32
    }
  }
  attr {
    key: "_output_shapes"
    value {
      list {
        shape {
          dim {
            size: 1000
          }
          dim {
            size: 3
          }
        }
      }
    }
  }
}
node {
  name: "concat_1/axis"
  op: "Const"
  device: "/device:CPU:0"
  attr {
    key: "_output_shapes"
    value {
      list {
        shape {
        }
      }
    }
  }
  attr {
    key: "dtype"
    value {
      type: DT_INT32
    }
  }
  attr {
    key: "value"
    value {
      tensor {
        dtype: DT_INT32
        tensor_shape {
        }
        int_val: 1
      }
    }
  }
}
node {
  name: "concat_1"
  op: "ConcatV2"
  input: "Const_1"
  input: "Const_3"
  input: "Const_5"
  input: "concat_1/axis"
  device: "/device:CPU:0"
  attr {
    key: "N"
    value {
      i: 3
    }
  }
  attr {
    key: "T"
    value {
      type: DT_FLOAT
    }
  }
  attr {
    key: "Tidx"
    value {
      type: DT_INT32
    }
  }
  attr {
    key: "_output_shapes"
    value {
      list {
        shape {
          dim {
            size: 1000
          }
          dim {
            size: 3
          }
        }
      }
    }
  }
}
node {
  name: "Cumsum/axis"
  op: "Const"
  device: "/device:CPU:0"
  attr {
    key: "_output_shapes"
    value {
      list {
        shape {
        }
      }
    }
  }
  attr {
    key: "dtype"
    value {
      type: DT_INT32
    }
  }
  attr {
    key: "value"
    value {
      tensor {
        dtype: DT_INT32
        tensor_shape {
        }
        int_val: 1
      }
    }
  }
}
node {
  name: "Cumsum"
  op: "Cumsum"
  input: "concat"
  input: "Cumsum/axis"
  device: "/device:CPU:0"
  attr {
    key: "T"
    value {
      type: DT_FLOAT
    }
  }
  attr {
    key: "Tidx"
    value {
      type: DT_INT32
    }
  }
  attr {
    key: "_output_shapes"
    value {
      list {
        shape {
          dim {
            size: 1000
          }
          dim {
            size: 3
          }
        }
      }
    }
  }
  attr {
    key: "exclusive"
    value {
      b: false
    }
  }
  attr {
    key: "reverse"
    value {
      b: false
    }
  }
}
node {
  name: "Sin"
  op: "Sin"
  input: "Cumsum"
  device: "/device:CPU:0"
  attr {
    key: "T"
    value {
      type: DT_FLOAT
    }
  }
  attr {
    key: "_output_shapes"
    value {
      list {
        shape {
          dim {
            size: 1000
          }
          dim {
            size: 3
          }
        }
      }
    }
  }
}
node {
  name: "Cumsum_1/axis"
  op: "Const"
  device: "/device:CPU:0"
  attr {
    key: "_output_shapes"
    value {
      list {
        shape {
        }
      }
    }
  }
  attr {
    key: "dtype"
    value {
      type: DT_INT32
    }
  }
  attr {
    key: "value"
    value {
      tensor {
        dtype: DT_INT32
        tensor_shape {
        }
        int_val: 1
      }
    }
  }
}
node {
  name: "Cumsum_1"
  op: "Cumsum"
  input: "concat"
  input: "Cumsum_1/axis"
  device: "/device:CPU:0"
  attr {
    key: "T"
    value {
      type: DT_FLOAT
    }
  }
  attr {
    key: "Tidx"
    value {
      type: DT_INT32
    }
  }
  attr {
    key: "_output_shapes"
    value {
      list {
        shape {
          dim {
            size: 1000
          }
          dim {
            size: 3
          }
        }
      }
    }
  }
  attr {
    key: "exclusive"
    value {
      b: false
    }
  }
  attr {
    key: "reverse"
    value {
      b: false
    }
  }
}
node {
  name: "Cos"
  op: "Cos"
  input: "Cumsum_1"
  device: "/device:CPU:0"
  attr {
    key: "T"
    value {
      type: DT_FLOAT
    }
  }
  attr {
    key: "_output_shapes"
    value {
      list {
        shape {
          dim {
            size: 1000
          }
          dim {
            size: 3
          }
        }
      }
    }
  }
}
node {
  name: "Mul"
  op: "Mul"
  input: "concat_1"
  input: "Cos"
  device: "/device:CPU:0"
  attr {
    key: "T"
    value {
      type: DT_FLOAT
    }
  }
  attr {
    key: "_output_shapes"
    value {
      list {
        shape {
          dim {
            size: 1000
          }
          dim {
            size: 3
          }
        }
      }
    }
  }
}
node {
  name: "Mul_1"
  op: "Mul"
  input: "concat_1"
  input: "Sin"
  device: "/device:CPU:0"
  attr {
    key: "T"
    value {
      type: DT_FLOAT
    }
  }
  attr {
    key: "_output_shapes"
    value {
      list {
        shape {
          dim {
            size: 1000
          }
          dim {
            size: 3
          }
        }
      }
    }
  }
}
node {
  name: "Sum/reduction_indices"
  op: "Const"
  device: "/device:CPU:0"
  attr {
    key: "_output_shapes"
    value {
      list {
        shape {
        }
      }
    }
  }
  attr {
    key: "dtype"
    value {
      type: DT_INT32
    }
  }
  attr {
    key: "value"
    value {
      tensor {
        dtype: DT_INT32
        tensor_shape {
        }
        int_val: 1
      }
    }
  }
}
node {
  name: "Sum"
  op: "Sum"
  input: "Mul"
  input: "Sum/reduction_indices"
  device: "/device:CPU:0"
  attr {
    key: "T"
    value {
      type: DT_FLOAT
    }
  }
  attr {
    key: "Tidx"
    value {
      type: DT_INT32
    }
  }
  attr {
    key: "_output_shapes"
    value {
      list {
        shape {
          dim {
            size: 1000
          }
          dim {
            size: 1
          }
        }
      }
    }
  }
  attr {
    key: "keep_dims"
    value {
      b: true
    }
  }
}
node {
  name: "Sum_1/reduction_indices"
  op: "Const"
  device: "/device:CPU:0"
  attr {
    key: "_output_shapes"
    value {
      list {
        shape {
        }
      }
    }
  }
  attr {
    key: "dtype"
    value {
      type: DT_INT32
    }
  }
  attr {
    key: "value"
    value {
      tensor {
        dtype: DT_INT32
        tensor_shape {
        }
        int_val: 1
      }
    }
  }
}
node {
  name: "Sum_1"
  op: "Sum"
  input: "Mul_1"
  input: "Sum_1/reduction_indices"
  device: "/device:CPU:0"
  attr {
    key: "T"
    value {
      type: DT_FLOAT
    }
  }
  attr {
    key: "Tidx"
    value {
      type: DT_INT32
    }
  }
  attr {
    key: "_output_shapes"
    value {
      list {
        shape {
          dim {
            size: 1000
          }
          dim {
            size: 1
          }
        }
      }
    }
  }
  attr {
    key: "keep_dims"
    value {
      b: true
    }
  }
}
node {
  name: "Shape"
  op: "Const"
  device: "/device:CPU:0"
  attr {
    key: "_output_shapes"
    value {
      list {
        shape {
          dim {
            size: 2
          }
        }
      }
    }
  }
  attr {
    key: "dtype"
    value {
      type: DT_INT32
    }
  }
  attr {
    key: "value"
    value {
      tensor {
        dtype: DT_INT32
        tensor_shape {
          dim {
            size: 2
          }
        }
        tensor_content: "\350\003\000\000\001\000\000\000"
      }
    }
  }
}
node {
  name: "zeros/Const"
  op: "Const"
  device: "/device:CPU:0"
  attr {
    key: "_output_shapes"
    value {
      list {
        shape {
        }
      }
    }
  }
  attr {
    key: "dtype"
    value {
      type: DT_FLOAT
    }
  }
  attr {
    key: "value"
    value {
      tensor {
        dtype: DT_FLOAT
        tensor_shape {
        }
        float_val: 0.0
      }
    }
  }
}
node {
  name: "zeros"
  op: "Fill"
  input: "Shape"
  input: "zeros/Const"
  device: "/device:CPU:0"
  attr {
    key: "T"
    value {
      type: DT_FLOAT
    }
  }
  attr {
    key: "_output_shapes"
    value {
      list {
        shape {
          dim {
            size: 1000
          }
          dim {
            size: 1
          }
        }
      }
    }
  }
}
node {
  name: "concat_2/axis"
  op: "Const"
  device: "/device:CPU:0"
  attr {
    key: "_output_shapes"
    value {
      list {
        shape {
        }
      }
    }
  }
  attr {
    key: "dtype"
    value {
      type: DT_INT32
    }
  }
  attr {
    key: "value"
    value {
      tensor {
        dtype: DT_INT32
        tensor_shape {
        }
        int_val: 1
      }
    }
  }
}
node {
  name: "concat_2"
  op: "ConcatV2"
  input: "Sum"
  input: "Sum_1"
  input: "zeros"
  input: "concat_2/axis"
  device: "/device:CPU:0"
  attr {
    key: "N"
    value {
      i: 3
    }
  }
  attr {
    key: "T"
    value {
      type: DT_FLOAT
    }
  }
  attr {
    key: "Tidx"
    value {
      type: DT_INT32
    }
  }
  attr {
    key: "_output_shapes"
    value {
      list {
        shape {
          dim {
            size: 1000
          }
          dim {
            size: 3
          }
        }
      }
    }
  }
}
node {
  name: "Const_6"
  op: "Const"
  device: "/device:CPU:0"
  attr {
    key: "_output_shapes"
    value {
      list {
        shape {
          dim {
            size: 1
          }
          dim {
            size: 1
          }
        }
      }
    }
  }
  attr {
    key: "dtype"
    value {
      type: DT_FLOAT
    }
  }
  attr {
    key: "value"
    value {
      tensor {
        dtype: DT_FLOAT
        tensor_shape {
          dim {
            size: 1
          }
          dim {
            size: 1
          }
        }
        float_val: 0.00999999977648
      }
    }
  }
}
node {
  name: "Const_7"
  op: "Const"
  device: "/device:CPU:0"
  attr {
    key: "_output_shapes"
    value {
      list {
        shape {
          dim {
            size: 1
          }
          dim {
            size: 3
          }
        }
      }
    }
  }
  attr {
    key: "dtype"
    value {
      type: DT_FLOAT
    }
  }
  attr {
    key: "value"
    value {
      tensor {
        dtype: DT_FLOAT
        tensor_shape {
          dim {
            size: 1
          }
          dim {
            size: 3
          }
        }
        tensor_content: "\323\236b?\257\363\227>\000\000\000\000"
      }
    }
  }
}
node {
  name: "Mul_2"
  op: "Mul"
  input: "Const_7"
  input: "Const_6"
  device: "/device:CPU:0"
  attr {
    key: "T"
    value {
      type: DT_FLOAT
    }
  }
  attr {
    key: "_output_shapes"
    value {
      list {
        shape {
          dim {
            size: 1
          }
          dim {
            size: 3
          }
        }
      }
    }
  }
}
node {
  name: "Const_8"
  op: "Const"
  device: "/device:CPU:0"
  attr {
    key: "_output_shapes"
    value {
      list {
        shape {
          dim {
            size: 1
          }
          dim {
            size: 3
          }
        }
      }
    }
  }
  attr {
    key: "dtype"
    value {
      type: DT_FLOAT
    }
  }
  attr {
    key: "value"
    value {
      tensor {
        dtype: DT_FLOAT
        tensor_shape {
          dim {
            size: 1
          }
          dim {
            size: 3
          }
        }
        tensor_content: "\213m\024?\255k\004?\000\000\000\000"
      }
    }
  }
}
node {
  name: "Mul_3"
  op: "Mul"
  input: "Const_8"
  input: "Const_6"
  device: "/device:CPU:0"
  attr {
    key: "T"
    value {
      type: DT_FLOAT
    }
  }
  attr {
    key: "_output_shapes"
    value {
      list {
        shape {
          dim {
            size: 1
          }
          dim {
            size: 3
          }
        }
      }
    }
  }
}
node {
  name: "Const_9"
  op: "Const"
  device: "/device:CPU:0"
  attr {
    key: "_output_shapes"
    value {
      list {
        shape {
          dim {
            size: 1
          }
          dim {
            size: 3
          }
        }
      }
    }
  }
  attr {
    key: "dtype"
    value {
      type: DT_FLOAT
    }
  }
  attr {
    key: "value"
    value {
      tensor {
        dtype: DT_FLOAT
        tensor_shape {
          dim {
            size: 1
          }
          dim {
            size: 3
          }
        }
        tensor_content: "\344ii?\017\003\022?\000\000\000\000"
      }
    }
  }
}
node {
  name: "Mul_4"
  op: "Mul"
  input: "Const_9"
  input: "Const_6"
  device: "/device:CPU:0"
  attr {
    key: "T"
    value {
      type: DT_FLOAT
    }
  }
  attr {
    key: "_output_shapes"
    value {
      list {
        shape {
          dim {
            size: 1
          }
          dim {
            size: 3
          }
        }
      }
    }
  }
}
node {
  name: "Const_10"
  op: "Const"
  device: "/device:CPU:0"
  attr {
    key: "_output_shapes"
    value {
      list {
        shape {
          dim {
            size: 1
          }
          dim {
            size: 3
          }
        }
      }
    }
  }
  attr {
    key: "dtype"
    value {
      type: DT_FLOAT
    }
  }
  attr {
    key: "value"
    value {
      tensor {
        dtype: DT_FLOAT
        tensor_shape {
          dim {
            size: 1
          }
          dim {
            size: 3
          }
        }
        tensor_content: "*\004\005?\366A\200>\000\000\000\000"
      }
    }
  }
}
node {
  name: "Mul_5"
  op: "Mul"
  input: "Const_10"
  input: "Const_6"
  device: "/device:CPU:0"
  attr {
    key: "T"
    value {
      type: DT_FLOAT
    }
  }
  attr {
    key: "_output_shapes"
    value {
      list {
        shape {
          dim {
            size: 1
          }
          dim {
            size: 3
          }
        }
      }
    }
  }
}
node {
  name: "Const_11"
  op: "Const"
  device: "/device:CPU:0"
  attr {
    key: "_output_shapes"
    value {
      list {
        shape {
          dim {
            size: 1
          }
          dim {
            size: 3
          }
        }
      }
    }
  }
  attr {
    key: "dtype"
    value {
      type: DT_FLOAT
    }
  }
  attr {
    key: "value"
    value {
      tensor {
        dtype: DT_FLOAT
        tensor_shape {
          dim {
            size: 1
          }
          dim {
            size: 3
          }
        }
        tensor_content: "\324w\327>G%F?\000\000\000\000"
      }
    }
  }
}
node {
  name: "Mul_6"
  op: "Mul"
  input: "Const_11"
  input: "Const_6"
  device: "/device:CPU:0"
  attr {
    key: "T"
    value {
      type: DT_FLOAT
    }
  }
  attr {
    key: "_output_shapes"
    value {
      list {
        shape {
          dim {
            size: 1
          }
          dim {
            size: 3
          }
        }
      }
    }
  }
}
node {
  name: "Const_12"
  op: "Const"
  device: "/device:CPU:0"
  attr {
    key: "_output_shapes"
    value {
      list {
        shape {
          dim {
            size: 1
          }
          dim {
            size: 3
          }
        }
      }
    }
  }
  attr {
    key: "dtype"
    value {
      type: DT_FLOAT
    }
  }
  attr {
    key: "value"
    value {
      tensor {
        dtype: DT_FLOAT
        tensor_shape {
          dim {
            size: 1
          }
          dim {
            size: 3
          }
        }
        tensor_content: "u\271\030>\205\340(?\000\000\000\000"
      }
    }
  }
}
node {
  name: "Mul_7"
  op: "Mul"
  input: "Const_12"
  input: "Const_6"
  device: "/device:CPU:0"
  attr {
    key: "T"
    value {
      type: DT_FLOAT
    }
  }
  attr {
    key: "_output_shapes"
    value {
      list {
        shape {
          dim {
            size: 1
          }
          dim {
            size: 3
          }
        }
      }
    }
  }
}
node {
  name: "Const_13"
  op: "Const"
  device: "/device:CPU:0"
  attr {
    key: "_output_shapes"
    value {
      list {
        shape {
          dim {
            size: 1
          }
          dim {
            size: 3
          }
        }
      }
    }
  }
  attr {
    key: "dtype"
    value {
      type: DT_FLOAT
    }
  }
  attr {
    key: "value"
    value {
      tensor {
        dtype: DT_FLOAT
        tensor_shape {
          dim {
            size: 1
          }
          dim {
            size: 3
          }
        }
        tensor_content: "\371\232:?\000~\004?\000\000\000\000"
      }
    }
  }
}
node {
  name: "Mul_8"
  op: "Mul"
  input: "Const_13"
  input: "Const_6"
  device: "/device:CPU:0"
  attr {
    key: "T"
    value {
      type: DT_FLOAT
    }
  }
  attr {
    key: "_output_shapes"
    value {
      list {
        shape {
          dim {
            size: 1
          }
          dim {
            size: 3
          }
        }
      }
    }
  }
}
node {
  name: "Const_14"
  op: "Const"
  device: "/device:CPU:0"
  attr {
    key: "_output_shapes"
    value {
      list {
        shape {
          dim {
            size: 1
          }
          dim {
            size: 3
          }
        }
      }
    }
  }
  attr {
    key: "dtype"
    value {
      type: DT_FLOAT
    }
  }
  attr {
    key: "value"
    value {
      tensor {
        dtype: DT_FLOAT
        tensor_shape {
          dim {
            size: 1
          }
          dim {
            size: 3
          }
        }
        tensor_content: "\216\2437>\264h\336>\000\000\000\000"
      }
    }
  }
}
node {
  name: "Mul_9"
  op: "Mul"
  input: "Const_14"
  input: "Const_6"
  device: "/device:CPU:0"
  attr {
    key: "T"
    value {
      type: DT_FLOAT
    }
  }
  attr {
    key: "_output_shapes"
    value {
      list {
        shape {
          dim {
            size: 1
          }
          dim {
            size: 3
          }
        }
      }
    }
  }
}
node {
  name: "Const_15"
  op: "Const"
  device: "/device:CPU:0"
  attr {
    key: "_output_shapes"
    value {
      list {
        shape {
          dim {
            size: 1
          }
          dim {
            size: 3
          }
        }
      }
    }
  }
  attr {
    key: "dtype"
    value {
      type: DT_FLOAT
    }
  }
  attr {
    key: "value"
    value {
      tensor {
        dtype: DT_FLOAT
        tensor_shape {
          dim {
            size: 1
          }
          dim {
            size: 3
          }
        }
        tensor_content: "O1\272>\264\033\177?\000\000\000\000"
      }
    }
  }
}
node {
  name: "Mul_10"
  op: "Mul"
  input: "Const_15"
  input: "Const_6"
  device: "/device:CPU:0"
  attr {
    key: "T"
    value {
      type: DT_FLOAT
    }
  }
  attr {
    key: "_output_shapes"
    value {
      list {
        shape {
          dim {
            size: 1
          }
          dim {
            size: 3
          }
        }
      }
    }
  }
}
node {
  name: "Const_16"
  op: "Const"
  device: "/device:CPU:0"
  attr {
    key: "_output_shapes"
    value {
      list {
        shape {
          dim {
            size: 1
          }
          dim {
            size: 3
          }
        }
      }
    }
  }
  attr {
    key: "dtype"
    value {
      type: DT_FLOAT
    }
  }
  attr {
    key: "value"
    value {
      tensor {
        dtype: DT_FLOAT
        tensor_shape {
          dim {
            size: 1
          }
          dim {
            size: 3
          }
        }
        tensor_content: "=\260\362=\005\030\031?\000\000\000\000"
      }
    }
  }
}
node {
  name: "Mul_11"
  op: "Mul"
  input: "Const_16"
  input: "Const_6"
  device: "/device:CPU:0"
  attr {
    key: "T"
    value {
      type: DT_FLOAT
    }
  }
  attr {
    key: "_output_shapes"
    value {
      list {
        shape {
          dim {
            size: 1
          }
          dim {
            size: 3
          }
        }
      }
    }
  }
}
node {
  name: "Const_17"
  op: "Const"
  device: "/device:CPU:0"
  attr {
    key: "_output_shapes"
    value {
      list {
        shape {
          dim {
            size: 1
          }
          dim {
            size: 3
          }
        }
      }
    }
  }
  attr {
    key: "dtype"
    value {
      type: DT_FLOAT
    }
  }
  attr {
    key: "value"
    value {
      tensor {
        dtype: DT_FLOAT
        tensor_shape {
          dim {
            size: 1
          }
          dim {
            size: 3
          }
        }
        tensor_content: "`z\025?\366\'\376=\000\000\000\000"
      }
    }
  }
}
node {
  name: "Mul_12"
  op: "Mul"
  input: "Const_17"
  input: "Const_6"
  device: "/device:CPU:0"
  attr {
    key: "T"
    value {
      type: DT_FLOAT
    }
  }
  attr {
    key: "_output_shapes"
    value {
      list {
        shape {
          dim {
            size: 1
          }
          dim {
            size: 3
          }
        }
      }
    }
  }
}
node {
  name: "Const_18"
  op: "Const"
  device: "/device:CPU:0"
  attr {
    key: "_output_shapes"
    value {
      list {
        shape {
          dim {
            size: 1
          }
          dim {
            size: 3
          }
        }
      }
    }
  }
  attr {
    key: "dtype"
    value {
      type: DT_FLOAT
    }
  }
  attr {
    key: "value"
    value {
      tensor {
        dtype: DT_FLOAT
        tensor_shape {
          dim {
            size: 1
          }
          dim {
            size: 3
          }
        }
        tensor_content: "u\366\006?\034z\273>\000\000\000\000"
      }
    }
  }
}
node {
  name: "Mul_13"
  op: "Mul"
  input: "Const_18"
  input: "Const_6"
  device: "/device:CPU:0"
  attr {
    key: "T"
    value {
      type: DT_FLOAT
    }
  }
  attr {
    key: "_output_shapes"
    value {
      list {
        shape {
          dim {
            size: 1
          }
          dim {
            size: 3
          }
        }
      }
    }
  }
}
node {
  name: "Const_19"
  op: "Const"
  device: "/device:CPU:0"
  attr {
    key: "_output_shapes"
    value {
      list {
        shape {
          dim {
            size: 1
          }
          dim {
            size: 3
          }
        }
      }
    }
  }
  attr {
    key: "dtype"
    value {
      type: DT_FLOAT
    }
  }
  attr {
    key: "value"
    value {
      tensor {
        dtype: DT_FLOAT
        tensor_shape {
          dim {
            size: 1
          }
          dim {
            size: 3
          }
