node {
  name: "global_step/Initializer/zeros"
  op: "Const"
  attr {
    key: "_class"
    value {
      list {
        s: "loc:@global_step"
      }
    }
  }
  attr {
    key: "_output_shapes"
    value {
      list {
        shape {
        }
      }
    }
  }
  attr {
    key: "dtype"
    value {
      type: DT_INT64
    }
  }
  attr {
    key: "value"
    value {
      tensor {
        dtype: DT_INT64
        tensor_shape {
        }
        int64_val: 0
      }
    }
  }
}
node {
  name: "global_step"
  op: "VariableV2"
  attr {
    key: "_class"
    value {
      list {
        s: "loc:@global_step"
      }
    }
  }
  attr {
    key: "_output_shapes"
    value {
      list {
        shape {
        }
      }
    }
  }
  attr {
    key: "container"
    value {
      s: ""
    }
  }
  attr {
    key: "dtype"
    value {
      type: DT_INT64
    }
  }
  attr {
    key: "shape"
    value {
      shape {
      }
    }
  }
  attr {
    key: "shared_name"
    value {
      s: ""
    }
  }
}
node {
  name: "global_step/Assign"
  op: "Assign"
  input: "global_step"
  input: "global_step/Initializer/zeros"
  attr {
    key: "T"
    value {
      type: DT_INT64
    }
  }
  attr {
    key: "_class"
    value {
      list {
        s: "loc:@global_step"
      }
    }
  }
  attr {
    key: "_output_shapes"
    value {
      list {
        shape {
        }
      }
    }
  }
  attr {
    key: "use_locking"
    value {
      b: true
    }
  }
  attr {
    key: "validate_shape"
    value {
      b: true
    }
  }
}
node {
  name: "global_step/read"
  op: "Identity"
  input: "global_step"
  attr {
    key: "T"
    value {
      type: DT_INT64
    }
  }
  attr {
    key: "_class"
    value {
      list {
        s: "loc:@global_step"
      }
    }
  }
  attr {
    key: "_output_shapes"
    value {
      list {
        shape {
        }
      }
    }
  }
}
node {
  name: "global_step/IsVariableInitialized"
  op: "IsVariableInitialized"
  input: "global_step"
  attr {
    key: "_class"
    value {
      list {
        s: "loc:@global_step"
      }
    }
  }
  attr {
    key: "_output_shapes"
    value {
      list {
        shape {
        }
      }
    }
  }
  attr {
    key: "dtype"
    value {
      type: DT_INT64
    }
  }
}
node {
  name: "global_step/cond/Switch"
  op: "Switch"
  input: "global_step/IsVariableInitialized"
  input: "global_step/IsVariableInitialized"
  attr {
    key: "T"
    value {
      type: DT_BOOL
    }
  }
  attr {
    key: "_output_shapes"
    value {
      list {
        shape {
        }
        shape {
        }
      }
    }
  }
}
node {
  name: "global_step/cond/switch_t"
  op: "Identity"
  input: "global_step/cond/Switch:1"
  attr {
    key: "T"
    value {
      type: DT_BOOL
    }
  }
  attr {
    key: "_output_shapes"
    value {
      list {
        shape {
        }
      }
    }
  }
}
node {
  name: "global_step/cond/switch_f"
  op: "Identity"
  input: "global_step/cond/Switch"
  attr {
    key: "T"
    value {
      type: DT_BOOL
    }
  }
  attr {
    key: "_output_shapes"
    value {
      list {
        shape {
        }
      }
    }
  }
}
node {
  name: "global_step/cond/pred_id"
  op: "Identity"
  input: "global_step/IsVariableInitialized"
  attr {
    key: "T"
    value {
      type: DT_BOOL
    }
  }
  attr {
    key: "_output_shapes"
    value {
      list {
        shape {
        }
      }
    }
  }
}
node {
  name: "global_step/cond/read"
  op: "Identity"
  input: "global_step/cond/read/Switch:1"
  attr {
    key: "T"
    value {
      type: DT_INT64
    }
  }
  attr {
    key: "_output_shapes"
    value {
      list {
        shape {
        }
      }
    }
  }
}
node {
  name: "global_step/cond/read/Switch"
  op: "RefSwitch"
  input: "global_step"
  input: "global_step/cond/pred_id"
  attr {
    key: "T"
    value {
      type: DT_INT64
    }
  }
  attr {
    key: "_class"
    value {
      list {
        s: "loc:@global_step"
      }
    }
  }
  attr {
    key: "_output_shapes"
    value {
      list {
        shape {
        }
        shape {
        }
      }
    }
  }
}
node {
  name: "global_step/cond/Switch_1"
  op: "Switch"
  input: "global_step/Initializer/zeros"
  input: "global_step/cond/pred_id"
  attr {
    key: "T"
    value {
      type: DT_INT64
    }
  }
  attr {
    key: "_class"
    value {
      list {
        s: "loc:@global_step"
      }
    }
  }
  attr {
    key: "_output_shapes"
    value {
      list {
        shape {
        }
        shape {
        }
      }
    }
  }
}
node {
  name: "global_step/cond/Merge"
  op: "Merge"
  input: "global_step/cond/Switch_1"
  input: "global_step/cond/read"
  attr {
    key: "N"
    value {
      i: 2
    }
  }
  attr {
    key: "T"
    value {
      type: DT_INT64
    }
  }
  attr {
    key: "_output_shapes"
    value {
      list {
        shape {
        }
        shape {
        }
      }
    }
  }
}
node {
  name: "global_step/add/y"
  op: "Const"
  attr {
    key: "_output_shapes"
    value {
      list {
        shape {
        }
      }
    }
  }
  attr {
    key: "dtype"
    value {
      type: DT_INT64
    }
  }
  attr {
    key: "value"
    value {
      tensor {
        dtype: DT_INT64
        tensor_shape {
        }
        int64_val: 0
      }
    }
  }
}
node {
  name: "global_step/add"
  op: "Add"
  input: "global_step/cond/Merge"
  input: "global_step/add/y"
  attr {
    key: "T"
    value {
      type: DT_INT64
    }
  }
  attr {
    key: "_output_shapes"
    value {
      list {
        shape {
        }
      }
    }
  }
}
node {
  name: "Const"
  op: "Const"
  device: "/device:CPU:0"
  attr {
    key: "_output_shapes"
    value {
      list {
        shape {
          dim {
            size: 1000
          }
          dim {
            size: 1
          }
        }
      }
    }
  }
  attr {
    key: "dtype"
    value {
      type: DT_FLOAT
    }
  }
  attr {
    key: "value"
    value {
      tensor {
        dtype: DT_FLOAT
        tensor_shape {
          dim {
            size: 1000
          }
          dim {
            size: 1
          }
        }
        tensor_content: "/\315\221@\"8\222?\363J\231@i\024\275@<\350\361?\332\263\250@3%\243@\223\313\002@ \373]@\360\002\246@V\364\200?gC\003@\035N\255@\306\n\261@\3250\005@\237\177R@\311\263\234@2\342w@\224 \262@\335\t7@%\345\220@y\322Z@\035\333\354?\355\273\205@B\004I@\272\317\207@\231\304\274@E\262\010@(\323\202?\360(\372>\301*G@7rq@\352\365\211?\261\377\260@R\027^@e2\302@\333E\260@b\227Q?\313\311\236@\230\236\364>\345\\=?,\272\341>j\260\206@\312+\200@\223%j@\030m\320>\224\324\016?\305\026|@\202\257H@\300\330\233@\t\351+@\243\336\305@\001D\223@\250\233\250@\372\365\n@\207\241\252@cY}@\251p\203@V\241R@\033\005\264@\250\357:@\275\300\201?\372?\203@\367Y\020?\346\333\367?\335\314~?\222\324\005@\001\313\231?*\340\374?G\336\233@\"\371\377>h1\220@&\024\244>0\230E@%\355\302@\315\344i@-:0?\377v\254@\253\326~@Ryj@\241\036\241@\212(G@\177\366\261@,0\343?\237\237A@\316\035\252@\311\367\202@jd@@-\177\244>\327\204{@$\347\257=\311\350\373?\017:\221?\246F~@\342sz@\251\321\003?xr\013@\235\2206@$v\212@\304\231\253@\350j\244?\207\317\257@M\001\003@d\024\305@\016\376T?\331\2727@0\004\222?\200\365\\@\363L\233@c\241\242@W\333\233@k+\235@\027\230x@\223w\032@,\223\037@\327\342\340?\023q<@\277e,@\014T\262@\235:j@\336P4@\265\025\237?\314\003+>\323X\002@\205\tR?\241\224\247@D\350\032?\016B~@\313i\240?*3,@\206.!@Ao\216@\3308\332?\2543i?d\327q@P\314P@$;k@\3158\006@\352\212\260@K\351\246@\333\317\272?i\372F?\nUn@\004\200V?;\n\245@nX}@\005<\003@\035\242\210@\001\315\253@W\0379?h\200\335?\312\260\225?qJ,@*\335\340=\361%L@\377\2032@\212)\376?U\n_>\276\324/@\311\304\372=\270\375\225@\211($@\312\215\210@\310\333:@y\251\023@\375\037\247@\275\354\027@q\035\255?\352e3@\263\323\262=8\366\301@q_\000?\345\004\222@%\013\r@Eq\t@\260\236\277@\216H\244?\240\240\265@\331)\016@\262#\245@\272\243\261>\250\n\303@m\025\014@)\003m@nE\332?TU0@3\263\230@\246Y\252@\327:\252@\024\347\024@\202\366\260@\302{2@\333D\305@\005\3111@\241\035M?\016\301\017@pNI@s&\231@\325]\263@\005\200\261@\357@u@n\251\245@+\224h@\031B\002@@\2776@\\\201\324?\037T\375>\220\334\220@ >\020@\027A\214@\313}\231@\346I\212@o\005\230@\315\020\372?\360:\032?X\036\206@\010\346\347?G\347\250@\022\254\235@E\207??\353\035\217@n\341\203?\354\214\265@\267F\264@\220pg?\350\030\233@(\033\207@\235\212\263@3\016\271@\233_\261?#\0330@\023\374L@\233\025h@\367\315q@\346\320\340?v\365k@@\212X@\245\030\277@\206\354\226@t\004\260@)k\205@ff\263?a\306q@\224\263u@Be\272@\337\331W@+\017\265@\016\307>@\030\265\240?\204\233\020?P|\307@\200\2415@\016\375\024?\272\245\271@~C\201@uM\212@\362\316\232@\202\260\303@-*\227@\345p\225@\255\332S>\277W\024@\334N\033@\326F\307@\354\365N@\257\267\232@\267\331\301@N\026\n>\333L\247?\005\3335@\323v]@\241\010\360?\224,\243@Wb\034>\273j\005?\216\241\277@{[\362?S\3760@\205\332\031@\305\360\245@\037w\202@\003\321\273@s\0041?\010\274k@\345\374\\@]\3201@+9\305@\220v\337?$\351C@5\013H>\003\375\251?H\334~@t\020V@S\224\235@2r\020>\203\260\200?\314\336\375=\3525\276?|[\255@\224\336\232@::\255@\276\305\327?&6\014@\036m\010@\026\014\231?\376\316\272?ZW\217?\247\325\267@3\254\024@\304]\305=\276^\261@C\365\221@`\373\217@}\223\305?b\306\006@\312\273r>\340\340\234@L\374?@\264\t\276@d\217r@\005\354\027@\254\264*@\201lF@\000\311\234?\345r\025@ge\321>\020\305G@O\275\226@O\352\017@n\242\251@\020}g?Y)f@\303\367\260@\271\306\216@)\346\203@\022\215S@\033\222\250=\237;\251?\0005\234@\370%\213@\017\017\204@\345\352\271?r\201{@T&\236@\262\257^?\3124^@\r\227\250@\337\010\203@s\305\351?\234c\240@\201\026\266@wq\314? \0106?\245\263\270@P\220/@#\020\301@\234~\n@\027\340_@Y\355\260@c\'C@\276,\023>\301k{@{\364\304@\3626\272@\346\331\313?\\\273\217@\240\313\241@B\0074?G\346\305@\033\342\207@Jr\240@}\225)@o\3131>\223%8@\310\326\244@\033\301\356>\201.\224@\261\247d@\276\242A@|\261\232@Y\0335@(\\\212@L\222\213@\214\222_@.^\260?\022N\001@\321\244\222@\022)\251@\010\236N@U\307\266@Dl\302@t,{@\r\220\202?\217\273\234?BJ\267@\336`\276@[,j@K\360`@\373\3072@\227\236\320?d\351\347>\327\325\250@\317\024\014@\215\036\206@\237\023\274?Fm>@\200{\320?\243\315\255@K\177\220@\213\013\244@\001\n\310@\252\344\211?\003gQ?\317^\253@\200\353\247@\263\334\201@\251\337\310@\227%\257@\275[\304@\177\331\355>\346#\025@\tvN@\325q!?\303\276\272@\221\376\271?\000\350\223?\247\024\356=2A\207@\006\210\304@D9\222@&\373\227@\242\036\013@\356q\323>\035\007\230@\266b\302?\247j\253?T\014\267@t\0229@\r8P@4\207K@\300i\224@\204\227\351?\205Js@\300_$@c\232\343;z!1@\365\350\212<\373\206u@\254P\232@\361\365\307?r\361\255?\247H\034?:0\253?\327`\035?\024\322\000?\361\330\251@\252\377\270@\337\327\036@\2708$@m\355\304@\270\230r@F\245\311?\277\234F@t\371\260?\302/\355?Qc\204@i\226d@\224\310\271?zwo@\033\350\270@\031\243\271@\246\"~@*\250\366>\337\373y@\367\333\013@R\3556@aW:@g\026I@\307di@\017d\214@N\243\247@B\347\001?\211+\251@\010t\223@6\362:?\306\025J@R\215N@\317Y*@\007e\275@,J\265>gv\351>K\207Q?\305\345`>\222)\211@b\004\243?\232\3774>\240\255\263@gV\205@SI\261@$\337\246@\307\005c?T\327\024@\213\335D?\270\2745>P\275\215?\006(\270@EVp@-\314x@/\177z@\010U%>\201\373\003@\3725\246@\376\233\262@P\375O@\373\353\'?\245\307\236@\227\344\'@\360#\244@\353\324\256@\213\325\300@\304H\277@\3437\331;E\331\217@\201\355\251@ \301\261@\225J\275@\240\022a@\267Wq?\202\200\350?\331\240 @\003\371\264@r\225Y@s\235\247@\035\032\217?\002kP@s%O@pT\345?\204\247\274@\263\271W@X\021\270@E3\202@\267|\261@\372\021\272@\236\036H@\317\363\360?K\324\303@\266H\030@\014{\034@\216\216W@\377\215\027@~e\013?\3245F@K\036O=6tz?\277\361\246@=\274(@\"#\200@b~j@\262Ka?\204\032\n@\252\325\247@\355F\220@6\272\247>u\r\216?\265\301E@\361\221(@\272R\214@\314S\263?\t\375\240@\311,\256@:\272\217@e\357\024@\231x\304@\331\277\215@\021z\004>S\364\262@m\270y@\221\004\301@.\307N@\344\221-@\323\361\245@*v\310@s\263\251@<F\273@]J\222?h!\254@\002\214\257>K\266\000@J^\251?Xo\272?\251Y\224@qf\242@r;h@\307\362\317?AVh@\374\227\244@S\204!@\304\273(@:\377\242@G\356\301?lg{>$\344\260?\341\346\263@:\271\261@?H>@q\343\027@\324h\302@\215D\034@n\007\362>\301\030\261@\364\221#?\251\n\225@\252R\007@\014\017O@R\237f?\277R\227@\302:\003@\016\350\021@\204v\305?~\211H?Z(\233@\236\334\276@\307c^@\300F\207@\322z\233@\332\352\230@\031\241\264@$&\302??%\226?\260i3@vW\263@\017\374a>\2217F@\006\324\303@\377\240\352?\354\361o@\236\222\232@\375\301\244@\346\t\374?\366\227z@\371\001\031?E\272\262?d\273\213?\226\366Y=P\210.?\352\347\263@\350U]?\252\r\275@\3047\177@\371\233\005>\370\243W@9Z\203@\324\223\370?3\267\001?\350\314G@\257(^@P\320\355?\312\234\003@B\304S?\244@=@\242z~@*\245\264@E\266\324?\177\205\302@\310\217\275@_l\222@\360\217v@\264bR@\351t\233@\212\370~@\033\357o@\0001\242@\3664\212?Y\007\235@|\373\356?f\253\207@Z\034\273?\024\215\276?\341\236u@\242s\254@-#\203?\360\266X@\354\373\252@\305Z\037?\207\010^@\214Q\255?\316V\352=\241X\300@Z\366\254>\220pK@q\3134@\214aQ@F\022\212@\244J\267@b\'e@\241n\211@\361\265\201@\274\362\224@%\022\n@\357-\205@\244\343P@\3219\200@\207\316\276@\312K\251@984@e\004\247?i^\273@\034\004\361=\210\247z@\307D\234@t\356\346?F\301\204?[;\202@\276v\362?=_\270@\273G:@d>c@p\013\263@Zd\275?\350\255\254@-\033\304@\016\251\301@\223R#@\023\307\260@\265\326i@\302\003\260@\202\033g?s+r@\202\242\301@X\\J@\230S\031@\002\257h@B\203\277?\\]/@T\027\016?^\237K@\301\013[=\350\t\263@\320\n\361?\223\3211@\262\274\276@\260\013\275?\347\'%>&\300\206@3\354a@\003\210|@^0\264@/ *@c\360\303?p\311t=\337,\200@:4\273@\274&3?\266\177j@t>}@\365a\356?\037\220]@\355\347\310?\023\330\372>h\365\342?3\236\244@\224R\266@\206\027\200@\001\222k@}\375T@\276\013\361?X\200\277@\243\241\363>\354CD@\036\375\217@\346\262]?\257\341\204@)\346\262@v\250\'?\004\204\322?\375\272\230>\025\246\302@N\252D@\235,|@BD\340?\334S\221@\346\210\236?\304\365\261@H\312\233@\217\327\274>\271\273\356?S\357\214@\252\351O@\322\233\373?p\251\270?\002\273\273@\246\005\213@?\031U@\234}\002@w.\007@<x\033@\022\235\r@J\300\246@\377e\221@\276\014\t?\305\374\225@\020\252F@\204\347\266@`a\251@V2\256?\033\336~?\365\242\367?\006k\300?+\241\016?\362\242\274@YK}@:;\261@5F\376?\253?\215@\324\367\214?\n\024\200@\3772\213@\001=\204@\"l\255@G\273~?\307v\340>\255\304\016?{f0@N\363\304@\230\251E>\307\013\244?\271n\022@\267\2239@3+\332?\372\226\240@L\257\301@L\001\223@\246Y*@\r\362\314>\3710\023@\350\234`@\307\331\275?\372\374\222@7\240:@.q\013>C\363T@\2351x@\357\264\300?Fh\217@\377\220\270@o\027\236@Fn\222@;\341\367?\305\316\251@\375\261v@\206P\307@\005+-@\370<s@\275C\322?~\017\257?\215\244\315?$\235V@\353\265\362?,id@;\t\204@uZH@\204F\207?\342\334\266@\323t\227?\364\210\205?9\275\330?bO0@\333\302\n?\214\261\222@\321M\341?2\307\251@OZ\361?l\373\307@\306\255\377?\310\235>@\240\026\240?L\257\005?(|\203?\010O\271@\010\344?>MN\260@\2723\313?\200u\347>\237E\243>)\3739@5V\032@\035\251`@w\232G@\207\0263@C\215\260@P\213\207@{\354D?\267qc@s\270,@/\035h@P\372\'@\311\367\363?\363}\344?~\335%@\325Y\212@\221\026\262@\247\372\257?.\374\000>8\"\347?\200<\327?u!\271@\2236;@o\333\216@\254lZ@\025\313\261@\262d\224?\261\277G@\034\"\271@\232U\252?\307\023\213@#\036\240?\231\253.@\347\212\231@k\331,?\3216\222@\374\350>@\035\021Z=\'\331\343>\375\222\030@N\254\334?\270\233d@\036\276\372?r\336\207@\236mv?\372\300\203@~\240\304>\374\301\262@\372A\275?\2417\220@\260\034\307@\371p\006@\222g\301@o\332\305@\260\022`@\263\301@?\254\002#@\312Ps@~\355\303<\200\346\255@K\t&@5hx?h\220\021@\no\031@\361\250\357?\246C\307>\240`}@\303!\263@\267\306\242@`\226I@\306\320\213?\357\037d@\002T5@\222]\254@~\335L@\333\326\242@\246:\214@\025p\025>\263fo@\222\3005?\270\253E@\205sw@\036\374\226@9,\273@\334,\312?\371\304D@\240\361\344?\345\200J@v9\256@\177\344\316?]\351\205?\374%|@b\334\212>{\263\220@\207\244\205@15\026@@\277\222@$\303>@\360\276\255@\357\003T@Y\371z@\021\331/?\205\026\033@/\273\225@7L\205>\202\002\013?w|\212@!\004\\@\001\231\037@\251l\273@\346\331\224@\226\321\323?m+|@\003\022%@\177\305\014@B\007~?"
      }
    }
  }
}
node {
  name: "Const_1"
  op: "Const"
  device: "/device:CPU:0"
  attr {
    key: "_output_shapes"
    value {
      list {
        shape {
          dim {
            size: 1000
          }
          dim {
            size: 1
          }
        }
      }
    }
  }
  attr {
    key: "dtype"
    value {
      type: DT_FLOAT
    }
  }
  attr {
    key: "value"
    value {
      tensor {
        dtype: DT_FLOAT
        tensor_shape {
          dim {
            size: 1000
          }
          dim {
            size: 1
          }
        }
        tensor_content: "\000\000\200?\000\000\200?\000\000\200?\000\000\200?\000\000\200?\000\000\200?\000\000\200?\000\000\200?\000\000\200?\000\000\200?\000\000\200?\000\000\200?\000\000\200?\000\000\200?\000\000\200?\000\000\200?\000\000\200?\000\000\200?\000\000\200?\000\000\200?\000\000\200?\000\000\200?\000\000\200?\000\000\200?\000\000\200?\000\000\200?\000\000\200?\000\000\200?\000\000\200?\000\000\200?\000\000\200?\000\000\200?\000\000\200?\000\000\200?\000\000\200?\000\000\200?\000\000\200?\000\000\200?\000\000\200?\000\000\200?\000\000\200?\000\000\200?\000\000\200?\000\000\200?\000\000\200?\000\000\200?\000\000\200?\000\000\200?\000\000\200?\000\000\200?\000\000\200?\000\000\200?\000\000\200?\000\000\200?\000\000\200?\000\000\200?\000\000\200?\000\000\200?\000\000\200?\000\000\200?\000\000\200?\000\000\200?\000\000\200?\000\000\200?\000\000\200?\000\000\200?\000\000\200?\000\000\200?\000\000\200?\000\000\200?\000\000\200?\000\000\200?\000\000\200?\000\000\200?\000\000\200?\000\000\200?\000\000\200?\000\000\200?\000\000\200?\000\000\200?\000\000\200?\000\000\200?\000\000\200?\000\000\200?\000\000\200?\000\000\200?\000\000\200?\000\000\200?\000\000\200?\000\000\200?\000\000\200?\000\000\200?\000\000\200?\000\000\200?\000\000\200?\000\000\200?\000\000\200?\000\000\200?\000\000\200?\000\000\200?\000\000\200?\000\000\200?\000\000\200?\000\000\200?\000\000\200?\000\000\200?\000\000\200?\000\000\200?\000\000\200?\000\000\200?\000\000\200?\000\000\200?\000\000\200?\000\000\200?\000\000\200?\000\000\200?\000\000\200?\000\000\200?\000\000\200?\000\000\200?\000\000\200?\000\000\200?\000\000\200?\000\000\200?\000\000\200?\000\000\200?\000\000\200?\000\000\200?\000\000\200?\000\000\200?\000\000\200?\000\000\200?\000\000\200?\000\000\200?\000\000\200?\000\000\200?\000\000\200?\000\000\200?\000\000\200?\000\000\200?\000\000\200?\000\000\200?\000\000\200?\000\000\200?\000\000\200?\000\000\200?\000\000\200?\000\000\200?\000\000\200?\000\000\200?\000\000\200?\000\000\200?\000\000\200?\000\000\200?\000\000\200?\000\000\200?\000\000\200?\000\000\200?\000\000\200?\000\000\200?\000\000\200?\000\000\200?\000\000\200?\000\000\200?\000\000\200?\000\000\200?\000\000\200?\000\000\200?\000\000\200?\000\000\200?\000\000\200?\000\000\200?\000\000\200?\000\000\200?\000\000\200?\000\000\200?\000\000\200?\000\000\200?\000\000\200?\000\000\200?\000\000\200?\000\000\200?\000\000\200?\000\000\200?\000\000\200?\000\000\200?\000\000\200?\000\000\200?\000\000\200?\000\000\200?\000\000\200?\000\000\200?\000\000\200?\000\000\200?\000\000\200?\000\000\200?\000\000\200?\000\000\200?\000\000\200?\000\000\200?\000\000\200?\000\000\200?\000\000\200?\000\000\200?\000\000\200?\000\000\200?\000\000\200?\000\000\200?\000\000\200?\000\000\200?\000\000\200?\000\000\200?\000\000\200?\000\000\200?\000\000\200?\000\000\200?\000\000\200?\000\000\200?\000\000\200?\000\000\200?\000\000\200?\000\000\200?\000\000\200?\000\000\200?\000\000\200?\000\000\200?\000\000\200?\000\000\200?\000\000\200?\000\000\200?\000\000\200?\000\000\200?\000\000\200?\000\000\200?\000\000\200?\000\000\200?\000\000\200?\000\000\200?\000\000\200?\000\000\200?\000\000\200?\000\000\200?\000\000\200?\000\000\200?\000\000\200?\000\000\200?\000\000\200?\000\000\200?\000\000\200?\000\000\200?\000\000\200?\000\000\200?\000\000\200?\000\000\200?\000\000\200?\000\000\200?\000\000\200?\000\000\200?\000\000\200?\000\000\200?\000\000\200?\000\000\200?\000\000\200?\000\000\200?\000\000\200?\000\000\200?\000\000\200?\000\000\200?\000\000\200?\000\000\200?\000\000\200?\000\000\200?\000\000\200?\000\000\200?\000\000\200?\000\000\200?\000\000\200?\000\000\200?\000\000\200?\000\000\200?\000\000\200?\000\000\200?\000\000\200?\000\000\200?\000\000\200?\000\000\200?\000\000\200?\000\000\200?\000\000\200?\000\000\200?\000\000\200?\000\000\200?\000\000\200?\000\000\200?\000\000\200?\000\000\200?\000\000\200?\000\000\200?\000\000\200?\000\000\200?\000\000\200?\000\000\200?\000\000\200?\000\000\200?\000\000\200?\000\000\200?\000\000\200?\000\000\200?\000\000\200?\000\000\200?\000\000\200?\000\000\200?\000\000\200?\000\000\200?\000\000\200?\000\000\200?\000\000\200?\000\000\200?\000\000\200?\000\000\200?\000\000\200?\000\000\200?\000\000\200?\000\000\200?\000\000\200?\000\000\200?\000\000\200?\000\000\200?\000\000\200?\000\000\200?\000\000\200?\000\000\200?\000\000\200?\000\000\200?\000\000\200?\000\000\200?\000\000\200?\000\000\200?\000\000\200?\000\000\200?\000\000\200?\000\000\200?\000\000\200?\000\000\200?\000\000\200?\000\000\200?\000\000\200?\000\000\200?\000\000\200?\000\000\200?\000\000\200?\000\000\200?\000\000\200?\000\000\200?\000\000\200?\000\000\200?\000\000\200?\000\000\200?\000\000\200?\000\000\200?\000\000\200?\000\000\200?\000\000\200?\000\000\200?\000\000\200?\000\000\200?\000\000\200?\000\000\200?\000\000\200?\000\000\200?\000\000\200?\000\000\200?\000\000\200?\000\000\200?\000\000\200?\000\000\200?\000\000\200?\000\000\200?\000\000\200?\000\000\200?\000\000\200?\000\000\200?\000\000\200?\000\000\200?\000\000\200?\000\000\200?\000\000\200?\000\000\200?\000\000\200?\000\000\200?\000\000\200?\000\000\200?\000\000\200?\000\000\200?\000\000\200?\000\000\200?\000\000\200?\000\000\200?\000\000\200?\000\000\200?\000\000\200?\000\000\200?\000\000\200?\000\000\200?\000\000\200?\000\000\200?\000\000\200?\000\000\200?\000\000\200?\000\000\200?\000\000\200?\000\000\200?\000\000\200?\000\000\200?\000\000\200?\000\000\200?\000\000\200?\000\000\200?\000\000\200?\000\000\200?\000\000\200?\000\000\200?\000\000\200?\000\000\200?\000\000\200?\000\000\200?\000\000\200?\000\000\200?\000\000\200?\000\000\200?\000\000\200?\000\000\200?\000\000\200?\000\000\200?\000\000\200?\000\000\200?\000\000\200?\000\000\200?\000\000\200?\000\000\200?\000\000\200?\000\000\200?\000\000\200?\000\000\200?\000\000\200?\000\000\200?\000\000\200?\000\000\200?\000\000\200?\000\000\200?\000\000\200?\000\000\200?\000\000\200?\000\000\200?\000\000\200?\000\000\200?\000\000\200?\000\000\200?\000\000\200?\000\000\200?\000\000\200?\000\000\200?\000\000\200?\000\000\200?\000\000\200?\000\000\200?\000\000\200?\000\000\200?\000\000\200?\000\000\200?\000\000\200?\000\000\200?\000\000\200?\000\000\200?\000\000\200?\000\000\200?\000\000\200?\000\000\200?\000\000\200?\000\000\200?\000\000\200?\000\000\200?\000\000\200?\000\000\200?\000\000\200?\000\000\200?\000\000\200?\000\000\200?\000\000\200?\000\000\200?\000\000\200?\000\000\200?\000\000\200?\000\000\200?\000\000\200?\000\000\200?\000\000\200?\000\000\200?\000\000\200?\000\000\200?\000\000\200?\000\000\200?\000\000\200?\000\000\200?\000\000\200?\000\000\200?\000\000\200?\000\000\200?\000\000\200?\000\000\200?\000\000\200?\000\000\200?\000\000\200?\000\000\200?\000\000\200?\000\000\200?\000\000\200?\000\000\200?\000\000\200?\000\000\200?\000\000\200?\000\000\200?\000\000\200?\000\000\200?\000\000\200?\000\000\200?\000\000\200?\000\000\200?\000\000\200?\000\000\200?\000\000\200?\000\000\200?\000\000\200?\000\000\200?\000\000\200?\000\000\200?\000\000\200?\000\000\200?\000\000\200?\000\000\200?\000\000\200?\000\000\200?\000\000\200?\000\000\200?\000\000\200?\000\000\200?\000\000\200?\000\000\200?\000\000\200?\000\000\200?\000\000\200?\000\000\200?\000\000\200?\000\000\200?\000\000\200?\000\000\200?\000\000\200?\000\000\200?\000\000\200?\000\000\200?\000\000\200?\000\000\200?\000\000\200?\000\000\200?\000\000\200?\000\000\200?\000\000\200?\000\000\200?\000\000\200?\000\000\200?\000\000\200?\000\000\200?\000\000\200?\000\000\200?\000\000\200?\000\000\200?\000\000\200?\000\000\200?\000\000\200?\000\000\200?\000\000\200?\000\000\200?\000\000\200?\000\000\200?\000\000\200?\000\000\200?\000\000\200?\000\000\200?\000\000\200?\000\000\200?\000\000\200?\000\000\200?\000\000\200?\000\000\200?\000\000\200?\000\000\200?\000\000\200?\000\000\200?\000\000\200?\000\000\200?\000\000\200?\000\000\200?\000\000\200?\000\000\200?\000\000\200?\000\000\200?\000\000\200?\000\000\200?\000\000\200?\000\000\200?\000\000\200?\000\000\200?\000\000\200?\000\000\200?\000\000\200?\000\000\200?\000\000\200?\000\000\200?\000\000\200?\000\000\200?\000\000\200?\000\000\200?\000\000\200?\000\000\200?\000\000\200?\000\000\200?\000\000\200?\000\000\200?\000\000\200?\000\000\200?\000\000\200?\000\000\200?\000\000\200?\000\000\200?\000\000\200?\000\000\200?\000\000\200?\000\000\200?\000\000\200?\000\000\200?\000\000\200?\000\000\200?\000\000\200?\000\000\200?\000\000\200?\000\000\200?\000\000\200?\000\000\200?\000\000\200?\000\000\200?\000\000\200?\000\000\200?\000\000\200?\000\000\200?\000\000\200?\000\000\200?\000\000\200?\000\000\200?\000\000\200?\000\000\200?\000\000\200?\000\000\200?\000\000\200?\000\000\200?\000\000\200?\000\000\200?\000\000\200?\000\000\200?\000\000\200?\000\000\200?\000\000\200?\000\000\200?\000\000\200?\000\000\200?\000\000\200?\000\000\200?\000\000\200?\000\000\200?\000\000\200?\000\000\200?\000\000\200?\000\000\200?\000\000\200?\000\000\200?\000\000\200?\000\000\200?\000\000\200?\000\000\200?\000\000\200?\000\000\200?\000\000\200?\000\000\200?\000\000\200?\000\000\200?\000\000\200?\000\000\200?\000\000\200?\000\000\200?\000\000\200?\000\000\200?\000\000\200?\000\000\200?\000\000\200?\000\000\200?\000\000\200?\000\000\200?\000\000\200?\000\000\200?\000\000\200?\000\000\200?\000\000\200?\000\000\200?\000\000\200?\000\000\200?\000\000\200?\000\000\200?\000\000\200?\000\000\200?\000\000\200?\000\000\200?\000\000\200?\000\000\200?\000\000\200?\000\000\200?\000\000\200?\000\000\200?\000\000\200?\000\000\200?\000\000\200?\000\000\200?\000\000\200?\000\000\200?\000\000\200?\000\000\200?\000\000\200?\000\000\200?\000\000\200?\000\000\200?\000\000\200?\000\000\200?\000\000\200?\000\000\200?\000\000\200?\000\000\200?\000\000\200?\000\000\200?\000\000\200?\000\000\200?\000\000\200?\000\000\200?\000\000\200?\000\000\200?\000\000\200?\000\000\200?\000\000\200?\000\000\200?\000\000\200?\000\000\200?\000\000\200?\000\000\200?\000\000\200?\000\000\200?\000\000\200?\000\000\200?\000\000\200?\000\000\200?\000\000\200?\000\000\200?\000\000\200?\000\000\200?\000\000\200?\000\000\200?\000\000\200?\000\000\200?\000\000\200?\000\000\200?\000\000\200?\000\000\200?\000\000\200?\000\000\200?\000\000\200?\000\000\200?\000\000\200?\000\000\200?\000\000\200?\000\000\200?\000\000\200?\000\000\200?\000\000\200?\000\000\200?\000\000\200?\000\000\200?\000\000\200?\000\000\200?\000\000\200?\000\000\200?\000\000\200?\000\000\200?\000\000\200?\000\000\200?\000\000\200?\000\000\200?\000\000\200?\000\000\200?\000\000\200?\000\000\200?\000\000\200?\000\000\200?\000\000\200?\000\000\200?\000\000\200?\000\000\200?\000\000\200?\000\000\200?\000\000\200?\000\000\200?\000\000\200?\000\000\200?\000\000\200?\000\000\200?\000\000\200?\000\000\200?\000\000\200?\000\000\200?\000\000\200?\000\000\200?\000\000\200?\000\000\200?\000\000\200?\000\000\200?\000\000\200?\000\000\200?\000\000\200?\000\000\200?\000\000\200?\000\000\200?\000\000\200?\000\000\200?\000\000\200?\000\000\200?\000\000\200?\000\000\200?\000\000\200?\000\000\200?\000\000\200?\000\000\200?\000\000\200?\000\000\200?\000\000\200?\000\000\200?\000\000\200?\000\000\200?\000\000\200?\000\000\200?\000\000\200?\000\000\200?\000\000\200?\000\000\200?\000\000\200?\000\000\200?\000\000\200?\000\000\200?\000\000\200?\000\000\200?\000\000\200?\000\000\200?\000\000\200?\000\000\200?\000\000\200?\000\000\200?\000\000\200?\000\000\200?\000\000\200?\000\000\200?\000\000\200?\000\000\200?\000\000\200?\000\000\200?\000\000\200?\000\000\200?\000\000\200?\000\000\200?\000\000\200?\000\000\200?\000\000\200?\000\000\200?\000\000\200?\000\000\200?\000\000\200?\000\000\200?\000\000\200?\000\000\200?\000\000\200?\000\000\200?\000\000\200?\000\000\200?\000\000\200?\000\000\200?\000\000\200?\000\000\200?\000\000\200?\000\000\200?\000\000\200?\000\000\200?\000\000\200?\000\000\200?\000\000\200?\000\000\200?\000\000\200?\000\000\200?\000\000\200?\000\000\200?\000\000\200?\000\000\200?\000\000\200?\000\000\200?\000\000\200?\000\000\200?\000\000\200?\000\000\200?\000\000\200?\000\000\200?\000\000\200?\000\000\200?\000\000\200?\000\000\200?\000\000\200?\000\000\200?\000\000\200?\000\000\200?\000\000\200?\000\000\200?\000\000\200?\000\000\200?\000\000\200?\000\000\200?\000\000\200?\000\000\200?\000\000\200?\000\000\200?\000\000\200?\000\000\200?\000\000\200?\000\000\200?\000\000\200?\000\000\200?\000\000\200?\000\000\200?\000\000\200?\000\000\200?\000\000\200?\000\000\200?\000\000\200?\000\000\200?\000\000\200?\000\000\200?\000\000\200?\000\000\200?\000\000\200?\000\000\200?\000\000\200?\000\000\200?\000\000\200?\000\000\200?\000\000\200?\000\000\200?\000\000\200?\000\000\200?\000\000\200?\000\000\200?\000\000\200?\000\000\200?\000\000\200?\000\000\200?\000\000\200?\000\000\200?\000\000\200?\000\000\200?\000\000\200?\000\000\200?\000\000\200?\000\000\200?\000\000\200?\000\000\200?\000\000\200?\000\000\200?\000\000\200?\000\000\200?\000\000\200?\000\000\200?\000\000\200?\000\000\200?\000\000\200?\000\000\200?\000\000\200?\000\000\200?\000\000\200?\000\000\200?\000\000\200?\000\000\200?"
      }
    }
  }
}
node {
  name: "Const_2"
  op: "Const"
  device: "/device:CPU:0"
  attr {
    key: "_output_shapes"
    value {
      list {
        shape {
          dim {
            size: 1000
          }
          dim {
            size: 1
          }
        }
      }
    }
  }
  attr {
    key: "dtype"
    value {
      type: DT_FLOAT
    }
  }
  attr {
    key: "value"
    value {
      tensor {
        dtype: DT_FLOAT
        tensor_shape {
          dim {
            size: 1000
          }
          dim {
            size: 1
          }
        }
        tensor_content: "C;2@\372*\263?\251\267L@\307\221\376?{\342\200?\244\202\200@\364\233\246?\315Y\232@\002\002\233@\233\253\240@\272S\031@%\220T@\253^\213@f\275\365?l,\227@\206\355\013@\024\334n@\013\237\337?\201-\303@\3705=@/8U@,K\222>\230s\032@`5\n@6\367\211@?P\300@\027\246\025@>\034\200@[\343\301@\224\275\021@\326~\240@\311\312\263@m\312\006@F\026\371>\354\225\303?\266\301O@l\020\267@\'\337\220?\353,S@\320\326\366?\247\020f@\317\331)@\020\037@@1\334t@\334\240\262@E\253\213@o\014\000@\t~k@\320\335\220@>0\223?;\364\263>E\341\216@Y=\261@\3548\250@y\322\245?\013+5@\326\274\352?&^\013@.\266\251@\364\036\231@\207\233\310@\3153-?\003\375\206@\255I\225@o\211\266@\010\212}?y:\350>\344\274\020@\255\347\250@\340)\307@@\263*@\213T\026@n\300U@y\010\035@\020\324\266@\215rC@\262}\343?\037\331\371?\300\367\264@4\206\247?\246$\305?\265\353\204@\372(L>\367k\216@\206\260\304>\030\221\200@\037\022~@\217\347V>\244[\300@\343\205\025?\327h]@\355\303\214@\370?^@\307\313\306@\r9\234@Sc\346>|\3055@m\305b@H\353\306@\253\315\227@V\347\256@e,\277@\274h\205@~\304\306>\273G\372>\336\376\032@\023\004q?\355^\271@\274\311\032@C\000d@\313-\257@\271\232\017?,\336\203>\351\014\333?\214\237\027?S\371\033?\233`\337?\013\243I@\312\334v?A\346l?\306ei@HM\235@\335F\002>\244{2@\221\033$@\244>\304>\234\326=@\341\024L@e<\337?\266\346\310?\224=\255@\316\341\203@\322\312\205@\301\307\275@=\305\307?3\350\264?\2439V@*e\253@B\231o@\3547-@Z\223\260@\322\332\234@_\231@@\354\221Z@.c\255@\340O\237@\361\372\031?\300R\013@\251z\204@\364\356\277?\373\370\264>\032\312\"? \206\265@@\341\301@\210)|@R,\006?\345\224\253?^A\025@\217\237\207@&Sa@`\237&@\246U @\374\'\244@n\250\230@\270\002\350?G\374\304?>\020\206@O\241\274@T\344D@\013\216F>\336\304\243@4\240\235@\241\341\377=! \251@\'\001\213>\t\320\306?\364\t\356?\366A\210@\033\241\274@\231\350n@T\000S@\254\2609>9\021\024@\335\371\277?\373\231\303@V\370(@\277\372\372?`\\!@;oU@\244\255\016@\263q\023@\207X\313>\315\021?@3A\243@Uz\272?x\307\305@&\222X@\207\026\345?}\316/@\350w\245@\250\221/?\266p+@\347\371\\@\021wd@\rs\275@zs@@\231\373:@\251%\224>||\264@A\305c@\355s\351?Y\365\320>G\320\215@v\227\004>5\307!@\337p\022@\266W\204@rf\271?\356\307\243@\345\343.@j\233\030@\236+j@{-\363?\233r8?\0175\361?V(\272@\203\310\323?>\344]>\207\006\257@U\005\225@\360\274\253@P\337\236?\034\345F@s\277@=\301\030\235@_\022m>a\003\237@\211\215\006@\220\253\246@=\222<@:iu@!\353\370?(\364\235>\271\031\317?\205`\227@\001\211\263?\214N\372?g}\217@\006\324\225=\006\333N?\034d,@\212\200\261@A6v@\244\207\335?k\300\247@\265\235!?\2222@@\306:u@\001\371\225@\335 \233@\377@\n@,g\251@{\357\245@+\360\222@\326\242b>\'qJ@\266\212\203;\257rw@\247\361\037?\201\256\312?]\220R@\274\204\217@ECV@\252v\232?\247\362\230@\037W\034@&[O@\332\364h?tQ @P\324Y?`g^?92i@`\364\277@\363\243\302@8`\300@\344\351\303@\254\336\266?\241\2347@\230\326\221@Ie\216@\037{\307@c^\262@\374\234\267@\360\274\306?\275\324\275?\254f_>\020\305f@H\366J@\202\345\236?\227\211o?\205G6@r\200\233@\206\3213@i\222\264@\204H\210@\017\351.@1^\210@\016\0103@\221b\337?\355N\316?L\364w@(<J@\002\271\266?\027\253Z?%\203\232@\346\304\262@\010\357\225@n\024\274?\337\014\300@F\300\204@K\020e@\206\365\242@\006w\310@$\034\271?\201\"f@?L\201@\273\367\220@\177\010o>\213\305$@?\004\313?A\305\014@\321\312\247?\035B\316?\241a\273?}N\252@\347j.@\230\337\241@\3167%=\2230\022?\276\332\207@s\3356@g\350n?\307\203\202@\030\023\241@\255L\221>\355lE@\321C\017@\354\325h@\370\210f@\274\261\254@\nZ\036@<\351\264@\370\n\242@y\325\177@N0\241?F\277\342?\321\241x@?h\250@c?[@\327\211\211@\330\235\244@\002\027\'@XO\203@\205_\224?W\315F@i\032\270@F\356\006@\242\261@@\276\302d@\003\033\231@\307g\214@\275\204Z@\267\331\270@\347\2317?=\265\254@\360R\344?\001e\306@{\205\275@\233\235X@\"\343v@1\177\226@\213k\340?p\323\025?\331\267\255@\033\311\030@q\034\322?\222\373\205@aN\304>\262\232E@\207\315\207>e\272\307@\330\342s@\2619\217@G\005\306?,J\033@\330\021\230@\035\035\006@tD.?\363\315\023@\340\350z@\253;\304@\313\"\246@O^\020?\010\215\236@0\240S@\312g\212?7\234\035?\025w\005@IV&=\354]\207@\272\312\344?\346,\237@\311\345\031@\271\013c@d~\241@a\326\000@\377_j>=TC@4\'\220?c\277\257@\333p\256@\234\205\225@\223\243\300@9\322\275@T\262\215@5Z\251@O\312\263@\250\031\233@\3175\215@\215\346/=#\265\034@K2\035@\231\363\254@\236^\237@\304\253\242@\371\033 @H\372\265@w\371w@MC\262@\344=N@\200o\223?\213\323x@\005\375\020?\301\240\203@\364\256\232?\361\213\216@\261\370\216?\037\212\315?$\256\306@~\343\260@\000\340+@\244\3654>\205\350\276@\316h_>\235\336\275@9W\252>\220rK>\301\374l@;\240x@9\323G?\232\243\342?\332\000\247@D\034]@\030=\200?\333\214y@8\361\244?\002N\306@S\365\'@\210\365\217@\246&)@f\\\022?\242\031\220@\220\351\217@\227D\240?<n\222@\2366w?\374\322\"@71\224@1@k:\265\214\014@\025\362\267@\331(\357?5\343\336?q\224\242@m\367\316=\215\274[@n\320\014@U\251\220@t\375\310@\333\363\215@7\312\030@\323\366\353?=\034\006@{\375\220@\272\005\367?\247B\236@q\274\200@\315\327@@\241^\274?\0132\214?\270\232\002>\361O\261?:mb@\027\2302?U\312\356?\205iv@\346/\216@-\030\340?52\250?\226\343x@b\251\231@$T\212@Ns\024@\247\002\267@-\206\370?\222\245\361?\273\235\235@\360\023c?\271\257\347?\216S\'@\3238\013@p\304\243@c\351|@\362Q\266@D\260\225@R\321\017@\036\002\\@\303u\207@3\204\210@\004\\\223@Kk~@c\260n@\307\257\232=[*\'<K\031\275?Gz3@\201\250d@5\376&@\374\260r?\360j\233@\013\316\246@\000\247\301@\217mn@/-\222@\214\262w@\304\335\366?\\\332\270@\303n\367?ZN\247?eJD?D\355\234@w(/@\'\226\303@\347k\211@K6\256@&;\333?,\311\252@4e\207>\306\343\007@\025\276\227@\236\362\\?\217.\241@\313\261\262?k\317\230@\357L5@\352^\253@\020\3002?\224t\005?\336\301\256@\006\027\241@\036\251\223?\276\020Z@\256\222\247?\324:x@*\3600>\031K\266@\377\207\231@\371\377#@\002\006;@\030\356\241@]\364(@xmq@3\302\304?\223\342\203@\247\277\245@\357\027\215@B\324\363?\003*\310?d\214\n?\n>\321?\177\206\222@\346#\371?\t\003:@\344\203\304@I\023\271@:\234\250?D5\300?!\215\214@\303\233\231@\226\351\254?<\031\246@o\362\370?@\002\242@\247\266\306?&F\342?\270\374B@7\024)?ce\266@e\037S@p\036\233?rjS?<\003\203<\0364\267?\242+G@^\010\305@\220\227\216@\002\376\276@BN\262@\270\205\225@V\"\224@J\010\014?x\256\374>\\}\226@Sw\302@J\035(@\227\332\027@\213\365}@\312\022\302@\002e\010?/\306\231@\250:\230<$\030\242?\371S8@\3259\254@\306\257\212@\207;,@i\034\321?\223\253S@\325\362\305@9J\370?E\233\246?\007\363p?h\257\233@\\\370`@\305p\235@4\313\225@\214i\244@~8\277@y\370M?\253\234\262@\016\034R@_S\232@,\026\245?n\347\017@6>\233@\264\230u@\013+\212@\301\025\257?\200@\241@\r\236z@\211y\274@e`\026@\231\255\227?\274e\246@\361\037\310@\252\013\024@=\353\235?\367\r\372?\313\247\254>\"tR@\241\340\377>0yw?\272\251K?\216\261\216?\361\375\313>\307tV@\320K\211@\026\003\250@.\\\031@\304V\267@\"~\236?\031\273\307>n\303\364?\303\357E@\204$H@+\0067@\222f\270?\312\233\335?\326)\205@\234Z\237@M\\\254@1\276\264@I\333\033@\341\325\021?4\265\264@k\211C@j\302\263@jW\344?&\307z?+P!@#\272\232@\233e\310?F\276.@\2513\020?\036\304\267@\262a\221@\027\226\223@\024\005\311@\317\001\206@\272\230\251@\0248\002?\013\227|?>\206\254@\007C\256@\201>\306@\316\360b@o\017\222@\0344\253@\223 \313?x\014\027?\247\253\304?\016\036\212?!\035\365?\264~\306@\364\007\236@sQ*@z=f@b\316\257?;\243}@eW\237@)\324\305?\334E\251?f\227G@\231m!@\221\203\352?W\264\276@\345\237F@\246J\266@\344\376\301@\023\306o@\002q\253>N\036\024@\0133(@fx\273>\312\033\276@q\256\221@\357M\276@HU\331?\260\245p@\250\366l>\032l\226@w\312\022@\254@\245@\233\335\003@H\337@@L\rb@v\250@@6\240E@\243\211h@\373\362\211@\t\032x@8\264#@\031\002G?\224\250\300?\235FA@\217%\231?\3625m>?\245\221@\"t\226?/A\327>U\320r@~\005\235?\275\214l@a\373V@yU\252@\337x\302@\006\027\031>\3335\036@l\346{@\n\376\273@\225\216u@:HH?\234\230\272@\310\226q?\211i\312?m\273\303@\343\200=?\3003\213>m\200\307?.\204(?\324\214:@Sz\272@/\272\302@\370\360\230<=6\255@\212}\200@\231&U?&\301\261@p\202\271?p\t\221@\003\216)?\344\315\314?\033v\242@\030\220\240@t\303\374?`h\231@\300,\357>=\242\271@!\236m=\344\370K@\346p\316?\013\227\272@\266~\177@jF\236>\315\013\200@}\242T@v$\237@\244#\007@h_\344?\275\255\275@\311\274\253?w\257\230@\301\226\277>hc\233@\354\341\017@\240\231\\?\256i\332?\362\311\214>b\333\340?\351?\217@\227\362\202@\304\275\035>\023\000L@\272\200\307@\374\245Z@\343\276\214@\021z\250@&^+?\372\330<@\233^\301?\306\230\251@\301JP?\027\347\217@\217\212\203@\037\320\352>F\304\252@P\240\211@\3258\227?\364\313\311>\003r\236@\334\251\305@`(q@\202\366\234@\372`\"?o\275\245@\030\306_@\261\272\300@\211\266\327?\n\224%>S\017Q@\303\372\234@\020\262\023@\000%\234@T\316\270?`\013\303@\276J\233@\027\030\006@\201U\260@\214\207\271@?\215\243@\222z]?\334\254\220@\371\201\207@\276X\340?\272\0342?\027{\240@\334\247[@5\267\256@[\272O@2c&@c\001\307?}\236R@vR\004?\343\022\034@\247\013-@a6\210@\246\240\027@K\220\231@\372\217E?\200\374a>E(\226@c;}@Q\213#>@\031\r@m-&@\206\341\277@\223g5?M\372\256@\201\300\227@\333\005\"@\257\261Z@\224\374\002@\2669\213@\274\363\006@\343\246\232@\326\223\233@\303\000\221@\005\365P@\2632\263@U\001\326>>\t>=jiG@\371\342\213?\211\344\254@J\023\217?\270\254\217@\227\344E@\017\030\224@\030y\231@CYU@t\337\247@%\"\272@Qq|@\276x`>M\033r@\r\321\246?RS\261@\337p<@\021W_?\244/[@\314\211\270@\020|\243@\030#\215=\017\311\t@\032\3456@\316\2754@\312\232I@\2038Y@3a\255@$f\004@\244p\210@\027\311\244@X\260\266@\350G/@\351\360\177@\273;\244@\260N\021?\370R\007@yE\277?\333\211E?\323h\261?\266\3164@\032I\204@\313\201\200@^\333\302@\005S\216@D\266\246@~\010\256@iG\025@G5s@\232\320\361?\177\354b?\322\265\310@\210\t\324:\314\330\251@\331Z\017@\2712Z@\203\233\377?\234\350\037@\351.(@\200 \215@\033\367\255@\332\016\317?7=\275@\311\267\220@u51?^\266\016>\273jZ?\345\354\226@\005\005\214@\341\303\236@<\0337@\263\013\003@g\356\237@\345T\002@t\230\246@p\304\240@l\273)@\3418d?\271K\277@\343\201\024@\317\315\326?\324G\245@\313!\350>\232\341\005?H\331\\@\"T\235@xY@?M+Z@@1\016>"
      }
    }
  }
}
node {
  name: "Const_3"
  op: "Const"
  device: "/device:CPU:0"
  attr {
    key: "_output_shapes"
    value {
      list {
        shape {
          dim {
            size: 1000
          }
          dim {
            size: 1
          }
        }
      }
    }
  }
  attr {
    key: "dtype"
    value {
      type: DT_FLOAT
    }
  }
  attr {
    key: "value"
    value {
      tensor {
        dtype: DT_FLOAT
        tensor_shape {
          dim {
            size: 1000
          }
          dim {
            size: 1
          }
        }
        tensor_content: "\000\000\200?\000\000\200?\000\000\200?\000\000\200?\000\000\200?\000\000\200?\000\000\200?\000\000\200?\000\000\200?\000\000\200?\000\000\200?\000\000\200?\000\000\200?\000\000\200?\000\000\200?\000\000\200?\000\000\200?\000\000\200?\000\000\200?\000\000\200?\000\000\200?\000\000\200?\000\000\200?\000\000\200?\000\000\200?\000\000\200?\000\000\200?\000\000\200?\000\000\200?\000\000\200?\000\000\200?\000\000\200?\000\000\200?\000\000\200?\000\000\200?\000\000\200?\000\000\200?\000\000\200?\000\000\200?\000\000\200?\000\000\200?\000\000\200?\000\000\200?\000\000\200?\000\000\200?\000\000\200?\000\000\200?\000\000\200?\000\000\200?\000\000\200?\000\000\200?\000\000\200?\000\000\200?\000\000\200?\000\000\200?\000\000\200?\000\000\200?\000\000\200?\000\000\200?\000\000\200?\000\000\200?\000\000\200?\000\000\200?\000\000\200?\000\000\200?\000\000\200?\000\000\200?\000\000\200?\000\000\200?\000\000\200?\000\000\200?\000\000\200?\000\000\200?\000\000\200?\000\000\200?\000\000\200?\000\000\200?\000\000\200?\000\000\200?\000\000\200?\000\000\200?\000\000\200?\000\000\200?\000\000\200?\000\000\200?\000\000\200?\000\000\200?\000\000\200?\000\000\200?\000\000\200?\000\000\200?\000\000\200?\000\000\200?\000\000\200?\000\000\200?\000\000\200?\000\000\200?\000\000\200?\000\000\200?\000\000\200?\000\000\200?\000\000\200?\000\000\200?\000\000\200?\000\000\200?\000\000\200?\000\000\200?\000\000\200?\000\000\200?\000\000\200?\000\000\200?\000\000\200?\000\000\200?\000\000\200?\000\000\200?\000\000\200?\000\000\200?\000\000\200?\000\000\200?\000\000\200?\000\000\200?\000\000\200?\000\000\200?\000\000\200?\000\000\200?\000\000\200?\000\000\200?\000\000\200?\000\000\200?\000\000\200?\000\000\200?\000\000\200?\000\000\200?\000\000\200?\000\000\200?\000\000\200?\000\000\200?\000\000\200?\000\000\200?\000\000\200?\000\000\200?\000\000\200?\000\000\200?\000\000\200?\000\000\200?\000\000\200?\000\000\200?\000\000\200?\000\000\200?\000\000\200?\000\000\200?\000\000\200?\000\000\200?\000\000\200?\000\000\200?\000\000\200?\000\000\200?\000\000\200?\000\000\200?\000\000\200?\000\000\200?\000\000\200?\000\000\200?\000\000\200?\000\000\200?\000\000\200?\000\000\200?\000\000\200?\000\000\200?\000\000\200?\000\000\200?\000\000\200?\000\000\200?\000\000\200?\000\000\200?\000\000\200?\000\000\200?\000\000\200?\000\000\200?\000\000\200?\000\000\200?\000\000\200?\000\000\200?\000\000\200?\000\000\200?\000\000\200?\000\000\200?\000\000\200?\000\000\200?\000\000\200?\000\000\200?\000\000\200?\000\000\200?\000\000\200?\000\000\200?\000\000\200?\000\000\200?\000\000\200?\000\000\200?\000\000\200?\000\000\200?\000\000\200?\000\000\200?\000\000\200?\000\000\200?\000\000\200?\000\000\200?\000\000\200?\000\000\200?\000\000\200?\000\000\200?\000\000\200?\000\000\200?\000\000\200?\000\000\200?\000\000\200?\000\000\200?\000\000\200?\000\000\200?\000\000\200?\000\000\200?\000\000\200?\000\000\200?\000\000\200?\000\000\200?\000\000\200?\000\000\200?\000\000\200?\000\000\200?\000\000\200?\000\000\200?\000\000\200?\000\000\200?\000\000\200?\000\000\200?\000\000\200?\000\000\200?\000\000\200?\000\000\200?\000\000\200?\000\000\200?\000\000\200?\000\000\200?\000\000\200?\000\000\200?\000\000\200?\000\000\200?\000\000\200?\000\000\200?\000\000\200?\000\000\200?\000\000\200?\000\000\200?\000\000\200?\000\000\200?\000\000\200?\000\000\200?\000\000\200?\000\000\200?\000\000\200?\000\000\200?\000\000\200?\000\000\200?\000\000\200?\000\000\200?\000\000\200?\000\000\200?\000\000\200?\000\000\200?\000\000\200?\000\000\200?\000\000\200?\000\000\200?\000\000\200?\000\000\200?\000\000\200?\000\000\200?\000\000\200?\000\000\200?\000\000\200?\000\000\200?\000\000\200?\000\000\200?\000\000\200?\000\000\200?\000\000\200?\000\000\200?\000\000\200?\000\000\200?\000\000\200?\000\000\200?\000\000\200?\000\000\200?\000\000\200?\000\000\200?\000\000\200?\000\000\200?\000\000\200?\000\000\200?\000\000\200?\000\000\200?\000\000\200?\000\000\200?\000\000\200?\000\000\200?\000\000\200?\000\000\200?\000\000\200?\000\000\200?\000\000\200?\000\000\200?\000\000\200?\000\000\200?\000\000\200?\000\000\200?\000\000\200?\000\000\200?\000\000\200?\000\000\200?\000\000\200?\000\000\200?\000\000\200?\000\000\200?\000\000\200?\000\000\200?\000\000\200?\000\000\200?\000\000\200?\000\000\200?\000\000\200?\000\000\200?\000\000\200?\000\000\200?\000\000\200?\000\000\200?\000\000\200?\000\000\200?\000\000\200?\000\000\200?\000\000\200?\000\000\200?\000\000\200?\000\000\200?\000\000\200?\000\000\200?\000\000\200?\000\000\200?\000\000\200?\000\000\200?\000\000\200?\000\000\200?\000\000\200?\000\000\200?\000\000\200?\000\000\200?\000\000\200?\000\000\200?\000\000\200?\000\000\200?\000\000\200?\000\000\200?\000\000\200?\000\000\200?\000\000\200?\000\000\200?\000\000\200?\000\000\200?\000\000\200?\000\000\200?\000\000\200?\000\000\200?\000\000\200?\000\000\200?\000\000\200?\000\000\200?\000\000\200?\000\000\200?\000\000\200?\000\000\200?\000\000\200?\000\000\200?\000\000\200?\000\000\200?\000\000\200?\000\000\200?\000\000\200?\000\000\200?\000\000\200?\000\000\200?\000\000\200?\000\000\200?\000\000\200?\000\000\200?\000\000\200?\000\000\200?\000\000\200?\000\000\200?\000\000\200?\000\000\200?\000\000\200?\000\000\200?\000\000\200?\000\000\200?\000\000\200?\000\000\200?\000\000\200?\000\000\200?\000\000\200?\000\000\200?\000\000\200?\000\000\200?\000\000\200?\000\000\200?\000\000\200?\000\000\200?\000\000\200?\000\000\200?\000\000\200?\000\000\200?\000\000\200?\000\000\200?\000\000\200?\000\000\200?\000\000\200?\000\000\200?\000\000\200?\000\000\200?\000\000\200?\000\000\200?\000\000\200?\000\000\200?\000\000\200?\000\000\200?\000\000\200?\000\000\200?\000\000\200?\000\000\200?\000\000\200?\000\000\200?\000\000\200?\000\000\200?\000\000\200?\000\000\200?\000\000\200?\000\000\200?\000\000\200?\000\000\200?\000\000\200?\000\000\200?\000\000\200?\000\000\200?\000\000\200?\000\000\200?\000\000\200?\000\000\200?\000\000\200?\000\000\200?\000\000\200?\000\000\200?\000\000\200?\000\000\200?\000\000\200?\000\000\200?\000\000\200?\000\000\200?\000\000\200?\000\000\200?\000\000\200?\000\000\200?\000\000\200?\000\000\200?\000\000\200?\000\000\200?\000\000\200?\000\000\200?\000\000\200?\000\000\200?\000\000\200?\000\000\200?\000\000\200?\000\000\200?\000\000\200?\000\000\200?\000\000\200?\000\000\200?\000\000\200?\000\000\200?\000\000\200?\000\000\200?\000\000\200?\000\000\200?\000\000\200?\000\000\200?\000\000\200?\000\000\200?\000\000\200?\000\000\200?\000\000\200?\000\000\200?\000\000\200?\000\000\200?\000\000\200?\000\000\200?\000\000\200?\000\000\200?\000\000\200?\000\000\200?\000\000\200?\000\000\200?\000\000\200?\000\000\200?\000\000\200?\000\000\200?\000\000\200?\000\000\200?\000\000\200?\000\000\200?\000\000\200?\000\000\200?\000\000\200?\000\000\200?\000\000\200?\000\000\200?\000\000\200?\000\000\200?\000\000\200?\000\000\200?\000\000\200?\000\000\200?\000\000\200?\000\000\200?\000\000\200?\000\000\200?\000\000\200?\000\000\200?\000\000\200?\000\000\200?\000\000\200?\000\000\200?\000\000\200?\000\000\200?\000\000\200?\000\000\200?\000\000\200?\000\000\200?\000\000\200?\000\000\200?\000\000\200?\000\000\200?\000\000\200?\000\000\200?\000\000\200?\000\000\200?\000\000\200?\000\000\200?\000\000\200?\000\000\200?\000\000\200?\000\000\200?\000\000\200?\000\000\200?\000\000\200?\000\000\200?\000\000\200?\000\000\200?\000\000\200?\000\000\200?\000\000\200?\000\000\200?\000\000\200?\000\000\200?\000\000\200?\000\000\200?\000\000\200?\000\000\200?\000\000\200?\000\000\200?\000\000\200?\000\000\200?\000\000\200?\000\000\200?\000\000\200?\000\000\200?\000\000\200?\000\000\200?\000\000\200?\000\000\200?\000\000\200?\000\000\200?\000\000\200?\000\000\200?\000\000\200?\000\000\200?\000\000\200?\000\000\200?\000\000\200?\000\000\200?\000\000\200?\000\000\200?\000\000\200?\000\000\200?\000\000\200?\000\000\200?\000\000\200?\000\000\200?\000\000\200?\000\000\200?\000\000\200?\000\000\200?\000\000\200?\000\000\200?\000\000\200?\000\000\200?\000\000\200?\000\000\200?\000\000\200?\000\000\200?\000\000\200?\000\000\200?\000\000\200?\000\000\200?\000\000\200?\000\000\200?\000\000\200?\000\000\200?\000\000\200?\000\000\200?\000\000\200?\000\000\200?\000\000\200?\000\000\200?\000\000\200?\000\000\200?\000\000\200?\000\000\200?\000\000\200?\000\000\200?\000\000\200?\000\000\200?\000\000\200?\000\000\200?\000\000\200?\000\000\200?\000\000\200?\000\000\200?\000\000\200?\000\000\200?\000\000\200?\000\000\200?\000\000\200?\000\000\200?\000\000\200?\000\000\200?\000\000\200?\000\000\200?\000\000\200?\000\000\200?\000\000\200?\000\000\200?\000\000\200?\000\000\200?\000\000\200?\000\000\200?\000\000\200?\000\000\200?\000\000\200?\000\000\200?\000\000\200?\000\000\200?\000\000\200?\000\000\200?\000\000\200?\000\000\200?\000\000\200?\000\000\200?\000\000\200?\000\000\200?\000\000\200?\000\000\200?\000\000\200?\000\000\200?\000\000\200?\000\000\200?\000\000\200?\000\000\200?\000\000\200?\000\000\200?\000\000\200?\000\000\200?\000\000\200?\000\000\200?\000\000\200?\000\000\200?\000\000\200?\000\000\200?\000\000\200?\000\000\200?\000\000\200?\000\000\200?\000\000\200?\000\000\200?\000\000\200?\000\000\200?\000\000\200?\000\000\200?\000\000\200?\000\000\200?\000\000\200?\000\000\200?\000\000\200?\000\000\200?\000\000\200?\000\000\200?\000\000\200?\000\000\200?\000\000\200?\000\000\200?\000\000\200?\000\000\200?\000\000\200?\000\000\200?\000\000\200?\000\000\200?\000\000\200?\000\000\200?\000\000\200?\000\000\200?\000\000\200?\000\000\200?\000\000\200?\000\000\200?\000\000\200?\000\000\200?\000\000\200?\000\000\200?\000\000\200?\000\000\200?\000\000\200?\000\000\200?\000\000\200?\000\000\200?\000\000\200?\000\000\200?\000\000\200?\000\000\200?\000\000\200?\000\000\200?\000\000\200?\000\000\200?\000\000\200?\000\000\200?\000\000\200?\000\000\200?\000\000\200?\000\000\200?\000\000\200?\000\000\200?\000\000\200?\000\000\200?\000\000\200?\000\000\200?\000\000\200?\000\000\200?\000\000\200?\000\000\200?\000\000\200?\000\000\200?\000\000\200?\000\000\200?\000\000\200?\000\000\200?\000\000\200?\000\000\200?\000\000\200?\000\000\200?\000\000\200?\000\000\200?\000\000\200?\000\000\200?\000\000\200?\000\000\200?\000\000\200?\000\000\200?\000\000\200?\000\000\200?\000\000\200?\000\000\200?\000\000\200?\000\000\200?\000\000\200?\000\000\200?\000\000\200?\000\000\200?\000\000\200?\000\000\200?\000\000\200?\000\000\200?\000\000\200?\000\000\200?\000\000\200?\000\000\200?\000\000\200?\000\000\200?\000\000\200?\000\000\200?\000\000\200?\000\000\200?\000\000\200?\000\000\200?\000\000\200?\000\000\200?\000\000\200?\000\000\200?\000\000\200?\000\000\200?\000\000\200?\000\000\200?\000\000\200?\000\000\200?\000\000\200?\000\000\200?\000\000\200?\000\000\200?\000\000\200?\000\000\200?\000\000\200?\000\000\200?\000\000\200?\000\000\200?\000\000\200?\000\000\200?\000\000\200?\000\000\200?\000\000\200?\000\000\200?\000\000\200?\000\000\200?\000\000\200?\000\000\200?\000\000\200?\000\000\200?\000\000\200?\000\000\200?\000\000\200?\000\000\200?\000\000\200?\000\000\200?\000\000\200?\000\000\200?\000\000\200?\000\000\200?\000\000\200?\000\000\200?\000\000\200?\000\000\200?\000\000\200?\000\000\200?\000\000\200?\000\000\200?\000\000\200?\000\000\200?\000\000\200?\000\000\200?\000\000\200?\000\000\200?\000\000\200?\000\000\200?\000\000\200?\000\000\200?\000\000\200?\000\000\200?\000\000\200?\000\000\200?\000\000\200?\000\000\200?\000\000\200?\000\000\200?\000\000\200?\000\000\200?\000\000\200?\000\000\200?\000\000\200?\000\000\200?\000\000\200?\000\000\200?\000\000\200?\000\000\200?\000\000\200?\000\000\200?\000\000\200?\000\000\200?\000\000\200?\000\000\200?\000\000\200?\000\000\200?\000\000\200?\000\000\200?\000\000\200?\000\000\200?\000\000\200?\000\000\200?\000\000\200?\000\000\200?\000\000\200?\000\000\200?\000\000\200?\000\000\200?\000\000\200?\000\000\200?\000\000\200?\000\000\200?\000\000\200?\000\000\200?\000\000\200?\000\000\200?\000\000\200?\000\000\200?\000\000\200?\000\000\200?\000\000\200?\000\000\200?\000\000\200?\000\000\200?\000\000\200?\000\000\200?\000\000\200?\000\000\200?\000\000\200?\000\000\200?\000\000\200?\000\000\200?\000\000\200?\000\000\200?\000\000\200?\000\000\200?\000\000\200?\000\000\200?\000\000\200?\000\000\200?\000\000\200?\000\000\200?\000\000\200?\000\000\200?\000\000\200?\000\000\200?\000\000\200?\000\000\200?\000\000\200?\000\000\200?\000\000\200?\000\000\200?\000\000\200?\000\000\200?\000\000\200?\000\000\200?\000\000\200?\000\000\200?\000\000\200?\000\000\200?\000\000\200?\000\000\200?\000\000\200?\000\000\200?\000\000\200?\000\000\200?\000\000\200?\000\000\200?\000\000\200?\000\000\200?\000\000\200?\000\000\200?\000\000\200?\000\000\200?\000\000\200?\000\000\200?\000\000\200?\000\000\200?\000\000\200?\000\000\200?\000\000\200?\000\000\200?\000\000\200?\000\000\200?\000\000\200?\000\000\200?\000\000\200?\000\000\200?\000\000\200?\000\000\200?\000\000\200?\000\000\200?\000\000\200?\000\000\200?\000\000\200?\000\000\200?\000\000\200?\000\000\200?\000\000\200?\000\000\200?\000\000\200?"
      }
    }
  }
}
node {
  name: "Const_4"
  op: "Const"
  device: "/device:CPU:0"
  attr {
    key: "_output_shapes"
    value {
      list {
        shape {
          dim {
            size: 1000
          }
          dim {
            size: 1
          }
        }
      }
    }
  }
  attr {
    key: "dtype"
    value {
      type: DT_FLOAT
    }
  }
  attr {
    key: "value"
    value {
      tensor {
        dtype: DT_FLOAT
        tensor_shape {
          dim {
            size: 1000
          }
          dim {
            size: 1
          }
        }
        tensor_content: "wr\310?\266\232\260@\204H\230?\"\001\334?5,\002@Y\277\240@\227\230V@\210\320\254@_`\304@\020\344\302@\353\177\267@L\373-@\205\210:?\237\330\016@\224+\267>\232\271\200>\321Z/@\2469\244@\332+\266@P\003\325?\324\314\232?\000:z?co`@/g/@\264J\273>\245Z\344?\t\177\210@0\025\264??\265\223@$5Q@}\016|@\225\263\022@\242\242\036?\010\273\227?\326\211&=\335P\311=C^p@\260\025W@\312\370,@t\347\224@\274\362s@\222\025S?g~P@\t\352\231?\240U\237?w*\035?h\242\323?\203v\007@\340r\003@\345\003\241@|e\260@\n\021\215@&b\223?E\211\305@5\355M@\004hS@w\333M>t<\r@h\306\300@\210=\331?J\203\255@\223\375g@\203\035,?Z@\247@/\344\300@\262Y\236@$\314\263@\316\336\251@B\304j@\027\314\230?\307T\233?\347x\272@\243t\307@\240\312\256@\'VI@N\370\245@\260y\207@\352\356i@)\203\365?\3663\377?\272\320*@~\027\\?\315\022\277@\022\306\312>\036\374\022@\276\342\024@_(\230?R\010\274@\200\274D@\013\027n@\034gI@\203\211\025>\3024#@~\321\230@^E\214@c*\006>W\264\305@\305C\300@\\\322\273@\'\t\202>\004\2262?hM\r@\200\356P@#\200y?\366\213+@AM\225?h\207H?J+\364?\216?1@\357\034\204@q\336\263@\243`V@\365\343~?\037\276D@S\351\271@\324\246\352>a\256\242@/\364\022@ {\246@\216\376E@\213!\032@\277\241\203>\332w\234@?Y\271?%\371\273@Ve\260@\263:\271>\376r1?\336mG@<\177\300@\237\271J@w\320\302@\317nB@[\370\244@\333A\230@\255n\207@\205\027\303@.r\246@\232\367\307@\316\333d@\235\ne@\332h\261;\354N\265@\260\252r@\357\027\021?\240\364%@~\347\214@\367\330\342=?QQ@\265vT?\234\001\361?\237\2207?%\370=?\033^\177@\352\257_?\201\013\255@\263I\024@\300\030\246@\330\221\200@\'\016\233@\360\245\'@\244\006j@H*\230@e@\014@\254%\211@\275\334\265?\254Z4@\032i&?Q=p@\224yj?:\326\200@\321\364\177@K\347\276@\233\240\212@l\003\307@\303\327z@\355>v@5\265\321?s\247\211@\252Y\240@P#\240@r\330\002@K\022\275?DG\270@\020s\207@\004~\257@J\372d@W\217\000@^\347\003@@\005\232@\\}\200?8\022\026@\325\345\211?\352\333L@\226\350\257?\255b\316?W\036\200@\260DO@\257b\010@\361UP@?\340\206@Jy\254@\013 \234@\035c\204@7e\240?\370\343\224?\304\376\212@:\336_@\311\3456@\267\337\346?\274\304\253?dAA?\270\006A@\n<\254@\264 \"?\227\032\204@$b\265?\304\201\035@\014\210\304@\026\216E? \344\341?z\220\270?\3652\014@\026k\350?\217Z\327=[\0074@\325_4@\315\361\224@\211\261$@5\344\277@!\357\204@\230W\273@j\031v?s\341\217@\006#\232>\312M\304?\n\024\276@\323\355#@\223\005\222>\221\231\242@\242\177G@\341\325g@\034\331\220@\301\321\240>\213\375\210@\367]\372?\220\354\024@\'b\304@\222\032.?\261\033\230@\375\276\200@\257\254\256@j\364\247@\351&\302@Q\033N@\037\362\271@\221\263\014@\302{\344?\340d0@\277\316b@}}x?\366\216\036@\210\027\251@\236U\232@N{K@h!\245@o\224z?d\350\241@\020\373\223?\253\323T@Mh\030@<\245\265@\237Y^>\036\2375?0c\241?\026V\266>6%\235>\017\234\034@e2\233@\244\214\006?|\256Y@\032k\242@\370\272\267@\014\345\226>\331\227\233@\"1\230@\331\t\366?%j\210@\363CR@.\332j@\r\262\013@\336\332\252@\3145t@\341\317\225@\251\336\263@\033\027\305?\335~\001@\345\311\236@\343\210\240@*m\253@O\007\005@\373\274 @#\301\314>\013\265\332<\304i?@\305\255g@,2*@\246\007|@c\347\273?a<\024?\014{\216?`\031\325?\327aI@<s\252?*\237\210@P\000K@\223*\246@\347\215h@AF\"@b\316\006@\327_\242>{b\221=-\226\227?\203\257\\@qUr?\352\006l@\3233\262@\037:?@\264\265\030> Q=@\337/\225@\306K0?\265~\310@\275\326\204?\036K\005@ak\235@\253\364\270>\256\336\222@\341\035K@$\366j@\035\362\341>+6&@G{\263<6)\210@\t\361\226@\020\376\020@a\253\263?\256\355\230>\235\342\027@\214\267^@\307\271_?Wf\t@N\300\225@\002\016\005@\254\267\222@\r\235\241@\215\221(?\202if?N\037Y@}.\242@\330\367\213@Y\026\344?\253\360I@\370w,@\255\262\204@\347A;?\362S!@O\347]?5\026\243?\332\325\000>\232\031\311?\314\025\235@s\231\256@\371\013\302@\360\334\221@\257\311\272@02`>\217\272\253@\370C\262?\261pA@?gS?\217[\210?\236\023\371==B\205@Gw\303@$xI?\025\232\232?]\262\236@\252\203\304@\001\351\274?\036\031\234@\241X\251@J9\270?\201o\252@S\206\364>\233\315\334?X!\244>\214\"\237?`\322\226?\331cX@\310\264*@\204\260\272@?\221\236@\217\n,@i6\201@]J\340?\244S\227@\301K\030@\365\316z@\245b\270@m\241\205@\266\323w@\256Y\274@u\231[@\032~\313?\000I\215?\023\312\341?\"\000\254?\374\333C@L\037\016@\345\324Q@z\207\242@\243\352B@\266\2231@\345\t\307@R\231\220?}\303\203<\264\242\001@\306WX@w0\201?n\273\255@\032\255p@\263\210\244?\235\242\377?15\202@x\356\240@\346\372\343>?\177P@\010\002\251@\343\202@@!\240\253@G\033;@\330\023\310>\300\205\313>\0056H@v\363\265@\035y\n>\335\013\203?y\232?>\013\252\202@\010\225\266@6\030o@\022U\377?J~I@\347\276\276@\317~\215@\217\\\234?\021&\251?\320\337#@\243\325\205?=/!@\276~\337>\0019\313?s\374(@\366\303\210@\224\247\362=*4<?\260\\$@\3634\303@\304\342\225@\235\367O@\221\302\261@\310\271\345>V<\233@\000\341\300@\354\022y@\261\367\177?A\204\262@\367\222\270@*\224\206@\200\225\276?\231\253\272@\324\363\305@\004\226f@\351\240j>\364_\014@&\307\271?Jux@\244\314!?\001\226\253@Wv\271@\320\200\244?\207{Z@\007\003\267@mM\260?\203KQ@-\030\213@\210\302\270@\037\232d@\301_d@\315w\004@\305i\037@\231\016\254@\317Qz@\340=t?\372i\241@\253B\247@\371\370F@d1\202>\230\032\037@\005\232\216?E\214z@\360\005\311@\374\313\"?z\004\224<\200\000\221>;\321\214@t\364\275?X\026\376?\264\272$?\267:\305@z]\307@\320\314\361>?T\276@\342*\211@+\320\233@\251,\200@\017\312\261@M<*@\266\244W@\027\365\213?PC\034@\210\356\225@\031\277\026@>\037\302>;\014$?2.U@@G}?\335\307\357?\272,\245@\343&p@\350\030\276@\235A\303?\330\300\016@\206\201+@\221\026\034@ q\273?1@\225@\264\037\006?\350\037\236?\210\0348@=Y%?\312Gz@\324\260\025@s\330\207@\252\247x?\002\334\252@\2237|>\366\3629@\241\204\276?x\027:@e\316\270@\315\206\226?\005\261+@\013\351\220@.\327\034@\257\326\023@\000\344\234@\n\000\177?\2324\233?\357\362S@~\344|@LX\341?Q\350\277@\tH.@P\2071@\330\220\024@\252:1?p\004\224@\331y\236@\303\020\306@\247\370Y?O\343\304?#\256\227@\022\334)?\251\023\276?zHy@\263y\306?\362uN<\366\033\252@\355\006\205@vz\271?\305\342\\@\220\326\261?\363[\353?;Q\252@\331\020\342>6s\227@M\002\n@\257\003\242@\304!\035@\217\034\211@\277\2432@\226\355\304?\033e\030@\3247c?\352\266\230@]\324\301@\244\014\240@\222I\013@\374\333\300@\310\365\251@\301\314\240@\253\2059@\327\351>@\373j\241?\234\367Z@\241Q.@J?\234@\030\311\244?h\312\207@t\t\237?\272bv@=_\004>-v\211?f\226.@\265\035\221@C\304\233@\334\026]@MZ\204@A\255\237@\345\333K?\312\245`@O\247g@EQ\224@\226\334W@\222\203\321?\217\204>@\035\361\253@p\021\327?N\306\337?\006i.@\271=\235@%x\270?\327\253\263@\253Q\260?\332-\266@f\306\242=\266\001\247@\220\027\232@\204\023\302?\240i\300?(4\223@\333&\010=\356g\350?\24399@JE\024@f\r\217@\357\375\220@\307f5@\362\2208@QA\256?iD\267>\366\271\025@\272Il@\020\"\307@%\234\327?\303yF@\351\304\275?\220#)@\001\254\002@\276\367\024@F_\244@\302P\217@^\202\310@\374\177\302@\035\234f@\367\357\256@Fo\217@?\301&=e\252\220@\2172\225@\272\235\233?x\254\033=\222\210\321?\347\314\252@\221\262 @z3\276@\367\252\234>b!2@\246\223%?&\007\232@{\\\274<\350m\241@\217>\220@\327p\212?U\032:?H\360u@\265^\335?\311WZ@\244\266\246@\227U\275@\001\363\023?}\357\225@\013\246\234@P\346c?{Q\237@\367\255\256@\251X\253@\025\215Q@\214\260\220?\300\245\216@.\276O@w\354\215?\212\307\210@\341\3434@\030:\000@\207\335H@\261\263\213@\033]q@\2712\316?\371)\257@Df\371?E\203:@\177\230\327?<+2?%\360\272@\370\340\330?b<\310@\355\357\242@\007\273A@S\246\222@(\210\014@\237K\237@\255{M@\004\371h@\313,s@U\375\202@\372\023\213@\373)\370?#d\236@\013\203X?I\230\237?bX @K\014s@1\372==\003\3753@\222\224\242=\270\317\240=\206T\032@(\240V@\023G\"@\354\200\216@\360\271\207@\376\211\300@`\225\031@\340y\033@\333\'\250@\3404\250?\357\017\246@\231\221\301?\304\021\235@4\313\'@0)\275>\366\201\302?\213-&@\337?\260@+m\276@\3076\255@\205P\271?-\324-@\3146l>P\240\001@h\306\246@Y\220m@\214\030\242@\n\224j>R\333&@/\350\305@\014;\345?\244\020\247@\256\347\217@\301\010\216@>\345\262@j\216\305?)\306\024@\351\3607>\014e\206@\036\212\317?\301]\203@@\217\224@\212\231\256?\234\336Z@\275\325\202@\352\247\234@Wh\242@;\222G@\020GB>[\254U@\361X\276@(\312\304@\247\034>@F1\272@K\344\r@\256N/@\365\2000@\n\364\307@\002\036\212@I\254\357?\227P7@-\007:?g\307\003>\302\366\214@\244\000\270>\213\r\274@\342\026\300@\344et?lW\202?8k\036@\262Y\230@\265o\214?\305\271\'@[\255\277@ m)@\337h\220@`\272\263@\352n\302>\357\321\253>\373\211\031@\366\200\227@6\336\204@l\230\231@\206\223\310?\013\334\313?#>\000@\301P+@\230\374k@1\274\'>\205Z\254@\252\016\237@\364\223\033@\210\226\227?\323\320\272?\010[\306@\032\'\000@G\333O@\307\372\272?\001mz?\370\035\257@\367\350S?\337-l?\347\276\033@\322\022\207@\246\300?>\263\300\034@O\322B? :^>\254\304~@\324\tl@\001\260C@\354\376\234@\001\313\030@\3668%@U\330\221@\244\257\223@\0346\256@\337\233A@\032\301\212@\362\342\323?m.\205@\231[\353?\034\303g@8\033Y@\253\004O>\255\277r@\300\315\252@\304\276\265>\001T\274@z\220c@\036\203\031?8\374\037@\321\3234@ \003_@V\376V@\215x\030?U\033\334>\322j\026?\250\323\226>\210\365D@>\306\301@&X\016?\343s\243@]\260\027@\t\341\301@m[\254?\004\023x?\034t\263@@e\n@n\264\201@\354\320\256@\226\006*@\177\332\252@aP\014@\244V\211?\224\215\270@\311\337\014@\031\310\254@\341\302\216@4\326\342>2\033\262@\261\225\205?\\\323\225@\217x\223?\347N\252@9\230\214@5\305\222@\345\301\233@:\206 @\237\324\223@M\252\310@\347\033\352?\014\255\231?\354\260\034?W=_?\036\206\023@d\333\226@\251\367p?\255<\274@!%\227@\032\351\203@\265\'\326?<\310M?\333\346\013=i\232\223@%\266L@\211&\264@!\222\256@\200\312\262@@~;@\004(\251@S\221\017@\330xL@\025L\226@\266\243e?\316Bc@\265x\267@p\377\321>\024dK@8\001l@\202\220\007@m\323\242@7\275\300@\214NN?)@\022@\303>\320<n\203\013?\363\321\210?\361\344,@\031\'+@\227\\d@l90@mj\213?g\005\207@!\022;@s\030&?\"\320\310@\177\255\"?23\300@\220\273_@\365a\262@\343\246\261@PEO@\020U\232@\355\031D@\217\'\206@\224\273*@\234AI@\267\234\206?\016\310\314>\302\356Z?s\005^@7\205E@\027\351\344?\333\357~?+\244\274?C8\275@\020\034|@g\005\322?\362\'\226@\221n\006@\325\263\201@\177(\233@1\205:?h\352\300@\317\243\243?\366\241Q@\353_\262?TU\223@F\217\254@\271\215\260?"
      }
    }
  }
}
node {
  name: "Const_5"
  op: "Const"
  device: "/device:CPU:0"
  attr {
    key: "_output_shapes"
    value {
      list {
        shape {
          dim {
            size: 1000
          }
          dim {
            size: 1
          }
        }
      }
    }
  }
  attr {
    key: "dtype"
    value {
      type: DT_FLOAT
    }
  }
  attr {
    key: "value"
    value {
      tensor {
        dtype: DT_FLOAT
        tensor_shape {
          dim {
            size: 1000
          }
          dim {
            size: 1
          }
        }
        tensor_content: "\000\000\200?\000\000\200?\000\000\200?\000\000\200?\000\000\200?\000\000\200?\000\000\200?\000\000\200?\000\000\200?\000\000\200?\000\000\200?\000\000\200?\000\000\200?\000\000\200?\000\000\200?\000\000\200?\000\000\200?\000\000\200?\000\000\200?\000\000\200?\000\000\200?\000\000\200?\000\000\200?\000\000\200?\000\000\200?\000\000\200?\000\000\200?\000\000\200?\000\000\200?\000\000\200?\000\000\200?\000\000\200?\000\000\200?\000\000\200?\000\000\200?\000\000\200?\000\000\200?\000\000\200?\000\000\200?\000\000\200?\000\000\200?\000\000\200?\000\000\200?\000\000\200?\000\000\200?\000\000\200?\000\000\200?\000\000\200?\000\000\200?\000\000\200?\000\000\200?\000\000\200?\000\000\200?\000\000\200?\000\000\200?\000\000\200?\000\000\200?\000\000\200?\000\000\200?\000\000\200?\000\000\200?\000\000\200?\000\000\200?\000\000\200?\000\000\200?\000\000\200?\000\000\200?\000\000\200?\000\000\200?\000\000\200?\000\000\200?\000\000\200?\000\000\200?\000\000\200?\000\000\200?\000\000\200?\000\000\200?\000\000\200?\000\000\200?\000\000\200?\000\000\200?\000\000\200?\000\000\200?\000\000\200?\000\000\200?\000\000\200?\000\000\200?\000\000\200?\000\000\200?\000\000\200?\000\000\200?\000\000\200?\000\000\200?\000\000\200?\000\000\200?\000\000\200?\000\000\200?\000\000\200?\000\000\200?\000\000\200?\000\000\200?\000\000\200?\000\000\200?\000\000\200?\000\000\200?\000\000\200?\000\000\200?\000\000\200?\000\000\200?\000\000\200?\000\000\200?\000\000\200?\000\000\200?\000\000\200?\000\000\200?\000\000\200?\000\000\200?\000\000\200?\000\000\200?\000\000\200?\000\000\200?\000\000\200?\000\000\200?\000\000\200?\000\000\200?\000\000\200?\000\000\200?\000\000\200?\000\000\200?\000\000\200?\000\000\200?\000\000\200?\000\000\200?\000\000\200?\000\000\200?\000\000\200?\000\000\200?\000\000\200?\000\000\200?\000\000\200?\000\000\200?\000\000\200?\000\000\200?\000\000\200?\000\000\200?\000\000\200?\000\000\200?\000\000\200?\000\000\200?\000\000\200?\000\000\200?\000\000\200?\000\000\200?\000\000\200?\000\000\200?\000\000\200?\000\000\200?\000\000\200?\000\000\200?\000\000\200?\000\000\200?\000\000\200?\000\000\200?\000\000\200?\000\000\200?\000\000\200?\000\000\200?\000\000\200?\000\000\200?\000\000\200?\000\000\200?\000\000\200?\000\000\200?\000\000\200?\000\000\200?\000\000\200?\000\000\200?\000\000\200?\000\000\200?\000\000\200?\000\000\200?\000\000\200?\000\000\200?\000\000\200?\000\000\200?\000\000\200?\000\000\200?\000\000\200?\000\000\200?\000\000\200?\000\000\200?\000\000\200?\000\000\200?\000\000\200?\000\000\200?\000\000\200?\000\000\200?\000\000\200?\000\000\200?\000\000\200?\000\000\200?\000\000\200?\000\000\200?\000\000\200?\000\000\200?\000\000\200?\000\000\200?\000\000\200?\000\000\200?\000\000\200?\000\000\200?\000\000\200?\000\000\200?\000\000\200?\000\000\200?\000\000\200?\000\000\200?\000\000\200?\000\000\200?\000\000\200?\000\000\200?\000\000\200?\000\000\200?\000\000\200?\000\000\200?\000\000\200?\000\000\200?\000\000\200?\000\000\200?\000\000\200?\000\000\200?\000\000\200?\000\000\200?\000\000\200?\000\000\200?\000\000\200?\000\000\200?\000\000\200?\000\000\200?\000\000\200?\000\000\200?\000\000\200?\000\000\200?\000\000\200?\000\000\200?\000\000\200?\000\000\200?\000\000\200?\000\000\200?\000\000\200?\000\000\200?\000\000\200?\000\000\200?\000\000\200?\000\000\200?\000\000\200?\000\000\200?\000\000\200?\000\000\200?\000\000\200?\000\000\200?\000\000\200?\000\000\200?\000\000\200?\000\000\200?\000\000\200?\000\000\200?\000\000\200?\000\000\200?\000\000\200?\000\000\200?\000\000\200?\000\000\200?\000\000\200?\000\000\200?\000\000\200?\000\000\200?\000\000\200?\000\000\200?\000\000\200?\000\000\200?\000\000\200?\000\000\200?\000\000\200?\000\000\200?\000\000\200?\000\000\200?\000\000\200?\000\000\200?\000\000\200?\000\000\200?\000\000\200?\000\000\200?\000\000\200?\000\000\200?\000\000\200?\000\000\200?\000\000\200?\000\000\200?\000\000\200?\000\000\200?\000\000\200?\000\000\200?\000\000\200?\000\000\200?\000\000\200?\000\000\200?\000\000\200?\000\000\200?\000\000\200?\000\000\200?\000\000\200?\000\000\200?\000\000\200?\000\000\200?\000\000\200?\000\000\200?\000\000\200?\000\000\200?\000\000\200?\000\000\200?\000\000\200?\000\000\200?\000\000\200?\000\000\200?\000\000\200?\000\000\200?\000\000\200?\000\000\200?\000\000\200?\000\000\200?\000\000\200?\000\000\200?\000\000\200?\000\000\200?\000\000\200?\000\000\200?\000\000\200?\000\000\200?\000\000\200?\000\000\200?\000\000\200?\000\000\200?\000\000\200?\000\000\200?\000\000\200?\000\000\200?\000\000\200?\000\000\200?\000\000\200?\000\000\200?\000\000\200?\000\000\200?\000\000\200?\000\000\200?\000\000\200?\000\000\200?\000\000\200?\000\000\200?\000\000\200?\000\000\200?\000\000\200?\000\000\200?\000\000\200?\000\000\200?\000\000\200?\000\000\200?\000\000\200?\000\000\200?\000\000\200?\000\000\200?\000\000\200?\000\000\200?\000\000\200?\000\000\200?\000\000\200?\000\000\200?\000\000\200?\000\000\200?\000\000\200?\000\000\200?\000\000\200?\000\000\200?\000\000\200?\000\000\200?\000\000\200?\000\000\200?\000\000\200?\000\000\200?\000\000\200?\000\000\200?\000\000\200?\000\000\200?\000\000\200?\000\000\200?\000\000\200?\000\000\200?\000\000\200?\000\000\200?\000\000\200?\000\000\200?\000\000\200?\000\000\200?\000\000\200?\000\000\200?\000\000\200?\000\000\200?\000\000\200?\000\000\200?\000\000\200?\000\000\200?\000\000\200?\000\000\200?\000\000\200?\000\000\200?\000\000\200?\000\000\200?\000\000\200?\000\000\200?\000\000\200?\000\000\200?\000\000\200?\000\000\200?\000\000\200?\000\000\200?\000\000\200?\000\000\200?\000\000\200?\000\000\200?\000\000\200?\000\000\200?\000\000\200?\000\000\200?\000\000\200?\000\000\200?\000\000\200?\000\000\200?\000\000\200?\000\000\200?\000\000\200?\000\000\200?\000\000\200?\000\000\200?\000\000\200?\000\000\200?\000\000\200?\000\000\200?\000\000\200?\000\000\200?\000\000\200?\000\000\200?\000\000\200?\000\000\200?\000\000\200?\000\000\200?\000\000\200?\000\000\200?\000\000\200?\000\000\200?\000\000\200?\000\000\200?\000\000\200?\000\000\200?\000\000\200?\000\000\200?\000\000\200?\000\000\200?\000\000\200?\000\000\200?\000\000\200?\000\000\200?\000\000\200?\000\000\200?\000\000\200?\000\000\200?\000\000\200?\000\000\200?\000\000\200?\000\000\200?\000\000\200?\000\000\200?\000\000\200?\000\000\200?\000\000\200?\000\000\200?\000\000\200?\000\000\200?\000\000\200?\000\000\200?\000\000\200?\000\000\200?\000\000\200?\000\000\200?\000\000\200?\000\000\200?\000\000\200?\000\000\200?\000\000\200?\000\000\200?\000\000\200?\000\000\200?\000\000\200?\000\000\200?\000\000\200?\000\000\200?\000\000\200?\000\000\200?\000\000\200?\000\000\200?\000\000\200?\000\000\200?\000\000\200?\000\000\200?\000\000\200?\000\000\200?\000\000\200?\000\000\200?\000\000\200?\000\000\200?\000\000\200?\000\000\200?\000\000\200?\000\000\200?\000\000\200?\000\000\200?\000\000\200?\000\000\200?\000\000\200?\000\000\200?\000\000\200?\000\000\200?\000\000\200?\000\000\200?\000\000\200?\000\000\200?\000\000\200?\000\000\200?\000\000\200?\000\000\200?\000\000\200?\000\000\200?\000\000\200?\000\000\200?\000\000\200?\000\000\200?\000\000\200?\000\000\200?\000\000\200?\000\000\200?\000\000\200?\000\000\200?\000\000\200?\000\000\200?\000\000\200?\000\000\200?\000\000\200?\000\000\200?\000\000\200?\000\000\200?\000\000\200?\000\000\200?\000\000\200?\000\000\200?\000\000\200?\000\000\200?\000\000\200?\000\000\200?\000\000\200?\000\000\200?\000\000\200?\000\000\200?\000\000\200?\000\000\200?\000\000\200?\000\000\200?\000\000\200?\000\000\200?\000\000\200?\000\000\200?\000\000\200?\000\000\200?\000\000\200?\000\000\200?\000\000\200?\000\000\200?\000\000\200?\000\000\200?\000\000\200?\000\000\200?\000\000\200?\000\000\200?\000\000\200?\000\000\200?\000\000\200?\000\000\200?\000\000\200?\000\000\200?\000\000\200?\000\000\200?\000\000\200?\000\000\200?\000\000\200?\000\000\200?\000\000\200?\000\000\200?\000\000\200?\000\000\200?\000\000\200?\000\000\200?\000\000\200?\000\000\200?\000\000\200?\000\000\200?\000\000\200?\000\000\200?\000\000\200?\000\000\200?\000\000\200?\000\000\200?\000\000\200?\000\000\200?\000\000\200?\000\000\200?\000\000\200?\000\000\200?\000\000\200?\000\000\200?\000\000\200?\000\000\200?\000\000\200?\000\000\200?\000\000\200?\000\000\200?\000\000\200?\000\000\200?\000\000\200?\000\000\200?\000\000\200?\000\000\200?\000\000\200?\000\000\200?\000\000\200?\000\000\200?\000\000\200?\000\000\200?\000\000\200?\000\000\200?\000\000\200?\000\000\200?\000\000\200?\000\000\200?\000\000\200?\000\000\200?\000\000\200?\000\000\200?\000\000\200?\000\000\200?\000\000\200?\000\000\200?\000\000\200?\000\000\200?\000\000\200?\000\000\200?\000\000\200?\000\000\200?\000\000\200?\000\000\200?\000\000\200?\000\000\200?\000\000\200?\000\000\200?\000\000\200?\000\000\200?\000\000\200?\000\000\200?\000\000\200?\000\000\200?\000\000\200?\000\000\200?\000\000\200?\000\000\200?\000\000\200?\000\000\200?\000\000\200?\000\000\200?\000\000\200?\000\000\200?\000\000\200?\000\000\200?\000\000\200?\000\000\200?\000\000\200?\000\000\200?\000\000\200?\000\000\200?\000\000\200?\000\000\200?\000\000\200?\000\000\200?\000\000\200?\000\000\200?\000\000\200?\000\000\200?\000\000\200?\000\000\200?\000\000\200?\000\000\200?\000\000\200?\000\000\200?\000\000\200?\000\000\200?\000\000\200?\000\000\200?\000\000\200?\000\000\200?\000\000\200?\000\000\200?\000\000\200?\000\000\200?\000\000\200?\000\000\200?\000\000\200?\000\000\200?\000\000\200?\000\000\200?\000\000\200?\000\000\200?\000\000\200?\000\000\200?\000\000\200?\000\000\200?\000\000\200?\000\000\200?\000\000\200?\000\000\200?\000\000\200?\000\000\200?\000\000\200?\000\000\200?\000\000\200?\000\000\200?\000\000\200?\000\000\200?\000\000\200?\000\000\200?\000\000\200?\000\000\200?\000\000\200?\000\000\200?\000\000\200?\000\000\200?\000\000\200?\000\000\200?\000\000\200?\000\000\200?\000\000\200?\000\000\200?\000\000\200?\000\000\200?\000\000\200?\000\000\200?\000\000\200?\000\000\200?\000\000\200?\000\000\200?\000\000\200?\000\000\200?\000\000\200?\000\000\200?\000\000\200?\000\000\200?\000\000\200?\000\000\200?\000\000\200?\000\000\200?\000\000\200?\000\000\200?\000\000\200?\000\000\200?\000\000\200?\000\000\200?\000\000\200?\000\000\200?\000\000\200?\000\000\200?\000\000\200?\000\000\200?\000\000\200?\000\000\200?\000\000\200?\000\000\200?\000\000\200?\000\000\200?\000\000\200?\000\000\200?\000\000\200?\000\000\200?\000\000\200?\000\000\200?\000\000\200?\000\000\200?\000\000\200?\000\000\200?\000\000\200?\000\000\200?\000\000\200?\000\000\200?\000\000\200?\000\000\200?\000\000\200?\000\000\200?\000\000\200?\000\000\200?\000\000\200?\000\000\200?\000\000\200?\000\000\200?\000\000\200?\000\000\200?\000\000\200?\000\000\200?\000\000\200?\000\000\200?\000\000\200?\000\000\200?\000\000\200?\000\000\200?\000\000\200?\000\000\200?\000\000\200?\000\000\200?\000\000\200?\000\000\200?\000\000\200?\000\000\200?\000\000\200?\000\000\200?\000\000\200?\000\000\200?\000\000\200?\000\000\200?\000\000\200?\000\000\200?\000\000\200?\000\000\200?\000\000\200?\000\000\200?\000\000\200?\000\000\200?\000\000\200?\000\000\200?\000\000\200?\000\000\200?\000\000\200?\000\000\200?\000\000\200?\000\000\200?\000\000\200?\000\000\200?\000\000\200?\000\000\200?\000\000\200?\000\000\200?\000\000\200?\000\000\200?\000\000\200?\000\000\200?\000\000\200?\000\000\200?\000\000\200?\000\000\200?\000\000\200?\000\000\200?\000\000\200?\000\000\200?\000\000\200?\000\000\200?\000\000\200?\000\000\200?\000\000\200?\000\000\200?\000\000\200?\000\000\200?\000\000\200?\000\000\200?\000\000\200?\000\000\200?\000\000\200?\000\000\200?\000\000\200?\000\000\200?\000\000\200?\000\000\200?\000\000\200?\000\000\200?\000\000\200?\000\000\200?\000\000\200?\000\000\200?\000\000\200?\000\000\200?\000\000\200?\000\000\200?\000\000\200?\000\000\200?\000\000\200?\000\000\200?\000\000\200?\000\000\200?\000\000\200?\000\000\200?\000\000\200?\000\000\200?\000\000\200?\000\000\200?\000\000\200?\000\000\200?\000\000\200?\000\000\200?\000\000\200?\000\000\200?\000\000\200?\000\000\200?\000\000\200?\000\000\200?\000\000\200?\000\000\200?\000\000\200?\000\000\200?\000\000\200?\000\000\200?\000\000\200?\000\000\200?\000\000\200?\000\000\200?\000\000\200?\000\000\200?\000\000\200?\000\000\200?\000\000\200?\000\000\200?\000\000\200?\000\000\200?\000\000\200?\000\000\200?\000\000\200?\000\000\200?\000\000\200?\000\000\200?\000\000\200?\000\000\200?\000\000\200?\000\000\200?\000\000\200?\000\000\200?\000\000\200?\000\000\200?\000\000\200?\000\000\200?\000\000\200?\000\000\200?\000\000\200?\000\000\200?\000\000\200?\000\000\200?\000\000\200?\000\000\200?\000\000\200?\000\000\200?\000\000\200?\000\000\200?\000\000\200?\000\000\200?\000\000\200?\000\000\200?\000\000\200?\000\000\200?\000\000\200?\000\000\200?\000\000\200?\000\000\200?\000\000\200?\000\000\200?\000\000\200?\000\000\200?\000\000\200?\000\000\200?\000\000\200?\000\000\200?\000\000\200?\000\000\200?\000\000\200?\000\000\200?\000\000\200?\000\000\200?\000\000\200?\000\000\200?\000\000\200?\000\000\200?\000\000\200?"
      }
    }
  }
}
node {
  name: "concat/axis"
  op: "Const"
  device: "/device:CPU:0"
  attr {
    key: "_output_shapes"
    value {
      list {
        shape {
        }
      }
    }
  }
  attr {
    key: "dtype"
    value {
      type: DT_INT32
    }
  }
  attr {
    key: "value"
    value {
      tensor {
        dtype: DT_INT32
        tensor_shape {
        }
        int_val: 1
      }
    }
  }
}
node {
  name: "concat"
  op: "ConcatV2"
  input: "Const"
  input: "Const_2"
  input: "Const_4"
  input: "concat/axis"
  device: "/device:CPU:0"
  attr {
    key: "N"
    value {
      i: 3
    }
  }
  attr {
    key: "T"
    value {
      type: DT_FLOAT
    }
  }
  attr {
    key: "Tidx"
    value {
      type: DT_INT32
    }
  }
  attr {
    key: "_output_shapes"
    value {
      list {
        shape {
          dim {
            size: 1000
          }
          dim {
            size: 3
          }
        }
      }
    }
  }
}
node {
  name: "concat_1/axis"
  op: "Const"
  device: "/device:CPU:0"
  attr {
    key: "_output_shapes"
    value {
      list {
        shape {
        }
      }
    }
  }
  attr {
    key: "dtype"
    value {
      type: DT_INT32
    }
  }
  attr {
    key: "value"
    value {
      tensor {
        dtype: DT_INT32
        tensor_shape {
        }
        int_val: 1
      }
    }
  }
}
node {
  name: "concat_1"
  op: "ConcatV2"
  input: "Const_1"
  input: "Const_3"
  input: "Const_5"
  input: "concat_1/axis"
  device: "/device:CPU:0"
  attr {
    key: "N"
    value {
      i: 3
    }
  }
  attr {
    key: "T"
    value {
      type: DT_FLOAT
    }
  }
  attr {
    key: "Tidx"
    value {
      type: DT_INT32
    }
  }
  attr {
    key: "_output_shapes"
    value {
      list {
        shape {
          dim {
            size: 1000
          }
          dim {
            size: 3
          }
        }
      }
    }
  }
}
node {
  name: "Cumsum/axis"
  op: "Const"
  device: "/device:CPU:0"
  attr {
    key: "_output_shapes"
    value {
      list {
        shape {
        }
      }
    }
  }
  attr {
    key: "dtype"
    value {
      type: DT_INT32
    }
  }
  attr {
    key: "value"
    value {
      tensor {
        dtype: DT_INT32
        tensor_shape {
        }
        int_val: 1
      }
    }
  }
}
node {
  name: "Cumsum"
  op: "Cumsum"
  input: "concat"
  input: "Cumsum/axis"
  device: "/device:CPU:0"
  attr {
    key: "T"
    value {
      type: DT_FLOAT
    }
  }
  attr {
    key: "Tidx"
    value {
      type: DT_INT32
    }
  }
  attr {
    key: "_output_shapes"
    value {
      list {
        shape {
          dim {
            size: 1000
          }
          dim {
            size: 3
          }
        }
      }
    }
  }
  attr {
    key: "exclusive"
    value {
      b: false
    }
  }
  attr {
    key: "reverse"
    value {
      b: false
    }
  }
}
node {
  name: "Sin"
  op: "Sin"
  input: "Cumsum"
  device: "/device:CPU:0"
  attr {
    key: "T"
    value {
      type: DT_FLOAT
    }
  }
  attr {
    key: "_output_shapes"
    value {
      list {
        shape {
          dim {
            size: 1000
          }
          dim {
            size: 3
          }
        }
      }
    }
  }
}
node {
  name: "Cumsum_1/axis"
  op: "Const"
  device: "/device:CPU:0"
  attr {
    key: "_output_shapes"
    value {
      list {
        shape {
        }
      }
    }
  }
  attr {
    key: "dtype"
    value {
      type: DT_INT32
    }
  }
  attr {
    key: "value"
    value {
      tensor {
        dtype: DT_INT32
        tensor_shape {
        }
        int_val: 1
      }
    }
  }
}
node {
  name: "Cumsum_1"
  op: "Cumsum"
  input: "concat"
  input: "Cumsum_1/axis"
  device: "/device:CPU:0"
  attr {
    key: "T"
    value {
      type: DT_FLOAT
    }
  }
  attr {
    key: "Tidx"
    value {
      type: DT_INT32
    }
  }
  attr {
    key: "_output_shapes"
    value {
      list {
        shape {
          dim {
            size: 1000
          }
          dim {
            size: 3
          }
        }
      }
    }
  }
  attr {
    key: "exclusive"
    value {
      b: false
    }
  }
  attr {
    key: "reverse"
    value {
      b: false
    }
  }
}
node {
  name: "Cos"
  op: "Cos"
  input: "Cumsum_1"
  device: "/device:CPU:0"
  attr {
    key: "T"
    value {
      type: DT_FLOAT
    }
  }
  attr {
    key: "_output_shapes"
    value {
      list {
        shape {
          dim {
            size: 1000
          }
          dim {
            size: 3
          }
        }
      }
    }
  }
}
node {
  name: "Mul"
  op: "Mul"
  input: "concat_1"
  input: "Cos"
  device: "/device:CPU:0"
  attr {
    key: "T"
    value {
      type: DT_FLOAT
    }
  }
  attr {
    key: "_output_shapes"
    value {
      list {
        shape {
          dim {
            size: 1000
          }
          dim {
            size: 3
          }
        }
      }
    }
  }
}
node {
  name: "Mul_1"
  op: "Mul"
  input: "concat_1"
  input: "Sin"
  device: "/device:CPU:0"
  attr {
    key: "T"
    value {
      type: DT_FLOAT
    }
  }
  attr {
    key: "_output_shapes"
    value {
      list {
        shape {
          dim {
            size: 1000
          }
          dim {
            size: 3
          }
        }
      }
    }
  }
}
node {
  name: "Sum/reduction_indices"
  op: "Const"
  device: "/device:CPU:0"
  attr {
    key: "_output_shapes"
    value {
      list {
        shape {
        }
      }
    }
  }
  attr {
    key: "dtype"
    value {
      type: DT_INT32
    }
  }
  attr {
    key: "value"
    value {
      tensor {
        dtype: DT_INT32
        tensor_shape {
        }
        int_val: 1
      }
    }
  }
}
node {
  name: "Sum"
  op: "Sum"
  input: "Mul"
  input: "Sum/reduction_indices"
  device: "/device:CPU:0"
  attr {
    key: "T"
    value {
      type: DT_FLOAT
    }
  }
  attr {
    key: "Tidx"
    value {
      type: DT_INT32
    }
  }
  attr {
    key: "_output_shapes"
    value {
      list {
        shape {
          dim {
            size: 1000
          }
          dim {
            size: 1
          }
        }
      }
    }
  }
  attr {
    key: "keep_dims"
    value {
      b: true
    }
  }
}
node {
  name: "Sum_1/reduction_indices"
  op: "Const"
  device: "/device:CPU:0"
  attr {
    key: "_output_shapes"
    value {
      list {
        shape {
        }
      }
    }
  }
  attr {
    key: "dtype"
    value {
      type: DT_INT32
    }
  }
  attr {
    key: "value"
    value {
      tensor {
        dtype: DT_INT32
        tensor_shape {
        }
        int_val: 1
      }
    }
  }
}
node {
  name: "Sum_1"
  op: "Sum"
  input: "Mul_1"
  input: "Sum_1/reduction_indices"
  device: "/device:CPU:0"
  attr {
    key: "T"
    value {
      type: DT_FLOAT
    }
  }
  attr {
    key: "Tidx"
    value {
      type: DT_INT32
    }
  }
  attr {
    key: "_output_shapes"
    value {
      list {
        shape {
          dim {
            size: 1000
          }
          dim {
            size: 1
          }
        }
      }
    }
  }
  attr {
    key: "keep_dims"
    value {
      b: true
    }
  }
}
node {
  name: "Shape"
  op: "Const"
  device: "/device:CPU:0"
  attr {
    key: "_output_shapes"
    value {
      list {
        shape {
          dim {
            size: 2
          }
        }
      }
    }
  }
  attr {
    key: "dtype"
    value {
      type: DT_INT32
    }
  }
  attr {
    key: "value"
    value {
      tensor {
        dtype: DT_INT32
        tensor_shape {
          dim {
            size: 2
          }
        }
        tensor_content: "\350\003\000\000\001\000\000\000"
      }
    }
  }
}
node {
  name: "zeros/Const"
  op: "Const"
  device: "/device:CPU:0"
  attr {
    key: "_output_shapes"
    value {
      list {
        shape {
        }
      }
    }
  }
  attr {
    key: "dtype"
    value {
      type: DT_FLOAT
    }
  }
  attr {
    key: "value"
    value {
      tensor {
        dtype: DT_FLOAT
        tensor_shape {
        }
        float_val: 0.0
      }
    }
  }
}
node {
  name: "zeros"
  op: "Fill"
  input: "Shape"
  input: "zeros/Const"
  device: "/device:CPU:0"
  attr {
    key: "T"
    value {
      type: DT_FLOAT
    }
  }
  attr {
    key: "_output_shapes"
    value {
      list {
        shape {
          dim {
            size: 1000
          }
          dim {
            size: 1
          }
        }
      }
    }
  }
}
node {
  name: "concat_2/axis"
  op: "Const"
  device: "/device:CPU:0"
  attr {
    key: "_output_shapes"
    value {
      list {
        shape {
        }
      }
    }
  }
  attr {
    key: "dtype"
    value {
      type: DT_INT32
    }
  }
  attr {
    key: "value"
    value {
      tensor {
        dtype: DT_INT32
        tensor_shape {
        }
        int_val: 1
      }
    }
  }
}
node {
  name: "concat_2"
  op: "ConcatV2"
  input: "Sum"
  input: "Sum_1"
  input: "zeros"
  input: "concat_2/axis"
  device: "/device:CPU:0"
  attr {
    key: "N"
    value {
      i: 3
    }
  }
  attr {
    key: "T"
    value {
      type: DT_FLOAT
    }
  }
  attr {
    key: "Tidx"
    value {
      type: DT_INT32
    }
  }
  attr {
    key: "_output_shapes"
    value {
      list {
        shape {
          dim {
            size: 1000
          }
          dim {
            size: 3
          }
        }
      }
    }
  }
}
node {
  name: "Const_6"
  op: "Const"
  device: "/device:CPU:0"
  attr {
    key: "_output_shapes"
    value {
      list {
        shape {
          dim {
            size: 1
          }
          dim {
            size: 1
          }
        }
      }
    }
  }
  attr {
    key: "dtype"
    value {
      type: DT_FLOAT
    }
  }
  attr {
    key: "value"
    value {
      tensor {
        dtype: DT_FLOAT
        tensor_shape {
          dim {
            size: 1
          }
          dim {
            size: 1
          }
        }
        float_val: 0.00999999977648
      }
    }
  }
}
node {
  name: "Const_7"
  op: "Const"
  device: "/device:CPU:0"
  attr {
    key: "_output_shapes"
    value {
      list {
        shape {
          dim {
            size: 1
          }
          dim {
            size: 3
          }
        }
      }
    }
  }
  attr {
    key: "dtype"
    value {
      type: DT_FLOAT
    }
  }
  attr {
    key: "value"
    value {
      tensor {
        dtype: DT_FLOAT
        tensor_shape {
          dim {
            size: 1
          }
          dim {
            size: 3
          }
        }
        tensor_content: "\033Co?\206\010\200>\000\000\000\000"
      }
    }
  }
}
node {
  name: "Mul_2"
  op: "Mul"
  input: "Const_7"
  input: "Const_6"
  device: "/device:CPU:0"
  attr {
    key: "T"
    value {
      type: DT_FLOAT
    }
  }
  attr {
    key: "_output_shapes"
    value {
      list {
        shape {
          dim {
            size: 1
          }
          dim {
            size: 3
          }
        }
      }
    }
  }
}
node {
  name: "Const_8"
  op: "Const"
  device: "/device:CPU:0"
  attr {
    key: "_output_shapes"
    value {
      list {
        shape {
          dim {
            size: 1
          }
          dim {
            size: 3
          }
        }
      }
    }
  }
  attr {
    key: "dtype"
    value {
      type: DT_FLOAT
    }
  }
  attr {
    key: "value"
    value {
      tensor {
        dtype: DT_FLOAT
        tensor_shape {
          dim {
            size: 1
          }
          dim {
            size: 3
          }
        }
        tensor_content: "\207\355\231>\230\377q?\000\000\000\000"
      }
    }
  }
}
node {
  name: "Mul_3"
  op: "Mul"
  input: "Const_8"
  input: "Const_6"
  device: "/device:CPU:0"
  attr {
    key: "T"
    value {
      type: DT_FLOAT
    }
  }
  attr {
    key: "_output_shapes"
    value {
      list {
        shape {
          dim {
            size: 1
          }
          dim {
            size: 3
          }
        }
      }
    }
  }
}
node {
  name: "Const_9"
  op: "Const"
  device: "/device:CPU:0"
  attr {
    key: "_output_shapes"
    value {
      list {
        shape {
          dim {
            size: 1
          }
          dim {
            size: 3
          }
        }
      }
    }
  }
  attr {
    key: "dtype"
    value {
      type: DT_FLOAT
    }
  }
  attr {
    key: "value"
    value {
      tensor {
        dtype: DT_FLOAT
        tensor_shape {
          dim {
            size: 1
          }
          dim {
            size: 3
          }
        }
        tensor_content: "\006\230\007?\312e\236>\000\000\000\000"
      }
    }
  }
}
node {
  name: "Mul_4"
  op: "Mul"
  input: "Const_9"
  input: "Const_6"
  device: "/device:CPU:0"
  attr {
    key: "T"
    value {
      type: DT_FLOAT
    }
  }
  attr {
    key: "_output_shapes"
    value {
      list {
        shape {
          dim {
            size: 1
          }
          dim {
            size: 3
          }
        }
      }
    }
  }
}
node {
  name: "Const_10"
  op: "Const"
  device: "/device:CPU:0"
  attr {
    key: "_output_shapes"
    value {
      list {
        shape {
          dim {
            size: 1
          }
          dim {
            size: 3
          }
        }
      }
    }
  }
  attr {
    key: "dtype"
    value {
      type: DT_FLOAT
    }
  }
  attr {
    key: "value"
    value {
      tensor {
        dtype: DT_FLOAT
        tensor_shape {
          dim {
            size: 1
          }
          dim {
            size: 3
          }
        }
        tensor_content: "\3724T?\370\334\352>\000\000\000\000"
      }
    }
  }
}
node {
  name: "Mul_5"
  op: "Mul"
  input: "Const_10"
  input: "Const_6"
  device: "/device:CPU:0"
  attr {
    key: "T"
    value {
      type: DT_FLOAT
    }
  }
  attr {
    key: "_output_shapes"
    value {
      list {
        shape {
          dim {
            size: 1
          }
          dim {
            size: 3
          }
        }
      }
    }
  }
}
node {
  name: "Const_11"
  op: "Const"
  device: "/device:CPU:0"
  attr {
    key: "_output_shapes"
    value {
      list {
        shape {
          dim {
            size: 1
          }
          dim {
            size: 3
          }
        }
      }
    }
  }
  attr {
    key: "dtype"
    value {
      type: DT_FLOAT
    }
  }
  attr {
    key: "value"
    value {
      tensor {
        dtype: DT_FLOAT
        tensor_shape {
          dim {
            size: 1
          }
          dim {
            size: 3
          }
        }
        tensor_content: "\337\324\311>QEy>\000\000\000\000"
      }
    }
  }
}
node {
  name: "Mul_6"
  op: "Mul"
  input: "Const_11"
  input: "Const_6"
  device: "/device:CPU:0"
  attr {
    key: "T"
    value {
      type: DT_FLOAT
    }
  }
  attr {
    key: "_output_shapes"
    value {
      list {
        shape {
          dim {
            size: 1
          }
          dim {
            size: 3
          }
        }
      }
    }
  }
}
node {
  name: "Const_12"
  op: "Const"
  device: "/device:CPU:0"
  attr {
    key: "_output_shapes"
    value {
      list {
        shape {
          dim {
            size: 1
          }
          dim {
            size: 3
          }
        }
      }
    }
  }
  attr {
    key: "dtype"
    value {
      type: DT_FLOAT
    }
  }
  attr {
    key: "value"
    value {
      tensor {
        dtype: DT_FLOAT
        tensor_shape {
          dim {
            size: 1
          }
          dim {
            size: 3
          }
        }
        tensor_content: "\340T\301>\3279M>\000\000\000\000"
      }
    }
  }
}
node {
  name: "Mul_7"
  op: "Mul"
  input: "Const_12"
  input: "Const_6"
  device: "/device:CPU:0"
  attr {
    key: "T"
    value {
      type: DT_FLOAT
    }
  }
  attr {
    key: "_output_shapes"
    value {
      list {
        shape {
          dim {
            size: 1
          }
          dim {
            size: 3
          }
        }
      }
    }
  }
}
node {
  name: "Const_13"
  op: "Const"
  device: "/device:CPU:0"
  attr {
    key: "_output_shapes"
    value {
      list {
        shape {
          dim {
            size: 1
          }
          dim {
            size: 3
          }
        }
      }
    }
  }
  attr {
    key: "dtype"
    value {
      type: DT_FLOAT
    }
  }
  attr {
    key: "value"
    value {
      tensor {
        dtype: DT_FLOAT
        tensor_shape {
          dim {
            size: 1
          }
          dim {
            size: 3
          }
        }
        tensor_content: "\007\005\267>\241B*?\000\000\000\000"
      }
    }
  }
}
node {
  name: "Mul_8"
  op: "Mul"
  input: "Const_13"
  input: "Const_6"
  device: "/device:CPU:0"
  attr {
    key: "T"
    value {
      type: DT_FLOAT
    }
  }
  attr {
    key: "_output_shapes"
    value {
      list {
        shape {
          dim {
            size: 1
          }
          dim {
            size: 3
          }
        }
      }
    }
  }
}
node {
  name: "Const_14"
  op: "Const"
  device: "/device:CPU:0"
  attr {
    key: "_output_shapes"
    value {
      list {
        shape {
          dim {
            size: 1
          }
          dim {
            size: 3
          }
        }
      }
    }
  }
  attr {
    key: "dtype"
    value {
      type: DT_FLOAT
    }
  }
  attr {
    key: "value"
    value {
      tensor {
        dtype: DT_FLOAT
        tensor_shape {
          dim {
            size: 1
          }
          dim {
            size: 3
          }
        }
        tensor_content: "\334\266\237>}\316\362<\000\000\000\000"
      }
    }
  }
}
node {
  name: "Mul_9"
  op: "Mul"
  input: "Const_14"
  input: "Const_6"
  device: "/device:CPU:0"
  attr {
    key: "T"
    value {
      type: DT_FLOAT
    }
  }
  attr {
    key: "_output_shapes"
    value {
      list {
        shape {
          dim {
            size: 1
          }
          dim {
            size: 3
          }
        }
      }
    }
  }
}
node {
  name: "Const_15"
  op: "Const"
  device: "/device:CPU:0"
  attr {
    key: "_output_shapes"
    value {
      list {
        shape {
          dim {
            size: 1
          }
          dim {
            size: 3
          }
        }
      }
    }
  }
  attr {
    key: "dtype"
    value {
      type: DT_FLOAT
    }
  }
  attr {
    key: "value"
    value {
      tensor {
        dtype: DT_FLOAT
        tensor_shape {
          dim {
            size: 1
          }
          dim {
            size: 3
          }
        }
        tensor_content: "[\207\t>\374[7?\000\000\000\000"
      }
    }
  }
}
node {
  name: "Mul_10"
  op: "Mul"
  input: "Const_15"
  input: "Const_6"
  device: "/device:CPU:0"
  attr {
    key: "T"
    value {
      type: DT_FLOAT
    }
  }
  attr {
    key: "_output_shapes"
    value {
      list {
        shape {
          dim {
            size: 1
          }
          dim {
            size: 3
          }
        }
      }
    }
  }
}
node {
  name: "Const_16"
  op: "Const"
  device: "/device:CPU:0"
  attr {
    key: "_output_shapes"
    value {
      list {
        shape {
          dim {
            size: 1
          }
          dim {
            size: 3
          }
        }
      }
    }
  }
  attr {
    key: "dtype"
    value {
      type: DT_FLOAT
    }
  }
  attr {
    key: "value"
    value {
      tensor {
        dtype: DT_FLOAT
        tensor_shape {
          dim {
            size: 1
          }
          dim {
            size: 3
          }
        }
        tensor_content: "\206\031\234>\020\232\007=\000\000\000\000"
      }
    }
  }
}
node {
  name: "Mul_11"
  op: "Mul"
  input: "Const_16"
  input: "Const_6"
  device: "/device:CPU:0"
  attr {
    key: "T"
    value {
      type: DT_FLOAT
    }
  }
  attr {
    key: "_output_shapes"
    value {
      list {
        shape {
          dim {
            size: 1
          }
          dim {
            size: 3
          }
        }
      }
    }
  }
}
node {
  name: "Const_17"
  op: "Const"
  device: "/device:CPU:0"
  attr {
    key: "_output_shapes"
    value {
      list {
        shape {
          dim {
            size: 1
          }
          dim {
            size: 3
          }
        }
      }
    }
  }
  attr {
    key: "dtype"
    value {
      type: DT_FLOAT
    }
  }
  attr {
    key: "value"
    value {
      tensor {
        dtype: DT_FLOAT
        tensor_shape {
          dim {
            size: 1
          }
          dim {
            size: 3
          }
        }
        tensor_content: "\231#\250=\364Rj?\000\000\000\000"
      }
    }
  }
}
node {
  name: "Mul_12"
  op: "Mul"
  input: "Const_17"
  input: "Const_6"
  device: "/device:CPU:0"
  attr {
    key: "T"
    value {
      type: DT_FLOAT
    }
  }
  attr {
    key: "_output_shapes"
    value {
      list {
        shape {
          dim {
            size: 1
          }
          dim {
            size: 3
          }
        }
      }
    }
  }
}
node {
  name: "Const_18"
  op: "Const"
  device: "/device:CPU:0"
  attr {
    key: "_output_shapes"
    value {
      list {
        shape {
          dim {
            size: 1
          }
          dim {
            size: 3
          }
        }
      }
    }
  }
  attr {
    key: "dtype"
    value {
      type: DT_FLOAT
    }
  }
  attr {
    key: "value"
    value {
      tensor {
        dtype: DT_FLOAT
        tensor_shape {
          dim {
            size: 1
          }
          dim {
            size: 3
          }
        }
        tensor_content: "\275\3622?AL\352>\000\000\000\000"
      }
    }
  }
}
node {
  name: "Mul_13"
  op: "Mul"
  input: "Const_18"
  input: "Const_6"
  device: "/device:CPU:0"
  attr {
    key: "T"
    value {
      type: DT_FLOAT
    }
  }
  attr {
    key: "_output_shapes"
    value {
      list {
        shape {
          dim {
            size: 1
          }
          dim {
            size: 3
          }
        }
      }
    }
  }
}
node {
  name: "Const_19"
  op: "Const"
  device: "/device:CPU:0"
  attr {
    key: "_output_shapes"
    value {
      list {
        shape {
          dim {
            size: 1
          }
          dim {
            size: 3
          }
        }
      }
    }
  }
  attr {
    key: "dtype"
    value {
      type: DT_FLOAT
    }
  }
  attr {
    key: "value"
    value {
      tensor {
        dtype: DT_FLOAT
        tensor_shape {
          dim {
            size: 1
          }
          dim {
            size: 3
          }
        }
        tensor_content: "\244\312i>\237\314\237>\000\000\000\000"
      }
    }
  }
}
node {
  name: "Mul_14"
  op: "Mul"
  input: "Const_19"
  input: "Const_6"
  device: "/device:CPU:0"
