node {
  name: "global_step/Initializer/zeros"
  op: "Const"
  attr {
    key: "_class"
    value {
      list {
        s: "loc:@global_step"
      }
    }
  }
  attr {
    key: "_output_shapes"
    value {
      list {
        shape {
        }
      }
    }
  }
  attr {
    key: "dtype"
    value {
      type: DT_INT64
    }
  }
  attr {
    key: "value"
    value {
      tensor {
        dtype: DT_INT64
        tensor_shape {
        }
        int64_val: 0
      }
    }
  }
}
node {
  name: "global_step"
  op: "VariableV2"
  attr {
    key: "_class"
    value {
      list {
        s: "loc:@global_step"
      }
    }
  }
  attr {
    key: "_output_shapes"
    value {
      list {
        shape {
        }
      }
    }
  }
  attr {
    key: "container"
    value {
      s: ""
    }
  }
  attr {
    key: "dtype"
    value {
      type: DT_INT64
    }
  }
  attr {
    key: "shape"
    value {
      shape {
      }
    }
  }
  attr {
    key: "shared_name"
    value {
      s: ""
    }
  }
}
node {
  name: "global_step/Assign"
  op: "Assign"
  input: "global_step"
  input: "global_step/Initializer/zeros"
  attr {
    key: "T"
    value {
      type: DT_INT64
    }
  }
  attr {
    key: "_class"
    value {
      list {
        s: "loc:@global_step"
      }
    }
  }
  attr {
    key: "_output_shapes"
    value {
      list {
        shape {
        }
      }
    }
  }
  attr {
    key: "use_locking"
    value {
      b: true
    }
  }
  attr {
    key: "validate_shape"
    value {
      b: true
    }
  }
}
node {
  name: "global_step/read"
  op: "Identity"
  input: "global_step"
  attr {
    key: "T"
    value {
      type: DT_INT64
    }
  }
  attr {
    key: "_class"
    value {
      list {
        s: "loc:@global_step"
      }
    }
  }
  attr {
    key: "_output_shapes"
    value {
      list {
        shape {
        }
      }
    }
  }
}
node {
  name: "global_step/IsVariableInitialized"
  op: "IsVariableInitialized"
  input: "global_step"
  attr {
    key: "_class"
    value {
      list {
        s: "loc:@global_step"
      }
    }
  }
  attr {
    key: "_output_shapes"
    value {
      list {
        shape {
        }
      }
    }
  }
  attr {
    key: "dtype"
    value {
      type: DT_INT64
    }
  }
}
node {
  name: "global_step/cond/Switch"
  op: "Switch"
  input: "global_step/IsVariableInitialized"
  input: "global_step/IsVariableInitialized"
  attr {
    key: "T"
    value {
      type: DT_BOOL
    }
  }
  attr {
    key: "_output_shapes"
    value {
      list {
        shape {
        }
        shape {
        }
      }
    }
  }
}
node {
  name: "global_step/cond/switch_t"
  op: "Identity"
  input: "global_step/cond/Switch:1"
  attr {
    key: "T"
    value {
      type: DT_BOOL
    }
  }
  attr {
    key: "_output_shapes"
    value {
      list {
        shape {
        }
      }
    }
  }
}
node {
  name: "global_step/cond/switch_f"
  op: "Identity"
  input: "global_step/cond/Switch"
  attr {
    key: "T"
    value {
      type: DT_BOOL
    }
  }
  attr {
    key: "_output_shapes"
    value {
      list {
        shape {
        }
      }
    }
  }
}
node {
  name: "global_step/cond/pred_id"
  op: "Identity"
  input: "global_step/IsVariableInitialized"
  attr {
    key: "T"
    value {
      type: DT_BOOL
    }
  }
  attr {
    key: "_output_shapes"
    value {
      list {
        shape {
        }
      }
    }
  }
}
node {
  name: "global_step/cond/read"
  op: "Identity"
  input: "global_step/cond/read/Switch:1"
  attr {
    key: "T"
    value {
      type: DT_INT64
    }
  }
  attr {
    key: "_output_shapes"
    value {
      list {
        shape {
        }
      }
    }
  }
}
node {
  name: "global_step/cond/read/Switch"
  op: "RefSwitch"
  input: "global_step"
  input: "global_step/cond/pred_id"
  attr {
    key: "T"
    value {
      type: DT_INT64
    }
  }
  attr {
    key: "_class"
    value {
      list {
        s: "loc:@global_step"
      }
    }
  }
  attr {
    key: "_output_shapes"
    value {
      list {
        shape {
        }
        shape {
        }
      }
    }
  }
}
node {
  name: "global_step/cond/Switch_1"
  op: "Switch"
  input: "global_step/Initializer/zeros"
  input: "global_step/cond/pred_id"
  attr {
    key: "T"
    value {
      type: DT_INT64
    }
  }
  attr {
    key: "_class"
    value {
      list {
        s: "loc:@global_step"
      }
    }
  }
  attr {
    key: "_output_shapes"
    value {
      list {
        shape {
        }
        shape {
        }
      }
    }
  }
}
node {
  name: "global_step/cond/Merge"
  op: "Merge"
  input: "global_step/cond/Switch_1"
  input: "global_step/cond/read"
  attr {
    key: "N"
    value {
      i: 2
    }
  }
  attr {
    key: "T"
    value {
      type: DT_INT64
    }
  }
  attr {
    key: "_output_shapes"
    value {
      list {
        shape {
        }
        shape {
        }
      }
    }
  }
}
node {
  name: "global_step/add/y"
  op: "Const"
  attr {
    key: "_output_shapes"
    value {
      list {
        shape {
        }
      }
    }
  }
  attr {
    key: "dtype"
    value {
      type: DT_INT64
    }
  }
  attr {
    key: "value"
    value {
      tensor {
        dtype: DT_INT64
        tensor_shape {
        }
        int64_val: 0
      }
    }
  }
}
node {
  name: "global_step/add"
  op: "Add"
  input: "global_step/cond/Merge"
  input: "global_step/add/y"
  attr {
    key: "T"
    value {
      type: DT_INT64
    }
  }
  attr {
    key: "_output_shapes"
    value {
      list {
        shape {
        }
      }
    }
  }
}
node {
  name: "Const"
  op: "Const"
  device: "/device:CPU:0"
  attr {
    key: "_output_shapes"
    value {
      list {
        shape {
          dim {
            size: 1000
          }
          dim {
            size: 1
          }
        }
      }
    }
  }
  attr {
    key: "dtype"
    value {
      type: DT_FLOAT
    }
  }
  attr {
    key: "value"
    value {
      tensor {
        dtype: DT_FLOAT
        tensor_shape {
          dim {
            size: 1000
          }
          dim {
            size: 1
          }
        }
        tensor_content: "2w\246@u\322F=\351\377X@\224\223\253@V\300z@\347\267\321?\2778\024@\310k\345?T<\006@X\024\n@\313\247\215?\207T\244@\037\355\276>g;\253?E\0069@;\265\206@?\021\235?*g\266@l\266\266?\324\241w@\251\371\233@\231p\233@\355\323\240?\377o\271@eO\265?{2\013@\001\204m@\343\227\347?\t\314.?\265\223\242>)\343F@*\312\003@\3260\304@-\357i@\357\2204@f\356\277@\343\0306@@<m@\024\324\240?D\254\263@p\311\201@7Q\025@\324\320\206@O\223\277@O\271\306?/O\240@\003\342\305@>\321\036@~d\266@\360N?@\260\340\245@\037\211\267?\330\204\250?C(\235?\205\346V@\357\277\302@\3766\013?X\374\010@RB\246@\311\372\241@!\367\232@\305\375\265?v\021\300@\211\2373@\215Z\032@\212\274\204@\324\263\371>\347h\030@\225\027\343?8|\222?\222\"\252?\3716\254@\031g\204@\312VV@5\334\206@\r\331\001@v\r\217@\263\032\216?\352\315]@\360^\204?\204\243J@\202y\014@\216\312\237@\022~\377?q\343\300>\233\273\271@\3149\302@\353#\204@\240\266\013@d\'\213@\340\2748@+:\214@w+A@\251\034\275@\274\337\275>\277\031\222@\211\002\003@\253G\260@`ZO@\307\254\346?\2533l?\221W\215@\255\254\204@\321\275\355<\274\"t@\253\027\207@\237|z@\247\203\306@\313\264\366?\006\334\212@\330\316B@\212|b@I\255\222>\n\202\236@\024\343V@\257\347w?T\223b?\210\t\025?\030@\272?WHQ?z\214.?B\3728@\016\231\315>x\275\216@\253\210\343?\233\213\377?\231\021\205@\351\242\255@&\265\022?@m\231@g\013\252@\013w\177@M@\307@f\212\317?L\355\261@\271\213\272@r6\270@\332\372\265=S>\255@\\Wp@\265\215\374?\327\006\224@{\213\303@`9L@&\205\260@\240\014\307@\212>\363?\245&\223@\373\225[@0S\006@0\361\257@\023\272\253@\217 \214@\366\004\274?\341RS@KJ\027@\263\205\246@\362\303k@%\262g@\256[\243@\216t\253@\375%\336?xW\361?\315_8?4\034\302?-$\243?\321\346\243@\225R\t?\322\336\003@k=\301>}\035l@>\367l@u\330\025@\215F\210@\260\243\320?\345\210\n?Y+\216=b\001\302@G\326\025@\037@D@\356\020\374?\247\322\222@\0137\241@\254\237\233@S\217b@^\241\256@\253p\347?C\332t@\300\377\207@_\3146@\301\201/@\313{p@\272?J=\177\r`@\3359u?\222v\263?\016M:@\316\323\301@z\t\256@\376,\250@\261\006\236@\374\242\021?O\257\022@\020\375]@I~Q?j\017\260>\322\025\222?\307@\345>\376\035A@\t\362@@x\363\257@\315\304\205@\026\022\266?]M^@\256\365\254@\347\355n@\333\253\234@\361{\235@\177\234\177@\024\373\222@\365\221\211@>-\303@\254\265\344?\375\202\305@\210P\350?\325\225\247@\356\313\306@\334\233\243@]\302\201@b\361\352?\303\353\266@\003\0028@F\351\235@\362\375\205@9\345\366?\350\325g@~\374\256@\025\260\212?\353\354\214@\321\025l>74\225@\023\302\247>\227\3262@\022/\304>X\237\342>\357(\231@\335Tx@\026\213\'?z\"\247@\003\2520@\242&\n@\242P\336?\001\345\275=\376i~@\324\327\223@q)f>\303\025\n@\347\317a@\3709\\@\315\317D?\177\000s@C?|>;)\266@\234\177_@]r\333?\365\315\010@\271\320\030@,\364\335?m#\277@\030\2672>\376Q\247@eB\226>\334/>?K\0248?9\006\277@=|\036@\231\265\276@\227\332\373?\2658U@\3364=>D\005\247@\002\335\030@\332\352\231@\017d\254?H(\024@l=\273@\032\353t>\034\266\005?\r\270\200@+Q\263@\010\345\206@\211\022]@\205\313\221@7\357\213>\356B\240>_\211I@\261\027\305@\254.y@R\214{@<*E@k?2@\252\023\221>\254\304b@\347N\261@}DH?\310\371\264@\334aB?7@\226@1\273\242@#\212Y>\273\\\206>\371\345\230?e\215\377?\003V_@\345\'\235@_\\\304@\022\232\344?\350\252\000@b\236^@\233\014\027@\013\0041@\241\341\206@e@\255@0P\212@\362@(>Q\001\272@\214\264\350?GI^@\014\226\277@\'\370\014@\354a\272@\311Z\207?A\343\202?\006\223\233@|\000`@\3620\303@\233\311\212?\351\031\242@B\001\007?\225\223\204@(\024\235@\205\375\256@ J\274>\026\036\337>w\274\265@\354\311\270?\210\000\255@\"\241\231@S\330p@F\031\277@\345\207\240@67\245@_gw@\236\253Y@H\250\311?\342\320\225@\350\246\264@\323\350\n?\367\342i>r\024\240@6\037\261@\263d}?\342\305k@\001\003\305?\312\211\235@\315Cs@\233\322\\@_]\275@|\315K?\367\207\330>\224Sv>D\003\034@D\356\262@\375^y@W\356\203:\247\345n?.\370\362>\021#\230@\325\227V@\316\202\352?]\332\307?\313\305\327?\223\226v@\275E\262@\266T\022@pr`>\231\260\217@\361J\325?K\231\355?G1H@\246v\260?\177\001\271@\205aY?\342}\224@,Z\002?D\232v?\276\211\213?h\'h@r\261\350?\033\026\034@\004q\253?\342U\013@\354\235\022@\305\341R@\341_\216@\241\202\265?\334P\366?t)\217?\203 \'?\230?\013@;\355d?BKP?\212 \237>\275\230!@\357x\271@-\264\265@\353e @\261~\304@4\365\025@\010\262\361?c\377\206@\267\256\253@q\256\202@S\014\227@F J@\030\231Z>\364\'*?\224\324\237?\021\265\233?Y\035;@\376s\301@!#\221?\200\377\253@\3264\205?\3006\201>\255!`@l\265\306@\215\024A=+\360\212?\037\034\357?N\366\271?\245\257\257@6\2379?\224\254\250@w\037\222@\001\215\t?\002\204A@\202\206\274@\271#\211@\2043/@\313\303p@I\225\027>\264\373\263@\241\237b?\032|\317>zIY@\237My?\212OF@\306\307\022?-\311\306@h-\220@,\330\030@\212\246\260@\026q\237@\301AB@\310\371L@\215\236\017@\303L\277@\203u\254@;\367\034@\242\303\226@\342\335\304@\335fH@w\262\202@\025\213g@j\021\232@>\241\032?\3219\270@\023Kq@\217\362\252?\250\236k?g\267u@\372\207N@!\035\244@\255\274T@0\361r@ \277\251@\320\244a@\004 \374?ALh@\311h\212@\036\277\273@)J\020@4\355>@FHf?\351Li@Rl\307>\237\256\001?\311\360>>\315\315\325?(\337\200@\216K\310@}\352\\?E\3769@\0354\217@\261~\210@\273\316?@>\352\246@\210\001\256@\221\304\267>:\244l@AJ\027?\373e\206?H>\303@\312\356\217@\tP\232@\201\215\256@\232\322\260>C\n8@!\346o?\272\362\243@2\331\274?G\354q@X\2571@\255\200\335=\266\200\"@z\257\013@\337\337\266@\350z\213@\037\366\231@\263\325\266@\225\r\304?\010\0033@\334\373a@\006i\215@br\200@\317x\246@\331\234\270@\247\242 @\341\031E?\000L\375>\266\023\276@+\007\264<\317\356v?\321\306\260?\333pE@\352\311\020@A\352\252@P}1>X\353!@_9t@\r\372\251@\3577<@\002\032\177@U\027\242@)\023\243@\326\373\271@\310\3673@\317\216\261@\177\253}@\363\202o@R!\245=\205x\036=o\332\301?\335\350\255@\022\307u@\237\036\325>9|\033@\027A\220@\013<c?\312C\204@4\353\367?Q\225y@\211%i@K\251\267?y\027\305@\242\233b@\032q%?{:\003@\206\205U@6\\\235@r\227\001@4\220\020?n\304i@$\322\017?W\023\242@!3u@\236B\250@\017\017&?g\027\037@[\367\237?\313$\213>/t#@AZ\370?\230\333R@M\232T?\353\310\237>\323\313\222@\003\265\223@!\030\036@\243\016\250@J\336\247@\2267\350?-\023@?\330\237\344?\355\206F@;\212\037?Vj\233@\010\361^@\303\366\212?\234G\221@d\010X@\036_\356?+TC@Y\376\254@?\320\244@\376s\017@B\270\256@\n\237\217@5\207\265@k\325\272?v\344\357?c@\340=q\236\251@^]\327>B\316N?7>\302@\322\215q?>\301\254@\"\213\324?C*R@\024\272\224?F\371l@`i\317>\323\007\227@\255\357P@a\234\030@\217\250\344?Uf9?\333\006\257@i\027\211@\355\3603@\227\226\277@\264.\272?^\220&@\237\227o@Tj\004@I\351\036@\245Cn?\r}R@\316\376\010@\005/\235?\002\300\210@)\261\376?\245\314\211@\217o\201@7p{@#\'\305@x\267\307@~\347_@\260D\271@\204\314O@\305d\315?\255\267Q>\206\341\273@\345\222i@\240U\026>\301\023\304@\017\n\246@\270\006\302@\371<\013@V\3652@\303\355\267@\2458\215@t\254\005@\355\372\223@\0313\276@\240H\242@oK\301@\\\303\250@\361~\220@\303\353\212@\260\022p@9\260\222?\211\231\036@\257\324c?\352\211\206@p\241\245@bE\233@\r\240i?\333\255\206@\300\375,@hd\203@+>\303@\265\244Y@x\224\304@\266eP@\273\230j@X\006j>\203\320\333?\205\272M?\373\357\271@\372\202b@S\313\353>\005u\274?\263\206\227@V\356\004?\2051\202?\350\374\304@\220\325\201@b|\'@\244\220M=\"N\225@2\374\276@J\374\266@\205\331\007?\013\310-?j\233\r@#\3159@\030\033I@\230\005h?\255<b@\302\000\226@\032n\221?\230VY?\340\313\031?\242\014\201?\365\217\301@\304\272\217@\nY\245@d\002\233@\342\"L@\377\253\304?\274J\341?\307\254\\@\324\342H@\3465@?\013\227\246?!\371\303@\340\202o@C\302\253@6\305\256@Jw\212@1\232\272@\260\315\266@\017\371\230@-m\306@K\367\031?6\030\305@\020\310\307@P$s@+\357.@\364\300\274<\232po@\377\360\274@\262\275\260@\270\033W@I=6@\201\211}@\261\031\364?\215\200#@.XY@iw\"@\023\017\273?L\032o@k]\376?\313)\244@\232\212\233>\356\305\265@\352\223\351?\362\270:@\002\211\202?\245\350\\?\300\353\325>^g\266@\205\177\267@\356h\236@\\\317\027@\014\337\215@\372\262.?)\315\352?\264\026\213@\326\262;@q\265t?A\202?>n\006\222@B\254\213@\276j\260@\353N\310@\333\374\036@i\031\230@6\332\275@\314g\204@?\324\311?\307\355p@\300T\n@\361:\274@\246m\225@G\332\211?Q\376i@\036T\221@\366\255\032?\242\3151@Fb\"@7c\323>\206\014\232@\234\255\200>\250e|@\375\265\013@\254\204\244>&\341\245@\225\305\274@e\275\253@o\264\203@\341\307n@\001jY@$\014\245@\333\215\202@\371\345\013@M\275o@N\316v@\035\237\t@\377\266\307@N\366P@>\227E@\006\253\307@\311\352\233@b\354 ?\337\203\273@\206u\200@\250\001V@\223\037\227@\225N\217?\207S\271?\336\260G@\312u\241?\261\336\303?\221\327\264@\017\354\345?t8\340?\r\363\266?_`u@\265]G?\020\213\251@f\032\r?\310B\003@\355\037\310@\264)Q@\3060\274@h\270\200@\3016\014@\030\251\034@\316%\310@\315~\234@\350\305\240?\231[\220@\360 \023@\240\314P@\342\001\235@\242\307\233@\016I ?B\370\247@&\330\217@\342\273\220@\363f\267?&\302\026@}\tq@_\241@@\211|\251@i\343\264@\022LJ?\213\321\010@y5\201@V\216\370>\222\227E?\030S\213>5o\005@\257\007\302@\246SJ=r\004\271@41J@\032*>=5\036,@5\346u@h>j@\tB\235@|\022@@D\320\335?\306BY@\261\205\023@\203\030Y@\037\006\221@1i\265@\363\362q@\237M\337=\177\372\014??\272|?\304+\003@e\343\005@\272B\306?\372\276\024?\271t\211@\020\300m@\"\034\263@`Vb?u|`?+r\352?\2656\217@:\357 @\004q\260@\373\274C@\004\310\253?a\216\321?\275\001D?wo\022@\274m\241?\3759\246@\277i\205@\333\0277?{\010\300?\230Uv@.\001^@\255\006\020@\220F(@\014O\030@\031\201\216@\016/A@4\2717@\363\021\027?\302A.@\000\201N@\346\253~@\202\t\246@k\335\266@E\026\303@\366\207+@\217\341\000?\215\210\t?\375\305[@\304\351\035@\265\022U@\215\252\207@\324=\320?a\327\233@\265W{@]\000\004@\375\221Z@\306\331\244@82B@\t]\212@\300,5@\256\302\035@\222\362\n@i\377\302@c\342\220@S\370\200>f\345\273@LV\231@\237\3452@\205\202\266@\302\321\240@\261\014\303@\363&\304@\270\005\243@\036\267\304@\353\214[@\373C\232@\225\276\333?,y\203@?!\256@\220\252I@6\363\275@\334\376\372>~\216\275@o\033\255@{:\372>Yu\244@\030Y\000@\0071\200@K\226\233<m\'\t@\022\306Y@(\025Y@\261\347\260@\313f5>6\2477@\326DR@7\272\201@O\257\332>}\013G@\010\312\253?\201\263\020=GM\330?\025\n5@\324\\@@\023\035\211@\365\005\266@\341\255\212@e<\222@\242l\002@"
      }
    }
  }
}
node {
  name: "Const_1"
  op: "Const"
  device: "/device:CPU:0"
  attr {
    key: "_output_shapes"
    value {
      list {
        shape {
          dim {
            size: 1000
          }
          dim {
            size: 1
          }
        }
      }
    }
  }
  attr {
    key: "dtype"
    value {
      type: DT_FLOAT
    }
  }
  attr {
    key: "value"
    value {
      tensor {
        dtype: DT_FLOAT
        tensor_shape {
          dim {
            size: 1000
          }
          dim {
            size: 1
          }
        }
        tensor_content: "\000\000\200?\000\000\200?\000\000\200?\000\000\200?\000\000\200?\000\000\200?\000\000\200?\000\000\200?\000\000\200?\000\000\200?\000\000\200?\000\000\200?\000\000\200?\000\000\200?\000\000\200?\000\000\200?\000\000\200?\000\000\200?\000\000\200?\000\000\200?\000\000\200?\000\000\200?\000\000\200?\000\000\200?\000\000\200?\000\000\200?\000\000\200?\000\000\200?\000\000\200?\000\000\200?\000\000\200?\000\000\200?\000\000\200?\000\000\200?\000\000\200?\000\000\200?\000\000\200?\000\000\200?\000\000\200?\000\000\200?\000\000\200?\000\000\200?\000\000\200?\000\000\200?\000\000\200?\000\000\200?\000\000\200?\000\000\200?\000\000\200?\000\000\200?\000\000\200?\000\000\200?\000\000\200?\000\000\200?\000\000\200?\000\000\200?\000\000\200?\000\000\200?\000\000\200?\000\000\200?\000\000\200?\000\000\200?\000\000\200?\000\000\200?\000\000\200?\000\000\200?\000\000\200?\000\000\200?\000\000\200?\000\000\200?\000\000\200?\000\000\200?\000\000\200?\000\000\200?\000\000\200?\000\000\200?\000\000\200?\000\000\200?\000\000\200?\000\000\200?\000\000\200?\000\000\200?\000\000\200?\000\000\200?\000\000\200?\000\000\200?\000\000\200?\000\000\200?\000\000\200?\000\000\200?\000\000\200?\000\000\200?\000\000\200?\000\000\200?\000\000\200?\000\000\200?\000\000\200?\000\000\200?\000\000\200?\000\000\200?\000\000\200?\000\000\200?\000\000\200?\000\000\200?\000\000\200?\000\000\200?\000\000\200?\000\000\200?\000\000\200?\000\000\200?\000\000\200?\000\000\200?\000\000\200?\000\000\200?\000\000\200?\000\000\200?\000\000\200?\000\000\200?\000\000\200?\000\000\200?\000\000\200?\000\000\200?\000\000\200?\000\000\200?\000\000\200?\000\000\200?\000\000\200?\000\000\200?\000\000\200?\000\000\200?\000\000\200?\000\000\200?\000\000\200?\000\000\200?\000\000\200?\000\000\200?\000\000\200?\000\000\200?\000\000\200?\000\000\200?\000\000\200?\000\000\200?\000\000\200?\000\000\200?\000\000\200?\000\000\200?\000\000\200?\000\000\200?\000\000\200?\000\000\200?\000\000\200?\000\000\200?\000\000\200?\000\000\200?\000\000\200?\000\000\200?\000\000\200?\000\000\200?\000\000\200?\000\000\200?\000\000\200?\000\000\200?\000\000\200?\000\000\200?\000\000\200?\000\000\200?\000\000\200?\000\000\200?\000\000\200?\000\000\200?\000\000\200?\000\000\200?\000\000\200?\000\000\200?\000\000\200?\000\000\200?\000\000\200?\000\000\200?\000\000\200?\000\000\200?\000\000\200?\000\000\200?\000\000\200?\000\000\200?\000\000\200?\000\000\200?\000\000\200?\000\000\200?\000\000\200?\000\000\200?\000\000\200?\000\000\200?\000\000\200?\000\000\200?\000\000\200?\000\000\200?\000\000\200?\000\000\200?\000\000\200?\000\000\200?\000\000\200?\000\000\200?\000\000\200?\000\000\200?\000\000\200?\000\000\200?\000\000\200?\000\000\200?\000\000\200?\000\000\200?\000\000\200?\000\000\200?\000\000\200?\000\000\200?\000\000\200?\000\000\200?\000\000\200?\000\000\200?\000\000\200?\000\000\200?\000\000\200?\000\000\200?\000\000\200?\000\000\200?\000\000\200?\000\000\200?\000\000\200?\000\000\200?\000\000\200?\000\000\200?\000\000\200?\000\000\200?\000\000\200?\000\000\200?\000\000\200?\000\000\200?\000\000\200?\000\000\200?\000\000\200?\000\000\200?\000\000\200?\000\000\200?\000\000\200?\000\000\200?\000\000\200?\000\000\200?\000\000\200?\000\000\200?\000\000\200?\000\000\200?\000\000\200?\000\000\200?\000\000\200?\000\000\200?\000\000\200?\000\000\200?\000\000\200?\000\000\200?\000\000\200?\000\000\200?\000\000\200?\000\000\200?\000\000\200?\000\000\200?\000\000\200?\000\000\200?\000\000\200?\000\000\200?\000\000\200?\000\000\200?\000\000\200?\000\000\200?\000\000\200?\000\000\200?\000\000\200?\000\000\200?\000\000\200?\000\000\200?\000\000\200?\000\000\200?\000\000\200?\000\000\200?\000\000\200?\000\000\200?\000\000\200?\000\000\200?\000\000\200?\000\000\200?\000\000\200?\000\000\200?\000\000\200?\000\000\200?\000\000\200?\000\000\200?\000\000\200?\000\000\200?\000\000\200?\000\000\200?\000\000\200?\000\000\200?\000\000\200?\000\000\200?\000\000\200?\000\000\200?\000\000\200?\000\000\200?\000\000\200?\000\000\200?\000\000\200?\000\000\200?\000\000\200?\000\000\200?\000\000\200?\000\000\200?\000\000\200?\000\000\200?\000\000\200?\000\000\200?\000\000\200?\000\000\200?\000\000\200?\000\000\200?\000\000\200?\000\000\200?\000\000\200?\000\000\200?\000\000\200?\000\000\200?\000\000\200?\000\000\200?\000\000\200?\000\000\200?\000\000\200?\000\000\200?\000\000\200?\000\000\200?\000\000\200?\000\000\200?\000\000\200?\000\000\200?\000\000\200?\000\000\200?\000\000\200?\000\000\200?\000\000\200?\000\000\200?\000\000\200?\000\000\200?\000\000\200?\000\000\200?\000\000\200?\000\000\200?\000\000\200?\000\000\200?\000\000\200?\000\000\200?\000\000\200?\000\000\200?\000\000\200?\000\000\200?\000\000\200?\000\000\200?\000\000\200?\000\000\200?\000\000\200?\000\000\200?\000\000\200?\000\000\200?\000\000\200?\000\000\200?\000\000\200?\000\000\200?\000\000\200?\000\000\200?\000\000\200?\000\000\200?\000\000\200?\000\000\200?\000\000\200?\000\000\200?\000\000\200?\000\000\200?\000\000\200?\000\000\200?\000\000\200?\000\000\200?\000\000\200?\000\000\200?\000\000\200?\000\000\200?\000\000\200?\000\000\200?\000\000\200?\000\000\200?\000\000\200?\000\000\200?\000\000\200?\000\000\200?\000\000\200?\000\000\200?\000\000\200?\000\000\200?\000\000\200?\000\000\200?\000\000\200?\000\000\200?\000\000\200?\000\000\200?\000\000\200?\000\000\200?\000\000\200?\000\000\200?\000\000\200?\000\000\200?\000\000\200?\000\000\200?\000\000\200?\000\000\200?\000\000\200?\000\000\200?\000\000\200?\000\000\200?\000\000\200?\000\000\200?\000\000\200?\000\000\200?\000\000\200?\000\000\200?\000\000\200?\000\000\200?\000\000\200?\000\000\200?\000\000\200?\000\000\200?\000\000\200?\000\000\200?\000\000\200?\000\000\200?\000\000\200?\000\000\200?\000\000\200?\000\000\200?\000\000\200?\000\000\200?\000\000\200?\000\000\200?\000\000\200?\000\000\200?\000\000\200?\000\000\200?\000\000\200?\000\000\200?\000\000\200?\000\000\200?\000\000\200?\000\000\200?\000\000\200?\000\000\200?\000\000\200?\000\000\200?\000\000\200?\000\000\200?\000\000\200?\000\000\200?\000\000\200?\000\000\200?\000\000\200?\000\000\200?\000\000\200?\000\000\200?\000\000\200?\000\000\200?\000\000\200?\000\000\200?\000\000\200?\000\000\200?\000\000\200?\000\000\200?\000\000\200?\000\000\200?\000\000\200?\000\000\200?\000\000\200?\000\000\200?\000\000\200?\000\000\200?\000\000\200?\000\000\200?\000\000\200?\000\000\200?\000\000\200?\000\000\200?\000\000\200?\000\000\200?\000\000\200?\000\000\200?\000\000\200?\000\000\200?\000\000\200?\000\000\200?\000\000\200?\000\000\200?\000\000\200?\000\000\200?\000\000\200?\000\000\200?\000\000\200?\000\000\200?\000\000\200?\000\000\200?\000\000\200?\000\000\200?\000\000\200?\000\000\200?\000\000\200?\000\000\200?\000\000\200?\000\000\200?\000\000\200?\000\000\200?\000\000\200?\000\000\200?\000\000\200?\000\000\200?\000\000\200?\000\000\200?\000\000\200?\000\000\200?\000\000\200?\000\000\200?\000\000\200?\000\000\200?\000\000\200?\000\000\200?\000\000\200?\000\000\200?\000\000\200?\000\000\200?\000\000\200?\000\000\200?\000\000\200?\000\000\200?\000\000\200?\000\000\200?\000\000\200?\000\000\200?\000\000\200?\000\000\200?\000\000\200?\000\000\200?\000\000\200?\000\000\200?\000\000\200?\000\000\200?\000\000\200?\000\000\200?\000\000\200?\000\000\200?\000\000\200?\000\000\200?\000\000\200?\000\000\200?\000\000\200?\000\000\200?\000\000\200?\000\000\200?\000\000\200?\000\000\200?\000\000\200?\000\000\200?\000\000\200?\000\000\200?\000\000\200?\000\000\200?\000\000\200?\000\000\200?\000\000\200?\000\000\200?\000\000\200?\000\000\200?\000\000\200?\000\000\200?\000\000\200?\000\000\200?\000\000\200?\000\000\200?\000\000\200?\000\000\200?\000\000\200?\000\000\200?\000\000\200?\000\000\200?\000\000\200?\000\000\200?\000\000\200?\000\000\200?\000\000\200?\000\000\200?\000\000\200?\000\000\200?\000\000\200?\000\000\200?\000\000\200?\000\000\200?\000\000\200?\000\000\200?\000\000\200?\000\000\200?\000\000\200?\000\000\200?\000\000\200?\000\000\200?\000\000\200?\000\000\200?\000\000\200?\000\000\200?\000\000\200?\000\000\200?\000\000\200?\000\000\200?\000\000\200?\000\000\200?\000\000\200?\000\000\200?\000\000\200?\000\000\200?\000\000\200?\000\000\200?\000\000\200?\000\000\200?\000\000\200?\000\000\200?\000\000\200?\000\000\200?\000\000\200?\000\000\200?\000\000\200?\000\000\200?\000\000\200?\000\000\200?\000\000\200?\000\000\200?\000\000\200?\000\000\200?\000\000\200?\000\000\200?\000\000\200?\000\000\200?\000\000\200?\000\000\200?\000\000\200?\000\000\200?\000\000\200?\000\000\200?\000\000\200?\000\000\200?\000\000\200?\000\000\200?\000\000\200?\000\000\200?\000\000\200?\000\000\200?\000\000\200?\000\000\200?\000\000\200?\000\000\200?\000\000\200?\000\000\200?\000\000\200?\000\000\200?\000\000\200?\000\000\200?\000\000\200?\000\000\200?\000\000\200?\000\000\200?\000\000\200?\000\000\200?\000\000\200?\000\000\200?\000\000\200?\000\000\200?\000\000\200?\000\000\200?\000\000\200?\000\000\200?\000\000\200?\000\000\200?\000\000\200?\000\000\200?\000\000\200?\000\000\200?\000\000\200?\000\000\200?\000\000\200?\000\000\200?\000\000\200?\000\000\200?\000\000\200?\000\000\200?\000\000\200?\000\000\200?\000\000\200?\000\000\200?\000\000\200?\000\000\200?\000\000\200?\000\000\200?\000\000\200?\000\000\200?\000\000\200?\000\000\200?\000\000\200?\000\000\200?\000\000\200?\000\000\200?\000\000\200?\000\000\200?\000\000\200?\000\000\200?\000\000\200?\000\000\200?\000\000\200?\000\000\200?\000\000\200?\000\000\200?\000\000\200?\000\000\200?\000\000\200?\000\000\200?\000\000\200?\000\000\200?\000\000\200?\000\000\200?\000\000\200?\000\000\200?\000\000\200?\000\000\200?\000\000\200?\000\000\200?\000\000\200?\000\000\200?\000\000\200?\000\000\200?\000\000\200?\000\000\200?\000\000\200?\000\000\200?\000\000\200?\000\000\200?\000\000\200?\000\000\200?\000\000\200?\000\000\200?\000\000\200?\000\000\200?\000\000\200?\000\000\200?\000\000\200?\000\000\200?\000\000\200?\000\000\200?\000\000\200?\000\000\200?\000\000\200?\000\000\200?\000\000\200?\000\000\200?\000\000\200?\000\000\200?\000\000\200?\000\000\200?\000\000\200?\000\000\200?\000\000\200?\000\000\200?\000\000\200?\000\000\200?\000\000\200?\000\000\200?\000\000\200?\000\000\200?\000\000\200?\000\000\200?\000\000\200?\000\000\200?\000\000\200?\000\000\200?\000\000\200?\000\000\200?\000\000\200?\000\000\200?\000\000\200?\000\000\200?\000\000\200?\000\000\200?\000\000\200?\000\000\200?\000\000\200?\000\000\200?\000\000\200?\000\000\200?\000\000\200?\000\000\200?\000\000\200?\000\000\200?\000\000\200?\000\000\200?\000\000\200?\000\000\200?\000\000\200?\000\000\200?\000\000\200?\000\000\200?\000\000\200?\000\000\200?\000\000\200?\000\000\200?\000\000\200?\000\000\200?\000\000\200?\000\000\200?\000\000\200?\000\000\200?\000\000\200?\000\000\200?\000\000\200?\000\000\200?\000\000\200?\000\000\200?\000\000\200?\000\000\200?\000\000\200?\000\000\200?\000\000\200?\000\000\200?\000\000\200?\000\000\200?\000\000\200?\000\000\200?\000\000\200?\000\000\200?\000\000\200?\000\000\200?\000\000\200?\000\000\200?\000\000\200?\000\000\200?\000\000\200?\000\000\200?\000\000\200?\000\000\200?\000\000\200?\000\000\200?\000\000\200?\000\000\200?\000\000\200?\000\000\200?\000\000\200?\000\000\200?\000\000\200?\000\000\200?\000\000\200?\000\000\200?\000\000\200?\000\000\200?\000\000\200?\000\000\200?\000\000\200?\000\000\200?\000\000\200?\000\000\200?\000\000\200?\000\000\200?\000\000\200?\000\000\200?\000\000\200?\000\000\200?\000\000\200?\000\000\200?\000\000\200?\000\000\200?\000\000\200?\000\000\200?\000\000\200?\000\000\200?\000\000\200?\000\000\200?\000\000\200?\000\000\200?\000\000\200?\000\000\200?\000\000\200?\000\000\200?\000\000\200?\000\000\200?\000\000\200?\000\000\200?\000\000\200?\000\000\200?\000\000\200?\000\000\200?\000\000\200?\000\000\200?\000\000\200?\000\000\200?\000\000\200?\000\000\200?\000\000\200?\000\000\200?\000\000\200?\000\000\200?\000\000\200?\000\000\200?\000\000\200?\000\000\200?\000\000\200?\000\000\200?\000\000\200?\000\000\200?\000\000\200?\000\000\200?\000\000\200?\000\000\200?\000\000\200?\000\000\200?\000\000\200?\000\000\200?\000\000\200?\000\000\200?\000\000\200?\000\000\200?\000\000\200?\000\000\200?\000\000\200?\000\000\200?\000\000\200?\000\000\200?\000\000\200?\000\000\200?\000\000\200?\000\000\200?\000\000\200?\000\000\200?\000\000\200?\000\000\200?\000\000\200?\000\000\200?\000\000\200?\000\000\200?\000\000\200?\000\000\200?\000\000\200?\000\000\200?\000\000\200?\000\000\200?\000\000\200?\000\000\200?\000\000\200?\000\000\200?\000\000\200?\000\000\200?\000\000\200?\000\000\200?\000\000\200?\000\000\200?\000\000\200?\000\000\200?\000\000\200?\000\000\200?\000\000\200?\000\000\200?\000\000\200?\000\000\200?\000\000\200?\000\000\200?\000\000\200?\000\000\200?\000\000\200?\000\000\200?\000\000\200?\000\000\200?\000\000\200?\000\000\200?\000\000\200?\000\000\200?\000\000\200?\000\000\200?\000\000\200?\000\000\200?\000\000\200?\000\000\200?\000\000\200?\000\000\200?\000\000\200?\000\000\200?\000\000\200?\000\000\200?\000\000\200?\000\000\200?"
      }
    }
  }
}
node {
  name: "Const_2"
  op: "Const"
  device: "/device:CPU:0"
  attr {
    key: "_output_shapes"
    value {
      list {
        shape {
          dim {
            size: 1000
          }
          dim {
            size: 1
          }
        }
      }
    }
  }
  attr {
    key: "dtype"
    value {
      type: DT_FLOAT
    }
  }
  attr {
    key: "value"
    value {
      tensor {
        dtype: DT_FLOAT
        tensor_shape {
          dim {
            size: 1000
          }
          dim {
            size: 1
          }
        }
        tensor_content: "\002\243\271@\350h\202@\3759+@\242C|?N\006P@r\032|?\270\3302?=Q\261@\256\247\261@\232\323\257@x\245\275@8Z\226@\337fV@\212be@fB\347?\361\177\256?\213\201\224@\343\334\250@\025\004O@\321z\024@\370\305I@\037h\036@a\372\300@\013S\n>\3671\245@\032<0@\216\214\225@\266`\231@Ob!@\0221\236?\204\344\304?\201\222\000@\\|\266@\362\274\020@\261,\212@m\212\342?\337\225\365?fCd>lD\232@\001\236\302@\326\343X@N\242\250@\016\'\n@%\275\305@S\225\260>[U\307>\n\360\273?U\021v?#3\r@\322\035\221@\014\177\234?\214\203\225@\325\'%@\276\2561@0\265\"@Ly\227?j\010\335?w;\322?=\350\247@\274\321\322?\357\331\307@\364\241\265@&):@\246\277\202@\3338\331?!$\302@pO\267@\003=Y@\177\370N@\234\003\231?H\206\014@Cm\272?\016\n\201@\213\031\333?(\256\242?\tj}@\337\220\351>+\306\200@\3136\277@\216a!@\0050\346?\304\211\210@Q\375\235@dw\256?\215\360\t@\"\201\255@\313\036\004@\3508\200?\352\361\245?\233\251\306@9:r@\367\3154@\255\231J@wl\211>B1\215@#\316\212@ao\301@\312\211\232?\366M\236@\032\221\276@a\263\005@\314\262->z$\251@\341\363\252?T\265\220@\307U\214@\035|\261?\3679\232@\327\372\220@\320a\014@e\272)=\327\374\201?\211D\267<\232\327\212@m\3622@?\257\253@})\213@}\320-@\036\337\210@\333\347\231@\342\230\217@a,V?H\355\233@\343\177\356?\236\013\322?\030\354\210@\335\237\231@\262b\324?\252\016\261@b\225i?\241\313P@\254\200\363>\037\246T?S\024\272@\244\023Q@9\177\243@\322\233\254@)\345\337>\034\247\307@Cn\275@]\032\317?0L\220?;[\333>\274\374\273@\230A,@\357?\342?:R\r@\013U\272@W\010\235?\213W\213@\020\203\006?\026\037\262@i0\303?\203a\333>]\327\247?@\'<@,\355\352?\032\261 @\005I\300@,\001d@\023\376C@\356\277\210@\275x\232@e\014\320>\021^\262@\376\305\214@#6\222@-\366J@&TK@\271\247\255@?\371x?\317+|@\277f6@e\342\331?\235?\271@\207\265\236@\202\235\336?#\016\262?\301\322\201@\014\276l@\242\256\205@\3432&@\252C\221@\031\273\346?\276\201\273=P)\254@\310f\240@mR7?l\006*@\001?\303@\3561\321?\226>\253@5\306,@\0305/@\203\317C@\036\025x>9\323\373?3\025c@y\243\376?\273\024\024@p\320#@\031\363\354?\r\303\256?Z\t\237@\312\r\211@\377\017\234@\361\377\203@j\245j?Sh\361>,\242d@\377\2707@&\300\336>\'=\025@L8\374?y\225\275@\226\227\303@$\016\311@;\351\362?\215}\311?%\335\304@\313\\&@\006\240&?v\372D@\030U\220@\322-y@\206\031\247@\324\230n@\230\r\251?\357\327l>\305\221\234@\2768W@\016\264\224@\266\273G@\n\021,@\352\303\277@\001\223Y>^\221\211@\356\3656@\357\366\021@\017@=@\177N\276@{\244-=\330\237\243@\016\340R@\343\002\262@\366f\275@\211\245\261?\003\375\261@Ro\236@\225\215\032@\263\306%@?\022\202?\204\r\276@\363\207\240?\326Z\345?\227\035\021@\241G2@\251\2326@O\007\274=rJB?\340\201\222@\256r\213?\301\377\244?\323\026\250?\333<\266@?\214\300?\3202\232@\374\327\231?$\010\007=\241\215\304@\317\227\206@?BI@\365o\'@\023F\314?9\205\306@k\205\304@\307O`@\365\350\211@\276r\316?\220|\306@\267f_?!6\327?\324\031N@f\273\201@`F7@\r\242\247@\303\225\213@\363\002\241@\305\207\247@\034ql@2\2004@\370#w@=F\027@\311_G@L\303\216?\245ih@#\021\350?\035$*@,\352%?\001\310\260?o\271\\@\r\034e@\367\331\255?\306\002\253@\337\207\210@]\344\202?\016\355\206?}\224\311?`z\252@8O\316?w,^@\363\217\236@B\210}@\241\376\215@4\261&?\002v\224>Z\236/@\0351(@\305\271\302@\274\204c@OgR@\207\246(@\360ko@\024\316\232@tRJ=hJv@\223x.@W\220\021>\277?\271?\026\311h@u\254\341>\367\001\310@\367c\265@\343\342\213@\252\027\004@\225j\037@\371\335\274@A\317\244>\374\034n@\244.8?\372\264\214@\200\335\002?\322\277\232?z\006\227>\024i$@y\352o@\232\271\223@c\252\232@\376D\262@\2747\370?z\265x@\314<(@\341w\277@a7\217@\307\366\270?\365\342\033@v\240\306?K3H?\234\336\301@\325\233x@\237\277\264@\030\211\313?(\336[@\002\325\240@\345\177\314?6\034\264@7S\350?\265\275)@\306u\025@\310\243\334>\364\313\253@\344\220\356?\325Yv@\313\367>@\244\236\251@\021\267\246?v\350\332?\222z\270@\322\313\256@\365\341\223>\002b\266@\245\322\033@\230\256T@\367\305\250@9e\317?,8\204@\023\353\227?\264\017\273@\003 \376?X\303\235@\3521>@|`Z?OV\274@\207\327]@p\203\177@\317\370\273@\316.e@1\341\207@@\340\265@)\311n@\302w\221@\263su@/\335\226?X\236\203@\315c\275@-\334\261@U\307\211?\274\215\256@~vl@@A\r?\026O\275?\377\366\025@\0315\303?\362\251\310@j\301\034@_\206\241@>\007\275@\035\037\031@\362bQ?\0331\016@.\303d?\220\021\306@\201z\206@dh\246?b\313\332=\263\"\027?\000$\301@\315a\210@\2444\220?%\002\204@\306\300\227@\361\005\304?\036k\226@`\031~@\236A\307@\252(\203>\326\027\242?o\020\256@ny\325?u\3133@n\320K?.\335\212@Q\350)?`\200T@T\245\213@\227\322\216@\3431\246@\360\245\213?\325\262\305@\016x\220@e2\206?\373\350k@\277t\032@\372\026\262@\"\r\301@(\237\364?}%\242@\025\245t?\215\375x@i\t\203?4\373{@\372\325s?A\032\343?s\335\263@*\022,@\234</@\307+\303@sq\245@r\220\002@N\013\336?edK@nW\201>\360`\347?\321\245\023?\353\273f@LK\300@\321p]@q\205\256@\353\345x@\017\326^?\342\237\307@7\332,@\246\315\254@\223.\304@\317\006\231?c\236E?\002\347\004?\371\207\177@\322\202:@$\204\341?s\331\305@\347\353b@I\376\022@\331\354\201?t\3263@tc\221@\021c\220@;\312\205?\375\022\251@M\230\326?=\206\345?\311\002w?\214/\220@\2138\365?\002\341.@\352o\224@\256\313;@\\\341\353?\267\276\241@m\212\200@J\242\212@\241kM@\3269->f\377\370>\207l\004@\343V\371=\316\314\262@\257V\235@\315\252\245@*\211\204?\201\3200@\375D\310@\254R\234@\265\274\232?\316\216$@\345b\237@\017\345j@\3504\252?z\320\260@\254\234\317?,\252\246@u:\203@d\306\206@\372W|>\242\006\264@\245\304\250>\000Y\270@\322|\305@\364\204\322?\036\376\212?\264\036\221@\217\205y>/z\001?\014\210r@d\033,@\336\220\276@\034;\246@Qmu@\337\274\214@\237\031\034@\356\204\344?\316\367\030@\203\261\262@,\314?@:4\035@\302R\271>d\277\032@\363\037\210@@\212\222@\224\023\256@X\360\263@\2125\222?\366\003\304@\367\226~@D\245~@\342e}@\360j\250@\020an?\343\352\241@\314N\327?\270\036\235@\016-`@\004Q+?m\177g?v95@%P\260@\225,\263@t\374\264@l\335o?w\005\203@6\341\265@q1\343?RC\004?9O}@\005\016\242?\255\240\304?\245I\245@\020\207\356>:\347\230@\020\000\031@!\254\210@\222y\232@C\343d@\026\216\265@\325\021\261?gZa?\322\021\310=3\304\267@\270i\200@\014\354\237@?\014\200@\000\270z?\3771Y@\254\234\333?\323yc@\205\232\300@\310Ep@`[\314?B\005\200@\030@q@\362S\"@\'\007\213=o\324@@\372\004t@\017\316\010@\306\302;@Y\366q>\363\322\376?c({@\202\224\231@l\3135?\223_\236@\177:\302@D\214\230@\377x!@\272W~@\276\354\226@\327.a@\234\032|?o\216g@I{\250@\005\264\357>\336\344\213?\244\346\334>8\232,@JuZ@\215n\250@\276\276o@|\351\026@\343\227|@\032r\321?\370\027G@\005\320\313>\275.\215@9\007l@g\364A@&\222\203?\317g\377?\273_\226=\224\007\225=Qe\217@\235\353\016@\336\030p@\252\236\230@\351U\"@R{\342?\354\326\005?\271m\213@iE\256@C\035f@xb@@2\237\300@\316G\227?|)\224@\207\010\025@4\232\217@\206\220\244@\306\1777@e\311\247@\\\253j@\313\336\003@\211H\267@\016\301C>{\001\251@\317\223\271@\310\270\203@*\276\263?\214R\022@\214\372\263?\223\005\016?\243\232\005@\t\342\214@\345\260\243@4\031,@\013\233\245@\233\241\364?\342\024\034@\352~\253@\325\264=@=\242\223>\017\360=?P\350\024?&\233\220@G\354\242@h\213\027@\342X\265?\304\005\301@a\376\264?\205\352\214@v\330\236>?.k?\246\272\306@\2353(@\036]\260@(B\r@\275\215\032@\247\216\241?)W\216@\220\244\r@Kh\265@H\365\273@\333\255\205@TX\250@\025B\331?\035\336\210@_\010\240@\264\222\251@\004\3039@7\325\207@\245\343\022@\376o\266@\316?\035@)\266\264@saU@^.g?Q\300\373?\007 ,?aW\260@\364Y\261@\264\354\036@7*\230@\261\035u@\275Y\200@%BF>yF\317?\005u\251@\352\371\236@\000\373\236?\227>g?)\335\246@d\031L@\034\3606@){\262?\360FX@\243r\031@D_2@\320\324\266@\354\017\354?B\334\275@x\350\275@(\227\252@Q\327Z@0\234r@H\324\004@\204\332\301?\263Tk?\236\323\226@\022\341\242@\317\236\250@\374\207\265@\022I<@r(Q?\345\225\306?U\271\346?\325\310\025?\2750\206?\035\"\255?\244\006\340?\t\370m@w1\\@\273\323L@Bk\311?\302:\375?\365\204\212?\001\246\224@\375\322\024@S\316\312?\223U\353?D\246\302@\225\254\266@\250\244*@\034\251\211?Z\356\014@\276\300n@\241\246P@\332~\275@\033=\206@%w\260@\265R}@\301#\206@\330\236Z@m9\177@\314\211\227@Fy\203=\r\\\200@\205Ji@X-\235@-\250M@%p\332?1\254\201@cd\276@T\312\340?\027\341\'@\263\037\217@S\362\200@\255\031\223@b\361\352?\030\210\263@\243\311\204@\310i\211@\212b\216@`w\270@\360\333\333?G\204\264@%\007\007@\305z\236@\334|\211@\323`\034@=/\352<\262\341_@\343`G?<i\256?\224S\215@\014\217\021?\300sv;|\005\207@\370s\\@f\310\260@ e\227@\346\370\240@\373\310$@~S\357?go/@\224\'>>9\307\220@\341^\373?\213/\355?\010x\255@E\016V>\230\316\372?\377;\204@\264\032\301<\030\341\253?u\243\201@\273\300k@U+\207@\241o\t?\364\230q?\032E#@u\271\300?\354\221\233?C\2651@\343P\177@\233\306P@O*\t=`\300\027@*\005\177@\016R\276@31\301@\034\031\273@{\320O@\352\270^@\002\t\216@\361{\341?\002D\303;\222%\342?\215\317\211@\304\226\034@v\273\216@\204\360\271@\344;\274?\377wF@%\263\n?P\371\317>\245\023w@\034\301\221@\245\326\244@\n\274\315?H\365g@*+\234@\344\273W@\247\372:?\2343\253@\211\235\251@\207\234v?\331pt?\234\030\273@\266\016|@Hy\331?\000\010\233>\373\'\026?9s\251?\327\267\016>J3\305?aS6@\362\227\254@\361\347\262@P\277V@\314\357H@1\254\345?\270H\344?\346\030\013@\370\021\307@\327)=@PH\275?\330\340\022@c\364u@\365z\302@V:\367?\270\300p?Eg\023?\201\343\233?\370\365\277@\r\322\032@\246\036\212@\264\206e?\023\"\302?p\361\357>\225|\002@\226I@?\rDa@\345\304\337?\266d\221?\364\203\215@\315\016\255@\342\033\231@\234\035\336?\321yV@|\312\266@I\035\340?1\351\250?u\037\027?K9X?x\023\036@O\004\222@W\327\276?\263\021\375?\260X\010@\364\243\304@c\232_@\223b\207>}\327^@\241\361\261@\276;\376?\017B\304@HIy@\0135F@\255\r`@?\2169?\"\020\303?\207\273\210?\005o\244@F\372\366?\003~\220@$\003\203>U\006\177@\277\257\245@,<\037@\263}s?\252\253H@K\023\"@a\201\213@\322\254\021?\264\265\223@}\232\213@<\245\243@I\314B@\177\037\221>\266\023b@/2U>\212\003\246?-Q\205@R\013\201@A}\314?\264\247I@\323\333\254?\'-\262@\307q\217>\246\233K@\356\035\242@Ez\307@\264\330\203@\036:\306@;\325\t@\017\300z@TS\244@\271\365\037?\344,L@-{\301@\233]\216@h\034\217@T\306\201@ 9\206??\233\221@\026\377c@\244\315\255@\334\245\202?\323\035\214?lQa@Ps\262@"
      }
    }
  }
}
node {
  name: "Const_3"
  op: "Const"
  device: "/device:CPU:0"
  attr {
    key: "_output_shapes"
    value {
      list {
        shape {
          dim {
            size: 1000
          }
          dim {
            size: 1
          }
        }
      }
    }
  }
  attr {
    key: "dtype"
    value {
      type: DT_FLOAT
    }
  }
  attr {
    key: "value"
    value {
      tensor {
        dtype: DT_FLOAT
        tensor_shape {
          dim {
            size: 1000
          }
          dim {
            size: 1
          }
        }
        tensor_content: "\000\000\200?\000\000\200?\000\000\200?\000\000\200?\000\000\200?\000\000\200?\000\000\200?\000\000\200?\000\000\200?\000\000\200?\000\000\200?\000\000\200?\000\000\200?\000\000\200?\000\000\200?\000\000\200?\000\000\200?\000\000\200?\000\000\200?\000\000\200?\000\000\200?\000\000\200?\000\000\200?\000\000\200?\000\000\200?\000\000\200?\000\000\200?\000\000\200?\000\000\200?\000\000\200?\000\000\200?\000\000\200?\000\000\200?\000\000\200?\000\000\200?\000\000\200?\000\000\200?\000\000\200?\000\000\200?\000\000\200?\000\000\200?\000\000\200?\000\000\200?\000\000\200?\000\000\200?\000\000\200?\000\000\200?\000\000\200?\000\000\200?\000\000\200?\000\000\200?\000\000\200?\000\000\200?\000\000\200?\000\000\200?\000\000\200?\000\000\200?\000\000\200?\000\000\200?\000\000\200?\000\000\200?\000\000\200?\000\000\200?\000\000\200?\000\000\200?\000\000\200?\000\000\200?\000\000\200?\000\000\200?\000\000\200?\000\000\200?\000\000\200?\000\000\200?\000\000\200?\000\000\200?\000\000\200?\000\000\200?\000\000\200?\000\000\200?\000\000\200?\000\000\200?\000\000\200?\000\000\200?\000\000\200?\000\000\200?\000\000\200?\000\000\200?\000\000\200?\000\000\200?\000\000\200?\000\000\200?\000\000\200?\000\000\200?\000\000\200?\000\000\200?\000\000\200?\000\000\200?\000\000\200?\000\000\200?\000\000\200?\000\000\200?\000\000\200?\000\000\200?\000\000\200?\000\000\200?\000\000\200?\000\000\200?\000\000\200?\000\000\200?\000\000\200?\000\000\200?\000\000\200?\000\000\200?\000\000\200?\000\000\200?\000\000\200?\000\000\200?\000\000\200?\000\000\200?\000\000\200?\000\000\200?\000\000\200?\000\000\200?\000\000\200?\000\000\200?\000\000\200?\000\000\200?\000\000\200?\000\000\200?\000\000\200?\000\000\200?\000\000\200?\000\000\200?\000\000\200?\000\000\200?\000\000\200?\000\000\200?\000\000\200?\000\000\200?\000\000\200?\000\000\200?\000\000\200?\000\000\200?\000\000\200?\000\000\200?\000\000\200?\000\000\200?\000\000\200?\000\000\200?\000\000\200?\000\000\200?\000\000\200?\000\000\200?\000\000\200?\000\000\200?\000\000\200?\000\000\200?\000\000\200?\000\000\200?\000\000\200?\000\000\200?\000\000\200?\000\000\200?\000\000\200?\000\000\200?\000\000\200?\000\000\200?\000\000\200?\000\000\200?\000\000\200?\000\000\200?\000\000\200?\000\000\200?\000\000\200?\000\000\200?\000\000\200?\000\000\200?\000\000\200?\000\000\200?\000\000\200?\000\000\200?\000\000\200?\000\000\200?\000\000\200?\000\000\200?\000\000\200?\000\000\200?\000\000\200?\000\000\200?\000\000\200?\000\000\200?\000\000\200?\000\000\200?\000\000\200?\000\000\200?\000\000\200?\000\000\200?\000\000\200?\000\000\200?\000\000\200?\000\000\200?\000\000\200?\000\000\200?\000\000\200?\000\000\200?\000\000\200?\000\000\200?\000\000\200?\000\000\200?\000\000\200?\000\000\200?\000\000\200?\000\000\200?\000\000\200?\000\000\200?\000\000\200?\000\000\200?\000\000\200?\000\000\200?\000\000\200?\000\000\200?\000\000\200?\000\000\200?\000\000\200?\000\000\200?\000\000\200?\000\000\200?\000\000\200?\000\000\200?\000\000\200?\000\000\200?\000\000\200?\000\000\200?\000\000\200?\000\000\200?\000\000\200?\000\000\200?\000\000\200?\000\000\200?\000\000\200?\000\000\200?\000\000\200?\000\000\200?\000\000\200?\000\000\200?\000\000\200?\000\000\200?\000\000\200?\000\000\200?\000\000\200?\000\000\200?\000\000\200?\000\000\200?\000\000\200?\000\000\200?\000\000\200?\000\000\200?\000\000\200?\000\000\200?\000\000\200?\000\000\200?\000\000\200?\000\000\200?\000\000\200?\000\000\200?\000\000\200?\000\000\200?\000\000\200?\000\000\200?\000\000\200?\000\000\200?\000\000\200?\000\000\200?\000\000\200?\000\000\200?\000\000\200?\000\000\200?\000\000\200?\000\000\200?\000\000\200?\000\000\200?\000\000\200?\000\000\200?\000\000\200?\000\000\200?\000\000\200?\000\000\200?\000\000\200?\000\000\200?\000\000\200?\000\000\200?\000\000\200?\000\000\200?\000\000\200?\000\000\200?\000\000\200?\000\000\200?\000\000\200?\000\000\200?\000\000\200?\000\000\200?\000\000\200?\000\000\200?\000\000\200?\000\000\200?\000\000\200?\000\000\200?\000\000\200?\000\000\200?\000\000\200?\000\000\200?\000\000\200?\000\000\200?\000\000\200?\000\000\200?\000\000\200?\000\000\200?\000\000\200?\000\000\200?\000\000\200?\000\000\200?\000\000\200?\000\000\200?\000\000\200?\000\000\200?\000\000\200?\000\000\200?\000\000\200?\000\000\200?\000\000\200?\000\000\200?\000\000\200?\000\000\200?\000\000\200?\000\000\200?\000\000\200?\000\000\200?\000\000\200?\000\000\200?\000\000\200?\000\000\200?\000\000\200?\000\000\200?\000\000\200?\000\000\200?\000\000\200?\000\000\200?\000\000\200?\000\000\200?\000\000\200?\000\000\200?\000\000\200?\000\000\200?\000\000\200?\000\000\200?\000\000\200?\000\000\200?\000\000\200?\000\000\200?\000\000\200?\000\000\200?\000\000\200?\000\000\200?\000\000\200?\000\000\200?\000\000\200?\000\000\200?\000\000\200?\000\000\200?\000\000\200?\000\000\200?\000\000\200?\000\000\200?\000\000\200?\000\000\200?\000\000\200?\000\000\200?\000\000\200?\000\000\200?\000\000\200?\000\000\200?\000\000\200?\000\000\200?\000\000\200?\000\000\200?\000\000\200?\000\000\200?\000\000\200?\000\000\200?\000\000\200?\000\000\200?\000\000\200?\000\000\200?\000\000\200?\000\000\200?\000\000\200?\000\000\200?\000\000\200?\000\000\200?\000\000\200?\000\000\200?\000\000\200?\000\000\200?\000\000\200?\000\000\200?\000\000\200?\000\000\200?\000\000\200?\000\000\200?\000\000\200?\000\000\200?\000\000\200?\000\000\200?\000\000\200?\000\000\200?\000\000\200?\000\000\200?\000\000\200?\000\000\200?\000\000\200?\000\000\200?\000\000\200?\000\000\200?\000\000\200?\000\000\200?\000\000\200?\000\000\200?\000\000\200?\000\000\200?\000\000\200?\000\000\200?\000\000\200?\000\000\200?\000\000\200?\000\000\200?\000\000\200?\000\000\200?\000\000\200?\000\000\200?\000\000\200?\000\000\200?\000\000\200?\000\000\200?\000\000\200?\000\000\200?\000\000\200?\000\000\200?\000\000\200?\000\000\200?\000\000\200?\000\000\200?\000\000\200?\000\000\200?\000\000\200?\000\000\200?\000\000\200?\000\000\200?\000\000\200?\000\000\200?\000\000\200?\000\000\200?\000\000\200?\000\000\200?\000\000\200?\000\000\200?\000\000\200?\000\000\200?\000\000\200?\000\000\200?\000\000\200?\000\000\200?\000\000\200?\000\000\200?\000\000\200?\000\000\200?\000\000\200?\000\000\200?\000\000\200?\000\000\200?\000\000\200?\000\000\200?\000\000\200?\000\000\200?\000\000\200?\000\000\200?\000\000\200?\000\000\200?\000\000\200?\000\000\200?\000\000\200?\000\000\200?\000\000\200?\000\000\200?\000\000\200?\000\000\200?\000\000\200?\000\000\200?\000\000\200?\000\000\200?\000\000\200?\000\000\200?\000\000\200?\000\000\200?\000\000\200?\000\000\200?\000\000\200?\000\000\200?\000\000\200?\000\000\200?\000\000\200?\000\000\200?\000\000\200?\000\000\200?\000\000\200?\000\000\200?\000\000\200?\000\000\200?\000\000\200?\000\000\200?\000\000\200?\000\000\200?\000\000\200?\000\000\200?\000\000\200?\000\000\200?\000\000\200?\000\000\200?\000\000\200?\000\000\200?\000\000\200?\000\000\200?\000\000\200?\000\000\200?\000\000\200?\000\000\200?\000\000\200?\000\000\200?\000\000\200?\000\000\200?\000\000\200?\000\000\200?\000\000\200?\000\000\200?\000\000\200?\000\000\200?\000\000\200?\000\000\200?\000\000\200?\000\000\200?\000\000\200?\000\000\200?\000\000\200?\000\000\200?\000\000\200?\000\000\200?\000\000\200?\000\000\200?\000\000\200?\000\000\200?\000\000\200?\000\000\200?\000\000\200?\000\000\200?\000\000\200?\000\000\200?\000\000\200?\000\000\200?\000\000\200?\000\000\200?\000\000\200?\000\000\200?\000\000\200?\000\000\200?\000\000\200?\000\000\200?\000\000\200?\000\000\200?\000\000\200?\000\000\200?\000\000\200?\000\000\200?\000\000\200?\000\000\200?\000\000\200?\000\000\200?\000\000\200?\000\000\200?\000\000\200?\000\000\200?\000\000\200?\000\000\200?\000\000\200?\000\000\200?\000\000\200?\000\000\200?\000\000\200?\000\000\200?\000\000\200?\000\000\200?\000\000\200?\000\000\200?\000\000\200?\000\000\200?\000\000\200?\000\000\200?\000\000\200?\000\000\200?\000\000\200?\000\000\200?\000\000\200?\000\000\200?\000\000\200?\000\000\200?\000\000\200?\000\000\200?\000\000\200?\000\000\200?\000\000\200?\000\000\200?\000\000\200?\000\000\200?\000\000\200?\000\000\200?\000\000\200?\000\000\200?\000\000\200?\000\000\200?\000\000\200?\000\000\200?\000\000\200?\000\000\200?\000\000\200?\000\000\200?\000\000\200?\000\000\200?\000\000\200?\000\000\200?\000\000\200?\000\000\200?\000\000\200?\000\000\200?\000\000\200?\000\000\200?\000\000\200?\000\000\200?\000\000\200?\000\000\200?\000\000\200?\000\000\200?\000\000\200?\000\000\200?\000\000\200?\000\000\200?\000\000\200?\000\000\200?\000\000\200?\000\000\200?\000\000\200?\000\000\200?\000\000\200?\000\000\200?\000\000\200?\000\000\200?\000\000\200?\000\000\200?\000\000\200?\000\000\200?\000\000\200?\000\000\200?\000\000\200?\000\000\200?\000\000\200?\000\000\200?\000\000\200?\000\000\200?\000\000\200?\000\000\200?\000\000\200?\000\000\200?\000\000\200?\000\000\200?\000\000\200?\000\000\200?\000\000\200?\000\000\200?\000\000\200?\000\000\200?\000\000\200?\000\000\200?\000\000\200?\000\000\200?\000\000\200?\000\000\200?\000\000\200?\000\000\200?\000\000\200?\000\000\200?\000\000\200?\000\000\200?\000\000\200?\000\000\200?\000\000\200?\000\000\200?\000\000\200?\000\000\200?\000\000\200?\000\000\200?\000\000\200?\000\000\200?\000\000\200?\000\000\200?\000\000\200?\000\000\200?\000\000\200?\000\000\200?\000\000\200?\000\000\200?\000\000\200?\000\000\200?\000\000\200?\000\000\200?\000\000\200?\000\000\200?\000\000\200?\000\000\200?\000\000\200?\000\000\200?\000\000\200?\000\000\200?\000\000\200?\000\000\200?\000\000\200?\000\000\200?\000\000\200?\000\000\200?\000\000\200?\000\000\200?\000\000\200?\000\000\200?\000\000\200?\000\000\200?\000\000\200?\000\000\200?\000\000\200?\000\000\200?\000\000\200?\000\000\200?\000\000\200?\000\000\200?\000\000\200?\000\000\200?\000\000\200?\000\000\200?\000\000\200?\000\000\200?\000\000\200?\000\000\200?\000\000\200?\000\000\200?\000\000\200?\000\000\200?\000\000\200?\000\000\200?\000\000\200?\000\000\200?\000\000\200?\000\000\200?\000\000\200?\000\000\200?\000\000\200?\000\000\200?\000\000\200?\000\000\200?\000\000\200?\000\000\200?\000\000\200?\000\000\200?\000\000\200?\000\000\200?\000\000\200?\000\000\200?\000\000\200?\000\000\200?\000\000\200?\000\000\200?\000\000\200?\000\000\200?\000\000\200?\000\000\200?\000\000\200?\000\000\200?\000\000\200?\000\000\200?\000\000\200?\000\000\200?\000\000\200?\000\000\200?\000\000\200?\000\000\200?\000\000\200?\000\000\200?\000\000\200?\000\000\200?\000\000\200?\000\000\200?\000\000\200?\000\000\200?\000\000\200?\000\000\200?\000\000\200?\000\000\200?\000\000\200?\000\000\200?\000\000\200?\000\000\200?\000\000\200?\000\000\200?\000\000\200?\000\000\200?\000\000\200?\000\000\200?\000\000\200?\000\000\200?\000\000\200?\000\000\200?\000\000\200?\000\000\200?\000\000\200?\000\000\200?\000\000\200?\000\000\200?\000\000\200?\000\000\200?\000\000\200?\000\000\200?\000\000\200?\000\000\200?\000\000\200?\000\000\200?\000\000\200?\000\000\200?\000\000\200?\000\000\200?\000\000\200?\000\000\200?\000\000\200?\000\000\200?\000\000\200?\000\000\200?\000\000\200?\000\000\200?\000\000\200?\000\000\200?\000\000\200?\000\000\200?\000\000\200?\000\000\200?\000\000\200?\000\000\200?\000\000\200?\000\000\200?\000\000\200?\000\000\200?\000\000\200?\000\000\200?\000\000\200?\000\000\200?\000\000\200?\000\000\200?\000\000\200?\000\000\200?\000\000\200?\000\000\200?\000\000\200?\000\000\200?\000\000\200?\000\000\200?\000\000\200?\000\000\200?\000\000\200?\000\000\200?\000\000\200?\000\000\200?\000\000\200?\000\000\200?\000\000\200?\000\000\200?\000\000\200?\000\000\200?\000\000\200?\000\000\200?\000\000\200?\000\000\200?\000\000\200?\000\000\200?\000\000\200?\000\000\200?\000\000\200?\000\000\200?\000\000\200?\000\000\200?\000\000\200?\000\000\200?\000\000\200?\000\000\200?\000\000\200?\000\000\200?\000\000\200?\000\000\200?\000\000\200?\000\000\200?\000\000\200?\000\000\200?\000\000\200?\000\000\200?\000\000\200?\000\000\200?\000\000\200?\000\000\200?\000\000\200?\000\000\200?\000\000\200?\000\000\200?\000\000\200?\000\000\200?\000\000\200?\000\000\200?\000\000\200?\000\000\200?\000\000\200?\000\000\200?\000\000\200?\000\000\200?\000\000\200?\000\000\200?\000\000\200?\000\000\200?\000\000\200?\000\000\200?\000\000\200?\000\000\200?\000\000\200?\000\000\200?\000\000\200?\000\000\200?\000\000\200?\000\000\200?\000\000\200?\000\000\200?\000\000\200?\000\000\200?\000\000\200?\000\000\200?\000\000\200?\000\000\200?\000\000\200?\000\000\200?\000\000\200?\000\000\200?\000\000\200?\000\000\200?\000\000\200?\000\000\200?\000\000\200?\000\000\200?\000\000\200?\000\000\200?\000\000\200?\000\000\200?\000\000\200?\000\000\200?\000\000\200?\000\000\200?\000\000\200?\000\000\200?\000\000\200?\000\000\200?\000\000\200?\000\000\200?\000\000\200?\000\000\200?\000\000\200?\000\000\200?\000\000\200?\000\000\200?\000\000\200?\000\000\200?\000\000\200?\000\000\200?\000\000\200?\000\000\200?\000\000\200?\000\000\200?\000\000\200?\000\000\200?\000\000\200?\000\000\200?\000\000\200?\000\000\200?\000\000\200?"
      }
    }
  }
}
node {
  name: "Const_4"
  op: "Const"
  device: "/device:CPU:0"
  attr {
    key: "_output_shapes"
    value {
      list {
        shape {
          dim {
            size: 1000
          }
          dim {
            size: 1
          }
        }
      }
    }
  }
  attr {
    key: "dtype"
    value {
      type: DT_FLOAT
    }
  }
  attr {
    key: "value"
    value {
      tensor {
        dtype: DT_FLOAT
        tensor_shape {
          dim {
            size: 1000
          }
          dim {
            size: 1
          }
        }
        tensor_content: "\223\377\310@(\313\246?5\352@@W\342\233>\3566\320?\033I\303@f\t#@\244\001\264@\360+{@\t\017\252@oP\215@$\324\273@_`4?\3374\304@Luh?\303\313x=v\340e@ACb@<T\200@~\315\036@\261\313\202@)\'\204@\342\346j@l\323Q@\266@\274@\254R\250@\001%@@\1771\271@\243\247\256@\223tz@6A1@\177\207\236@\216\177\212@:\207|@N\270<@,\334\377?\362\277\222>\246\330L?\244\251\300@O=\277?Ft\023@U\0353@\373C\306>\360\355q?\342\032\202?\3009\276?\223\326\t@x\001\225@\246E\245@\276\305\375?\025\306\337?\337\023\003@\247l`@\246\360#@\223\226\302@\223\315 @\037\2036@\365\333\221@\275\204\310@\350\272\\?\032\234D@\002\200\304@\214P\005@E\325\031>\211\365\t@\346\231W?0\200\303?\304\214\274>0\227\227?\327q\020?u\366\227?4\352\243?\357\274\234@\257\333\303@k\244\032@H\243>?y\036\270@\"\306\252@\'S\304@c\247\'@\027\232\274?2\034\277@&\214\217@\227\036\213@0\360\226?\343\022\240@\365\226\314?G\265&?=q\246@R\213\236@\205\376\271@\217\036O?H|\310@\335r\232@\267\212\220@\277\275&@\301\276\271@\371\223\223@2\217j@A\371\200@5$d?\031\032\220@\036\253\252@\001T\244@\006l\370?\3675]@\252>\213?v6D@\333\243|@\037\034\252@S\362\324?\217\326N@p\270P@\363\322J@(\rb@A/\224@\361\360b@\317\037\213?\366\332\017@1\302P?\2155\003@=f\277@w7w@\r\207\237?@\004}@G\316\001@\342V,@F\007\204@9\214\254?\201\307\256@V\277\341?\273lj@&{j@\227`\214@\216\213\002@\213\325\302@\323\214 @\211\254A@|\362\274@,\030^@\322\256\216@\262\324^@I\206\232@9\353\013@\021\007\311@\354\354\251?\036\277\021@J\235\010>\226[\304?\243lf>\230!\255?\347\313\222@\317\323\032@\323\3264?\364\276\004@\007\367T@\"\306\276>d\020\227?k\224\035@\n-H@\324\234\254@9\206\"@\005\0328?Z\265\254@]Z+@i\314\010?+\226\347?\265\341l@(2\226?A\230o@\221\360J?\027\314\227=\330\262\207@\221\331\007@ \265\215?\301\303{?\350\337*@\337V\232?\346=\230@9\341\212@w\260\252@\216!\220@\246\007Y@\205\236\237@7\301\267@\360\205!@\216\275\210@\330\244\004@\035IT@\310O\224@\241\364\301@\305\014-@~\340\003@\241\330\251@\323QP@\375\201\263>z|\333?\006j\304@@\013\305@\334\377\375?\255\225s@h:E@k,z@\305\0325@\340\274t@\374P\220@\370.\013?,\357,?\262\023\265@\305\n\n?_d\207@\356\004z@\336b\262@\213\342\223@(b\265@\022\344\265?[M\210@g\n&@\344\254M@O\343l@\256\000u@S\274\313?\001\256_@1\317K@d\320\300@\314\304Q@\277\337\210@\376a\345?\222\317\031@<f@@\311\202^@l\247\372?X\372\234@\027\201\210@h\233\006@\034\376\003@8\211\251@\326O\247?\365\325\030@\254W\234@\366\320\223@\237\013B@\2019+?h\027\310@\017\352\274@\264L\335?\021\256j?rPA?=\365\263@\370\354\325>\274\244\216@5\373\211@0a\376?,@\246@!\202M@o\234\302@\363Z~?\240\013\214?\016\270\367?d!h?]*\244@\344ZA@\241\273e@7\365K@Gg??\376\211\233@\200k\205@\r\034\234@\354\247\323?\037?\265@\002I\263@\257\'\202@>\306\210@\t\0261@\001!~@0\341\225@\352I\210>\323B\221@^\234\221@\277W&=\330\266e@\257\210\217@~\303\227@dC\231@\325\023;@\220\016\323?$\225\247?u/7@SK\227>\251U\253@\326\010\232<\327\371\370?\020lv?\324%\271@\000\301\262>j\267\270@]\343v@Z\006\256@\317\371z@\272B_?1\241\212@\3601\364>\302\304\264@\325\222C@G\026{@8C\200@\336\242\"?vY>@\275\3035@\216+Y@\361\367N@\rCO@H\014C?bt\257?\253\242\305?\325}O@u1\"@\370\026\247@U^\264@t\360;@R\270\333?\247\203i@\337V\364=\032\017\242?T\270\263?\035\036\230?A\270\033@\2128\002@\227|\231@j\376\225@\342\350\223@j\245o@Jf2@t\211\302@\347LC>\212\003~@\'h\224@4\352\205@\246\220{@ ~K@\334\306\002@\272\330\270@\001G\305?\217\227\005?\253\370\207@Oi\206@\024\232\007@uL\233@\224!Z?t\361\364=j\316S@!\312\247@\036=\251@O\353\347?\037En@NM\254@\200\225b@\265\313w@\004\357\237@\263\354\227@\325\024\265@L\234\273?\375v\216@3\222X?\034\363U@\311\355y@\002\237S>\351\016\031@v\371\350?Yg\033?\254\003\234@\366\r\345>\300zY@\004\346M@\310\324X?\3360\224?\273\322\243@\\\334j@\017\2151@\255\303T@\003\017\253@De\276?\t\331\300>mj\355>\301\252\253?\367\265\365?s\207\265=\265i\306@s\177\205@=\271\200@\"\022f@v\005\372?\245\036\210@&\001\030@\036\006G@\177\357\227@\310\266\236=\333\277$@mL\201@\377y\374?\177I\203?>\324V>\246\224\272?[/G?0\t\254@)\347\242@.:T@\025\325\246@\343\202\306@\255\324\234?\337f\277?T\326\365?K\341\322?i\237\027@>\355\360>\233\332\306@\027\014\224@E\002;@{\373\255@\252>\\>\210#(@s\376\212@\3153v@u\331M@}S\366=\177]!>\026\204\302@\027\212\350?\r[`@\276C\230@~\307\337?b\255]?\257\232\250?\375;\254@E\241\222@\240\207\374?\354PE@)\020\310?;\346\233@!\214=@=\252\205@2\316\255@!Y\357?\266{\236@\354S\315=W%\370>\234\277\302>\217\366\243@\353>\261@\032\303 @\021\324\340>*\377h@\336>\364?Q/c@jN\245?n8\222@\262\377\226@\322&\333?\335\330S?9\025\257@g\226\t@\ny\204?\032\2405@<X\300@\014\203\201@\315\007\244@N\365z?\336Dk@\327\246j@\016a\326?3L\333?\216<\263@\333M\201@\377 0@/\253\310@\324z\005@\210{U@\215\034\231@iMw@\241\330H@oU\344?\353.J?=\214\002@$\253\216@\202\275\274?\355\313.@\345\2037@*X\200>\305\340\016@\241[\201@\330\034\236@e\236\215@\240\'\247@\372\227\215@\317zV@$\2214@\031\016\277@\312\275\014@6\230\266@\274\335v@\216Gt@\377\257V?\3113C?\312\303\277@uyP?\025K;@\234\235\367?@}\262?\376<\303?\237\242\257?\320\304\223@\354\225\330?\375TZ@\313\021[?\365X\014@\\\357\276@@\032\273@\275\007\374?\3531.@B\016Q?\346\365\243@*\310\261><%\235@\377\332\244<\377\247\310@\363\336\217@\350u\211?\325G\031@\025P\246@\343\311r@Z\024\206@\234\314\312?\024\245\370?\310F\375?\220\257\t?!$\235=\024:?@8\2302@\344p%@\215\362\016?\372\006\005@\004U5@b\255b?\222=\300@\246\232\211?J\324u?q 8@\336\364\204@\267\"\310@h2E@\"D\240@D\317\003>\306\355\211@\003R\277@\322\202\261@MH#@\234\251\301?\32013@C\345\306?\2072\276?\256\343\260@~6\245@\017\224$@E\004\276?\210\266\221@\344\177\236@\027\305\275=(6\255@6`|@=\017\t@$\001\032@\204<\301@V\223\263@y\260\206@\240\341\301@\276\204\207?~p\\@\252\241X@\310\306k@\243\267\332?o\242I@\310ZH?|=O@\336J\226@\374\304\212@\233\251\212?^`\324?\374\030\004@\317O\033?\313H\272@u\003\222@\335Hl@\226\300\300@?\333\235@\025lp>\313\023\255@\026\351`?\300\341_?\204\231?@m\266\036?2\223\265@G\213\223@U+\204@Z}/@:T\364?\201\201\331?\\\254\275@]\375\300@J\372\347?\222\030F@~\360\256@\344\266\307@\265~P=/\277\233@\321\260<@\276\226\177@\212l\221?\022\364\261@\260<1?\266\227~?4\037\306@\325\007e@r\212\005@\274:i?J\251\220@\010\372\256@UR\245?\203\210\215@\301\240\265@\003\036\254?C\024\261@\346\342\023@\230p\r@\234Kj?;\214\327?V\372\232?\030Q\222@\256\023\276@~\352s@f\367Q@\353s\236?\006\035\222@#\3776@\371\021\252@\010\002\244@g\361\261@\377\013\342?k\241\223@\370\312\310@0f\233@\217\374\026@\244\023\205@\323\370\241@GF\204@\214\027\271@\003\217\010?\022\033\035@\332\213i@\017\322<@\316\364\333?B\220e?\327\257a@\311Ur@&\000N@\177\253\253@\212\037\222@r\313k?a\371\'@\024\212@@\342u\272@a\223w@\000\177\310@R(&@T\246\210@j\373\215@Y\336\240@J\243\331?0\n\217@\347\334s@\214\020\252@\272\322\207@\021\220W@_\301\024?\256MP@\365\245,@\010\336\236@\340#\207?\365 ^@M\007\225@\2262{?\256|>?}\203\277@\n\200E?`2\206@E\261\310@\217\314\301@\230\367\253=\237M\265@\254\357\202@7(\226@gK)?\230Je@\267\\\033>\022\322\037@\273\253\017@]\240\372?\354\356\264@\326]\346?\230\335\t@\220\263\004@\333\230\013@\207\243\212@B]\305@\342q\241?9\241\230@y\rR@\264\271\266@Y\352\030@\273\371\262@C\275\251?\027\255\246@\203\320\264@\2236\276@z\201V@o\221\214@Ri\003@\260\036\342?\365\2609@\243\253\306@[\321\354?0\203\222@2\336\256@\371\341\302@m\303\032@v\353\374?\363\274\220@\377\342\257@\201\354\371?\234\311\254@\357\366O@\323\267\270@\224<\004@w\302\325?7\022\203@\326\"\235@[\254\310?s\342f@\361\034\312>\n\361\240>2\333>@\224\245!?\340u\013?\033\033\016@/\301\215@Vt\017?w\2632@<5x@\010T\345?\200\234+@L$\357?w\267\213?\314KP@2\324\226?\327\351\020@-O\317>\327\346\313?:\025\254@\200\303+@\245X\213@\224}\004@s\033\302@\242\r\245@n1\265>\nv\231@w\277\242@~\000\223@\324\311\307@\223\217\325?\334\221D@\303\333&@bA\210@\020p\250?\370\252\201>\376\3040?\241\325\303@\360\022:@4n\347?\001\254\206@\305_#@\241\346\212@N\363\262>\216\210F?\232\320\203@7\010\267@9L\321?|\330\304@\261\365\177?l\315S?\214\2335?\365FV@\366\312\303@m\303H@\276y\203@c\372\215?i\314<@\271r\206@\to\241@\375\202\233@\222\234=@\022\306E@\026\237\213@\317\036\354>\236]\321?\2331M@\245L\236?\324\023\301?\375[\020@\037\347\210@\256K\262@~\317>@>\347\216@\314\201f@\222\350\006@\265\252E@\243u\253?\\yq@\321\007l@h-G@DaI@\026jG;m!\214=P\326\210@\206\255\257@X\324r@\372\003\226@\306\336U@\216!>@\312N\300@n\210|@\335\356\222@&G\324?\213\006\350?D\263\307@\200\010\263@\205@\253@\202^,@\212\222\227?\367\322\332?\276\273\211@v\315\020@\'\217\246@IV\203@\256\317\233@.\017C@\331-\020@I\352\237@\377\001\270>\004\237B@\212\345\223@tK\205?\337y\227@\213\314\257@\033w\025@\320\001\253@\255\267e@\r2i?C\241\254@6Q\276@^4\360>F>\314?\264\200\220@|\202,@\215n\275@`\0008@\204.z?\376\342\300?f\010o@\377\353K?\024\000\301@&\257m@\264\016H?\273\211\021@\317\364\255@\221\006\243@y\247\257@\326\253p?\034\244\256@B\376\223?\006z\242=\253C&@%#\216?O\225Z=\017\373\030@\003\013\202@x\277\300@`\370\210@\3071\023@4\n\374?\324\262\032?:\330\250@\341aX@\301D?@]\347\332?\036X\300@\246\337\311={\350\236@\363c\001?\031\360\005@6z\244@8\231\256@\266t\232@\263\'\227@\332O\311?\024\372<@\361H\224@Rh\277@\247\207\362?_\327\231@K E@\3734\206@\337\261\257>\334\022\035@\235K\212?\304\234\254@\003\354\205@\024Hy?\013\320\227@\206\203\006@\357\236\212?\365O\017?\332Pj@\006\373n@\3528\253@\021EQ@J\307\241@\242\200p@\005\220\035@\357\257\200@v\370P?^\373\305@\2213\224@\360\305:@\233=\303@\225\201d@D\200\212@8\t\233@\n \230@\332\010\245?\316\365\035@X\342\256@G`\235@\263\341N@\264\211\250@\032\252\235@\240\346\203@\370&H@k\'\265@\024\367\226@\371\0032??%A>c\345\033@2J\344?\003\332\213@YBm@\2074c@\264v\217?\233\326\236?\322Tv?\343\014\221@b|~@m\257\206@\267\227\t@\\\221\234?\026\230n?5&w?|>v?,\260\342?\177:6@2\271\250?:>8@y\264\267@\025\232 @lU\270@`\r\277@\247\226\274>\220\334\203@Go\272@\235\222\203@\005.J@i\326\230?e\273T@RhD?\206\255\205@\351\241\257?X|\000@J\332p@[9f@\247\252\364?\241\3231@\"\211\366>"
      }
    }
  }
}
node {
  name: "Const_5"
  op: "Const"
  device: "/device:CPU:0"
  attr {
    key: "_output_shapes"
    value {
      list {
        shape {
          dim {
            size: 1000
          }
          dim {
            size: 1
          }
        }
      }
    }
  }
  attr {
    key: "dtype"
    value {
      type: DT_FLOAT
    }
  }
  attr {
    key: "value"
    value {
      tensor {
        dtype: DT_FLOAT
        tensor_shape {
          dim {
            size: 1000
          }
          dim {
            size: 1
          }
        }
        tensor_content: "\000\000\200?\000\000\200?\000\000\200?\000\000\200?\000\000\200?\000\000\200?\000\000\200?\000\000\200?\000\000\200?\000\000\200?\000\000\200?\000\000\200?\000\000\200?\000\000\200?\000\000\200?\000\000\200?\000\000\200?\000\000\200?\000\000\200?\000\000\200?\000\000\200?\000\000\200?\000\000\200?\000\000\200?\000\000\200?\000\000\200?\000\000\200?\000\000\200?\000\000\200?\000\000\200?\000\000\200?\000\000\200?\000\000\200?\000\000\200?\000\000\200?\000\000\200?\000\000\200?\000\000\200?\000\000\200?\000\000\200?\000\000\200?\000\000\200?\000\000\200?\000\000\200?\000\000\200?\000\000\200?\000\000\200?\000\000\200?\000\000\200?\000\000\200?\000\000\200?\000\000\200?\000\000\200?\000\000\200?\000\000\200?\000\000\200?\000\000\200?\000\000\200?\000\000\200?\000\000\200?\000\000\200?\000\000\200?\000\000\200?\000\000\200?\000\000\200?\000\000\200?\000\000\200?\000\000\200?\000\000\200?\000\000\200?\000\000\200?\000\000\200?\000\000\200?\000\000\200?\000\000\200?\000\000\200?\000\000\200?\000\000\200?\000\000\200?\000\000\200?\000\000\200?\000\000\200?\000\000\200?\000\000\200?\000\000\200?\000\000\200?\000\000\200?\000\000\200?\000\000\200?\000\000\200?\000\000\200?\000\000\200?\000\000\200?\000\000\200?\000\000\200?\000\000\200?\000\000\200?\000\000\200?\000\000\200?\000\000\200?\000\000\200?\000\000\200?\000\000\200?\000\000\200?\000\000\200?\000\000\200?\000\000\200?\000\000\200?\000\000\200?\000\000\200?\000\000\200?\000\000\200?\000\000\200?\000\000\200?\000\000\200?\000\000\200?\000\000\200?\000\000\200?\000\000\200?\000\000\200?\000\000\200?\000\000\200?\000\000\200?\000\000\200?\000\000\200?\000\000\200?\000\000\200?\000\000\200?\000\000\200?\000\000\200?\000\000\200?\000\000\200?\000\000\200?\000\000\200?\000\000\200?\000\000\200?\000\000\200?\000\000\200?\000\000\200?\000\000\200?\000\000\200?\000\000\200?\000\000\200?\000\000\200?\000\000\200?\000\000\200?\000\000\200?\000\000\200?\000\000\200?\000\000\200?\000\000\200?\000\000\200?\000\000\200?\000\000\200?\000\000\200?\000\000\200?\000\000\200?\000\000\200?\000\000\200?\000\000\200?\000\000\200?\000\000\200?\000\000\200?\000\000\200?\000\000\200?\000\000\200?\000\000\200?\000\000\200?\000\000\200?\000\000\200?\000\000\200?\000\000\200?\000\000\200?\000\000\200?\000\000\200?\000\000\200?\000\000\200?\000\000\200?\000\000\200?\000\000\200?\000\000\200?\000\000\200?\000\000\200?\000\000\200?\000\000\200?\000\000\200?\000\000\200?\000\000\200?\000\000\200?\000\000\200?\000\000\200?\000\000\200?\000\000\200?\000\000\200?\000\000\200?\000\000\200?\000\000\200?\000\000\200?\000\000\200?\000\000\200?\000\000\200?\000\000\200?\000\000\200?\000\000\200?\000\000\200?\000\000\200?\000\000\200?\000\000\200?\000\000\200?\000\000\200?\000\000\200?\000\000\200?\000\000\200?\000\000\200?\000\000\200?\000\000\200?\000\000\200?\000\000\200?\000\000\200?\000\000\200?\000\000\200?\000\000\200?\000\000\200?\000\000\200?\000\000\200?\000\000\200?\000\000\200?\000\000\200?\000\000\200?\000\000\200?\000\000\200?\000\000\200?\000\000\200?\000\000\200?\000\000\200?\000\000\200?\000\000\200?\000\000\200?\000\000\200?\000\000\200?\000\000\200?\000\000\200?\000\000\200?\000\000\200?\000\000\200?\000\000\200?\000\000\200?\000\000\200?\000\000\200?\000\000\200?\000\000\200?\000\000\200?\000\000\200?\000\000\200?\000\000\200?\000\000\200?\000\000\200?\000\000\200?\000\000\200?\000\000\200?\000\000\200?\000\000\200?\000\000\200?\000\000\200?\000\000\200?\000\000\200?\000\000\200?\000\000\200?\000\000\200?\000\000\200?\000\000\200?\000\000\200?\000\000\200?\000\000\200?\000\000\200?\000\000\200?\000\000\200?\000\000\200?\000\000\200?\000\000\200?\000\000\200?\000\000\200?\000\000\200?\000\000\200?\000\000\200?\000\000\200?\000\000\200?\000\000\200?\000\000\200?\000\000\200?\000\000\200?\000\000\200?\000\000\200?\000\000\200?\000\000\200?\000\000\200?\000\000\200?\000\000\200?\000\000\200?\000\000\200?\000\000\200?\000\000\200?\000\000\200?\000\000\200?\000\000\200?\000\000\200?\000\000\200?\000\000\200?\000\000\200?\000\000\200?\000\000\200?\000\000\200?\000\000\200?\000\000\200?\000\000\200?\000\000\200?\000\000\200?\000\000\200?\000\000\200?\000\000\200?\000\000\200?\000\000\200?\000\000\200?\000\000\200?\000\000\200?\000\000\200?\000\000\200?\000\000\200?\000\000\200?\000\000\200?\000\000\200?\000\000\200?\000\000\200?\000\000\200?\000\000\200?\000\000\200?\000\000\200?\000\000\200?\000\000\200?\000\000\200?\000\000\200?\000\000\200?\000\000\200?\000\000\200?\000\000\200?\000\000\200?\000\000\200?\000\000\200?\000\000\200?\000\000\200?\000\000\200?\000\000\200?\000\000\200?\000\000\200?\000\000\200?\000\000\200?\000\000\200?\000\000\200?\000\000\200?\000\000\200?\000\000\200?\000\000\200?\000\000\200?\000\000\200?\000\000\200?\000\000\200?\000\000\200?\000\000\200?\000\000\200?\000\000\200?\000\000\200?\000\000\200?\000\000\200?\000\000\200?\000\000\200?\000\000\200?\000\000\200?\000\000\200?\000\000\200?\000\000\200?\000\000\200?\000\000\200?\000\000\200?\000\000\200?\000\000\200?\000\000\200?\000\000\200?\000\000\200?\000\000\200?\000\000\200?\000\000\200?\000\000\200?\000\000\200?\000\000\200?\000\000\200?\000\000\200?\000\000\200?\000\000\200?\000\000\200?\000\000\200?\000\000\200?\000\000\200?\000\000\200?\000\000\200?\000\000\200?\000\000\200?\000\000\200?\000\000\200?\000\000\200?\000\000\200?\000\000\200?\000\000\200?\000\000\200?\000\000\200?\000\000\200?\000\000\200?\000\000\200?\000\000\200?\000\000\200?\000\000\200?\000\000\200?\000\000\200?\000\000\200?\000\000\200?\000\000\200?\000\000\200?\000\000\200?\000\000\200?\000\000\200?\000\000\200?\000\000\200?\000\000\200?\000\000\200?\000\000\200?\000\000\200?\000\000\200?\000\000\200?\000\000\200?\000\000\200?\000\000\200?\000\000\200?\000\000\200?\000\000\200?\000\000\200?\000\000\200?\000\000\200?\000\000\200?\000\000\200?\000\000\200?\000\000\200?\000\000\200?\000\000\200?\000\000\200?\000\000\200?\000\000\200?\000\000\200?\000\000\200?\000\000\200?\000\000\200?\000\000\200?\000\000\200?\000\000\200?\000\000\200?\000\000\200?\000\000\200?\000\000\200?\000\000\200?\000\000\200?\000\000\200?\000\000\200?\000\000\200?\000\000\200?\000\000\200?\000\000\200?\000\000\200?\000\000\200?\000\000\200?\000\000\200?\000\000\200?\000\000\200?\000\000\200?\000\000\200?\000\000\200?\000\000\200?\000\000\200?\000\000\200?\000\000\200?\000\000\200?\000\000\200?\000\000\200?\000\000\200?\000\000\200?\000\000\200?\000\000\200?\000\000\200?\000\000\200?\000\000\200?\000\000\200?\000\000\200?\000\000\200?\000\000\200?\000\000\200?\000\000\200?\000\000\200?\000\000\200?\000\000\200?\000\000\200?\000\000\200?\000\000\200?\000\000\200?\000\000\200?\000\000\200?\000\000\200?\000\000\200?\000\000\200?\000\000\200?\000\000\200?\000\000\200?\000\000\200?\000\000\200?\000\000\200?\000\000\200?\000\000\200?\000\000\200?\000\000\200?\000\000\200?\000\000\200?\000\000\200?\000\000\200?\000\000\200?\000\000\200?\000\000\200?\000\000\200?\000\000\200?\000\000\200?\000\000\200?\000\000\200?\000\000\200?\000\000\200?\000\000\200?\000\000\200?\000\000\200?\000\000\200?\000\000\200?\000\000\200?\000\000\200?\000\000\200?\000\000\200?\000\000\200?\000\000\200?\000\000\200?\000\000\200?\000\000\200?\000\000\200?\000\000\200?\000\000\200?\000\000\200?\000\000\200?\000\000\200?\000\000\200?\000\000\200?\000\000\200?\000\000\200?\000\000\200?\000\000\200?\000\000\200?\000\000\200?\000\000\200?\000\000\200?\000\000\200?\000\000\200?\000\000\200?\000\000\200?\000\000\200?\000\000\200?\000\000\200?\000\000\200?\000\000\200?\000\000\200?\000\000\200?\000\000\200?\000\000\200?\000\000\200?\000\000\200?\000\000\200?\000\000\200?\000\000\200?\000\000\200?\000\000\200?\000\000\200?\000\000\200?\000\000\200?\000\000\200?\000\000\200?\000\000\200?\000\000\200?\000\000\200?\000\000\200?\000\000\200?\000\000\200?\000\000\200?\000\000\200?\000\000\200?\000\000\200?\000\000\200?\000\000\200?\000\000\200?\000\000\200?\000\000\200?\000\000\200?\000\000\200?\000\000\200?\000\000\200?\000\000\200?\000\000\200?\000\000\200?\000\000\200?\000\000\200?\000\000\200?\000\000\200?\000\000\200?\000\000\200?\000\000\200?\000\000\200?\000\000\200?\000\000\200?\000\000\200?\000\000\200?\000\000\200?\000\000\200?\000\000\200?\000\000\200?\000\000\200?\000\000\200?\000\000\200?\000\000\200?\000\000\200?\000\000\200?\000\000\200?\000\000\200?\000\000\200?\000\000\200?\000\000\200?\000\000\200?\000\000\200?\000\000\200?\000\000\200?\000\000\200?\000\000\200?\000\000\200?\000\000\200?\000\000\200?\000\000\200?\000\000\200?\000\000\200?\000\000\200?\000\000\200?\000\000\200?\000\000\200?\000\000\200?\000\000\200?\000\000\200?\000\000\200?\000\000\200?\000\000\200?\000\000\200?\000\000\200?\000\000\200?\000\000\200?\000\000\200?\000\000\200?\000\000\200?\000\000\200?\000\000\200?\000\000\200?\000\000\200?\000\000\200?\000\000\200?\000\000\200?\000\000\200?\000\000\200?\000\000\200?\000\000\200?\000\000\200?\000\000\200?\000\000\200?\000\000\200?\000\000\200?\000\000\200?\000\000\200?\000\000\200?\000\000\200?\000\000\200?\000\000\200?\000\000\200?\000\000\200?\000\000\200?\000\000\200?\000\000\200?\000\000\200?\000\000\200?\000\000\200?\000\000\200?\000\000\200?\000\000\200?\000\000\200?\000\000\200?\000\000\200?\000\000\200?\000\000\200?\000\000\200?\000\000\200?\000\000\200?\000\000\200?\000\000\200?\000\000\200?\000\000\200?\000\000\200?\000\000\200?\000\000\200?\000\000\200?\000\000\200?\000\000\200?\000\000\200?\000\000\200?\000\000\200?\000\000\200?\000\000\200?\000\000\200?\000\000\200?\000\000\200?\000\000\200?\000\000\200?\000\000\200?\000\000\200?\000\000\200?\000\000\200?\000\000\200?\000\000\200?\000\000\200?\000\000\200?\000\000\200?\000\000\200?\000\000\200?\000\000\200?\000\000\200?\000\000\200?\000\000\200?\000\000\200?\000\000\200?\000\000\200?\000\000\200?\000\000\200?\000\000\200?\000\000\200?\000\000\200?\000\000\200?\000\000\200?\000\000\200?\000\000\200?\000\000\200?\000\000\200?\000\000\200?\000\000\200?\000\000\200?\000\000\200?\000\000\200?\000\000\200?\000\000\200?\000\000\200?\000\000\200?\000\000\200?\000\000\200?\000\000\200?\000\000\200?\000\000\200?\000\000\200?\000\000\200?\000\000\200?\000\000\200?\000\000\200?\000\000\200?\000\000\200?\000\000\200?\000\000\200?\000\000\200?\000\000\200?\000\000\200?\000\000\200?\000\000\200?\000\000\200?\000\000\200?\000\000\200?\000\000\200?\000\000\200?\000\000\200?\000\000\200?\000\000\200?\000\000\200?\000\000\200?\000\000\200?\000\000\200?\000\000\200?\000\000\200?\000\000\200?\000\000\200?\000\000\200?\000\000\200?\000\000\200?\000\000\200?\000\000\200?\000\000\200?\000\000\200?\000\000\200?\000\000\200?\000\000\200?\000\000\200?\000\000\200?\000\000\200?\000\000\200?\000\000\200?\000\000\200?\000\000\200?\000\000\200?\000\000\200?\000\000\200?\000\000\200?\000\000\200?\000\000\200?\000\000\200?\000\000\200?\000\000\200?\000\000\200?\000\000\200?\000\000\200?\000\000\200?\000\000\200?\000\000\200?\000\000\200?\000\000\200?\000\000\200?\000\000\200?\000\000\200?\000\000\200?\000\000\200?\000\000\200?\000\000\200?\000\000\200?\000\000\200?\000\000\200?\000\000\200?\000\000\200?\000\000\200?\000\000\200?\000\000\200?\000\000\200?\000\000\200?\000\000\200?\000\000\200?\000\000\200?\000\000\200?\000\000\200?\000\000\200?\000\000\200?\000\000\200?\000\000\200?\000\000\200?\000\000\200?\000\000\200?\000\000\200?\000\000\200?\000\000\200?\000\000\200?\000\000\200?\000\000\200?\000\000\200?\000\000\200?\000\000\200?\000\000\200?\000\000\200?\000\000\200?\000\000\200?\000\000\200?\000\000\200?\000\000\200?\000\000\200?\000\000\200?\000\000\200?\000\000\200?\000\000\200?\000\000\200?\000\000\200?\000\000\200?\000\000\200?\000\000\200?\000\000\200?\000\000\200?\000\000\200?\000\000\200?\000\000\200?\000\000\200?\000\000\200?\000\000\200?\000\000\200?\000\000\200?\000\000\200?\000\000\200?\000\000\200?\000\000\200?\000\000\200?\000\000\200?\000\000\200?\000\000\200?\000\000\200?\000\000\200?\000\000\200?\000\000\200?\000\000\200?\000\000\200?\000\000\200?\000\000\200?\000\000\200?\000\000\200?\000\000\200?\000\000\200?\000\000\200?\000\000\200?\000\000\200?\000\000\200?\000\000\200?\000\000\200?\000\000\200?\000\000\200?\000\000\200?\000\000\200?\000\000\200?\000\000\200?\000\000\200?\000\000\200?\000\000\200?\000\000\200?\000\000\200?\000\000\200?\000\000\200?\000\000\200?\000\000\200?\000\000\200?\000\000\200?\000\000\200?\000\000\200?\000\000\200?\000\000\200?\000\000\200?\000\000\200?\000\000\200?\000\000\200?\000\000\200?\000\000\200?\000\000\200?\000\000\200?\000\000\200?\000\000\200?\000\000\200?\000\000\200?\000\000\200?\000\000\200?\000\000\200?\000\000\200?\000\000\200?\000\000\200?\000\000\200?\000\000\200?\000\000\200?\000\000\200?\000\000\200?\000\000\200?\000\000\200?\000\000\200?\000\000\200?\000\000\200?\000\000\200?\000\000\200?\000\000\200?\000\000\200?\000\000\200?\000\000\200?\000\000\200?\000\000\200?\000\000\200?\000\000\200?\000\000\200?\000\000\200?\000\000\200?\000\000\200?\000\000\200?\000\000\200?\000\000\200?\000\000\200?\000\000\200?\000\000\200?"
      }
    }
  }
}
node {
  name: "concat/axis"
  op: "Const"
  device: "/device:CPU:0"
  attr {
    key: "_output_shapes"
    value {
      list {
        shape {
        }
      }
    }
  }
  attr {
    key: "dtype"
    value {
      type: DT_INT32
    }
  }
  attr {
    key: "value"
    value {
      tensor {
        dtype: DT_INT32
        tensor_shape {
        }
        int_val: 1
      }
    }
  }
}
node {
  name: "concat"
  op: "ConcatV2"
  input: "Const"
  input: "Const_2"
  input: "Const_4"
  input: "concat/axis"
  device: "/device:CPU:0"
  attr {
    key: "N"
    value {
      i: 3
    }
  }
  attr {
    key: "T"
    value {
      type: DT_FLOAT
    }
  }
  attr {
    key: "Tidx"
    value {
      type: DT_INT32
    }
  }
  attr {
    key: "_output_shapes"
    value {
      list {
        shape {
          dim {
            size: 1000
          }
          dim {
            size: 3
          }
        }
      }
    }
  }
}
node {
  name: "concat_1/axis"
  op: "Const"
  device: "/device:CPU:0"
  attr {
    key: "_output_shapes"
    value {
      list {
        shape {
        }
      }
    }
  }
  attr {
    key: "dtype"
    value {
      type: DT_INT32
    }
  }
  attr {
    key: "value"
    value {
      tensor {
        dtype: DT_INT32
        tensor_shape {
        }
        int_val: 1
      }
    }
  }
}
node {
  name: "concat_1"
  op: "ConcatV2"
  input: "Const_1"
  input: "Const_3"
  input: "Const_5"
  input: "concat_1/axis"
  device: "/device:CPU:0"
  attr {
    key: "N"
    value {
      i: 3
    }
  }
  attr {
    key: "T"
    value {
      type: DT_FLOAT
    }
  }
  attr {
    key: "Tidx"
    value {
      type: DT_INT32
    }
  }
  attr {
    key: "_output_shapes"
    value {
      list {
        shape {
          dim {
            size: 1000
          }
          dim {
            size: 3
          }
        }
      }
    }
  }
}
node {
  name: "Cumsum/axis"
  op: "Const"
  device: "/device:CPU:0"
  attr {
    key: "_output_shapes"
    value {
      list {
        shape {
        }
      }
    }
  }
  attr {
    key: "dtype"
    value {
      type: DT_INT32
    }
  }
  attr {
    key: "value"
    value {
      tensor {
        dtype: DT_INT32
        tensor_shape {
        }
        int_val: 1
      }
    }
  }
}
node {
  name: "Cumsum"
  op: "Cumsum"
  input: "concat"
  input: "Cumsum/axis"
  device: "/device:CPU:0"
  attr {
    key: "T"
    value {
      type: DT_FLOAT
    }
  }
  attr {
    key: "Tidx"
    value {
      type: DT_INT32
    }
  }
  attr {
    key: "_output_shapes"
    value {
      list {
        shape {
          dim {
            size: 1000
          }
          dim {
            size: 3
          }
        }
      }
    }
  }
  attr {
    key: "exclusive"
    value {
      b: false
    }
  }
  attr {
    key: "reverse"
    value {
      b: false
    }
  }
}
node {
  name: "Sin"
  op: "Sin"
  input: "Cumsum"
  device: "/device:CPU:0"
  attr {
    key: "T"
    value {
      type: DT_FLOAT
    }
  }
  attr {
    key: "_output_shapes"
    value {
      list {
        shape {
          dim {
            size: 1000
          }
          dim {
            size: 3
          }
        }
      }
    }
  }
}
node {
  name: "Cumsum_1/axis"
  op: "Const"
  device: "/device:CPU:0"
  attr {
    key: "_output_shapes"
    value {
      list {
        shape {
        }
      }
    }
  }
  attr {
    key: "dtype"
    value {
      type: DT_INT32
    }
  }
  attr {
    key: "value"
    value {
      tensor {
        dtype: DT_INT32
        tensor_shape {
        }
        int_val: 1
      }
    }
  }
}
node {
  name: "Cumsum_1"
  op: "Cumsum"
  input: "concat"
  input: "Cumsum_1/axis"
  device: "/device:CPU:0"
  attr {
    key: "T"
    value {
      type: DT_FLOAT
    }
  }
  attr {
    key: "Tidx"
    value {
      type: DT_INT32
    }
  }
  attr {
    key: "_output_shapes"
    value {
      list {
        shape {
          dim {
            size: 1000
          }
          dim {
            size: 3
          }
        }
      }
    }
  }
  attr {
    key: "exclusive"
    value {
      b: false
    }
  }
  attr {
    key: "reverse"
    value {
      b: false
    }
  }
}
node {
  name: "Cos"
  op: "Cos"
  input: "Cumsum_1"
  device: "/device:CPU:0"
  attr {
    key: "T"
    value {
      type: DT_FLOAT
    }
  }
  attr {
    key: "_output_shapes"
    value {
      list {
        shape {
          dim {
            size: 1000
          }
          dim {
            size: 3
          }
        }
      }
    }
  }
}
node {
  name: "Mul"
  op: "Mul"
  input: "concat_1"
  input: "Cos"
  device: "/device:CPU:0"
  attr {
    key: "T"
    value {
      type: DT_FLOAT
    }
  }
  attr {
    key: "_output_shapes"
    value {
      list {
        shape {
          dim {
            size: 1000
          }
          dim {
            size: 3
          }
        }
      }
    }
  }
}
node {
  name: "Mul_1"
  op: "Mul"
  input: "concat_1"
  input: "Sin"
  device: "/device:CPU:0"
  attr {
    key: "T"
    value {
      type: DT_FLOAT
    }
  }
  attr {
    key: "_output_shapes"
    value {
      list {
        shape {
          dim {
            size: 1000
          }
          dim {
            size: 3
          }
        }
      }
    }
  }
}
node {
  name: "Sum/reduction_indices"
  op: "Const"
  device: "/device:CPU:0"
  attr {
    key: "_output_shapes"
    value {
      list {
        shape {
        }
      }
    }
  }
  attr {
    key: "dtype"
    value {
      type: DT_INT32
    }
  }
  attr {
    key: "value"
    value {
      tensor {
        dtype: DT_INT32
        tensor_shape {
        }
        int_val: 1
      }
    }
  }
}
node {
  name: "Sum"
  op: "Sum"
  input: "Mul"
  input: "Sum/reduction_indices"
  device: "/device:CPU:0"
  attr {
    key: "T"
    value {
      type: DT_FLOAT
    }
  }
  attr {
    key: "Tidx"
    value {
      type: DT_INT32
    }
  }
  attr {
    key: "_output_shapes"
    value {
      list {
        shape {
          dim {
            size: 1000
          }
          dim {
            size: 1
          }
        }
      }
    }
  }
  attr {
    key: "keep_dims"
    value {
      b: true
    }
  }
}
node {
  name: "Sum_1/reduction_indices"
  op: "Const"
  device: "/device:CPU:0"
  attr {
    key: "_output_shapes"
    value {
      list {
        shape {
        }
      }
    }
  }
  attr {
    key: "dtype"
    value {
      type: DT_INT32
    }
  }
  attr {
    key: "value"
    value {
      tensor {
        dtype: DT_INT32
        tensor_shape {
        }
        int_val: 1
      }
    }
  }
}
node {
  name: "Sum_1"
  op: "Sum"
  input: "Mul_1"
  input: "Sum_1/reduction_indices"
  device: "/device:CPU:0"
  attr {
    key: "T"
    value {
      type: DT_FLOAT
    }
  }
  attr {
    key: "Tidx"
    value {
      type: DT_INT32
    }
  }
  attr {
    key: "_output_shapes"
    value {
      list {
        shape {
          dim {
            size: 1000
          }
          dim {
            size: 1
          }
        }
      }
    }
  }
  attr {
    key: "keep_dims"
    value {
      b: true
    }
  }
}
node {
  name: "Shape"
  op: "Const"
  device: "/device:CPU:0"
  attr {
    key: "_output_shapes"
    value {
      list {
        shape {
          dim {
            size: 2
          }
        }
      }
    }
  }
  attr {
    key: "dtype"
    value {
      type: DT_INT32
    }
  }
  attr {
    key: "value"
    value {
      tensor {
        dtype: DT_INT32
        tensor_shape {
          dim {
            size: 2
          }
        }
        tensor_content: "\350\003\000\000\001\000\000\000"
      }
    }
  }
}
node {
  name: "zeros/Const"
  op: "Const"
  device: "/device:CPU:0"
  attr {
    key: "_output_shapes"
    value {
      list {
        shape {
        }
      }
    }
  }
  attr {
    key: "dtype"
    value {
      type: DT_FLOAT
    }
  }
  attr {
    key: "value"
    value {
      tensor {
        dtype: DT_FLOAT
        tensor_shape {
        }
        float_val: 0.0
      }
    }
  }
}
node {
  name: "zeros"
  op: "Fill"
  input: "Shape"
  input: "zeros/Const"
  device: "/device:CPU:0"
  attr {
    key: "T"
    value {
      type: DT_FLOAT
    }
  }
  attr {
    key: "_output_shapes"
    value {
      list {
        shape {
          dim {
            size: 1000
          }
          dim {
            size: 1
          }
        }
      }
    }
  }
}
node {
  name: "concat_2/axis"
  op: "Const"
  device: "/device:CPU:0"
  attr {
    key: "_output_shapes"
    value {
      list {
        shape {
        }
      }
    }
  }
  attr {
    key: "dtype"
    value {
      type: DT_INT32
    }
  }
  attr {
    key: "value"
    value {
      tensor {
        dtype: DT_INT32
        tensor_shape {
        }
        int_val: 1
      }
    }
  }
}
node {
  name: "concat_2"
  op: "ConcatV2"
  input: "Sum"
  input: "Sum_1"
  input: "zeros"
  input: "concat_2/axis"
  device: "/device:CPU:0"
  attr {
    key: "N"
    value {
      i: 3
    }
  }
  attr {
    key: "T"
    value {
      type: DT_FLOAT
    }
  }
  attr {
    key: "Tidx"
    value {
      type: DT_INT32
    }
  }
  attr {
    key: "_output_shapes"
    value {
      list {
        shape {
          dim {
            size: 1000
          }
          dim {
            size: 3
          }
        }
      }
    }
  }
}
node {
  name: "Const_6"
  op: "Const"
  device: "/device:CPU:0"
  attr {
    key: "_output_shapes"
    value {
      list {
        shape {
          dim {
            size: 1
          }
          dim {
            size: 1
          }
        }
      }
    }
  }
  attr {
    key: "dtype"
    value {
      type: DT_FLOAT
    }
  }
  attr {
    key: "value"
    value {
      tensor {
        dtype: DT_FLOAT
        tensor_shape {
          dim {
            size: 1
          }
          dim {
            size: 1
          }
        }
        float_val: 0.00999999977648
      }
    }
  }
}
node {
  name: "Const_7"
  op: "Const"
  device: "/device:CPU:0"
  attr {
    key: "_output_shapes"
    value {
      list {
        shape {
          dim {
            size: 1
          }
          dim {
            size: 3
          }
        }
      }
    }
  }
  attr {
    key: "dtype"
    value {
      type: DT_FLOAT
    }
  }
  attr {
    key: "value"
    value {
      tensor {
        dtype: DT_FLOAT
        tensor_shape {
          dim {
            size: 1
          }
          dim {
            size: 3
          }
        }
        tensor_content: "\323\004R?\352\360\200>\000\000\000\000"
      }
    }
  }
}
node {
  name: "Mul_2"
  op: "Mul"
  input: "Const_7"
  input: "Const_6"
  device: "/device:CPU:0"
  attr {
    key: "T"
    value {
      type: DT_FLOAT
    }
  }
  attr {
    key: "_output_shapes"
    value {
      list {
        shape {
          dim {
            size: 1
          }
          dim {
            size: 3
          }
        }
      }
    }
  }
}
node {
  name: "Const_8"
  op: "Const"
  device: "/device:CPU:0"
  attr {
    key: "_output_shapes"
    value {
      list {
        shape {
          dim {
            size: 1
          }
          dim {
            size: 3
          }
        }
      }
    }
  }
  attr {
    key: "dtype"
    value {
      type: DT_FLOAT
    }
  }
  attr {
    key: "value"
    value {
      tensor {
        dtype: DT_FLOAT
        tensor_shape {
          dim {
            size: 1
          }
          dim {
            size: 3
          }
        }
        tensor_content: "\252\213=?\261uF?\000\000\000\000"
      }
    }
  }
}
node {
  name: "Mul_3"
  op: "Mul"
  input: "Const_8"
  input: "Const_6"
  device: "/device:CPU:0"
  attr {
    key: "T"
    value {
      type: DT_FLOAT
    }
  }
  attr {
    key: "_output_shapes"
    value {
      list {
        shape {
          dim {
            size: 1
          }
          dim {
            size: 3
          }
        }
      }
    }
  }
}
node {
  name: "Const_9"
  op: "Const"
  device: "/device:CPU:0"
  attr {
    key: "_output_shapes"
    value {
      list {
        shape {
          dim {
            size: 1
          }
          dim {
            size: 3
          }
        }
      }
    }
  }
  attr {
    key: "dtype"
    value {
      type: DT_FLOAT
    }
  }
  attr {
    key: "value"
    value {
      tensor {
        dtype: DT_FLOAT
        tensor_shape {
          dim {
            size: 1
          }
          dim {
            size: 3
          }
        }
        tensor_content: "\205\355g?<\304\036?\000\000\000\000"
      }
    }
  }
}
node {
  name: "Mul_4"
  op: "Mul"
  input: "Const_9"
  input: "Const_6"
  device: "/device:CPU:0"
  attr {
    key: "T"
    value {
      type: DT_FLOAT
    }
  }
  attr {
    key: "_output_shapes"
    value {
      list {
        shape {
          dim {
            size: 1
          }
          dim {
            size: 3
          }
        }
      }
    }
  }
}
node {
  name: "Const_10"
  op: "Const"
  device: "/device:CPU:0"
  attr {
    key: "_output_shapes"
    value {
      list {
        shape {
          dim {
            size: 1
          }
          dim {
            size: 3
          }
        }
      }
    }
  }
  attr {
    key: "dtype"
    value {
      type: DT_FLOAT
    }
  }
  attr {
    key: "value"
    value {
      tensor {
        dtype: DT_FLOAT
        tensor_shape {
          dim {
            size: 1
          }
          dim {
            size: 3
          }
        }
        tensor_content: "rE\027?\371\032\000?\000\000\000\000"
      }
    }
  }
}
node {
  name: "Mul_5"
  op: "Mul"
  input: "Const_10"
  input: "Const_6"
  device: "/device:CPU:0"
  attr {
    key: "T"
    value {
      type: DT_FLOAT
    }
  }
  attr {
    key: "_output_shapes"
    value {
      list {
        shape {
          dim {
            size: 1
          }
          dim {
            size: 3
          }
        }
      }
    }
  }
}
node {
  name: "Const_11"
  op: "Const"
  device: "/device:CPU:0"
  attr {
    key: "_output_shapes"
    value {
      list {
        shape {
          dim {
            size: 1
          }
          dim {
            size: 3
          }
        }
      }
    }
  }
  attr {
    key: "dtype"
    value {
      type: DT_FLOAT
    }
  }
  attr {
    key: "value"
    value {
      tensor {
        dtype: DT_FLOAT
        tensor_shape {
          dim {
            size: 1
          }
          dim {
            size: 3
          }
        }
        tensor_content: "=\312\233>\376Q\253>\000\000\000\000"
      }
    }
  }
}
node {
  name: "Mul_6"
  op: "Mul"
  input: "Const_11"
  input: "Const_6"
  device: "/device:CPU:0"
  attr {
    key: "T"
    value {
      type: DT_FLOAT
    }
  }
  attr {
    key: "_output_shapes"
    value {
      list {
        shape {
          dim {
            size: 1
          }
          dim {
            size: 3
          }
        }
      }
    }
  }
}
node {
  name: "Const_12"
  op: "Const"
  device: "/device:CPU:0"
  attr {
    key: "_output_shapes"
    value {
      list {
        shape {
          dim {
            size: 1
          }
          dim {
            size: 3
          }
        }
      }
    }
  }
  attr {
    key: "dtype"
    value {
      type: DT_FLOAT
    }
  }
  attr {
    key: "value"
    value {
      tensor {
        dtype: DT_FLOAT
        tensor_shape {
          dim {
            size: 1
          }
          dim {
            size: 3
          }
        }
        tensor_content: "\270\223\r?i\006l?\000\000\000\000"
      }
    }
  }
}
node {
  name: "Mul_7"
  op: "Mul"
  input: "Const_12"
  input: "Const_6"
  device: "/device:CPU:0"
  attr {
    key: "T"
    value {
      type: DT_FLOAT
    }
  }
  attr {
    key: "_output_shapes"
    value {
      list {
        shape {
          dim {
            size: 1
          }
          dim {
            size: 3
          }
        }
      }
    }
  }
}
node {
  name: "Const_13"
  op: "Const"
  device: "/device:CPU:0"
  attr {
    key: "_output_shapes"
    value {
      list {
        shape {
          dim {
            size: 1
          }
          dim {
            size: 3
          }
        }
      }
    }
  }
  attr {
    key: "dtype"
    value {
      type: DT_FLOAT
    }
  }
  attr {
    key: "value"
    value {
      tensor {
        dtype: DT_FLOAT
        tensor_shape {
          dim {
            size: 1
          }
          dim {
            size: 3
          }
        }
        tensor_content: "o+K>\"\t\335>\000\000\000\000"
      }
    }
  }
}
node {
  name: "Mul_8"
  op: "Mul"
  input: "Const_13"
  input: "Const_6"
  device: "/device:CPU:0"
  attr {
    key: "T"
    value {
      type: DT_FLOAT
    }
  }
  attr {
    key: "_output_shapes"
    value {
      list {
        shape {
          dim {
            size: 1
          }
          dim {
            size: 3
          }
        }
      }
    }
  }
}
node {
  name: "Const_14"
  op: "Const"
  device: "/device:CPU:0"
  attr {
    key: "_output_shapes"
    value {
      list {
        shape {
          dim {
            size: 1
          }
          dim {
            size: 3
          }
        }
      }
    }
  }
  attr {
    key: "dtype"
    value {
      type: DT_FLOAT
    }
  }
  attr {
    key: "value"
    value {
      tensor {
        dtype: DT_FLOAT
        tensor_shape {
          dim {
            size: 1
          }
          dim {
            size: 3
          }
        }
        tensor_content: "\225\036}?\"\266\227>\000\000\000\000"
      }
    }
  }
}
node {
  name: "Mul_9"
  op: "Mul"
  input: "Const_14"
  input: "Const_6"
  device: "/device:CPU:0"
  attr {
    key: "T"
    value {
      type: DT_FLOAT
    }
  }
  attr {
    key: "_output_shapes"
    value {
      list {
        shape {
          dim {
            size: 1
          }
          dim {
            size: 3
          }
        }
      }
    }
  }
}
node {
  name: "Const_15"
  op: "Const"
  device: "/device:CPU:0"
  attr {
    key: "_output_shapes"
    value {
      list {
        shape {
          dim {
            size: 1
          }
          dim {
            size: 3
          }
        }
      }
    }
  }
  attr {
    key: "dtype"
    value {
      type: DT_FLOAT
    }
  }
  attr {
    key: "value"
    value {
      tensor {
        dtype: DT_FLOAT
        tensor_shape {
          dim {
            size: 1
          }
          dim {
            size: 3
          }
        }
        tensor_content: "\376\332\346>\231\303-?\000\000\000\000"
      }
    }
  }
}
node {
  name: "Mul_10"
  op: "Mul"
  input: "Const_15"
  input: "Const_6"
  device: "/device:CPU:0"
  attr {
    key: "T"
    value {
      type: DT_FLOAT
    }
  }
  attr {
    key: "_output_shapes"
    value {
      list {
        shape {
          dim {
            size: 1
          }
          dim {
            size: 3
          }
        }
      }
    }
  }
}
node {
  name: "Const_16"
  op: "Const"
  device: "/device:CPU:0"
  attr {
    key: "_output_shapes"
    value {
      list {
        shape {
          dim {
            size: 1
          }
          dim {
            size: 3
          }
        }
      }
    }
  }
  attr {
    key: "dtype"
    value {
      type: DT_FLOAT
    }
  }
  attr {
    key: "value"
    value {
      tensor {
        dtype: DT_FLOAT
        tensor_shape {
          dim {
            size: 1
          }
          dim {
            size: 3
          }
        }
        tensor_content: "\327\275R>\343\263C?\000\000\000\000"
      }
    }
  }
}
node {
  name: "Mul_11"
  op: "Mul"
  input: "Const_16"
  input: "Const_6"
  device: "/device:CPU:0"
  attr {
    key: "T"
    value {
      type: DT_FLOAT
    }
  }
  attr {
    key: "_output_shapes"
    value {
      list {
        shape {
          dim {
            size: 1
          }
          dim {
            size: 3
          }
        }
      }
    }
  }
}
node {
  name: "Const_17"
  op: "Const"
  device: "/device:CPU:0"
  attr {
    key: "_output_shapes"
    value {
      list {
        shape {
          dim {
            size: 1
          }
          dim {
            size: 3
          }
        }
      }
    }
  }
  attr {
    key: "dtype"
    value {
      type: DT_FLOAT
    }
  }
  attr {
    key: "value"
    value {
      tensor {
        dtype: DT_FLOAT
        tensor_shape {
          dim {
            size: 1
          }
          dim {
            size: 3
          }
        }
        tensor_content: "\307\371\352=\032\2123?\000\000\000\000"
      }
    }
  }
}
node {
  name: "Mul_12"
  op: "Mul"
  input: "Const_17"
  input: "Const_6"
  device: "/device:CPU:0"
  attr {
    key: "T"
    value {
      type: DT_FLOAT
    }
  }
  attr {
    key: "_output_shapes"
    value {
      list {
        shape {
          dim {
            size: 1
          }
          dim {
            size: 3
          }
        }
      }
    }
  }
}
node {
  name: "Const_18"
  op: "Const"
  device: "/device:CPU:0"
  attr {
    key: "_output_shapes"
    value {
      list {
        shape {
          dim {
            size: 1
          }
          dim {
            size: 3
          }
        }
      }
    }
  }
  attr {
    key: "dtype"
    value {
      type: DT_FLOAT
    }
  }
  attr {
    key: "value"
    value {
      tensor {
        dtype: DT_FLOAT
        tensor_shape {
          dim {
            size: 1
          }
          dim {
            size: 3
          }
        }
        tensor_content: "\335\r\014?\326=\001?\000\000\000\000"
      }
    }
  }
}
node {
  name: "Mul_13"
  op: "Mul"
  input: "Const_18"
  input: "Const_6"
  device: "/device:CPU:0"
  attr {
    key: "T"
    value {
      type: DT_FLOAT
    }
  }
  attr {
    key: "_output_shapes"
    value {
      list {
        shape {
          dim {
            size: 1
          }
          dim {
            size: 3
          }
        }
      }
    }
  }
}
node {
  name: "Const_19"
  op: "Const"
  device: "/device:CPU:0"
  attr {
    key: "_output_shapes"
    value {
      list {
        shape {
          dim {
            size: 1
          }
          dim {
            size: 3
          }
        }
      }
    }
  }
  attr {
    key: "dtype"
    value {
      type: DT_FLOAT
    }
  }
  attr {
    key: "value"
    value {
      tensor {
        dtype: DT_FLOAT
        tensor_shape {
          dim {
            size: 1
          }
          dim {
            size: 3
          }
        }
        tensor_content: "\245f8?\034l!?\000\000\000\000"
      }
