node {
  name: "global_step/Initializer/zeros"
  op: "Const"
  attr {
    key: "_class"
    value {
      list {
        s: "loc:@global_step"
      }
    }
  }
  attr {
    key: "_output_shapes"
    value {
      list {
        shape {
        }
      }
    }
  }
  attr {
    key: "dtype"
    value {
      type: DT_INT64
    }
  }
  attr {
    key: "value"
    value {
      tensor {
        dtype: DT_INT64
        tensor_shape {
        }
        int64_val: 0
      }
    }
  }
}
node {
  name: "global_step"
  op: "VariableV2"
  attr {
    key: "_class"
    value {
      list {
        s: "loc:@global_step"
      }
    }
  }
  attr {
    key: "_output_shapes"
    value {
      list {
        shape {
        }
      }
    }
  }
  attr {
    key: "container"
    value {
      s: ""
    }
  }
  attr {
    key: "dtype"
    value {
      type: DT_INT64
    }
  }
  attr {
    key: "shape"
    value {
      shape {
      }
    }
  }
  attr {
    key: "shared_name"
    value {
      s: ""
    }
  }
}
node {
  name: "global_step/Assign"
  op: "Assign"
  input: "global_step"
  input: "global_step/Initializer/zeros"
  attr {
    key: "T"
    value {
      type: DT_INT64
    }
  }
  attr {
    key: "_class"
    value {
      list {
        s: "loc:@global_step"
      }
    }
  }
  attr {
    key: "_output_shapes"
    value {
      list {
        shape {
        }
      }
    }
  }
  attr {
    key: "use_locking"
    value {
      b: true
    }
  }
  attr {
    key: "validate_shape"
    value {
      b: true
    }
  }
}
node {
  name: "global_step/read"
  op: "Identity"
  input: "global_step"
  attr {
    key: "T"
    value {
      type: DT_INT64
    }
  }
  attr {
    key: "_class"
    value {
      list {
        s: "loc:@global_step"
      }
    }
  }
  attr {
    key: "_output_shapes"
    value {
      list {
        shape {
        }
      }
    }
  }
}
node {
  name: "global_step/IsVariableInitialized"
  op: "IsVariableInitialized"
  input: "global_step"
  attr {
    key: "_class"
    value {
      list {
        s: "loc:@global_step"
      }
    }
  }
  attr {
    key: "_output_shapes"
    value {
      list {
        shape {
        }
      }
    }
  }
  attr {
    key: "dtype"
    value {
      type: DT_INT64
    }
  }
}
node {
  name: "global_step/cond/Switch"
  op: "Switch"
  input: "global_step/IsVariableInitialized"
  input: "global_step/IsVariableInitialized"
  attr {
    key: "T"
    value {
      type: DT_BOOL
    }
  }
  attr {
    key: "_output_shapes"
    value {
      list {
        shape {
        }
        shape {
        }
      }
    }
  }
}
node {
  name: "global_step/cond/switch_t"
  op: "Identity"
  input: "global_step/cond/Switch:1"
  attr {
    key: "T"
    value {
      type: DT_BOOL
    }
  }
  attr {
    key: "_output_shapes"
    value {
      list {
        shape {
        }
      }
    }
  }
}
node {
  name: "global_step/cond/switch_f"
  op: "Identity"
  input: "global_step/cond/Switch"
  attr {
    key: "T"
    value {
      type: DT_BOOL
    }
  }
  attr {
    key: "_output_shapes"
    value {
      list {
        shape {
        }
      }
    }
  }
}
node {
  name: "global_step/cond/pred_id"
  op: "Identity"
  input: "global_step/IsVariableInitialized"
  attr {
    key: "T"
    value {
      type: DT_BOOL
    }
  }
  attr {
    key: "_output_shapes"
    value {
      list {
        shape {
        }
      }
    }
  }
}
node {
  name: "global_step/cond/read"
  op: "Identity"
  input: "global_step/cond/read/Switch:1"
  attr {
    key: "T"
    value {
      type: DT_INT64
    }
  }
  attr {
    key: "_output_shapes"
    value {
      list {
        shape {
        }
      }
    }
  }
}
node {
  name: "global_step/cond/read/Switch"
  op: "RefSwitch"
  input: "global_step"
  input: "global_step/cond/pred_id"
  attr {
    key: "T"
    value {
      type: DT_INT64
    }
  }
  attr {
    key: "_class"
    value {
      list {
        s: "loc:@global_step"
      }
    }
  }
  attr {
    key: "_output_shapes"
    value {
      list {
        shape {
        }
        shape {
        }
      }
    }
  }
}
node {
  name: "global_step/cond/Switch_1"
  op: "Switch"
  input: "global_step/Initializer/zeros"
  input: "global_step/cond/pred_id"
  attr {
    key: "T"
    value {
      type: DT_INT64
    }
  }
  attr {
    key: "_class"
    value {
      list {
        s: "loc:@global_step"
      }
    }
  }
  attr {
    key: "_output_shapes"
    value {
      list {
        shape {
        }
        shape {
        }
      }
    }
  }
}
node {
  name: "global_step/cond/Merge"
  op: "Merge"
  input: "global_step/cond/Switch_1"
  input: "global_step/cond/read"
  attr {
    key: "N"
    value {
      i: 2
    }
  }
  attr {
    key: "T"
    value {
      type: DT_INT64
    }
  }
  attr {
    key: "_output_shapes"
    value {
      list {
        shape {
        }
        shape {
        }
      }
    }
  }
}
node {
  name: "global_step/add/y"
  op: "Const"
  attr {
    key: "_output_shapes"
    value {
      list {
        shape {
        }
      }
    }
  }
  attr {
    key: "dtype"
    value {
      type: DT_INT64
    }
  }
  attr {
    key: "value"
    value {
      tensor {
        dtype: DT_INT64
        tensor_shape {
        }
        int64_val: 0
      }
    }
  }
}
node {
  name: "global_step/add"
  op: "Add"
  input: "global_step/cond/Merge"
  input: "global_step/add/y"
  attr {
    key: "T"
    value {
      type: DT_INT64
    }
  }
  attr {
    key: "_output_shapes"
    value {
      list {
        shape {
        }
      }
    }
  }
}
node {
  name: "Const"
  op: "Const"
  device: "/device:CPU:0"
  attr {
    key: "_output_shapes"
    value {
      list {
        shape {
          dim {
            size: 1000
          }
          dim {
            size: 1
          }
        }
      }
    }
  }
  attr {
    key: "dtype"
    value {
      type: DT_FLOAT
    }
  }
  attr {
    key: "value"
    value {
      tensor {
        dtype: DT_FLOAT
        tensor_shape {
          dim {
            size: 1000
          }
          dim {
            size: 1
          }
        }
        tensor_content: "\243\335H>,\364\276?\277\257h@\206\014\242@\350C\216@v\033\237@b\342\203@\014\\5@F]1@F\257\007@\007\nm@#\024\234?\212\341\200@\310\316\032?\371\237\247@\003\226\211@|\272\007?\365\350K@\257U\306@\230\316\241@\005E\274@Lk\254@\204a\026@\345\241\250@X\275o@\356\0242@\016\023\337?\"|m@\351%\275@\377\304N>=\372{@\326\336\215?0cX@\023\362\227? \215v@\242\341+@G\013\261@U\371\301@~\306\212@i\335\254?d\000,=Quz?\252{\213?\025\240`?D\033\224@\017\262\241@\234\030\276@Pm\263@\326\3743>\357\033\231@\224e\260?_;\244@\217\371\204>\217\031\"?`\332\236@\301\007\214@\027\024\240@l\n\255@\237^\315?\247$\002@6\351\213@C\361~@\003v\234@8\304\301@\"\260>?\337\024\307?zp\232@\224\304\225@\'N?@F\026\033@\327\270.?\277\035q@L0\236@\353\032q@\002$\267@P\357\031@\247(\216?\235\2163@\242\371\213@\215\361\303@o\374\271@\371\3102>\007o\255@,\340\207?+q\272@\254\237\234@\222\252s@\037\021b?\362\022\257@\276|\201?\t\034^@\r?\232@\005\361J@\016\212\253@5\024O@\315\205\310@\204h\322?\364\256\253@+\032\036=>\204\016?\255\025\353?&\202\231?\205h\213@\024B\204@V\314\347?\tJ\251?\330\277n@4\322\242@\250\254\256@\272\353\272@\201\001u@\'\212J@b)\233@\226\230\263@\013:\213>\033\200$?c\310\305>\207\320(@kh6?*\303\200@\272\333\006@Z=L@=e]?\031\222G@f\200f@B\342\265=Cx\265@\271KU?{.\220@\351z\244@\'\252\363?\022\020\251@\355\253\256@\034\227[@\233\303=@\0043\234?+\220\256@\247\t\030?\020\265\273@\360T\014@\n\2518@\300\201\'@\010\006S@t\241\034@Rd\277@3M\005@\354\246\016?\253\004\002@\030\254\230@\221\237\032@\200s\025@\317I\252@\256U\261@%\ti@\265\266\212?\271\337\246@\323\022;@\200\220\252@\3255\231@Ga.@5\357\232@\306\345o@\004\253\236?\341XE?(\375\204?{\344\273?\225\230\317??\250\237@\370\277\241@\245W\262@;\2679@3\311\027@\261\231\270@lJ\252?5\315\215>O\207\000@m\001\205@\001S8@\261s\271@\216B4@`\036y@\0014\202@\222\324l?\035\032~>3\234K@+L\276@\361Uc?\020\373\307@b\350\237?\035>\006?\272@\221@\3618\242@\033\261\205@@8C<\324\256\276@\301\345V@5\227\214@\033*D@\021\251\225@p\243\336>\323O\020@\303\303M?\006$\275@\020d\372?\001\251\255@X\213\306@\005\375\277@]S\310@\347\003\222?\332D\267@I\331\301@\366x\206@73\361?\"L\273@\261\353\213@\330T\177@4\260p@O\275\276@\324\343\307@_\267\300@Q\222\243@\355\274\177@\335\367\326=\316\0226=\350<\254@\311`\221>\262q\242@LJg@\370\227\243@c\300\300@\356\267K@\r~\016@\026\252\004@Q\362t@\037\265\350>c\250\260@\035\207W>\233\313=?\256\2041@bv\307>W\236\272@<\240x@\340_A@6\242\254@\004\323\370>F\331\210@\351\251\356?\247\376u@el\037@T\\\224@Y\034\365?\346x\256@\351qH@oS\270@e\320V@N\240I@\206\216\303@S\302\240@\301\322F?~+R@.\315`@\351\3578@q\371\223@\264($>Q\272\277?c\334Y@c\024\216@a?k@\203\310\t@\035\260a?\303\347\245@\360fw@X\220\014@\335\272\230@!@\030@\247\367\017@\374\312\253@7\344-@\373G\221@j%\344?\246\243\025@\264\037\016@C\267h@JL\277?@A\036@\325\370\230?f\362\232@\3759Q@`\021j@;%\241@i\223\205@i\215\213@\352\330E@\331\'\267?\317\360:@\027\317\017@\366C\355?\365\232j@\231\335r@\254\241]?Qg\227@)\272\333>\324R\034@\000f\221@\332\001\207?v\275O@\277\036&@\032\244\204@\021\275C@\362\337\376?\001R\261@z\254\010?\034n\t@\330v\305@\337\246\224@\273\034\215@\316+\022@+\324\237?\237\371\036@\177\317\222?\"L\210@2\222\215@\312t\300@pFg?\341\036\320?O\240\200@\362\365\245?\253\200\002?-\n\325>\207\254n@$\0020@8wn@\025I\340>\266\013\222@\006\"c@U\254\"@\346{]@C\234\240@R\330\272@\334\304\305=\232\377\236@R1\303@\323y\256@\260\250\251?\320\345\240@L\233\024@\357j\207>\224Y\211>\023\242\243@\361\232\213@\334\207\346?X\214\t@\326\324?@w\245\032?$\252d?\324[B@\241\001\000@\2172\021@\327.J?\301\264\260?\037\210\207@\306U\235@;\r,?\030\264\021@\035\003Q?Q\335\276@\022\203a@X\374\006@\240g\261@\246G{@\231\010f@\317\236\264@\220\364J?xf1@\241E5@:\331\021@\016\001\253@\222lc@\260Y\327?\350\352m@E\353\267??&\200?\331\017*@@\244^@8\373s@?\310\247?\001\207\234@q\355\256?J`\"@\263\274\027@\364\272\210?\250`\260@.3\034>\346\351|@)\247\027?du\274?\351O`>\361\020\254?~\371b@\262\331\202@ v\275?\003\177k@\251\376M@\006\227\212@\262\371@@\200\247m@\303\367\024@1\355\275@\337\355\237@Uj<?~\342m@\2226\211?UJ\232@ xI?\367\002\274@4d\256=T\323\237?\337V\231@D\276\234@\035$\224@\032\361Z?\267{\313?\245\314;@N\355\251@\372\243L@\'\024\211@\263uU@D\245E@vN\234@\365\376+@c\336\244@^\202\275@\214B\215?\201\202\254@\205\350\304?\215/R@:mC@\300\335\225@\313h\277?\036U\245?AB\024=\302$\271?\211|\337?pDM@\320\242\221@\306\247\324>\253\246\037@u\237@@\343\023H@j\020\252@2q\024@m\202\267@\362\2627?V\215\230@^\371C@,\367\321?\263$\260@\327\3751@\201~\335<l\242\244@r\367\010@\351\266\\?\343\253\243@\316\035a@\277\031\341?\206?d@+\306\207@\263z\305@\032K.@P\376\252?\223l\224@^\235\224@xJ\250>sV\243@\322\271\016@qe_@\372!\262@\224\223\017@\177\266!@\006\322:@bk\275@\225\252u@\336>\016@\376\2645@\344\370\223@\013C\035@\276lQ@\266\232\030?\335\347\235@\364\036\010@\212\303\332?l\326\022@+:\313?\235\024\335>fi\230>5\202\026@\201y\237@u\376\245@\356\271\255?N\334D@\3633\261@\246\006\212@E^\227?S3\263@f\256\205@\256*\235@\030\340\224?\343\216\210@\024\341\230?R3\265@m\263a@T)\211@FW\300@v\336\241@a]\376?\357\223\201@\232\235\227@\346Hj@7\316\244@\272\271\376?\241\322<@\217\266\301@\214\004{?\244D:@\323U8@io\206@s3s@\365\324\035@\032\227\224?8\017\217@\314\244\246=x\376R>P\240\234@J\303H?\265\\\256@\t\320\220?\253LV?0P}@\237\002\\@aq\223@G\213\017?\027\'\206@\213H6@SN\267@\000sY@\300;\232@\363\357\252@\241+\273@\254\330\207@d\200\262@JL\\?\360 \227@\350j\336?p\n\243@v\033&@\'l\022@\312\331\265@t+\'@j\\S@\313U\223@\350\332\274@\035\325\274@\252I\252@\337O\232?hX.@\251[J@\226\220\013@\332\353\232?\000\2030@~j\341?H\361Y@\323\250\207@u\007\255@\306&`@\240\022\026?\342\362\002?#\021-@|\004\361?\335\236M@\002\rB@\331\307\305>\335b\215@\211\373T@\022n\302?P\\\225@\200\335\254@\226\234$@\003\202\300@\352\256U@\r\236\277@\312\225O?\375\034\247@\205\371\301?U/\244@\246z\357?\251d1@\223Z\255@\371\265\014@\332\2119@XH\001@\324\217\221@\232\020\222@(\200\373?[\214A@\351*I@j\224\271@\253\242\206@i/\267?\210Y\242@\335;\210?\027\347;?\0211\226@@O\207@\nX\\>a\263\276>\000\035\252@\266\022\211@\017\027w@W\\\353>$\021\307@\217#\r@\320\031\241@\350\320\210@\027\266\242@A\274\301?x\305\250?\004\027\233?Kd\001>\3667\215>NX\226@\005\272\314?\246\224\227@\200\245\204?\331P\213?\302\264:?\024\340\252@\025vO?,E\240@BZ\207@\200\335\213?\001\007\007@\303e_@\303\312<?\251\032y@\223\240\236?9\242Y@q\371\006@&{\300@\277\222\261?d\347\263@.\004\205@\234\251\252@I/\036@-W\240@\255-\266@:\200\373?\354\032t@\236\343\252?\352\221\202@\330\263\030@h\232m@\205\033-@\322\005\216@\300\245v@\320y\002@h\373c@L\361=@\353qq@\257p}@\214S\274@q\2029?\353\300\025?\2238g?\\\314\014@\207\247j?\213W\310@\003\020y@B\351\267@\322\010L@\003\030\253@\373\017B@n\346\271?\255=x@\230\352G@\316\233\"@\355\231\267@\266 ~@(\330Z?\205J\223@\257p\033?\371\007\235@\0138\t@\265}\345?p\213\177@\372P\243@h\220\335?\025\221\255@\350=\267@q\355\237@\006E\264@Lmp@\334(e?\351K\205?T\342\022=\215\267\266@\362x\030@A\032\245@\246\242\006@~\336\312?\372\202\217@\3667\014?\014\241x@\330\301\210@\206I0@\202:\266@\032\356\276@\003\236?@\350\357\251@S\370\200@\330D\224>\231\334\271?\321\227L@Q\222/?\022\310\270@\026\010\227@U\363x?3\234\212@\324` ?\371 \277@|\375\246?\017]}@\270}\002?\036\373\010@T\315\266@\334*\203>\351\226\253@JV\006@c\376\035@\340\345\231@\213,\231@\325\332\225@B\244\203@\351Z\213>\341\307\325?\274\360\005@2(\364?9\300}@\200\352#@\247\332\220?\274\330:?1|\177@\2101\337>\373\213p@\273y/@\361\257\210@+&d@\321\212\006@K\312\202@G\276\032@W\3612@\375\030\037?v\017T?\205;\267>\357\375\345?d\224&@\364;\224@dC\311?\200.\003@n\316\266@\341B\002@\377a\020@\303D\227@\316\327\357>\374V\210?u\177^?\246\230D@\377\005\257@\341\030e@)\230\227@\003\227\\@\367\377t@%\216\235@\347\302p@\325\255\220@w\252\361?\343\217<@0I\036@\211y\230@\356\302\261@\373j\"@!\3026@\257e\'@\241\354\224@\373\014,@\214c\205?@\"\267=\024\356\244@E\035\252@\314W\234@\336\016\\@\361\177\177?}\036\257>\014\217\232@\357h\241@\023\356\264@\355\221\202?.\000\014@\360\203\304@?YG@\335\353\236@\200\021\'?<$\247@\346c\231@\221\336\273@Rf\350>\033e\'@\035Pt@\257s\211@q\025H?NP\241@\245\230\006>U\216\230@w\333\'@V\177X@W>\260>\342\'\223?\376\272\241>\324\357r?\275\2448?\214\'\215@\005\311\335?\243\264\251@C8\240@{\222\213=y\3002@s\262\251@\013\325\262?\006\332F@N\030\005@$\004\277@\031\007=@\023\035\035@O\037\247?\226\201\221@\232\2336@\231\352\003@\202\336\315?\007\344[@f\024\264@\223<\210@\315\273\254@\261\266\351?\240\233\256@\244,\036@Hx\255@\320\007\220@\252+\224@\002\250\216@\316`\025?+\2160@0+\204?^6\220?\301]u@\0238\321?\374\000\210@\320\236f@\341\266\347?L\323\252@E%\r>(Q\337?\366,\341?\215\231\331?\242y\206@10\212@\302\2714?\007\"\037@\017\005\356?\203\377\306@\214\341)?fL\243>J\324!?\312|\026@J\322+?l\313\205>RE\234?\344\231\230@\344&\001@a\177\031@?\023\332?\004\344\205?\264\205q@\271\243\006@\243\235\326?\270L\271@:\"\223@!4u=5R#@\242\342\261?\334\240$@\2511D>\026\000*@\"\3622@\221\010\237@\213\035\023@\341\310\306?a|J@\003\007\006@>`P@U\260\221@1\335\214@\237n\274@\025y\216@Q\316\255@9\324\204?W\014!@\204\367f@\254a\222@G\207o@-E`@\242\253S>Z\002\302@l\017\277@g\001\265@\212YV@r\267\353?\r\024\240@z\321\302@\230C\261>\314\034_@\352\206/@\257s\017@\270~\215@W\222\305@6\234\225@\221\373}@1\323\037@&\347\236@\177\227\225@\333Y+@\256.\250@\007\333\254@\361\350y@\017P\307?\274\t\305@E\220\234?\265]\262>\327\326\300@\224G\023@<G\342>~\033f@4G\025@\232\300\256?G]\254?\007\037\323>\033\214\235>J2\200@!{B@Tw\306@*\250\261@\n\206%@\344q\013?\274\034\340?*\267~@\030{T@5\013H@\275\006\035@ n\273@\367\260U@{{\204>\326\001\253@\303\360\236@,b>@5\252\233@N\325\245@\267\030\021@\203?\251@\366\211\222@\007F\023@\225\244\206@L\226M?\037\213\344?x8\327?\341\311\262@R$S?\177_\220?\266L\253@\330>\010>\276L\213@Z\305\257@5\373\275@\324d\275@\262\271\t@\006\360\004@\023\247\262@*[\215@\211\262\314?/\352\263@3\341\243@\243Z\276@\225\262V@"
      }
    }
  }
}
node {
  name: "Const_1"
  op: "Const"
  device: "/device:CPU:0"
  attr {
    key: "_output_shapes"
    value {
      list {
        shape {
          dim {
            size: 1000
          }
          dim {
            size: 1
          }
        }
      }
    }
  }
  attr {
    key: "dtype"
    value {
      type: DT_FLOAT
    }
  }
  attr {
    key: "value"
    value {
      tensor {
        dtype: DT_FLOAT
        tensor_shape {
          dim {
            size: 1000
          }
          dim {
            size: 1
          }
        }
        tensor_content: "\316\216\231>\003@g?8\234\004?8\226f=\260\023\305>5!%>\'\252/?\252\336\245>\213\333\020>\002\245\277=\017\027C?\331\267>?\2709\326>\256@[>\254:z=h\233G?\224w\022?4&>?\220\227\352<h\033\032>gR\254>)\2424?z\262C?5O$?\037\017p?\223\374*?h\351O?\214=\r?\033\204\367>a\277K?1y\274>\375\2277?\320i\327=\246p\003?\002\017[?c>\210>/\3634?h\\\220>\020\326\303=V\\\264>\253\265\331=\220\357}?\330\227\366>|\301\316>m\362\351>\243#)?p\002[?-&\010=\030D\247>\250\327\036?\0310F?B\022\373=\210\026 >)l\367>\221\'>?\\\254\006?\355\203|?.\335M?\020\004G?\271\241k?P`]?c\227U?\221\202\010?\r0e?\237\303\032?9\376\020?X/j=6\225E?&\262\177?\273\302\006?\224o2?;Co?\000\303{?\230\363x?W\341A>,\346 ?\246y\366>U\366)?t\032D?\267?\355>\002\266|?\035\311\305>)-\023>\2002c?\005\336]<\254b\025?\236\277\362>\222\013c?\017\2563>;\274@?\365I!>\302\266\177?\252\365=?\206\030Z?\337|\335>\315w\023?/\242V=\032`\271>\240\211S?\204\0240?\300\222\027>\303\367\362>rT\022?\2608o?\332r-?\014\347\305>n\231\027?L\0051=7\317\007?%\262\037>\001\314\263>\226LT=f\031,?\244\336A>;\314\372>\240\035\356>\202\206\303>\246\352X?7Zc?}\211\032?\363WU?5\\A?\213\002Q?\\\310r?\237\3126=\2353\r?\265\272e>\301\211\203=\214\364\014?ClY?\374\231)?1h\210=\337\322t?yV\226>,\331\030>\014\203\326>\030\r_?4y\004?\321O\322>0\252/?IQ3?B{!>X\301\252>\277t[?\341\003M?\037\'d?\240Z<>\221\344+?yn\014?s\335T?\377\213\035?aI\205>\214-\307>y\316\330>\221y-?\242U6?/\217\000?sxg>\373R\024?ca\324>qH)?\346\305*?O\333\">ko1?#\230g?^\307\010?`\216g>C\237o?>h=>pPJ?aQ~?\205Pb>\210V_>r\2018?\354}Q?\321md?\341\005z?H\374\326=\220`\370>\374\331\031?\226\350k?\364\r\014?\'U(?Y\371\030?\032H\014?\276\006\017<IN\346>3o1?\341e:?\006P]?\037 \316>\301o\200>gS\261>\001q\t>\201\267j?\260p\347>U6Y>T\344\357=\257G\310<\300\270\\?_\031j?\303\031\241>PG3?\376=\335>\272D\330<\2204\306>_4\t?\210*\316>a[Y?h\212|>\374Q~?\367\323\244>1\002~?\210\357O>\034\363\023>\r\202\201>>\344b?\"\020j?b\354O?#\031\\?1I\337>\365\237\n?\233v\270>\004\035\301>\212N\024>yS\222>\206I<>\351[\026=g\2417>-\201\212>\\\346\371>\007\221\305=\034\223\342>\341\312<=\350\007\327<FJ\253>p_\225>p\347(?\030\230,?\321FI>\330\316\r?oF(?\335\007Q>]\003i?\232\001~?\026\007\026?F\024\250>\022W\222>[\344K?Z\363|?\216\3564?%\006\254=\253\006\372=\234\315\303<\003h\">\033\250\310=5r5?\203\322\340>\377\367\255>\360\261\007=l\016w<\020\'2?j\313\317>b@H?\273\212#>\372j\007?#)~?\220\221p?H\016\377=\340#!>\324\024\235>\211\226\215>\211\016\016>b3\367>\373v\200>\353D]?d\211\203>\215\334\310>\002\020f>\344}\027?0U\025?MHU?\257\222p?\371$z?\002y\027>\233\373t?\253FH?\344\333O>)\005.?k\367*?\004\317x?^_\t?\247\226O>\2038m>Dd\212>\222Zn=\374E\310>!\022\226>\277`\026?\311#[?e\216;?m\250m?\334W\\?\"J\354=0\254\350>\367\326\371>+\247e?\313\002=?\305}\022?N\345M>\2457y?\323\277k==\031}?>\361;?B\032\010?A\326\303<\346W<?\215\026\206=\270\022z?\310\003\346>\006\327\034>N\261N?\362\264\036?\250\304;?dZ\336>\021\2633?]\221&?]\257\307>\216\341-?:\277\'?0\312g?SH\005?\2440\031>d\226U?\2512[?V0t?\215\212\336>\253\3460?y\010\241>\355\305\\><y\316>\303\347\370=\322{\225>*\376\000>zt\310=h\327t?\345$%?\313\265s?\253\260\262>\365-n?b\013\307>\020\222:?x\210/>c\246&?\263QG?\301\263[?|V\350>>dj>\250\360l?\'\2626?\266Ba?\207<E?O\212Y?\223\307A?\t\265_?\313\022\322=\013\361\305>`\227\002?\222\352V?s*\352=8N}?\330\362\220>\260l\'?\"\351j?)\327\271>zu\020?R\254\004>1\334{?\352\235_?\026\312\034?\316\265q=^(X?#o\227>\241c2?\311\\T=\027\256\t?\r\323]?\276\350\237>\233\254\033</wN?\200\360o?]\274Y?\326\261\247>P\205\031?\265C\315>\000\335h?\334\251\201>R1\243<[\207I?\252j\356>\245su?c\023d>\035P3>\307\2630?\267X\314>\365\3277>\276\227\231>\261\322\235>\350Mb>\213xW< \000\003?\217p\r?\274g\326>\'wG?\212\023$?B\267\323>\267b\013?\301-\001?\222\252\314>\215\301L<\323\016w>\250\225|?\334\275\024?\210\0277?\007Q\215>\233\333)?\264\tp?\033\275E?\366\217|?p\t$?\224UY>\310\r<=\243Fk?\253eA?\236\351G>\020\205\313>\3619\235=\002\275\370>\312\306\232>7\033P=\262\320:>\373\277\025?\2300\311<\357\213H>Z^j?\253{<?\321?)?\362\344\177?\316 \n=UG3?\007\003\232>\361\226\373>\003It?\330tj<\375\337W>\313\030\333>\007\303\003?\334\257{?l\316v?\340I\034>0n\277=\223N=?@nZ>\022j\360>F\211\256>\301\177\021?\370Zo?\317\036;?o\224S?\267\006\356>\230\366\353>\240\017 ?\224%\330=F0M?\007?e?\210[\014>I$\031?\260*\030>\264\277a>\244T\224=\222x\263>\214\273\276>k\217-?\356r{? \311<?\307\0109?\037\016\021?\031e\"?Cw\231=\264\020\255>\372\333\372<@n\301>\327\377\033?_\260T?\004\204k>\024k\235>\037\342t?7r\n=\220\231%>-\327N?\376\377\244>\031\202\250=P5d?\352\354\025?\001$\"?\330\372\211>\3549r>@^d>\342\263K>?[\007>0\274\035?v*Y?\307q\014?\\n\007>\345\355;?\256\343\242>\377\211Z?\332\317\352=\215~7>\374\2424>\324\356\377>\306D\006?\202\364\024?&\345M?\311\361,?\021Q\031?\204\206/?<\246r?=5p?\302\366|?0\377\016>?v\262>\021\307\344>\002\226\227>7\270\376>e\373D?\223\0269?\211\343O?\273\305g?\311\265\217>\350\214R?\305\342\003?\313h^?\267e>?\311RR>\245\364\027>\375\204\352=\323z\036=\023\343%=\031\376\004?\353\341>?\265\017\374>\010k\006?73$=\r7{?vb\220>\026\320\212>o\353\201=Z\213d<\303\227\360=\234\274\264>\321\322s?ir\003?o\035\000?\254A\216=\334%M?b@\210>\350\340\376>d%d?M\033{>\335]6?\246\001s>\321wp?D\367}?\330\224-?^\007,?\332\351F>\244\020Y?\271N{?;#N>m\337\227>\273\356t?\233_d?\332\252\362>\225S\342>r8p>R\016l?4d\035?E\277{?\341yo?\005.r?#\325O?\206!-?BPu?\201Jd?\276+3?d>!?.b\014?\036\3359?\033\377@>\225\252*?\317+\364>e\013\004?\277c\227>\367\213\373=\253\264T?\355(u?K^\232>D\213\370>\335\3503>\263BI>\031e\006>\320eG?/t\213>\313\021\230=R\261\336>\312.\013?\322\266\217>\306\373\277>[\202f?\325YT?N\357\246>\263>\367>[\213\207=2\302\002?\214\370^>5\004\035?\275\267\034>h@\202=\023Z\013>g\032\367>\323\377D?\t\267\003>\013\365\213>_PN?b4&?\357^\341>iL\024?\233\232j?\307\316f?3\2073?\354\333g?+\027\275>{\003\036?\335!\035?\255+\n?oE\005?\221\0052?G&\304>\316\217]?\277>\346>\252\261#?s5\263=\205\227L?\246RX?\254Uq?AM\356>\350X\223>;<0?\352\265\036?\267>H?\270\0371?\224\371\336>5s\265>\330\251:?\213\306\301>/\213\253>\203\377T?\037\210\002?p\220:?\265\227O>\223\205\000?^\353V?\367\354\235>~\246\226=\223\304W?\016\0306?{\377`<\334\252\242>cA.?\027\243\375>\353\017\304=dBw?\374B\350>\354\212\274>\212\270;9\203\301#?\251\t\035>\010\377\020?\350\316\260>\226\300\346>\017\311\032?\366\214\017?FX\325>[\311\273>\362\241A>\301\305Z?&/0?w\331\025?\0170\335>YnI?\225I\016>mV\\?\026\2738?zL\032?\251\317Y<a\375\243>_\350m>Kp\n?\354ue>\\|\310>\332\005W?z{\255>h\035\366><\203^?\245\321\365>\003\247\003?\262T\307>E\177\016<\342\002\345>\211\253.?\347\013\262>\212\2211>\276\235\007?\007\010\205>\314z\025?]\237\373<\377\276*?\326\3052?\252\233*>)\357\337>@\226\257>x\274[>\207x\001?\313N\204>\260\312B=\355\205\316>7\347\013?Bu(?\375\300\272>\221\354\023>\231\245\224>\376{\"?Z\320V?C\032I?\272\264y?\227\273\312=\261=\017?\273\224O?q\225,?\270E]?\251\367l?\3158M?\243*\274>\343\335M?\037gD?\310\323\352>Uyl>\311\262v?\026k\261>\'\342\341>\217\276\342<\253\353c?J\377\316>\262V\247>\226\240\003?$T\222>NuJ?\325X\006?\'\023x?Q|x?F\272\214>\236=R?\363\013\016>)\255]?!\364B?\\\271y?\214k5?\310\0144?\227S\034?\345\034\346>\247\022:?\277\212+??[p?K\022\031>\254\254\323>\341\325\254=\356TE?\316r\242>nB\301>\031\n\217> \265U?\2517b>L\030\004?\035\017\026=\276[\336=*|:?~\244_?h\264[?\352\275\035?\364}j?\205\362\002>\276TF?\236:\232>Hr\260>\242\333\247>\346\203\311<K\007i?~XM?\242+\031>\026_S?A\020!?\352f\016?T\026\202> \033\004?\257<J?x\341\227<r\232\023?\352\262r?\276$1?\356| ?\310JA?\213\344+>?\033<?\332-(?8z0=Us\031?\2320S?\020;u?\374\002\207==\224\227>\230\023l?\230\251T?\337\350N?\027\310\227>\375\243F>\265\360G? \034K>\242\213~?\227NP>\300\314\024?\013y0<\203\nd?\342^M?3j\177?@\336X?csA?{\344k>,>\305=\361j\t?N+\367<:\210\031?\234 \253>J\036C>\3477\364>\31546?VvD?\021Fz?C\260\003?\376n\374>\375\371\n?\336\021\275>\210p]?\244\253\230>\303@\376=\361\321\000?_\2346?\306A\037>3`|?\236Y\334>\323`\356>\322\343O?\260\200\307>`\311\r?\'\264O?\r<>=\214\374u?sr\031?/ci?\336[\026?Q\010\367>\331XJ?($\352>\260\256\010>\231=\212=\036\0032?/\216\355=i\317\263>\231\240\017?\347\201\177?f5\326=\3646\002?\211\255\212=\257 u?\224\035\360=\177i\037>\370g\204>#\273\310=/\261\226>\264\324\253>\017\250x?\343U\032?8\241^>Y\314\231>\234\366\032?r\200`?\3128\007>\373\020u?\342\271+?\362\306+>\25397?\321\'$?kD\235>\213\3439?M\356e=\036V\213>\315}k;;\267S>/\033g?G\336.?\372\370\340>\253+n?\231C\253>\312\345\267>\340\323\327<\231\247)?:\376\220>\r\315v?\330\264:?W\2675>\025\244\214>\364\263i>\375aR>\320d;=\334\213\022?\212n\013?\337H\t>C\272\317>e\206&?0\\+?*,\350>\206:y?JD\303>\237\327\234>\272y{?\206\n\362>\215\016\366>o\340\237>\230\017E?\307]\031?\014\032y?M%\017?\322\275k?N\324\314>b+\037>\203}\n>B\373\007?\252(P>@m8?y1q? \021\357>\340%4?\355\363\326>\360HJ?\004\344\035?=\347@?\267\'\226>\215\214\362>\362$Z?C?\374>\323\375!=\347\247O>\214\213z?\201\305\372>1%\304>\372\264\260=\241U!?\002HZ?\367q\273>\333\2139?\342\341\033?ug@=H\023\020?2\273\023?\312\224}?\010\301:?I\t\345>m\213\226<\224Kk?\307\326\217<\363=\307>]\346T?\0211]?\r\226\357>@^\241>y\221h?S\243+>\222\224\361=\311\346\017?\257\3047>"
      }
    }
  }
}
node {
  name: "Const_2"
  op: "Const"
  device: "/device:CPU:0"
  attr {
    key: "_output_shapes"
    value {
      list {
        shape {
          dim {
            size: 1000
          }
          dim {
            size: 1
          }
        }
      }
    }
  }
  attr {
    key: "dtype"
    value {
      type: DT_FLOAT
    }
  }
  attr {
    key: "value"
    value {
      tensor {
        dtype: DT_FLOAT
        tensor_shape {
          dim {
            size: 1000
          }
          dim {
            size: 1
          }
        }
        tensor_content: "J\311S@\311v\210@q\377\217@\265\027\215@j\266S@\366>L@\345\255\204@\364\224(@\205\327\261@\211\022\304@\306V8@\020\327%@\026\226\013@e\217\334>\373+\213@\303\025\236@3\253\215@\177\351d@\022\017>@\025\201\260@\022\331-@\224\322\220@\244\036\246@\263\017\230@\031\217\210@\241P(@\224\233.?\264T\240@\276]M?\031\342\013@\210\t\254?Y\032\"?\317\276\305?\347\267V@\205\201\267@ \300\214@\200\244\347?\351~\234@ERv@\027\313\217@\262\313\304@\376b\253@\327\213\307@\252\221??M\372\264@\310.\332?\265.\303>\351\020\266@`K\217@E1J@{4Q?\2247#@\n#\270@}\240\325>\036\3747>\266\210f@5m\211@6[\210@\252\217\367?_\303\217@^\330\245?\315B\t?\260\313\203@`g~>\265I\t@8\244\250@c\331\302@\005V\215@\264\206n@i\215$@\321[9?\276\205\304?\363mT@\205J\243@\016\234\217@\275\334\270@r\340\236@c\225\034=\353e|@C\332\255?\222\023\234=\215\"r@<\346\001>\030\340\245@+q\210@\200\371\007?\224\333\205@\335\330$@d\3556@\320\210>@/x\246@y\276\023@3()@\361-\264@Z\276B@\325\364\354?\246\331\233?\303\2270@\007\321]?\330\202h@\333\370\204?\312\364#@\265\234\243@g\023\031>\341\252\231?\213\373\023?\016\211\233@\371\363\264?,\325\262@$6\266@\033\374e?\270-\217@?\327`>M\313\213?X\232\005@\255`\234@6\305-?\267\306\277@j!l@2\342\205@J\312j>i\373\303=\177F\257@iza@M\220\031@1\252|@(\036<@\260;5@do\310@\330\320\250@_\227\303>\251\362\\@\0364\036@\321\341K@\3667\r@;\027\205@\271X\306@\363\325\342?$F~@P\360\306@\353\362\253@e\227\251?M\327E>\364\022W?\003\327\210@\351N{?\341&\351?HC\013?\352.\000@\361\346\031@\373K\303@\"\222\235?\255\373\266@\231@-@z\207\257@n\273\266@\362JO?\'\225O@\207\354%@y]\221@:\014\201@\330\361\232?\230\353%@\376\261\313?\363BP>\\\332\337?\356\224Z@\206\340\206@Z\304\210@\225\351\005@\2049\273@\277\353\274@s?w@\310\323\230?\247kD@\310\225f@\210/\225?\346. =\253\350\241@\024\312\247@\374A\231@\353k\357?\362~\246?$+\237@()\253@\333\300Y@\302\254\232@\021\372M?,\271\303@\306\177\257@h\314|@5\376\360>@\215\001?S\253c@@\034C@\267\235&@3\036\207@]\240\005@\306-Y><\3714:\203\271p@\323 \223@|t\036@\261\r\025?I\255\242?\274\326>>\374\214\254@y?\220@j\277A@\211\355\260?\366\270\'@\325\376\241@%O5@\374a\212?g\352\030@eC\307@\367-\025@r\247\016@s9\332?\233\300Z@\375Z\261>\201\365!@s\200j?Ae{@\254\302\213@\267\370#@7\277\375=\375\377\270?\376<\013@P\"\303@igf@\233\274\215@2\026*@\007\027\230@y\263\270@|\007\243@\355\233\222@.2\217@\277\301\200@\311\353\233@\007\255\343?]\375\232@\304o7@\256\354\260@\372.\272?)%\277@\321\375\212@\001ep@m\210\241>\361Y*@\016\260\273@\213\241\207@U\246\254>\235\255\267@\224\322\364?\372v\024@\331W\247@\331X\222@wB\206@h\322T@X\317\202@W\217+@!G\224?\272W\241?\362\226\245@>\350\374>\230\301\326<\373p\270@\326h;@\301\317\301@\225D\233@\024\276\367>\230\"{@\362J\255?\002X<?\327i\241@\005\3319@\330\325\230?\231NR?\330X\253@B\273\002@\267R\256@\245vk@x\310\024@\314.-@\205\373\016?\322P\006@\277\033\350?\312D\260@=\236>? \256\277@Yg\026@\013\312\033@S\233\254@\014XM@4a\357<\355\235\236?X\026\022@.m\216@\241\301\256?\370\245\253@\234N\210@8[\224@\016\270\361?\037\027\250@\222\331\274@W:\302?>\243\262@J8<@=\245\336?\351f\215@\354I\010@\227q\222?\311\010\032@m\324\350>~\272(@\233\247\266@V\036\217@\036\230H@\377Z\234?\r:\206>D\016\023@P\0351@Lt\275?\314\334\213@B4M?d\330\364?\316\266\005@U\251A@\253\234\221@^\225\276@t\301\306@>\227D@\005\373\271@\217R\300?A\025\316?h\003\261@[s\306@\211\2447<\263nF@\306+\223@a\003I@\000\300\005@ZID@\240\223R@\306\016\311@\256\333\270@rp\023@\\\374\003@\325\204\263@)\265\177@Z\316\200?\322w\300@\333V\226@!\365v@W\030\217@\376\3769=\330\332(@?B\224@\241I\307@F\025\261=R\022\332?\334\032\240@^\221\264@(\026~@+m\016@j\377\212@\303\2518?\003c\206@\035\023\276?\336v\223@\210B\242@\'\347\223@.)\242@\357\360\234@7?\215@\356\010\307@\210\260\013@M\246\217?gbo@\206nO@v\034\206@G2l@j\204V@_\006e@\263\007\252@Qb\207@\233`\334?]\r\342?\253j\275?]\342\217@c\272\305@\020\314\235@\363\314\017? :\261@\376\010\235@\335}\340?\200`j@\366\351\200@-(\246@%\3469@\023\334\335>\nh\301@\312\274\273?L\301\265@|\274\032@\375\002\213@+\272\203@G\361\247@Z\032\300?^-5@_\326v@\340\240:@\035\301\247@\347a\227?q^\210@lB\351>]d\034@\366\031\224@\034\340I?\301-\211@\203N\247>U\210J@\277i>@\325O\222?\234\203\253@S\221\375>;\231\200?\024\367\221@\221\213O@\020\303+?\305h\033@\247\035x@\334u\244@\322n#@\215\325\020@\346}\n?\350\244\305@\007\204\235@\252\252Z>Y}\207>\257\320e@^\241j?\312\273\266@\004Rk@\304\3727@\214\372\030@fc\235@\311\222J?\n\034\223@:\341\373?]8I?DJ\220@u\201\246@\350\310u@\333\222\252@\205J\255?>\2645@\177\217\207@=uj?4E\r@\341\2309@\223\027\023@\305\313\260@\246v\205@* X@o{s=\033\205\204?c\234\241?\262\204p@\020\323\367?\271\016\204@\033\177\307?\327^\017@\310\354\247?\367\316\234@.\233\245@xM\212?X\234\303@\026\022\"@\025n\203@<\003\271?\014\036\273@\006\225\325?\362\204b?\341\333\266@Pty@\346\245\232@\316\321\206>l\373F?\366\260\253?\031\304\033@\300!\205?\031\220i?\222o\246@U\024\200@t\227\013>e\260\245?6js?\247\261\227@\335\277\227?\205\311z@\357\321\351?\032z\311>;\3459?\331\350\254?n\2458@\377$\257@\273k\262?\004\226\302?\231\343\357?0P6?i\317\026?;\267\036@rLb@\272\352\243?\340q\206@\341\0215@\030R\277@W\327\235@\331\306\227@\2119%?\340;\307@1\351\247@b\341\304@\321\2349@\206\010\024@a\363\037@4\356\013@_\343\311?\0317Q@\273Qd@_)\203@\003*\350?\332WA@\332}\270@\260\353\344?\351\262p@\257(b@\233`0@\365\306\006>\331\032\356=\3661\370>2\013\351?+d\266@\326x\\@\021\256\215@8\002\221@K\364\304@\360)\320?\331\027\216@\317\365\270@\3479\253@\365m-@\326\242H>\2372\230@\303\020\004@\311\220\262?\236\020(@\236\267\231?\372:r=\024\004\242@`\343\266@Pg\255@4#\211@f\304\307?\246_c@N/\251@\031\214\247@\246\213\226?\300\321\336?\247Z\270@N\301t>\331\310\217@\223\014\212?\346\234y@\356\322\255@\355b\235@d\034\346>\362\3032@)\nd@\305@/?~\202\326?\334\277w@y\331}@\305\256\215@\231\232\024@DN\354?\0359\024@\357\221@@0\007\n@R\263g@\003\331\245@e:\306@\237\204\214@4\350r@\267\313]?Z\202i@\025K\273@\326\266?@\003:\261@3kB@]\304d@\025\037\264@o\237J@g\266,@C\352\274?\347\027,@\001\271\216>t\270\005@\273\244\307@\270)(?BW\217@t\"\r@\244\013\243@F\243\237@aU+@\312\302\251>\370Z\231@\237wk@\370,\264@\023\006\340?\254\005\027@/W\260?z\004e@\222\301\304@\320\205H@\307)I@\264\226\006@\210jr?k\333\216@\202\326\024@\266\326\275@dU\200@B\035\266@\351\310\020@|\264\254@\360}\275@\332\274\000@\001\360\307?\032v\233@\301&\276?OX2@\227\206\203@\232\351R>\361\014d@O`\327?v\376\234@~\260\026@\005\254\226@i8\254>\261w\267?\273z@@\2613\222@\200=\211?\200\357\202@\216\226\206@\231\347\365>\242\255\236@\315\310*>\356\033\202@8\367\211=\213\340\212@\270\304\351?f\302]@\267\034\376?\246\221\235?\n\253\245@\206\263\252>eg\310?jB\303@9o\034@\203\200\305@\021F\000>\351\234\022@n\263\262@\'\034\034>%\034\272?3\010\004?\316\304\273@\016\004\327?\217%\201?\334Z\254@\013\263\217@LA\300@/p\014@G\255\235?\324\332\263@Uy\225@\215\177\276@\315\326\001@Y6\231@n\225\257@\034;\240?\024D\207@\265#\254@\005`5?\246\206\310?\r%3@Y\t\016@\343v9@3T\212@{\355\227@\331z\246@|\232\340?\377\t\226@\355Fg?6*\264@\010d\342?\005B0@\366]\n@d\210\240>\365*\236@\273m\005@\007\242\301@+\277\341?\250\001\205?\235\243\036@5\335\212@u\237\300@`;\356>Ik\243@=k\307@\201~\242@\306\177B@[\203\265?\303\226u@\263\263c@\231\352\217@QK\267@\031nP@N\245A@\rJ\256?\325\033L@\204\252\263@p9\034@(G\270>\021\333\010@c\372\265@\330\337\233?\205\223K@\353k\006@T\220\236@\253\226\234?\345\020\206@U\343\372>\302q\341?U\316\341?\244\371\014@{\037\214@D\327\233?l<\224@\004|2@_\036N?\0142\220@\215S6@\267w\205=\315P\306?\360^\217@\337\204\277@\374\003\267@\036\265\245@D\014\232?\224\260\254>p\237\220@,\243\233@\334a\201@\375b\030@\035\021\242@\332\360I@\360!\234?\034\231\224@\247\n\305@\250\326\305@\035\224\216@\004U >3\202\002@\216@\303@\007\276$@$,\333?\0143\310@\t\273\224?\344\255Q@\234\222\254@\023\320\322?\214\324\250@K\273\251?\373\010\301@\256%\206@\315A^@\251XV@dF\315?e\217\306@\311\233\t@\3505\274@\272\331\007?\370\034\305@\276\356\214@\3100\216@e3J@\231g\226@+.\343?\177\3174@P{e?Y\326\241@\305\373\245@\r\203\317?\244S_?;\304\000?}\317\250@\200\276]@\003\351\223@\264\'`@x\302s@\366Z\334?A!\017@\273\177\215@\260\032\256?\345\265b@0\241C@\217\271(@\362\331G@\344m\206?\377\374|@X\232\255@\377\201\212>\361\372\260@\276}\002@W\n8=97U?ZlH@\257l\270@\244\234v?\001(\233?j6\260>\231\031\375?\311\221\234@<\t\373?\014\036r?&\031\247@=\232\033@\346\2112@v\242\237@\034\303\206@\330\303\004?_Y\247@D\260\272?\200^y@h\207\231@\371^\255@\266 \236@W&\035@\n3\202?\2317\222@\306\363\262>U\013\223?r3\270@4(L?*\203\206@\212\254\264@nWE@\222\321\222>\236\235g@\027\365\252@\316\010\361=*\265h@\374 \007@%-\217?\376\321\200@F\365\222?\316>\250@\247\n\306@\212\314\204?\244kz@^\243\205?\221\263\216@\322_\246@\353)y?\214\'\206@\2719\207@\306\262#@\224\217\035@4\345Z?I\372\001@\317\356\366>p\352\270@\036\315W@)1\007?\357`\027@\261s\215@\037\340\230@=\340\240@O\017\226@\363\245\207@\262\231\227@z\024\332?K\272\210@\013\211}?}\003\265@ZNv@\275\263\246@#\t\\>\002\215\367=\034\217\233@9Y\035@Se\311>\252I\225@\215\350\223@\354\200\362?$\235\000@\225$6@\224+\252@WI\224@\276b\226@\313\000\220@\255,\010@\350\351v?vo\261@9Y\251@\356\276<>\321r\017@\356>\032?\341+\261=2\255\340>\226\"\251@\206\177\220@M\251\275@V\222\016<\235\376a?&\022\241@\344\367\311?\324\272\200@\310\234\244@\356C+?\024G\000?\014\010\016>\334\311M@q\337\243@\004\320\211@O@\206?7%i@d\021\246@\003\244\236@u\272\235@\254\376\310@\213\214\224@b`\035@\211\311\032@\032\202\243@]\036c@%\024\255?\2344\221@\257\017\220>\330jk?\221C\'@\020\222\347>r\217Y?\350\276\260@Gf\t>\262]\r@\253n\272@K:b@\367\026\221@\342\225\252?i\237x@s*\272@\256)\030?Vt\327?\220\200\257@\t\326\217@\316W\324?1)\006@P\351\275@\351\266\306@\001\301\252?\252\217\367>\217B\266@1\362\\@3\344\255?\312C\207@I\210\220@\376l\304@:\302x@\245\207j@\326\366\272@\005\335\021@A\341<@\327\n\265@d~\242?=/y@\253O#?\300\034o@\342 \215?\246\300\307@\024\320t@\032\277\027@\026\324\213@{\323\277@\362\366\240? C\303@"
      }
    }
  }
}
node {
  name: "Const_3"
  op: "Const"
  device: "/device:CPU:0"
  attr {
    key: "_output_shapes"
    value {
      list {
        shape {
          dim {
            size: 1000
          }
          dim {
            size: 1
          }
        }
      }
    }
  }
  attr {
    key: "dtype"
    value {
      type: DT_FLOAT
    }
  }
  attr {
    key: "value"
    value {
      tensor {
        dtype: DT_FLOAT
        tensor_shape {
          dim {
            size: 1000
          }
          dim {
            size: 1
          }
        }
        tensor_content: "d06?F|P?\013-W>y\300\2309U6\206>\020\203\226>\334\227[?Rd/?\333Z\206>9\'\005?\032.T?f\002\014?\306\2041?\366]1?\265\333\005?\023\302=?$A\025?}Y\326>\016\307\234>\236\364r>\343\373!?\013\345\304=\004\252\017?\370\033g>\304cH?P\020\022?V3\017??O1>\265V\006?\010\330}?\225\335\006?\214\256\305>{\266\237>\372\232r?I\327\r?\377-d?O8X>\322\204\242>ggi?\007pv>\206\235U>\342\377C?\354\314=?\341\261u?\030 \324>\265\271\316>,\324\244>\037pX?\343\017\025?\374\320\276>f\241y?T\204t?dL\316=\021\\D?\306kE?\310\032\325=\266\r\022?\315\n\035?`\006$?\344X\323>\237\240-?\353\024\341=\026\372G?\205_\336>\206\212\244=x\304\013?1x\303=}\026(?\014 \245>\367\322<?S\366\231>q\231\277>\t\177\017=a\354\035?_\244\331>\211\215\355>0\001Q=\262i\240=\350\265\273>\270P\006=*\224I>\235Y\004?\313\226\346=#1g?\340\357\376>4\367G?#\332&?\344\374.>\311\3377?z\025Q?\201\350*>@\003z>\2206\367>\204\035\277=:\004\235>\275\373\207>f\301??\207n\007?&bk?\204\221u?\344Np>\374o\024?\352<X?\253Z\214>\261\221A?/_\311>\035\254e>\334\360\243>\252&y?\217xa?\351\2214?\026\216F>\254\257\023?\n\007\223=\204[\321>\300?)? {p>\2447\237=a ~?\357k\352>\316\014\376>?v\307>\336\3133?\2108\245>o\274\r>\004\371!?\261J<?-`v?F\265\010?\027\270C?\377\247\273=\tR\032>\243\203_?\202m\272=\022|O=h\301+>\222+d>(\216i?\327\305\357>\367\246\027?\265\030u?\030_]?\337\2653?2\262\031?\320.\264>w\006\255>\017\002\026>EV\024?k\360H?\235\365\017?JF9?\371G_?\316\300\224>\006\033T?x\321\007?\246\352D?g4n?\246U\331>\262_\022>@\320b?\023\314\004>\362Lf?\231\202\030?\032\'M>\210Cb?\201\277\333>#\227\204>X\007i?-B)?\317V\221>e\351O?W\234K?\251\201=>w\214\204<\'\007.>\022fp>\2530o?c\357\034>\335\025\275;SZu>I7\264=\264k\253>\205\210\263>+BQ?K\222\351>t\027\003>\370I$>\374\260\253>9K\362>\300\351\002?\014fC?SD\036?:\004\034>5\336\332=q\347u?\314=\334>\337\313\375>m\233l?\\yl?\330+6?\375[p?V\275\004?\"_N?(\t\324>\321\037u?H\346\002>\\\303\314>\341~-?KK\377>\032\310\307>\001c\006?2\210\034?\362\361C?]\237\016?\013V\346>\3638\213<\273H#>\352\333D?\373\266\273>\256p\010?Sb\240<V\236\267>\344\302.>\340\010\264>\\\365\264>\271!)?\233\213]?\254.\242>/\250\377>*\034e?`jV?\373$n?\274`\301=^KS>\353\364f?:fO>2\2416?\215\376\366=\201cL?Ku\346>>\r|?\272\236\020?\261\003u>i*<?\325\031u?\332\246\333>\276\274\301>\026\315\366>\242<\"?\304\222\351>\004S\270>6\334\025?4Z\201>K\303\177?\376\"\264>\n/R?\217\025#?\t8\031?\220\203\334>\370\235\300>\n\352\024?k\345T?~\252^?\234\331a>7\345\n=\326\301\001?\360\355\343>]\373\036?/w\'?\017\010o>$\315\016?M\007\202>\257\360\322=~GQ?\301>8>\242\270\253<\216\0229?\025\374\367>\013\260\026?\215z\177>;V\366>h\331\357=\306\026\337>\210\214X?\2722\003?D\324H>\353,5>\001\272\002=\224!X?jcb?.\0204?s\367\001?r\3471>\323_\221;\322\217??\376n>>\024cG?P\003\021?\355>i<\235\025\030>Q7)?\227*G?7D\026>\264<I?\270\205(?\251 \340<O,\370>dOJ?bx\216<\365n\037>\315Be?\204e\252>h\340\277>r-\\?\327yn?\013\231W?\010\351\306=\376\301N?\016*I?\025\270j?\301 \253>\241[N?3\372f?\234Xs>\001uU?QLo?\235s2?\202\372\036?,1\021?G\234\237=\351y\316>\300\231\002?\023\241,?\037\320L=va\255>a\256\242>G\221\224=]\277\235>\355\223O>*\310J?\007\2038?\334\"\020?\252\306l?(\033\206>^\2564?\214\262\222>h\037>>\0375Y?\204\\\204>\000p\224>\314\277F?7\233A?o\301\020?W\256\353>\253\307(?QAj?\250<@?z\234\366;\037\377\331=\'\'n?\335\030_?]\024\362>\rZg?p\243\013?\345\335\001?\245\332o?V\223d?\026\\h?C\206\251>\356\004\014?{\303t?\004\363\017?\013/\202>\274s2?\350\006\024>\352\271\027?\266\017;>\366\321>>\214h\004?lE+?\372\204\317>\253\243\030>\'\014<?\207\r\372=\026\360\314>\275\177x?\215`^?\320\267,?Z\364)?\371&X>\266\356\031?&.\022>\006\006\341>\233\0300?\3416O>\000\033{=\\5\335>\277\326n?\200`\234>8\262\207>\334cl?\000a%?K\310c?\347\225\264>\364\243\022>\025\002;?F\243\364>G \031>\270\276G?]\335\207>\234\327\005?\324\006[?\351;\034?I\206P?{\t\343=\304+\262>U_i?\266\210\177>\033V\007?G\t;?\220\202\034?\327\363!?}\3401?\303\352\026?YQ$>\357tG?\376\343y?g\212\332>\014\265Q?\210ge?b\273z?\001\206\010?\360\254\353>`\254N>\3420c?16@?\353U\235=\rbf?C\342`=e\332i>J!,?k\345\"?\026\273\343=\361n{?T^x?\2135C?\020M\r?\032\312S?U\"n>*H\271>\344\250I?k\3407>\t\355)=k>\014?\2766\032?n\375\221=\347\336J?\352\365\177?\245RB?\302\002\360>o\353n?\267\377?>\027\'\016?~{R?\253\214N?4P\323>+cq?\343\336c?\277\316\n?h\r\031>\347\237\236=\215\n\365=\020\255G?\212z!?\351\355C=\307\311G?KBz?\n?W?\242\214s?\254\350\032?\306\031\270=\221\303.?\256\0138?1\272\036>\266\036\032?\350\330f?\331N\004?S\351*>\247:\274>\220\227\267<\272G\353=\222$\031>\036z$?\212\033@?12#?\322\242\307=q\352;?\313-\n>D\272\007?\212d$?\230\374!?4Yx?\332Ms?yw0?y\357O?\325|\261=\310\007\026?\353\0262?\002\300\013?\2164~>\021\370\006?\377\341|>.Z\200>052?\247g\"=\241\205`?\241\356-?\006\355\314>\336z`?\373\210\233=\243\346\212>\326\2619?\345\346r?\357\221\243>\377\022\356>?\217\301>\276\205Y>\376\241\n?\256\267\273>\002|\332>\335\340\027>\212\212\n?\221\311T?\222\t\366>{\223\325>\005\027Z?\017aW?\0100\340=\314_\237>\263,!>\340\341\022?\022\363H?\345f]?\330V,?\317\263W?\364K\231>\215G!?Yi\036?\354o\036?\3305\325>-\242\000?\276\310\026?5\300\014??\203{?u}\244>\375\262B?\032\201\177?\377\363u?\"\312\223>\025\r{?\257#\243>M\344{=u\254V?\240\302\260>\002-\360>\256\3531?\300Gi?ow\266>\310o\350>b9\0307!\007]?i\372\365>C\177\257=v\037\224=\251\020T?\340}y>\321\367\027?$\240\021?\024Dj?\266p\027?\001M\027?\230:\002?\232\376[>\377\214W?\313][?)\227@?\350\321\217>\210\313t>\251\030/?v\345R>\261\347\023>I\225f?.\226\021?|\033\365>\246s\337>\375\331\331>\377\n\031>\272\317h?\034\007U?\206\254\023?\217e\023;\257\016\336>\261\305\020?\314\237\001><\224\371>\t!\000?e\332e?\024iJ>JO\314>\235,\264<\372g&?\253\330I?\236bs?\"90?\372\207\206>\317\2619>\235\n:?)\304\214;_\204\r?\273\002.>\276\014W=\0045\201>\377n\\?\307#r>\345\022/?\374\240b>\274\'g:\320\256\036?\255\372\270>\376\321_?\344r\177>\2316\036?\266\322\030>\305\031\313><TI?\313\3022?-\256*?&\327\333>\016\236l?\200\362\032?\004\334I>\346\265#?\222!z>\013Q\260>)\2270?\326\356\244>=:\036?s\204(?f\263\255>*\325O?\037\026\334>\345o\371>x^\224=\334~\"?\240\311z<~\240\250>\354((?\257\\\030?zZ\037?\035\377\034?\242\312\341=wRZ?=!E>\235\340\003>-V\017?n\213\265;\351\220~>\025&$?L4\252>\023\203q=.{p?%\rt?\306\344\035?\372\001\025>\3046f=\263\214b>*\271\006?\215\331V>\232O\204>\302#R?\346_\316>\261\252Z?\231\021\032?iI\271>\307\377\220>|\206O?j\211U?6\313\267>\323:\267>i\214\266>\240z,?\200\210\372>\220\324&>5LT?D\323E?\306F\335>G\261\000>T\367\367>\3171m?\347\234\214>\032\312n?`\364\366>\234\203b?A\022\301>\237|\340>\220\263\032?l5O?p=F=\225*=?\225z\370>\256\033\266<\323\217\331>.\340m?\236\337T?\227\260r>w\263!?>`\252>\365TN>\264fT?\325(u?\266\334\020?\357\327\032?u\024\234>\221\256c?s\004\026?\234\203\366>\227\271*?\212\'\314>\334\376r?\316\237!?\353\0029?\216^a>\024\031\004?\233\361\205>L\216\177=<\240\210>\344\274\004?:\222\302>\215L\321=\311\330\025?\343\323\007>_,%?\307\354\242>\000\324|?\237H\315>\353\027-?\375*\321=<\254t?\323-\251>\t\nY?D\303+?\205_v>\366/g?y\006Z>Bsx?\237\355p>T\255S?f:v?\375\231\242>}\005\\?\r\330$>\255\352\000?\255\356\020?\rH\360>\216\224\221>:O\305>\347\024i>\304!4?\323J\255>\354k\372>\312\252\260>\202\373\273=\253\266\225=\034\\\007?-\275\001?>\271%?f\223\356>!\340\002?\236\0258? \276\304=N\336\314>{\002\006>l\366\r?\301=\034?\371\277E>\037WB?@\300+>\3152\377>\000SB?\304\332\243>\366\322>?e\3635?s$\210=l\301n?\205_~?Q\210\342>\273cV?\263\034\304<X\2344>\222\260\024=\2531c?.\037\003?\353Q7?\224\325\365>\036\021l?\314\177@?&\306\366>\327\261\022?f\001\021?\334\357w>\250.\207=*6\002?K\\f?\236\371\t?\301\027\205>t\211\030=IM)?\256\037\037>\211r\264=^\234*?G\214\254>\367\353(?\2652\323>\023\312\244=?k\242>\316K*>\344\230|=\020aS=\021\"\000?\312\232\224>|\3225?\215hc?Q\224B?c\034\003?b\337E>A<\207=\332\310\004?\035\324\327>\254\351\330=\201?/>\317\275d?\\\t\304>+MK?\027\024\007?\261(\r?*\275??`q\253>\341\217\241>\t\007\022?Iu\355>\036Zu?\022\354\030>\317\3430??\340\016>\256b\364>-<\031?\203\377\014>=\007|?\263q0?\036 !?\3514\236=\207\367\\?:\031v?\316\352\355=}\237\225>[\215h=x\232\023?H\322\307>\2013\373>\n\277-?ANe?ul\377>\003db?\336\'\023=\271\367A?lR\227>\251OX?\370\224e?n\237\304>\244\234\">\334\214n?\343\357~?\267\332K?\215(\317>\263\030n?\tA\200>T\375P?a\204\007>\033|,?\t\270F?Y\026\224>\002)p>\275/x?\354\241\313>V\331\245<+\251\227=\347;\227>\302\325M?\200\275.?\377\302\003?\314za?\333\016$>\241\030\213=\267\322\212>\311\375W>m\200k>\'\375}?r\025\034?b\0003?\334{A?*\226Q?7\324\014?\274\230\240>\313\364\222=\2369\241><\237\275>\242\236\220>S\306\033?\330S\206>C\016\013=aA7?\261!J?\204\210Q?s\036f?/u/?\201\276\004?3\000\317>\030\334\351=\225\312\022?Se\346>\207\363N?\347\223\235>k\226,>\357\337Q>\216!^?\233\316I?c\225{?\201D(>\324v`?\177te?\262\331\334>\341Z\323>#\373\013?\260\205\017?\367\336\211=z\335 ?\216$8?\347p5?\353\260\005?\277\272^?\234\345\332>\351\362+?\376\352\240>0\026q>\312C\323>ym\206=\320\023W?\303O\275>\3407\235>\004CM?t\240\350>\236\221\331>\0201m>\204\364\236>\232a(>\334\022\217>\251\252\034?\275:\\>\034\014\"?\356\244\322=\245\2258?Yw}>\001ea=\234\303\t?\017\354\361=\237\271$?\200?\255<p\314e?\231<W?\241\307\301=\300T\306> \031\321<\373\2108>1\307\'?\031I%>T\360R?7V\"?\215w\'=\337+8?=\034V?\007\021\354>zA\r?\326\373m>Y\005 ?\303~#>4\325\257>\ny\204>\0141\255>\2240\251>\325\024\034?"
      }
    }
  }
}
node {
  name: "Const_4"
  op: "Const"
  device: "/device:CPU:0"
  attr {
    key: "_output_shapes"
    value {
      list {
        shape {
          dim {
            size: 1000
          }
          dim {
            size: 1
          }
        }
      }
    }
  }
  attr {
    key: "dtype"
    value {
      type: DT_FLOAT
    }
  }
  attr {
    key: "value"
    value {
      tensor {
        dtype: DT_FLOAT
        tensor_shape {
          dim {
            size: 1000
          }
          dim {
            size: 1
          }
        }
        tensor_content: "\225\212\273:\202m\347?t\372\266@C\341\200@\275\277\237@\265\030\375?r\251\242?tV\"@\275\004\274@\275\350\250@<\320~@`\341\025@\342{\221@\001\352\013@\356f\264@c\tq@r\370\031?kd\217@\211I\232?\215\037n@\2519\231?\333\0008@\037\202\212?\257\354\323?\3720\\@J\223g@S\306\001@\303t\206@;\327\373?\250\221\257?\247Y{@w\033\001>\260\243\243@\001\210?@\365\306\265@\320\260\225@+\020\256>G\270\260@JI\324?\337\324\200@.\216\250@\030pO@$\270\256@V\232S@\020\t\215@\226T\244@\245\337\250?\210\237\016@5\261\003@~%\264@\322T\213@Z\256U>u>\033@Y\352\211@\0274\356?\363\n\272@\330\301Y?\277\006\205?k\007\303@\220\233\037@\210rM@\220\266\307>\2518\255@$j\267?+u\231@\372\201\370?\203;\302@\264h\372?\020\303\r@\215\236\254?(L\270?x\323\304@m\222v@\327J\031@\325\026\255@\210\344|?\366%\275@\377\314#@\330\001z@\246I\275@<\014\002@>\260\001@\3623\372?6\207\271@Z\375M@\\\rP@R\266#@\013\003\240@\304&\177>6_\267@0\377\222?\020)\312?,\230\251@\325\0040?8\\\371?(%\256@\026\310\251@\213\253\242?\006\312\014?\260^\237@`F\232@\222\224\272>Cs\335>\005^\302@\220/*@R\300\324?\312\363\032@\370gX@\303\376\227>\014\036\346?\237\317\033=\3050\255?\tAn@\360\247\373?\200`\341?$D\227@\217\372C@\203d\264@)tB@\241\227\237?ZRE@\235\222\206@w!\210@\362\370\274@ \325\320?X4{@\000\341d@\001\250\201@\027\220#@\206\003\376<\013\244\024@U\r\264@\250\325\213@Ds\207@|\364\354?}9\236@\240\220\232@qI\315?\264\254\252@\254)\237@M\nO@\216\004\204@S\222O>\305\240+@=z\\@\025*\240@\001j\301@\227\215\234?\313\021\307@y?D@\3717\217@\005\344\255>\231\234\257@\240\261\'@\255y\352>\243\344&@\245\227r@M\\\202@\352O\303@;\232\223@\014P_@lL\256?\030\327L@\215i[?\345\251E@\214\027\236@\025\007!@!\275\022?\242\230\242@\214\217\204@\002\3636@\2149\344?\276\332\300@t\356\262@gs\314?w\264\222@\341?Z>)\315\317?\337\234\252@\'LK@\366\021\244@\262\014\362?\024\224-@rl\227?\341b\377=6\215\353;\027\255\237@W\310\354?\370s\210@\376s\020@\316\305\327?eY\223?\257\036\302@\361v,@n\337\310@\351\"\261@D\351\200@\241\371\304?\303\216\201@Q\2753@\006\306l=\274\000\034@\303\325\014@\266Z==\354\326\256@\005\022\220@?\t\303@\022\306d@\036\247\367?\021\243\216@\260\2037@\016\026w?\3579\261@\260?\244?\017\231\000@\020r\221?\322;P?\361\341\310@\314\203\274@>\364\224?\177\224\000@F4\250@Zd\021><\340\213@\005\201\214?n\244\010@\n\233\265@\253\t\250@ \222 @\031@\276@U\361X=\307Ci@\360\260\274?;P\200@\034Q\001@\266yq@\315\245\251@/V\204>\n\340S@\201\331\242=\354\325c@\352\245\214@\032\354\253>t\373%@%\324\262?\300\241c?\252\025/@\216\305\310@c\006A@\257\210S@\005\251\334?\225\006~@N\031\346?\022\313\021>\243\005\213@\224g\244@o/\312?\367CC?Y\371~@\245\332l@\376\304X@W\246\017@K\332\216?)\311k@WxQ@2\200\240@\035\263B@@\355\232@\026s\245=l\333\266@\223\024\274@\272\254\337?N\034\260?\263\266\337?SS\345?+A\302@c\322\030@)\322\226@\323#\272@\2358\020@\375\235P@\334^\221@\346\024\237@\377\216\267@n\242\317>\303\032\232>\036\313\031?\230.\304?\026\007.@\022>G@\260\215\351?\031\271\026@\311\205\013@3\334\305@h\003\366?i!\262?\376\360\210@\213\214\357?\375X^@\206!\243@\350\205\266?\262*\327?\213\366\310?;\307\273@M\260\222@G\336\275@v\251\266@\344G\203@/c\365?k\222\200@\rN\205@\000dC?\260?h@\254\225\271@H\256\361?vYf@\322I\275@\276\353\202?h\356/=\321\210q@l/x@8\025\252@\t\261\266@\374\311\n@\277q\276@IGP@\302\177]?\007T6@\310g\367=\311\204u?\231!\217@\325\353\257?\231V_?\250\254\037@$yy@X\020/>GY\265@+\236%@\325N\223@\336\377\260?.\341\250@\244\205\306@\035\331\300@\247]\204@\224\355\246?\010\250\033@dn\250@Y\nn@+\335\202@\023\327\033@\004\214\r?\207\305B@\227\243\223?lB6>\244\310\266@\347\206\220@\006\251f=\363\000W?\265\236\365?\225,w@\366\356\350?r\336\226>>\336K@p\023\271@\330\337\214>f\007+@\004\360\350>\210e\255@\026\222/@\300]\017@\302<\210@x\334|?bJ\364?\364\335_@\177~\306@\206\321i@\321\201\271@\004\322B>*\n\241@t\353\272@\322^\250@\340\000\227<*&\036@\352\373\031?fy\260?q\016\203@\303\207\204@\000\033\222?-\251(@e\r`@\210)\371?\240p\225?+D\266@\r\032\302@\303\330?@U\311\223?\365\240I@\303\325\206@\273\264\271?\244]s@XU\260?\3152s=]\222K@%\324\245@`\322w@\215\252\\@\276\014\301@%j\306?\245\330h@Ktn@\364\"@?{n\367>\035.,@\"\252\216@\254\255\n@\276\225\023@fj\203@\254\350\270@\207<\310@u\245&@|w?@\376\177\037@7|\037@\342+l@\216L\272@|\350z?\224\325\375>\006\307\276@\271\355\020?\270c\205@\350\235\322?\377\007\310@]\037\354?\305\215\223@\016\320G@r\326\235?\036\261\027@\000^\023>\"\337\246@,\203\004@mt\212>\360\212\002@\263\022\022@A\014M@l\2636@AH\223?\365\020~?V2\014@L\263\376?\\\177\244>\3015%@\225\301\221@d\221\312>*\313\201@\034\305\227>?\224q@V-\302@2R\212@\337\r\303@\245\266I?\202\351\260@\226x\275@\363v\246@\026\367\275?\251\020\000@\204_x@\031\2373@\351\260\203@|\271\t@\001Y\330>?Yj@\337\335\257@\222=\256@`[Z@\355\301\267@9\345,@cX\\@\005\361\310@\246\376\010@*g\245@\002@U?\346\035\242@\021tp@\371,/@~\327<@\013\244\233@e]\247?C\343\255>8\376\033@_\374f@P\245!@|\205\025?]\001y@\031\331\377?\341\251\205?\303T)@f\245\325>\277\375\220@\246L\232?\200qO@G\355\361>\351jY@\337\254K@\365Q6?q\034\022@\037\3360@M\332\240@\3643S@\270\200\000@\004~\260@\237\262\233@Z\242\204@u\025Q@\312{\000@\371\250;@K\035q>\357Bv?\0332>@\206\340\021@r\022Y@AR\240@\367\344\036@\035\227\275>\363\264\313>\332\272@@\340\023\025@\3009\310?\013\300\251@\354{\t?\333\223\020@\305\361u@n\306\225@% u@\275~]>\2365G@\014\203\301@\216\250?@Yc<@\327L\335=H_+?\230\242\240@\204h\226@\215|\231>tp\262@\260c&@HA\251@A \211@C\237+@\336\024\030@\266\350\030@\004\213\300@\227`h?Nw%@\027\356N>DZ\"@=\177\223@FQ\013@\275=\247@\274\370Q=W\267d@\026\311\304@\233\357\304?\322\036\243?k\0031@\037m\372?\240\315 @\355>\331?R+\007@\250A\300@Qx\017?\261N\261@\333\314\273@\242\302\305@ \017\311?\212\226\344?P\255\373?L\020!@\004\352]?\306H\307@Qm\212@\362\245\264@L\013\023@\234\204\277@\251T\256=\320h\302>R\200z@\332aO@\356k\211?N\264\004@\262\313\227@\203dt@f\270\225>\026\305\305@\267\222\361?\352m\352?c\367[@,p\244@\364\304R@/\354\312?H\372\256@/\210\260@\300\315\205@`\215\037@(\032\310@\322\204\003?~\022\236>\216\302#@\277\354m@%\371\343=\247PL@*-\260>:G[>+\350\024@\005\214z@\252\324\247@\352\256\014@c]1@ 1=@\233\006\250@\026\214\242@U\362\232@\207M\207@\211\320\033@\000\350\340?\254\257^@J\014g@\033\346\306@\004 d@\265\000\272@c\307\272@\312\024\233@\2461f@\374\220g@\246\202\004@\216\215\266@OiP@\325\247c@Uw\025@\324\0231?\033\357\310@\203e\t<\206\262\227@k\314\200>~\333o@\327w\375?\310\002\262?\222\025T@\020\245\234?*C\267@\363D\212@\\C\260@\271E\267?\'\202\255@H}h?\'<^>\233\277n?\013\233\226@\207*\262@\232\274\264?6\247+@_\317;@\332\017F@\265Z%?\022\366\271@\260\202\217@\350\332\220>\253\2158@\024\351\271@\346{\023@\021\311l>\376\224\013@\316\245\222@\325\355,@\232\033\275?\355\016S@\235\272\353>\272\274\214@\374h/@\005\361??\207\212x?l\013\013@X`\302@2\177\037@\006>\265>n\353l?\220\014\002@\302\202\000@\026\364W@\034\323V@\n\007\224@\221?b@\352I\005>\027\030c@C\023\221@\001C\225@e\364\362?y\232\261@\033\311\262?!\353\301?\036\035\\@\354\321\256@c\001n@\312\350\216@\233\310\310?\026\303\263@\201\335\346>v\360\016@\t\366\237@R\267\244@\301D\213@\376`7@\001\222\250@\237\003\275?\376\036y>!\203Z@\262\006\247@\321\271g@\257\262\263@\245\226\003@z\375\210@E\036\023?X\207F@\017\317\265@q0\252@\n\003\370?u\r\005@g\031j>`\3203@\341\353\334>\217\020+=hvk?\240w\201>\235P\265@\342\025\031@\372\246\325>\366\302\345>\025\332\371?\324\317\333?.\261\031@/M\307?\275\270\242@p\261\206?\t\324Q@\003\276\261@^a\271@\322N\251@\010\347\024@iA\274?\367\335\250@\312\252\201>T\020d?\0249%@F.\000@?%T@\200I\354?\304J\265@\223i\273@Qo\350?\313\320\300@Cj\306@8\251\277@\203\346\275@\276\331c@\375e\237>g\265\226@\206\370\220@q\035\306@\270<\353?\277\223p@\365qD@\014\021\217@R-\231?\026\253\237@\354|\260@\367\254\361?,(0?\270\337~?\227\375\215@\346\025F@S\311,@\303\037\245>\02549@;3V@\025R+@*\333K@\343\332\224@\036\344\272@\300\003\240=rg\020@\202&\312?/\321\221@\335\266\227@\017[Q@\264\255\356>\357\334\277@\035\004\r@\304O\257@\250\241\003@\023IO@\0300\247>\342Y\213@\310|\007?\370\214\"@\304)\245@\004\373\207@\217c\\>\370\351\247?\'\177\306@1E\306?\327WM@\372\344\306?W\374\203@\252\324q@0\010\266>\222\022\265?V5\037?(\260\025@)kS@\202\211\271@i!Q><\272\025@\210\034K?\243\027\267@P\016\014@\032O\223?+\346\212@kS\253@\315w6@\205}\242@\' \261@\244\027\210@\227\365B@\337\340\350?\232kt>\265\326l@\232\355|?\034\017\206@\367\t~@\264\313p@\351d\274@\310\234_@ok9@F)\026@S$\017?\032\217\277@\027\020\177@Y\206\354?\375\311\177@\350r\300?\321^\365?]gX@\377\3679@\037h\303?\373\276\265@\371\007\177@\271\276\251@\332\000b@\\\231\236@\365\034\225@\022\365\244?G\303\214?l\366\204@\020:\256@\235\210\311?\035\266\354?\007\312,@/\252\277?E\257\237@\020\231\270@~_\210@@\005\231@Fh\010?!5\300@W+\371?f\356\242@\322\270\304@]\315\304@|\274\264>\365\201\227@\0374\t@\252I~@H\305\256@W\rW@\032\2461@t\306\261@t\037\272?\2104\352?n\227\017@\010*[?S\035\217@a\210\374>\372{\237@\240$\245@\037\002\307?\376\272\206>\261\360#?\372\270\313?a\034I@\271\222&?EA\n@\252T\210@\035{\307@-\342\343>\177\010\277@\013\250\226@\203\003c>\201\321x?T\260\364>\266\262\301@\306\315\215@\3133\013@\317\036\017@<\031\030@\247]\270@\007:d@\334\350\273@-\025\353>\177Vx@d\025\242> \302\200>w\030T@bs\237@\363\\\244@\037\262\245@\332\244\375?\352L\022@\004P\323?\250\274\273@\375\000\244?\236\262\253?\236O\222?b\330\342>\343s\270@0\372\234@l\201\302?5\302\225@\244\037\271@5\340|@\342\322\213@\241r\255@V\206\212?}:\032@0\230H@\005^\207?&k\213@m\230j?\261\010\014@\264\0274?k\347\"@\235\027\013?$:A@\203\031p@\245\323\225?\246\367\237@?.\315?\367\346\014@\351\224\220@}c\271@\275\263\212@5Q\234?\356\257\215?\342CR@\336\227\033?\254*\020@s\326\030?\036+\213><Kn@v!\245@\201\024\210@\324\3410@\336\205\304@i\031/?U\233N@3]\205@\217\315H@\354s\240@\353\006\354>OQ\242@\211\314U@\006\375\310@\366\304\345=\365\331\245?\320\372\230?\006x4@k\315k?C\220z?P\347\304@\225x\226@\365\352\277@Y\006\266@\225J\236@\026\274+?g^\035@-\032\342>~!p@\376J<@\266\311\337?\177\267\301=\030\020N@V\013\204@"
      }
    }
  }
}
node {
  name: "Const_5"
  op: "Const"
  device: "/device:CPU:0"
  attr {
    key: "_output_shapes"
    value {
      list {
        shape {
          dim {
            size: 1000
          }
          dim {
            size: 1
          }
        }
      }
    }
  }
  attr {
    key: "dtype"
    value {
      type: DT_FLOAT
    }
  }
  attr {
    key: "value"
    value {
      tensor {
        dtype: DT_FLOAT
        tensor_shape {
          dim {
            size: 1000
          }
          dim {
            size: 1
          }
        }
        tensor_content: "<96?\230Q\001?\270-\360>\307\304\314>\265\334\204>\331k-?J9\233>\340\263z?/D^?\253\311;?o\244\r?\n\000k>\377\244\202>\000\323\345>\306(\031?wLv?\\hd?\020\006\235=\340\0052>\3475\014?\214\245\322>\246kj?\262\032\360>\310\035\314=p\260;?u-\304>W\254\200=\371\n\246>?\334\027?\034\376*?YxP?\327bm?\300\301\277<\257)j?6#\026?\233bh=f\241\n>\264\013,=\335\343-?\377#Y?\262\362\001>X1y?\313\242:??\305B?\023cd?/[#?V\364\356=\030u\346>\0375\017?\376\337\347=\327\026\345>A\177\303>Yr[?\222z\256>\222BJ?1Pe?\305\002\311={y;?\360\307;?\2668\t?\350\375\322=\315\001\233=\310\336\001?O\204\027?\244>\005?\352\247\271=\000\3617>\352\263H==\227&?\266\222#?c\304\316>}xY?^\2151?X{)>\r\234\310>\274\361P?\3579a?u\232c?\214\261;?u\0377?\273\225&>\376P_?<j\265>\002j\023?\025\210\340>\002\020.?\342\307z?\237\037\331=.\033&?\243/j?&8\204>\232\370#=h\025\027?\312\267\271=8\226\345>\034@\2369\001*\013?\200\336]?;\253\'?\033{\'?\0374x>\'wn>.\356==\270\010\271>v\314^?T\177p>\007s]?\255\234P?\255;m>\245\033y=\027kI>\333W\354>p\205\006?S\200\031>m\037.>`Ew?L\370\251>\355\362,>\265\212S?\t\262^?\262\215\227>\002\254H?\244W\300>\241\244\211>t\r\244>\227\000h?)\271?>\335&\262=\330\0245?\344/7?WBn?\025\200\371=Q\303\020?\026\347I?\241=\235>M\220U?S\272^>K$2>\241\317W?8\"&?\241\233q?\361\362\353=]g\013?T\023Q?\033\254*>\332a;?\022\327>?b\275*>\273b\345>\364\244O?\374\252\250>\337\006z?\026\252\201>V?\266>\373\021^?G\364\000?\223\375\036?]\r\271>2S$?^\366\276=;cs>\r\3767?]@P>\2143X?WJ\020?w\225\207>\252a[?\353\357\r?i^\310>\273\"^?\257Z\005>\360\327g?\210l\244=]\265\346=\353g\004?\251nD?\243\312\210>@\221n?\021%^?\307wM?\225@\014?\377\007\024>j$a?\031\317f=\013\216P>\214\355D?\251v\t>\020\332*>\313i\372>0\350\016?+\235h>\245\310\032?a\204[>\351\354w>\265@\036?w\334\213>\032\242\017=\221\225-?dQ\303>v\027t?I\355\223>\332\006\371>\'r\275>\004\244\256>D\001\327>\214\363r?\021]\236>\214=!>\345\027\035?\r\343m?\272\016j?K5\262>:i4>n\004\023?/\021F>\317\'\363>\315\305\005?\272\316\372>\331\003\342>Z\327+??7\022?ABf?8Sw?o\231\300>\035F\255=\nZ\033>\251\025c?\214\276}>\336A,?\357v\211>\300\232\326=y\001\021?S\274\243>\027\0348?\370q\t?\361\236T?[\227\"?\374Ly?\304\302m?\rg\232>\345\367b?\350oI?aDV?\341\304a?\371=\340>\253%\001<\376c\027?\351\202B?\010\243n?\306\nI=i\3048?i\r~?\2737\000>\220\324S?\024;\261>\243\t\232>\255.\336>J\201q?8z\363=\243a\210>)U\007?\215\376X?\204\230[>>\270,?\237\374\206>6&q>\214\360\025>\247BC>=h|?\030\\\005?K\022e?\21362?\010T_?\201\333U?}\353\007?X\275Y>\325\317\036? \373I?K\3725=\355\001>?\201\326\244>\243\362\321>\010\323\206>\300\'\275>\023u\356>f\206Z?\035\324\027?\2071\"?vQ)>ds_?\017\265\227=#\314\r?D\366\271=\225\303\023?\251\370\325>f,R?\\Zj?z&\324>\006\311\204>\371\236:=\375\343*?\365\022K?\001\3057>\237\214k?\310\341\'??b\356>\212\264\346>4\354\327>\032\226\016?\351u\376>\267v{?>\322e=\244C\356=\341\347P>$\346\302>\207\035b?\371PY?J^\343>\217\300R?K/\027?3\316q?\201\352o?T[C?\007\016??\013\033\004>\372do?\347\301\243>\353.1?5N`?]X)?\253+\347>\237\331\360>\265\213\276>R\020\272>\3000D?#\275\321=\272\2513?\273\177\014>\212\361h?6\205O>5^\372>d{\253>%\212_?\202f\014?\326\371s?31O<\302\344S?\016va?\365W\026>\332I@?\365\327i?%mf?H!w>B\222\034?\356\3440?\024\357\022?\250\302\265>QAX?Cp\010?-r=>a}Q?_d[?\272V[?\274\352D?\227R\215:\214\233\006>\355\020\267>\025x\017?\206\343\002?\347\215s>\221\020N?0X2?\013\300\373>q\361\365:\372\013\021?\240,\216>\020@\027>\377\262\355>\312-\021?\2601\016>\347x\265>EE\\>\324Y\204>\3601L=\036\035\004>n\215\233>~\351\017>\356~u?\022_+?\261\327\014?;\342V?\035Lc>\344Kk?\245\254`?\306\223~?3m\236> \002\251<\257\376\"?\342\\\005?\035\324\360>^\026<>\001\002]?xx\357>\310Gv?K\253~>\331|c??\3601?W\254\037?\363\022o>cv\021?\210z\366=p\306\005?\221\323\307>\253\'\024?\343\252\307=,\255\272>&\317\374>Y\035^?\376\3363?X\002W?7ES?\002\232\221>8\352t?\372\346E>\227\371\177?|\\E>\016\337\'?\350\357I?\004\356\201>J\201^?\002\024\014?84\017?\215@\270>\275\373\370>0\270-?\0346\271>\302\347\257>\353\343U?\227\333\241>\347\355t?w\276\334>\264\277\234=V\020\257>\255\203\002<O\333\211>e\314o?*V_?\033Cb?W\254??\227\340\177?\273\254;?\2139~?\312\023/?\035f5>I#\333>\023\343\024>\235\330\247=Z\205\001?\253\320\231>N\344p?\366\277\026?g\250\224>\363B\241>J\311Y?\361\353\377=\301\202l?>\305\246>\322G0?DR\013?5\'\257=\247k\353>\304q.?\020Cc?\345:l?\326\004\302=\230\374>?\215\013\274>\275O\225=\355e\034?\345v\037?\303b??t}\007?e\0279=uo:?\355\252\256>\242\322#?\364\236P?\260PW>.\215\210=_*l?\0267\260>\326\244F?W\216\255>\343iI?H\203\230;\320\025\354>\221C\016>g\226\322>\333\036\201>\300\325\331>o\375P?\301\005\347>\271\225\313=\035\360o?\030\335}>W\020m?\177R~?\371\317\364>Z\274\005?\331\026\025>UGr?\337\\\251>\251\3748?\"\0226?dy\000>>\3412?\337\023\372>~\351h?_H\327>\325\270\213>c\016\027?yU\236=w\262\021>\202\326\332>\276\211\036?\365?L?\244Gn>\264E$?\257\026N?\302\353\t>\013\231t>\"\302K?\030\211C<\024i\215>\037\351 ?\033W\027?r\231e?\357\335E=K\031\377>\371\223\255=\270\237\004?Z\013\327=L\036\261> c\363>\347/\027?@\031i?S\222\346>\313\343\021?E\215\337>\003S\021?\373?L?\341cH?\370_n?\3747>>\003|\326>\205\374\243>&\267_?\314\030n?\200\301\214>P\214\000?\336\312k>\233\330\251>WCF?JH\002>\341\355\335<\274\024\020?\344\215|>\025\260\360>\305\253q?[\031\361> \235F?\211\036)?\0025\255>T\317y?\014\017.?\035\347\370>\252\3775>\202\237<?a\307A?\275\304\300>\224k/?\317\352\252>\234h\206>U\234\033?,\324T?\0022,?T\032\317>)\251o?\315\345\013?\230\217R>\234\246\264>\314\366%?i\202,=\'\316\021?\276Y\202=kqZ?8\354t?\270v\257>l\007J?\246\230U?\014\262W?\204{k>\251\202\312=\261\341\251>\214i\276>{y7?\376@N?6\231\233=\036!P?\230\324\335>VhR?\2635`?\2432x?\203\017N?\017\261\357>\214\337\020?\207\245\320>[B3>\253\327\272=X\301\014?\234\3553>\372\265\264>\202\2303?%mO?`\3438?\242\'X>6\367m?2\341\033?\250\000\273=V\022\363=\247\225$?\212/\353>j\355l>|9\003?\305\350\177>|\004\324>\331\271l?@\245\252>Mr\020>\345\303_?~e\266>-=u?\001?\271=})\376>6}\357>\216\356\335=4;\036?>>\214>\233\3739?O\246\020?Yd,?\336\225\255>\242Q.?\304!\353>cg\236>1&\017?\256\030\251>\301mq?\177\344\007?\247Z\252> k\024?\264\314I>\344\223\023=\277\220;?5DI?N\266#?\265US<\001,\031?\0327H?~\033\\?\032\254\177? e\020?\356FG>\021\363\352>Lo\014>dm\215>\324J~?\023\3479?K\022q? \363\033?\271\016l?g\024n>\222Ji?\006\005N?B}\262>\325\204y?\203\371L?\302\262\022?\261#\226>\212\t-?\326O(?\314JD>\225i\321>\241\016o?\366\366\271>\014\2602?\263\375p?\253z\237>\201t\220>\013\315\373>(h\317=\222CB?\341\252y>#l\027?\374Bb?\270\364\356>C\221\361<B\254&?\226\216\254>\222\026\222>P\272F<\310\265\007>\313\247\231>\376\204\037?\010\254.>\313\323\253=\245\220\026?<mf=\261\243u?\306\325)>\252\264\222<\246\"\024?\362e\357=\360l#>[\210B>\255\317\022?@6\376=\'\235a?)/\356>D\311`?\241\3047?~\347\252>\350z\256=\017:\"?\021,\277=\317\006.?]\354K?} k>\323\024\367>\267\337~?\335t(?\004\234\023?\272:{?\371|f?\267\377\352>\247\334\354=]I\367>\206\027\034?\263Z\331>\265Zu?[\014n?\010\317S?\212\300@>\261\'\323=!\307\025?!\354\334=\246\363\206=\021\0034=w\323V?\346\376$?ujA?\033)T>\021\237\030?@\255\321>\377[j?\314\022w?\224j\023>\364\275z?b\256!?\321\303\250>5\257\034?q^\004?\361\rg?U\352a?6\006\265>\277\2102>\364\0362?\265Wt>\214\240\310>\235=,?\241X3?6\305\020>\233\233!?\245\317\013>\rNn?W\207\322>\rv\371>\210u;?\207q]?\236\230\317>\355q\345>\313\023,=\337VE?{\301\021?\344\232\332>\355\350r?\275\214x?\rZ\004?a\234\377=&\255\\?\010\232O?\307\244k?\331\265Z>\021c\222>:\323\023?\207%\205>\335:\037?\017\260A>m#\033?\344\367\363>D\201q>\361<\373>p\177\221>\323y\346>\326\306}?\246\377`>\333\211+?\3169\320>Zq$?\375\017\234>\025\356;?&\0004>\0057\242>\320h\322>\017\001\314>\005\030\336>\345\223\020?\226\231\207>\217\350\214>\204{K?\354ec?t\320\241>\"\\\252=KSK=V+f>[\304\277<\266\236\273>\206\3306?N\366\365>\326\327L?\031\325>?@\r ?\226\356C=)}S=\263\321\333>\004@$?\377Ea=\261\344\331=\251\352h?\253\224\215>P\231(?0\2639?BL\217>z\344a?\022\020\225>\025\211I>\374\036\032?K\265 ?eg\306>\244\007\037?\r.\"?PP\373=\234\376\247>\325\351\356<\"\366b?+$*?\202\205\006>\375-<?O\355\201>\343SO?<\367/?e\3629?\332\207\350>\036h\212>%u+?\357\344\234=4=y?\250\020A?@\247g?3\343N?\033\202\005?\366\222V>Z\303_?1\263\\>o\024\004>c\357>?KJ\363=\301\207`?B\231\027>\336\320\327>\203\035d?\251Fe?K\002:?(\224a?\205\t\312>\226\034M?\310\251\322=U\252,?\310NJ?~\345m?\'\354Y?k_\372=\317v\232=]v\214>\305[\177?\350\252\t?\270\030*?\335+\370>9P2?\231q!?(\"G>\241\0276>\207\325\000?\030X\244>m\006\221>\324B\201>\240\021\253<\340\306\257>\013F\010?}V4?f\025h?\372D\022?\252O\311;1\033\220=&+\241=\224[\232>\310Ee?\033-`?a\3472=C\\\254>\365rF?z\2067?\353\210\340>\002\307|?\347 S>\033\327\240>\261,\034>\007\005\265=\251c-?\037\213\356>q?~?_\245n? \274`?\310Y\220<H\343\225>\213\022\216>\202\020v?yTj?\310\226\323>y\264<>\343K\031?\213>\350>K\352\005>S{\271> \376\014?\355\346J>\\\037J?R\234\206>\t\306\\>\327\2471>\322\362\352=tt\206>\232\004\034>\r\000e?\001\263\001?E\247\016?\302/3?\024\025?>\265i;?\334-\332>dQ)?\017\205`?\014\224*?\377\216!?\007\251[?\360\033\013?\251d\340>\367mw?\\bb?\373\321\335>\202(4>6.\227>@\223\007?uk\203>\324\007*?\307\221\335>\23022?k\305\254>\t\277S?\323\377\230>\2177\201=\304\2125=\364\317&>\033\303\231>\277\2230?!\\\357=\200\342\261>\31114?M\354\\>\271(z?"
      }
    }
  }
}
node {
  name: "concat/axis"
  op: "Const"
  device: "/device:CPU:0"
  attr {
    key: "_output_shapes"
    value {
      list {
        shape {
        }
      }
    }
  }
  attr {
    key: "dtype"
    value {
      type: DT_INT32
    }
  }
  attr {
    key: "value"
    value {
      tensor {
        dtype: DT_INT32
        tensor_shape {
        }
        int_val: 1
      }
    }
  }
}
node {
  name: "concat"
  op: "ConcatV2"
  input: "Const"
  input: "Const_2"
  input: "Const_4"
  input: "concat/axis"
  device: "/device:CPU:0"
  attr {
    key: "N"
    value {
      i: 3
    }
  }
  attr {
    key: "T"
    value {
      type: DT_FLOAT
    }
  }
  attr {
    key: "Tidx"
    value {
      type: DT_INT32
    }
  }
  attr {
    key: "_output_shapes"
    value {
      list {
        shape {
          dim {
            size: 1000
          }
          dim {
            size: 3
          }
        }
      }
    }
  }
}
node {
  name: "concat_1/axis"
  op: "Const"
  device: "/device:CPU:0"
  attr {
    key: "_output_shapes"
    value {
      list {
        shape {
        }
      }
    }
  }
  attr {
    key: "dtype"
    value {
      type: DT_INT32
    }
  }
  attr {
    key: "value"
    value {
      tensor {
        dtype: DT_INT32
        tensor_shape {
        }
        int_val: 1
      }
    }
  }
}
node {
  name: "concat_1"
  op: "ConcatV2"
  input: "Const_1"
  input: "Const_3"
  input: "Const_5"
  input: "concat_1/axis"
  device: "/device:CPU:0"
  attr {
    key: "N"
    value {
      i: 3
    }
  }
  attr {
    key: "T"
    value {
      type: DT_FLOAT
    }
  }
  attr {
    key: "Tidx"
    value {
      type: DT_INT32
    }
  }
  attr {
    key: "_output_shapes"
    value {
      list {
        shape {
          dim {
            size: 1000
          }
          dim {
            size: 3
          }
        }
      }
    }
  }
}
node {
  name: "Cumsum/axis"
  op: "Const"
  device: "/device:CPU:0"
  attr {
    key: "_output_shapes"
    value {
      list {
        shape {
        }
      }
    }
  }
  attr {
    key: "dtype"
    value {
      type: DT_INT32
    }
  }
  attr {
    key: "value"
    value {
      tensor {
        dtype: DT_INT32
        tensor_shape {
        }
        int_val: 1
      }
    }
  }
}
node {
  name: "Cumsum"
  op: "Cumsum"
  input: "concat"
  input: "Cumsum/axis"
  device: "/device:CPU:0"
  attr {
    key: "T"
    value {
      type: DT_FLOAT
    }
  }
  attr {
    key: "Tidx"
    value {
      type: DT_INT32
    }
  }
  attr {
    key: "_output_shapes"
    value {
      list {
        shape {
          dim {
            size: 1000
          }
          dim {
            size: 3
          }
        }
      }
    }
  }
  attr {
    key: "exclusive"
    value {
      b: false
    }
  }
  attr {
    key: "reverse"
    value {
      b: false
    }
  }
}
node {
  name: "Sin"
  op: "Sin"
  input: "Cumsum"
  device: "/device:CPU:0"
  attr {
    key: "T"
    value {
      type: DT_FLOAT
    }
  }
  attr {
    key: "_output_shapes"
    value {
      list {
        shape {
          dim {
            size: 1000
          }
          dim {
            size: 3
          }
        }
      }
    }
  }
}
node {
  name: "Cumsum_1/axis"
  op: "Const"
  device: "/device:CPU:0"
  attr {
    key: "_output_shapes"
    value {
      list {
        shape {
        }
      }
    }
  }
  attr {
    key: "dtype"
    value {
      type: DT_INT32
    }
  }
  attr {
    key: "value"
    value {
      tensor {
        dtype: DT_INT32
        tensor_shape {
        }
        int_val: 1
      }
    }
  }
}
node {
  name: "Cumsum_1"
  op: "Cumsum"
  input: "concat"
  input: "Cumsum_1/axis"
  device: "/device:CPU:0"
  attr {
    key: "T"
    value {
      type: DT_FLOAT
    }
  }
  attr {
    key: "Tidx"
    value {
      type: DT_INT32
    }
  }
  attr {
    key: "_output_shapes"
    value {
      list {
        shape {
          dim {
            size: 1000
          }
          dim {
            size: 3
          }
        }
      }
    }
  }
  attr {
    key: "exclusive"
    value {
      b: false
    }
  }
  attr {
    key: "reverse"
    value {
      b: false
    }
  }
}
node {
  name: "Cos"
  op: "Cos"
  input: "Cumsum_1"
  device: "/device:CPU:0"
  attr {
    key: "T"
    value {
      type: DT_FLOAT
    }
  }
  attr {
    key: "_output_shapes"
    value {
      list {
        shape {
          dim {
            size: 1000
          }
          dim {
            size: 3
          }
        }
      }
    }
  }
}
node {
  name: "Mul"
  op: "Mul"
  input: "concat_1"
  input: "Cos"
  device: "/device:CPU:0"
  attr {
    key: "T"
    value {
      type: DT_FLOAT
    }
  }
  attr {
    key: "_output_shapes"
    value {
      list {
        shape {
          dim {
            size: 1000
          }
          dim {
            size: 3
          }
        }
      }
    }
  }
}
node {
  name: "Mul_1"
  op: "Mul"
  input: "concat_1"
  input: "Sin"
  device: "/device:CPU:0"
  attr {
    key: "T"
    value {
      type: DT_FLOAT
    }
  }
  attr {
    key: "_output_shapes"
    value {
      list {
        shape {
          dim {
            size: 1000
          }
          dim {
            size: 3
          }
        }
      }
    }
  }
}
node {
  name: "Sum/reduction_indices"
  op: "Const"
  device: "/device:CPU:0"
  attr {
    key: "_output_shapes"
    value {
      list {
        shape {
        }
      }
    }
  }
  attr {
    key: "dtype"
    value {
      type: DT_INT32
    }
  }
  attr {
    key: "value"
    value {
      tensor {
        dtype: DT_INT32
        tensor_shape {
        }
        int_val: 1
      }
    }
  }
}
node {
  name: "Sum"
  op: "Sum"
  input: "Mul"
  input: "Sum/reduction_indices"
  device: "/device:CPU:0"
  attr {
    key: "T"
    value {
      type: DT_FLOAT
    }
  }
  attr {
    key: "Tidx"
    value {
      type: DT_INT32
    }
  }
  attr {
    key: "_output_shapes"
    value {
      list {
        shape {
          dim {
            size: 1000
          }
          dim {
            size: 1
          }
        }
      }
    }
  }
  attr {
    key: "keep_dims"
    value {
      b: true
    }
  }
}
node {
  name: "Sum_1/reduction_indices"
  op: "Const"
  device: "/device:CPU:0"
  attr {
    key: "_output_shapes"
    value {
      list {
        shape {
        }
      }
    }
  }
  attr {
    key: "dtype"
    value {
      type: DT_INT32
    }
  }
  attr {
    key: "value"
    value {
      tensor {
        dtype: DT_INT32
        tensor_shape {
        }
        int_val: 1
      }
    }
  }
}
node {
  name: "Sum_1"
  op: "Sum"
  input: "Mul_1"
  input: "Sum_1/reduction_indices"
  device: "/device:CPU:0"
  attr {
    key: "T"
    value {
      type: DT_FLOAT
    }
  }
  attr {
    key: "Tidx"
    value {
      type: DT_INT32
    }
  }
  attr {
    key: "_output_shapes"
    value {
      list {
        shape {
          dim {
            size: 1000
          }
          dim {
            size: 1
          }
        }
      }
    }
  }
  attr {
    key: "keep_dims"
    value {
      b: true
    }
  }
}
node {
  name: "Shape"
  op: "Const"
  device: "/device:CPU:0"
  attr {
    key: "_output_shapes"
    value {
      list {
        shape {
          dim {
            size: 2
          }
        }
      }
    }
  }
  attr {
    key: "dtype"
    value {
      type: DT_INT32
    }
  }
  attr {
    key: "value"
    value {
      tensor {
        dtype: DT_INT32
        tensor_shape {
          dim {
            size: 2
          }
        }
        tensor_content: "\350\003\000\000\001\000\000\000"
      }
    }
  }
}
node {
  name: "zeros/Const"
  op: "Const"
  device: "/device:CPU:0"
  attr {
    key: "_output_shapes"
    value {
      list {
        shape {
        }
      }
    }
  }
  attr {
    key: "dtype"
    value {
      type: DT_FLOAT
    }
  }
  attr {
    key: "value"
    value {
      tensor {
        dtype: DT_FLOAT
        tensor_shape {
        }
        float_val: 0.0
      }
    }
  }
}
node {
  name: "zeros"
  op: "Fill"
  input: "Shape"
  input: "zeros/Const"
  device: "/device:CPU:0"
  attr {
    key: "T"
    value {
      type: DT_FLOAT
    }
  }
  attr {
    key: "_output_shapes"
    value {
      list {
        shape {
          dim {
            size: 1000
          }
          dim {
            size: 1
          }
        }
      }
    }
  }
}
node {
  name: "concat_2/axis"
  op: "Const"
  device: "/device:CPU:0"
  attr {
    key: "_output_shapes"
    value {
      list {
        shape {
        }
      }
    }
  }
  attr {
    key: "dtype"
    value {
      type: DT_INT32
    }
  }
  attr {
    key: "value"
    value {
      tensor {
        dtype: DT_INT32
        tensor_shape {
        }
        int_val: 1
      }
    }
  }
}
node {
  name: "concat_2"
  op: "ConcatV2"
  input: "Sum"
  input: "Sum_1"
  input: "zeros"
  input: "concat_2/axis"
  device: "/device:CPU:0"
  attr {
    key: "N"
    value {
      i: 3
    }
  }
  attr {
    key: "T"
    value {
      type: DT_FLOAT
    }
  }
  attr {
    key: "Tidx"
    value {
      type: DT_INT32
    }
  }
  attr {
    key: "_output_shapes"
    value {
      list {
        shape {
          dim {
            size: 1000
          }
          dim {
            size: 3
          }
        }
      }
    }
  }
}
node {
  name: "Const_6"
  op: "Const"
  device: "/device:CPU:0"
  attr {
    key: "_output_shapes"
    value {
      list {
        shape {
          dim {
            size: 1
          }
          dim {
            size: 1
          }
        }
      }
    }
  }
  attr {
    key: "dtype"
    value {
      type: DT_FLOAT
    }
  }
  attr {
    key: "value"
    value {
      tensor {
        dtype: DT_FLOAT
        tensor_shape {
          dim {
            size: 1
          }
          dim {
            size: 1
          }
        }
        float_val: 0.00999999977648
      }
    }
  }
}
node {
  name: "Const_7"
  op: "Const"
  device: "/device:CPU:0"
  attr {
    key: "_output_shapes"
    value {
      list {
        shape {
          dim {
            size: 1
          }
          dim {
            size: 3
          }
        }
      }
    }
  }
  attr {
    key: "dtype"
    value {
      type: DT_FLOAT
    }
  }
  attr {
    key: "value"
    value {
      tensor {
        dtype: DT_FLOAT
        tensor_shape {
          dim {
            size: 1
          }
          dim {
            size: 3
          }
        }
        tensor_content: "\306\235#?\335\257*?R!\006?"
      }
    }
  }
}
node {
  name: "Mul_2"
  op: "Mul"
  input: "Const_7"
  input: "Const_6"
  device: "/device:CPU:0"
  attr {
    key: "T"
    value {
      type: DT_FLOAT
    }
  }
  attr {
    key: "_output_shapes"
    value {
      list {
        shape {
          dim {
            size: 1
          }
          dim {
            size: 3
          }
        }
      }
    }
  }
}
node {
  name: "Const_8"
  op: "Const"
  device: "/device:CPU:0"
  attr {
    key: "_output_shapes"
    value {
      list {
        shape {
          dim {
            size: 1
          }
          dim {
            size: 3
          }
        }
      }
    }
  }
  attr {
    key: "dtype"
    value {
      type: DT_FLOAT
    }
  }
  attr {
    key: "value"
    value {
      tensor {
        dtype: DT_FLOAT
        tensor_shape {
          dim {
            size: 1
          }
          dim {
            size: 3
          }
        }
        tensor_content: "8\023(>Q\256\037?\320\330\223>"
      }
    }
  }
}
node {
  name: "Mul_3"
  op: "Mul"
  input: "Const_8"
  input: "Const_6"
  device: "/device:CPU:0"
  attr {
    key: "T"
    value {
      type: DT_FLOAT
    }
  }
  attr {
    key: "_output_shapes"
    value {
      list {
        shape {
          dim {
            size: 1
          }
          dim {
            size: 3
          }
        }
      }
    }
  }
}
node {
  name: "Const_9"
  op: "Const"
  device: "/device:CPU:0"
  attr {
    key: "_output_shapes"
    value {
      list {
        shape {
          dim {
            size: 1
          }
          dim {
            size: 3
          }
        }
      }
    }
  }
  attr {
    key: "dtype"
    value {
      type: DT_FLOAT
    }
  }
  attr {
    key: "value"
    value {
      tensor {
        dtype: DT_FLOAT
        tensor_shape {
          dim {
            size: 1
          }
          dim {
            size: 3
          }
        }
        tensor_content: "\222FT?t\240\300=E\006\034?"
      }
    }
  }
}
node {
  name: "Mul_4"
  op: "Mul"
  input: "Const_9"
  input: "Const_6"
  device: "/device:CPU:0"
  attr {
    key: "T"
    value {
      type: DT_FLOAT
    }
  }
  attr {
    key: "_output_shapes"
    value {
      list {
        shape {
          dim {
            size: 1
          }
          dim {
            size: 3
          }
        }
      }
    }
  }
}
node {
  name: "Const_10"
  op: "Const"
  device: "/device:CPU:0"
  attr {
    key: "_output_shapes"
    value {
      list {
        shape {
          dim {
            size: 1
          }
          dim {
            size: 3
          }
        }
      }
    }
  }
  attr {
    key: "dtype"
    value {
      type: DT_FLOAT
    }
  }
  attr {
    key: "value"
    value {
      tensor {
        dtype: DT_FLOAT
        tensor_shape {
          dim {
            size: 1
          }
          dim {
            size: 3
          }
        }
        tensor_content: "\205\013P? e\323>M\253\374>"
      }
    }
  }
}
node {
  name: "Mul_5"
  op: "Mul"
  input: "Const_10"
  input: "Const_6"
  device: "/device:CPU:0"
  attr {
    key: "T"
    value {
      type: DT_FLOAT
    }
  }
  attr {
    key: "_output_shapes"
    value {
      list {
        shape {
          dim {
            size: 1
          }
          dim {
            size: 3
          }
        }
      }
    }
  }
}
node {
  name: "Const_11"
  op: "Const"
  device: "/device:CPU:0"
  attr {
    key: "_output_shapes"
    value {
      list {
        shape {
          dim {
            size: 1
          }
          dim {
            size: 3
          }
        }
      }
    }
  }
  attr {
    key: "dtype"
    value {
      type: DT_FLOAT
    }
  }
  attr {
    key: "value"
    value {
      tensor {
        dtype: DT_FLOAT
        tensor_shape {
          dim {
            size: 1
          }
          dim {
            size: 3
          }
        }
        tensor_content: "\225\274\206>3r~?[\333$?"
      }
    }
  }
}
node {
  name: "Mul_6"
  op: "Mul"
  input: "Const_11"
  input: "Const_6"
  device: "/device:CPU:0"
  attr {
    key: "T"
    value {
      type: DT_FLOAT
    }
  }
  attr {
    key: "_output_shapes"
    value {
      list {
        shape {
          dim {
            size: 1
          }
          dim {
            size: 3
          }
        }
      }
    }
  }
}
node {
  name: "Const_12"
  op: "Const"
  device: "/device:CPU:0"
  attr {
    key: "_output_shapes"
    value {
      list {
        shape {
          dim {
            size: 1
          }
          dim {
            size: 3
          }
        }
      }
    }
  }
  attr {
    key: "dtype"
    value {
      type: DT_FLOAT
    }
  }
  attr {
    key: "value"
    value {
      tensor {
        dtype: DT_FLOAT
        tensor_shape {
          dim {
            size: 1
          }
          dim {
            size: 3
          }
        }
        tensor_content: "\244%\257>\314{T?5\320n?"
      }
    }
  }
}
node {
  name: "Mul_7"
  op: "Mul"
  input: "Const_12"
  input: "Const_6"
  device: "/device:CPU:0"
  attr {
    key: "T"
    value {
      type: DT_FLOAT
    }
  }
  attr {
    key: "_output_shapes"
    value {
      list {
        shape {
          dim {
            size: 1
          }
          dim {
            size: 3
          }
        }
      }
    }
  }
}
node {
  name: "Const_13"
  op: "Const"
  device: "/device:CPU:0"
  attr {
    key: "_output_shapes"
    value {
      list {
        shape {
          dim {
            size: 1
          }
          dim {
            size: 3
          }
        }
      }
    }
  }
  attr {
    key: "dtype"
    value {
      type: DT_FLOAT
    }
  }
  attr {
    key: "value"
    value {
      tensor {
        dtype: DT_FLOAT
        tensor_shape {
          dim {
            size: 1
          }
          dim {
            size: 3
          }
        }
        tensor_content: "\265\374C?\230\034\020?C\n\223>"
      }
    }
  }
}
node {
  name: "Mul_8"
  op: "Mul"
  input: "Const_13"
  input: "Const_6"
  device: "/device:CPU:0"
  attr {
    key: "T"
    value {
      type: DT_FLOAT
    }
  }
  attr {
    key: "_output_shapes"
    value {
      list {
        shape {
          dim {
            size: 1
          }
          dim {
            size: 3
          }
        }
      }
    }
  }
}
node {
  name: "Const_14"
  op: "Const"
  device: "/device:CPU:0"
  attr {
    key: "_output_shapes"
    value {
      list {
        shape {
          dim {
            size: 1
          }
          dim {
            size: 3
          }
        }
      }
    }
  }
  attr {
    key: "dtype"
    value {
      type: DT_FLOAT
    }
  }
  attr {
    key: "value"
    value {
      tensor {
        dtype: DT_FLOAT
        tensor_shape {
          dim {
            size: 1
          }
          dim {
            size: 3
          }
        }
        tensor_content: "\351\253\030?.\312^?j5\370>"
      }
    }
  }
}
node {
  name: "Mul_9"
  op: "Mul"
  input: "Const_14"
  input: "Const_6"
  device: "/device:CPU:0"
  attr {
    key: "T"
    value {
      type: DT_FLOAT
    }
  }
  attr {
    key: "_output_shapes"
    value {
      list {
        shape {
          dim {
            size: 1
          }
          dim {
            size: 3
          }
        }
      }
    }
  }
}
node {
  name: "Const_15"
  op: "Const"
  device: "/device:CPU:0"
  attr {
    key: "_output_shapes"
    value {
      list {
        shape {
          dim {
            size: 1
          }
          dim {
            size: 3
          }
        }
      }
    }
  }
  attr {
    key: "dtype"
    value {
      type: DT_FLOAT
    }
  }
  attr {
    key: "value"
    value {
      tensor {
        dtype: DT_FLOAT
        tensor_shape {
          dim {
            size: 1
          }
          dim {
            size: 3
          }
        }
        tensor_content: "\355\313P>\362\215-?\361<\271>"
      }
    }
  }
}
node {
  name: "Mul_10"
  op: "Mul"
  input: "Const_15"
  input: "Const_6"
  device: "/device:CPU:0"
  attr {
    key: "T"
    value {
      type: DT_FLOAT
    }
  }
  attr {
    key: "_output_shapes"
    value {
      list {
        shape {
          dim {
            size: 1
          }
          dim {
            size: 3
          }
        }
      }
    }
  }
}
node {
  name: "Const_16"
  op: "Const"
  device: "/device:CPU:0"
  attr {
    key: "_output_shapes"
    value {
      list {
        shape {
          dim {
            size: 1
          }
          dim {
            size: 3
          }
        }
      }
    }
  }
  attr {
    key: "dtype"
    value {
      type: DT_FLOAT
    }
  }
  attr {
    key: "value"
    value {
      tensor {
        dtype: DT_FLOAT
        tensor_shape {
          dim {
            size: 1
          }
          dim {
            size: 3
          }
        }
        tensor_content: "\014\300:=\033%I>\316\337\023?"
      }
    }
  }
}
node {
  name: "Mul_11"
  op: "Mul"
  input: "Const_16"
  input: "Const_6"
  device: "/device:CPU:0"
  attr {
    key: "T"
    value {
      type: DT_FLOAT
    }
  }
  attr {
    key: "_output_shapes"
    value {
      list {
        shape {
          dim {
            size: 1
          }
          dim {
            size: 3
          }
        }
      }
    }
  }
}
node {
  name: "Const_17"
  op: "Const"
  device: "/device:CPU:0"
  attr {
    key: "_output_shapes"
    value {
      list {
        shape {
          dim {
            size: 1
          }
          dim {
            size: 3
          }
        }
      }
    }
  }
  attr {
    key: "dtype"
    value {
      type: DT_FLOAT
    }
  }
  attr {
    key: "value"
    value {
      tensor {
        dtype: DT_FLOAT
        tensor_shape {
          dim {
            size: 1
          }
          dim {
            size: 3
          }
        }
        tensor_content: "\365\216u?\210\277\n?z>\005?"
      }
    }
  }
}
node {
  name: "Mul_12"
  op: "Mul"
  input: "Const_17"
  input: "Const_6"
  device: "/device:CPU:0"
  attr {
    key: "T"
    value {
      type: DT_FLOAT
    }
  }
  attr {
    key: "_output_shapes"
    value {
      list {
        shape {
          dim {
            size: 1
          }
          dim {
            size: 3
          }
        }
      }
    }
  }
}
node {
  name: "Const_18"
  op: "Const"
  device: "/device:CPU:0"
  attr {
    key: "_output_shapes"
    value {
      list {
        shape {
          dim {
            size: 1
          }
          dim {
            size: 3
          }
        }
      }
    }
  }
  attr {
    key: "dtype"
    value {
      type: DT_FLOAT
    }
  }
  attr {
    key: "value"
    value {
      tensor {
        dtype: DT_FLOAT
        tensor_shape {
          dim {
            size: 1
          }
          dim {
            size: 3
          }
        }
        tensor_content: "\355\210Q>.&\270>\327\350->"
      }
    }
  }
}
node {
  name: "Mul_13"
  op: "Mul"
  input: "Const_18"
  input: "Const_6"
  device: "/device:CPU:0"
  attr {
    key: "T"
    value {
      type: DT_FLOAT
    }
  }
  attr {
    key: "_output_shapes"
    value {
      list {
        shape {
          dim {
            size: 1
          }
          dim {
            size: 3
          }
        }
      }
    }
  }
}
node {
  name: "Const_19"
  op: "Const"
  device: "/device:CPU:0"
  attr {
    key: "_output_shapes"
    value {
      list {
        shape {
          dim {
            size: 1
          }
          dim {
            size: 3
          }
        }
      }
    }
  }
  attr {
    key: "dtype"
    value {
      type: DT_FLOAT
    }
  }
  attr {
    key: "value"
    value {
      tensor {
        dtype: DT_FLOAT
        tensor_shape {
          dim {
            size: 1
          }
          dim {
            size: 3
          }
        }
        tensor_content: "\2422k?8\177\203>\'R\315>"
      }
    }
  }
}
node {
  name: "Mul_14"
  op: "Mul"
  input: "Const_19"
  input: "Const_6"
  device: "/device:CPU:0"
  attr {
    key: "T"
    value {
      type: DT_FLOAT
    }
  }
  attr {
    key: "_output_shapes"
    value {
      list {
        shape {
          dim {
            size: 1
          }
          dim {
            size: 3
          }
        }
      }
    }
  }
}
node {
  name: "Const_20"
  op: "Const"
  device: "/device:CPU:0"
  attr {
    key: "_output_shapes"
    value {
      list {
        shape {
          dim {
            size: 1
          }
          dim {
            size: 3
          }
        }
      }
    }
  }
  attr {
    key: "dtype"
    value {
      type: DT_FLOAT
    }
  }
  attr {
    key: "value"
    value {
      tensor {
        dtype: DT_FLOAT
        tensor_shape {
          dim {
            size: 1
          }
          dim {
            size: 3
          }
        }
        tensor_content: "\370\322@?\305\202.?\363\2567?"
      }
    }
  }
}
node {
  name: "Mul_15"
  op: "Mul"
  input: "Const_20"
  input: "Const_6"
  device: "/device:CPU:0"
  attr {
    key: "T"
    value {
      type: DT_FLOAT
    }
  }
  attr {
    key: "_output_shapes"
    value {
      list {
        shape {
          dim {
            size: 1
          }
          dim {
            size: 3
          }
        }
      }
    }
  }
}
node {
  name: "Const_21"
  op: "Const"
  device: "/device:CPU:0"
  attr {
    key: "_output_shapes"
    value {
      list {
        shape {
          dim {
            size: 1
          }
          dim {
            size: 3
          }
        }
      }
    }
  }
  attr {
    key: "dtype"
    value {
      type: DT_FLOAT
    }
  }
  attr {
    key: "value"
    value {
      tensor {
        dtype: DT_FLOAT
        tensor_shape {
          dim {
            size: 1
          }
          dim {
            size: 3
          }
        }
        tensor_content: "\361\301\353>j\330\220>\2239J?"
      }
    }
  }
}
node {
  name: "Mul_16"
  op: "Mul"
  input: "Const_21"
  input: "Const_6"
  device: "/device:CPU:0"
  attr {
    key: "T"
    value {
      type: DT_FLOAT
    }
  }
  attr {
    key: "_output_shapes"
    value {
      list {
        shape {
          dim {
            size: 1
          }
          dim {
            size: 3
          }
        }
      }
    }
  }
}
node {
  name: "Const_22"
  op: "Const"
  device: "/device:CPU:0"
  attr {
    key: "_output_shapes"
    value {
      list {
        shape {
          dim {
            size: 1
          }
          dim {
            size: 3
          }
        }
      }
    }
  }
  attr {
    key: "dtype"
    value {
      type: DT_FLOAT
    }
  }
  attr {
    key: "value"
    value {
      tensor {
        dtype: DT_FLOAT
        tensor_shape {
          dim {
            size: 1
          }
          dim {
            size: 3
          }
        }
        tensor_content: "\234\017Q?\302\2645=\343\310\'?"
      }
    }
  }
}
node {
  name: "Mul_17"
  op: "Mul"
  input: "Const_22"
  input: "Const_6"
  device: "/device:CPU:0"
  attr {
    key: "T"
    value {
      type: DT_FLOAT
    }
  }
  attr {
    key: "_output_shapes"
    value {
      list {
        shape {
          dim {
            size: 1
          }
          dim {
            size: 3
          }
        }
      }
    }
  }
}
node {
  name: "Const_23"
  op: "Const"
  device: "/device:CPU:0"
  attr {
    key: "_output_shapes"
    value {
      list {
        shape {
          dim {
            size: 1
          }
          dim {
            size: 3
          }
        }
      }
    }
  }
  attr {
    key: "dtype"
    value {
      type: DT_FLOAT
    }
  }
  attr {
    key: "value"
    value {
      tensor {
        dtype: DT_FLOAT
        tensor_shape {
          dim {
            size: 1
          }
          dim {
            size: 3
          }
        }
        tensor_content: ":\242\036>\266\232x?\036\r\356>"
      }
    }
  }
}
node {
  name: "Mul_18"
  op: "Mul"
  input: "Const_23"
  input: "Const_6"
  device: "/device:CPU:0"
  attr {
    key: "T"
    value {
      type: DT_FLOAT
    }
  }
  attr {
    key: "_output_shapes"
    value {
      list {
        shape {
          dim {
            size: 1
          }
          dim {
            size: 3
          }
        }
      }
    }
  }
}
node {
  name: "Const_24"
  op: "Const"
  device: "/device:CPU:0"
  attr {
    key: "_output_shapes"
    value {
      list {
        shape {
          dim {
            size: 1
          }
          dim {
            size: 3
          }
        }
      }
    }
  }
  attr {
    key: "dtype"
    value {
      type: DT_FLOAT
    }
  }
  attr {
    key: "value"
    value {
      tensor {
        dtype: DT_FLOAT
        tensor_shape {
          dim {
            size: 1
          }
          dim {
            size: 3
          }
        }
        tensor_content: ".\025o?;i\256>r[\000?"
      }
    }
  }
}
node {
  name: "Mul_19"
  op: "Mul"
  input: "Const_24"
  input: "Const_6"
  device: "/device:CPU:0"
  attr {
    key: "T"
    value {
      type: DT_FLOAT
    }
  }
  attr {
    key: "_output_shapes"
    value {
      list {
        shape {
          dim {
            size: 1
          }
          dim {
            size: 3
          }
        }
      }
    }
  }
}
node {
  name: "Const_25"
  op: "Const"
  device: "/device:CPU:0"
  attr {
    key: "_output_shapes"
    value {
      list {
        shape {
          dim {
            size: 1
          }
          dim {
            size: 3
          }
        }
      }
    }
  }
  attr {
    key: "dtype"
    value {
      type: DT_FLOAT
    }
  }
  attr {
    key: "value"
    value {
      tensor {
        dtype: DT_FLOAT
        tensor_shape {
          dim {
            size: 1
          }
          dim {
            size: 3
          }
        }
        tensor_content: "o?\007>#\351h?\343\375\022?"
      }
    }
  }
}
node {
  name: "Mul_20"
  op: "Mul"
  input: "Const_25"
  input: "Const_6"
  device: "/device:CPU:0"
  attr {
    key: "T"
    value {
      type: DT_FLOAT
    }
  }
  attr {
    key: "_output_shapes"
    value {
      list {
        shape {
          dim {
            size: 1
          }
          dim {
            size: 3
          }
        }
      }
    }
  }
}
node {
  name: "Const_26"
  op: "Const"
  device: "/device:CPU:0"
  attr {
    key: "_output_shapes"
    value {
      list {
        shape {
          dim {
            size: 1
          }
          dim {
            size: 3
          }
        }
      }
    }
  }
  attr {
    key: "dtype"
    value {
      type: DT_FLOAT
    }
  }
  attr {
    key: "value"
    value {
      tensor {
        dtype: DT_FLOAT
        tensor_shape {
          dim {
            size: 1
          }
          dim {
            size: 3
          }
        }
        tensor_content: "\2033\244>EE\200>\222le?"
      }
    }
  }
}
node {
  name: "Mul_21"
  op: "Mul"
  input: "Const_26"
  input: "Const_6"
  device: "/device:CPU:0"
  attr {
    key: "T"
    value {
      type: DT_FLOAT
    }
  }
  attr {
    key: "_output_shapes"
    value {
      list {
        shape {
          dim {
            size: 1
          }
          dim {
            size: 3
          }
        }
      }
    }
  }
}
node {
  name: "Const_27"
  op: "Const"
  device: "/device:CPU:0"
  attr {
    key: "_output_shapes"
    value {
      list {
        shape {
          dim {
            size: 1
          }
          dim {
            size: 3
          }
        }
      }
    }
  }
  attr {
    key: "dtype"
    value {
      type: DT_FLOAT
    }
  }
  attr {
    key: "value"
    value {
      tensor {
        dtype: DT_FLOAT
        tensor_shape {
          dim {
            size: 1
          }
          dim {
            size: 3
          }
        }
        tensor_content: "g\266K?\214\303\216=\261\005i="
      }
    }
  }
}
node {
  name: "Mul_22"
  op: "Mul"
  input: "Const_27"
  input: "Const_6"
  device: "/device:CPU:0"
  attr {
    key: "T"
    value {
      type: DT_FLOAT
    }
  }
  attr {
    key: "_output_shapes"
    value {
      list {
        shape {
          dim {
            size: 1
          }
          dim {
            size: 3
          }
        }
      }
    }
  }
}
node {
  name: "Const_28"
  op: "Const"
  device: "/device:CPU:0"
  attr {
    key: "_output_shapes"
    value {
      list {
        shape {
          dim {
            size: 1
          }
          dim {
            size: 3
          }
        }
      }
    }
  }
  attr {
    key: "dtype"
    value {
      type: DT_FLOAT
    }
  }
  attr {
    key: "value"
    value {
      tensor {
        dtype: DT_FLOAT
        tensor_shape {
          dim {
            size: 1
          }
          dim {
            size: 3
          }
        }
        tensor_content: "S@5>(\022\226>\332\030E>"
      }
    }
  }
}
node {
  name: "Mul_23"
  op: "Mul"
  input: "Const_28"
  input: "Const_6"
  device: "/device:CPU:0"
  attr {
    key: "T"
    value {
      type: DT_FLOAT
    }
  }
  attr {
    key: "_output_shapes"
    value {
      list {
        shape {
          dim {
            size: 1
          }
          dim {
            size: 3
          }
        }
      }
    }
  }
}
node {
  name: "Const_29"
  op: "Const"
  device: "/device:CPU:0"
  attr {
    key: "_output_shapes"
    value {
      list {
        shape {
          dim {
            size: 1
          }
          dim {
            size: 3
          }
        }
      }
    }
  }
  attr {
    key: "dtype"
    value {
      type: DT_FLOAT
    }
  }
  attr {
    key: "value"
    value {
      tensor {
        dtype: DT_FLOAT
        tensor_shape {
          dim {
            size: 1
          }
          dim {
            size: 3
          }
        }
        tensor_content: "\225z(?Pp+>\036\303\233="
      }
    }
  }
}
node {
  name: "Mul_24"
  op: "Mul"
  input: "Const_29"
  input: "Const_6"
  device: "/device:CPU:0"
  attr {
    key: "T"
    value {
      type: DT_FLOAT
    }
  }
  attr {
    key: "_output_shapes"
    value {
      list {
        shape {
          dim {
            size: 1
          }
          dim {
            size: 3
          }
        }
      }
    }
  }
}
node {
  name: "Const_30"
  op: "Const"
  device: "/device:CPU:0"
  attr {
    key: "_output_shapes"
    value {
      list {
        shape {
          dim {
            size: 1
          }
          dim {
            size: 3
          }
        }
      }
    }
  }
  attr {
    key: "dtype"
    value {
      type: DT_FLOAT
    }
  }
  attr {
    key: "value"
    value {
      tensor {
        dtype: DT_FLOAT
        tensor_shape {
          dim {
            size: 1
          }
          dim {
            size: 3
          }
        }
        tensor_content: "n\324\255>\020\000\374>2\010d?"
      }
    }
  }
}
node {
  name: "Mul_25"
  op: "Mul"
  input: "Const_30"
  input: "Const_6"
  device: "/device:CPU:0"
  attr {
    key: "T"
    value {
      type: DT_FLOAT
    }
  }
  attr {
    key: "_output_shapes"
    value {
      list {
        shape {
          dim {
            size: 1
          }
          dim {
            size: 3
          }
        }
      }
    }
  }
}
node {
  name: "Const_31"
  op: "Const"
  device: "/device:CPU:0"
  attr {
    key: "_output_shapes"
    value {
      list {
