node {
  name: "global_step/Initializer/zeros"
  op: "Const"
  attr {
    key: "_class"
    value {
      list {
        s: "loc:@global_step"
      }
    }
  }
  attr {
    key: "_output_shapes"
    value {
      list {
        shape {
        }
      }
    }
  }
  attr {
    key: "dtype"
    value {
      type: DT_INT64
    }
  }
  attr {
    key: "value"
    value {
      tensor {
        dtype: DT_INT64
        tensor_shape {
        }
        int64_val: 0
      }
    }
  }
}
node {
  name: "global_step"
  op: "VariableV2"
  attr {
    key: "_class"
    value {
      list {
        s: "loc:@global_step"
      }
    }
  }
  attr {
    key: "_output_shapes"
    value {
      list {
        shape {
        }
      }
    }
  }
  attr {
    key: "container"
    value {
      s: ""
    }
  }
  attr {
    key: "dtype"
    value {
      type: DT_INT64
    }
  }
  attr {
    key: "shape"
    value {
      shape {
      }
    }
  }
  attr {
    key: "shared_name"
    value {
      s: ""
    }
  }
}
node {
  name: "global_step/Assign"
  op: "Assign"
  input: "global_step"
  input: "global_step/Initializer/zeros"
  attr {
    key: "T"
    value {
      type: DT_INT64
    }
  }
  attr {
    key: "_class"
    value {
      list {
        s: "loc:@global_step"
      }
    }
  }
  attr {
    key: "_output_shapes"
    value {
      list {
        shape {
        }
      }
    }
  }
  attr {
    key: "use_locking"
    value {
      b: true
    }
  }
  attr {
    key: "validate_shape"
    value {
      b: true
    }
  }
}
node {
  name: "global_step/read"
  op: "Identity"
  input: "global_step"
  attr {
    key: "T"
    value {
      type: DT_INT64
    }
  }
  attr {
    key: "_class"
    value {
      list {
        s: "loc:@global_step"
      }
    }
  }
  attr {
    key: "_output_shapes"
    value {
      list {
        shape {
        }
      }
    }
  }
}
node {
  name: "global_step/IsVariableInitialized"
  op: "IsVariableInitialized"
  input: "global_step"
  attr {
    key: "_class"
    value {
      list {
        s: "loc:@global_step"
      }
    }
  }
  attr {
    key: "_output_shapes"
    value {
      list {
        shape {
        }
      }
    }
  }
  attr {
    key: "dtype"
    value {
      type: DT_INT64
    }
  }
}
node {
  name: "global_step/cond/Switch"
  op: "Switch"
  input: "global_step/IsVariableInitialized"
  input: "global_step/IsVariableInitialized"
  attr {
    key: "T"
    value {
      type: DT_BOOL
    }
  }
  attr {
    key: "_output_shapes"
    value {
      list {
        shape {
        }
        shape {
        }
      }
    }
  }
}
node {
  name: "global_step/cond/switch_t"
  op: "Identity"
  input: "global_step/cond/Switch:1"
  attr {
    key: "T"
    value {
      type: DT_BOOL
    }
  }
  attr {
    key: "_output_shapes"
    value {
      list {
        shape {
        }
      }
    }
  }
}
node {
  name: "global_step/cond/switch_f"
  op: "Identity"
  input: "global_step/cond/Switch"
  attr {
    key: "T"
    value {
      type: DT_BOOL
    }
  }
  attr {
    key: "_output_shapes"
    value {
      list {
        shape {
        }
      }
    }
  }
}
node {
  name: "global_step/cond/pred_id"
  op: "Identity"
  input: "global_step/IsVariableInitialized"
  attr {
    key: "T"
    value {
      type: DT_BOOL
    }
  }
  attr {
    key: "_output_shapes"
    value {
      list {
        shape {
        }
      }
    }
  }
}
node {
  name: "global_step/cond/read"
  op: "Identity"
  input: "global_step/cond/read/Switch:1"
  attr {
    key: "T"
    value {
      type: DT_INT64
    }
  }
  attr {
    key: "_output_shapes"
    value {
      list {
        shape {
        }
      }
    }
  }
}
node {
  name: "global_step/cond/read/Switch"
  op: "RefSwitch"
  input: "global_step"
  input: "global_step/cond/pred_id"
  attr {
    key: "T"
    value {
      type: DT_INT64
    }
  }
  attr {
    key: "_class"
    value {
      list {
        s: "loc:@global_step"
      }
    }
  }
  attr {
    key: "_output_shapes"
    value {
      list {
        shape {
        }
        shape {
        }
      }
    }
  }
}
node {
  name: "global_step/cond/Switch_1"
  op: "Switch"
  input: "global_step/Initializer/zeros"
  input: "global_step/cond/pred_id"
  attr {
    key: "T"
    value {
      type: DT_INT64
    }
  }
  attr {
    key: "_class"
    value {
      list {
        s: "loc:@global_step"
      }
    }
  }
  attr {
    key: "_output_shapes"
    value {
      list {
        shape {
        }
        shape {
        }
      }
    }
  }
}
node {
  name: "global_step/cond/Merge"
  op: "Merge"
  input: "global_step/cond/Switch_1"
  input: "global_step/cond/read"
  attr {
    key: "N"
    value {
      i: 2
    }
  }
  attr {
    key: "T"
    value {
      type: DT_INT64
    }
  }
  attr {
    key: "_output_shapes"
    value {
      list {
        shape {
        }
        shape {
        }
      }
    }
  }
}
node {
  name: "global_step/add/y"
  op: "Const"
  attr {
    key: "_output_shapes"
    value {
      list {
        shape {
        }
      }
    }
  }
  attr {
    key: "dtype"
    value {
      type: DT_INT64
    }
  }
  attr {
    key: "value"
    value {
      tensor {
        dtype: DT_INT64
        tensor_shape {
        }
        int64_val: 0
      }
    }
  }
}
node {
  name: "global_step/add"
  op: "Add"
  input: "global_step/cond/Merge"
  input: "global_step/add/y"
  attr {
    key: "T"
    value {
      type: DT_INT64
    }
  }
  attr {
    key: "_output_shapes"
    value {
      list {
        shape {
        }
      }
    }
  }
}
node {
  name: "Const"
  op: "Const"
  device: "/device:CPU:0"
  attr {
    key: "_output_shapes"
    value {
      list {
        shape {
          dim {
            size: 1000
          }
          dim {
            size: 1
          }
        }
      }
    }
  }
  attr {
    key: "dtype"
    value {
      type: DT_FLOAT
    }
  }
  attr {
    key: "value"
    value {
      tensor {
        dtype: DT_FLOAT
        tensor_shape {
          dim {
            size: 1000
          }
          dim {
            size: 1
          }
        }
        tensor_content: "\027\"\010@\027\024\263?g\310\365?\334\307\262@\230\340\014@za\357?y\211|@\314\237\226@\035v\300@\006r\260?\034\374E>/\202\n?\031\367\233@T\264??r\262\025@`\031)@\212\2307@\002F\305@\257n\255@\272\335\232?\242\322\216@K\273\302@\335\002g?\225*\272@M\302G@\260\256o@.\3733@^j\305@\364d\007><\020\277@\360\362\002@q\254D>\320\354\000?\2439\357?\227\271\211@\021\216\224@\010\366)?\352\354\206?\370\267\310@\311ir@\307\357\302@\016\345Z@\375\206\212@\332\234G@\272\370\230?\344\213\033?hZ\254@9\227L>\205W\250?\351\270{?\351{\372?\201\247(@\317\245\366?\360\211\205@\014\371\254?\342eq@|vG@7\307\267@8\r\270@\010\350k@\020\343\262@aj\354=3~\007@#\230.@>\034\006?=\247\303@\322}\207@\321\354\264@\n\204\365?\266\211B@_\377-@\312$J@\356_\243@h\220\265@7\006\003@P_\200@>L\302@UBq@}\022\222@\304/\214@\303\346\207>uf\205?\207\001\225@\316\350\260@\246\231\231@\363\276#@\245\330\235@\005\0142?\025K\374?\236\273Z@\211\207\237?\006\305\340?I\275B@c\025)@z\342\306@\010\221\307? i\307?zi\323>\3753p@\324\2632@\tj\224@k\324.?\251)\233>U\336\267@O\320\231@\254\352\230@\263\005\240@\353^S@!\202\243>\037\203\261@\003\312\267>\263z$?\267\207\242?\245\334\t?a\253B@\rz\013@\305\010\272@\316<\260@\010sf@\331\025\274@\206\234&@\330\353\217@2\025:?\345d\322?]\334\303@E\3537?\006\317\244@\007\025\246@\205\004\246@\361\202\257@?f4@\203\360\027@\247\234\001@a\261~@&\261\276?*\230\217>%\333\303=\363f\023?\031\276R@\032\244\376?E3\237?\325\002\250?\354\334j@b\234#@\244\3446@\315\343\232@\230Y\037@\304\027y@\356\375_?\364\272\210@@\024\235@u\243\335<[\rY@,Z\312?\360\201A@O\300\211@m\033n@\336\'?>m:\\?\352P\207@\216\214s?\261 G@ul?@,\247=@\202O\324?\346\211\306?\310j\214@\206\302!@r\022Q@\244\010?@\334Sa@\2246\323?\002\303\340?b\345G@\265u\243@\323\312G@<\034\r?J\372\347?\250\222\300@\240b\262?\316\260u@+e\"@\375\310\201@J\330\204?\211\247%@\260IH@\341k>@\355\223\300?\022Wr@6o\035?f]|@t\310\031@%\220\260@Qw\027?\210\332\331=\336\245\272@=F?@p\224\305@\251F\215@\311c\017@\312\342t@tT\255?\352\'\305@\326(\224@s?g@\302\204\301@m\217\302?\255\032\265@1u]?5Q5@\364\234}@jX\032@\345\031\202@\325\241\237@A\301\234?5<,@\206\266\334>7\302a@\370d\210@z\002\347?\223\016\023@\006\020F@\037\264\270@\022T$@d\233\233@/\221\266@\257ZB@~\3747@uw\313>\321Q\244@\275\007\257@\353\223j@\264cy@$a\376?s\204\226@\314\201\301@\260D\222@\205\377i@\203\354\214@\237A\266@\300\364+@O\213J@\277/\203@\310\334\346?f\204\200@\2443\363?\200\247]@\375\272\337?\225\317F?i\030\201@L\031\266@6\217\226@N\327\211?\305\227\271@_\316\030@\232$\215@\362|\013@\312?\311?\276]\262@\004\\\232?\004\375\277?/\354C>z\275\220?.\3609@\211\340\025>\225=o@\267\241\215?\217%\255?\310j\254@\306\010W@8\262\254@\033\341\241@\323\260>@\350oH@\254\301\242@\3240J@\306\007\235?\334q\237?\266\244\203@H\210\271@\277\313\237?\000\346\254=\317\275>@Pm\331?<\321\371?\304\243\216?\000\224\217?\302\332\263@\255\227\274@h\3524@\340\356\017=\361\t\267@0\023*?\331y\342>\321]s@\025\013\217@F\360\263@\235X\347?}<\262@i\225\255@\243x\203>\353\241\'@F\343\245@s\256o?\304\332\264@x7\243@2\036n@\214\357\202@\256\264^?\330\345\212@Q%\222@\2629\236@\317\016>@\311X=@;\355\236@\265$\230@6\010,@\345\216\314?\233\"\243@\262\212\300@\374\032L@\257/S@\310\210\023@\034?D@\325\240\037@\351\263|@,bV>#\227\347?\021\314P@<U\246@\027\331\026@A?\027@\r\306\'>9\254\305@\356\021\275@\344m\265@\003\204\217@\351\006\243@4)\221?\343\357\210@BC\030@\210\332\275@3\300\350?2\304\307@\270\033U>\272s%@\277\234\014@\213n\030@\177\023v@oK/@\250\325\246@\\\007>@\021s\223@\205\330\"@\226\205\033?\207\034=?`\'\251@*uK@\014\205\227?P\317\262@\271\333\267=\256e\006?\255H!@+@\330=&\n\022@\203\353\177@M|l@\2220\204@\'|6?\025\003\224=k\023\231?\030T\267?\350\264\016@*\313\252@\250*\305@\177aN@\275\001\031@\214\206\274?\3278\300@\003\265]@\272P\273?wG\266@\361\006\207@p\t\310?\300t{@8\242[@\310g??X\320S?N\201\266@\000sT?\302\212W?e\200\243?\306U\353?<\222n@\2149\273@\221U1@\023KL@\324\"\021@\243t\241@[\266x>@\007\333>.\307C@\302\250\000>\017|s@\243>\362?\227\227\246@\310\262\264@\017)\333:\333Z\247@}\020\003@\320M\254@Q\003\356>.\201\240@\344\351 @Kl\272?\250\272\305@\300\025)?*3\032@\177\331\227<%\346\206@MMz@o\334\006@J\010\003@\266q\243?eO\010@\023\365\220@\376\3101@;\2317@\336\260\177@\002\236i@\014\373\035@\276\320\247@\374\377\320?\262\375\013>\244\262\264@q5\253?G^\307@\241\004\267@\353*\301@\214\266\271@\314\r\207@p\353J@\202\377\300?\334w/@\321\234\242=\307v\204?\262N;@\345\376\214@\265@\276@X\263\246@\244\353#?\'\001\246?\004\341\270@sV\234?\2042\001@\255\252A@\343#\033?be\264@p\373\005@\001\344I@`\253??c\351\252@y\204f?\037\037O@K\022e?(=\276@\233%\n@]N\202@\352+!@\032\243\255@\310\326\233@u\303h?\230\2219@\325y\276@\265\332-@\330\357\260@p@\\>\351\310=?\374_\261@t\355\270@\212\374\t?`\262*@k:\274@\217*R@\0339m?\361\253\031@}9\021@\326\362\303?\313\375v@o7\255@\346\314Q@`\261\007@\276\244H@)\273\224?uy\272@f}\017@X\037\242@\016\2405@\')y@\323\2256@u\020\377?\341\356\017@\233c\350?B\314\"@\r\010\227@\201\245*@~X\034@>,m>&zk?.\264\202@\217gp@\320i\214@{\324\232@\30408?a3B?*=\262@,x3@\"\246w@\367\352\355?B\220\264@\004{\204@B*\000?\227\007\265@\353\363\177@\2613\334?%I\211@sxX@\034C\246@\000\271\220?!\263\273@\010\014\226@\333\346\266@\001\346x=\353X\343?\223\330\373>\352\253L@=:v=6\356\234@;iM@\234\373\354?\373c\222@\254qU@\274K~@,\264\362?,\364\t@K\"\373?\377+8?\002\252\301@\205$ @\242\216\307@\323\377\252@\334\226\231?\342C^@\234\363@@\010\331\021@\200\355\206?$\327\246@\3401\213@\215\"\217=\001\326l?\362Z\332>B\366\212@\025\337\301@\361\263\220@O\237\232@\367{O?\341\271\226@\275\200\200@\257\256\037=\244\'\255@\272>\371?\331\306\325?l\r\271?;\022\254@\013p\013?\267\034\252?\274\326\376?\335\352+@V\304\254>\300\3659>\237\355T@\t\360K=\353\013\265?B\326\255@f\320\"@\344K\354?\273\247\037?Y\213\267@)\204\277?\266\364\227@\255\341S?\341\035^@\304\376\276?6\207\250@)\334\226@\253z\315?U\244\304@W[X@\301\204\026@\243,F@qi\305@\225\203\305@\202\312\210?\353\251\303@\n\315Y>-5i@\002\371X@\235\020\301?5s]@\263\273^?3\265\215?\310\025\211@\342\242\016@\350c\234@\276\356\037@\366m\272@Y\327\212@\223\213\240@\215\366\303@Y\235\210@\340\206\023@\0245\257@<\253^@\263\177\245?\254\271\242@\344/\034?|^\014@\317\272x@\2212\267@t\t\370?g\254I@\022zV@F\216\342?b?\205@\376\204\n@;A\201@\353^\021@ia\322?\315_\240@Z\000\245@:\204l?\274\265\205@E\270v@`\263\336?\0078\253@\336\260s@\210\325\212?\317\356L@S\334\002?\250B\306@\023P\210@\255@\245@\250\302\000@K\021\260@0\3659>\313\373\201@\376\346\207@j\016\223@\231\022\213?\327[u@\0272\202@\0204\204@\010n;@\365\364\365>O\245X@\237\232\272@\"\372\021@|\353\025=7\006\212@w\222\230?g\374{@\364\315\275@k\330\230?#\342\261>\304\251\262@J5\222@\'\245\221?#[|>?\222\223@*\213?@\312\337\233?^{q@\005:z@m\2729@\356\361\307@*\312\032@\234\n~@\"\326\241@\242\360\262@\010\026i@oj\304@\365\302z@M\010\020@u\246T@\272\370\320?\276S\277@\220\212M@\000W\214@\2764\266@\247d\014@:`\240@Z\305\343>f\253\303@H\317\300@w\2500@\233\373w@\004f\307@#,\222?\233\334\220@\033\307$@\025J\244@\215\257\230@{\271[@\013\354\020@;\234\021>\265\320\273?x\253\273@\214\320P@\243\254\252@\374e\242@Z\"\177@i5\251@\264\000\265@{\316\026@]\304\264@N\373\254@FA\231@\265\230\332?o\3111?\003\202|@\n\235N?\031A\003?KK\214@\350\004\311@\320\275\201?\307\237\227?\375\275@@\314 \246@\257\246l?\351$\272@\226\263\213@\252\220/@a\225\005?\3338D@\353\3505@\371\272\261@\314\267\247@\200y\207?Dp\350?\360\340\261@}\034\231@gl\230@\001\310\302@]\276\010@H)~@\265l\304@+\027v@$\261\251?k\242\241@v\325b?\201\202\247@6M\250@\252\350%@\207\024C@\207\302p@\034\360\177@J0\221@.\372\224>\004\273=?\316!=@\324\367\251?\227\312M@\030x\333?\354K\322>\232\343\"@\270\344\036>B\367\273@E/\177@\362\341\030@\275\031I@P\272\233@q\025\002?\365\254\247@\244\303\250?3\005b>\376\0341@\330\352j@\314\273A@~M\251@If\225@)\255\301@\033iz@\300YF@\360\234\203@5\371m@\367\305~@\255\346\354?}\360\031@\373\265*@\346\321\277@\230l\301@\354\311\234?a\221\367?\232^\227@\227,\272@\263\265\353?_\271\272?\233\3460?\201\007\306@{\225\225@\324\261\005@\232\363\217@\323\212\310?\nB\212@:\001\210?\225\245\276@G\314y@c?\034@8Jr@\236>\243@\251\357\242@\254DI?I\247\206@\200\322\300@\031.\376>4\335\261@(\266\233@\215\205|@\257\372\203@\217$V@\257;\273?\020\352.@\000\341\241?\nFt?\020E\236@J\257\213@b\267\216?\036\000\374?\226\354\214@AT\330>~\373\000@\272\345w@,\377\202@\247\357\207@\205\226@@\325\2564@\317\343\251@\273\360\343?e\317\216@\244\370\205@\337\320\231?@R1@\326\220\217@\026\324\272?\203\263g@I\365\000@\t\277\246@_\256j?\265.\013@\207\023`@\217\313\244@\343\363\300@\214\256B@\241\256\377?\3268\270@|T\210?+W\254@\255\332R@\342\236\235@\347\325%@G\240\270@a\236E@\235\224\276@\010\207\216@\370,O@Ry\242@\205\253\020@\327=M@\204\344c@\217\360\200>~\362\212@\r3\265@=\226F@\2511\311?\006Nq@\246\021\230?Cm\034?\230\001_@\275ej?AWy?`\333\261?\326\227\253?\365\007\234@\262\215\243@\013.\272?iM\006@\207Q<@\004z\206@\226\354.@!\275\302@o\365\277@\026\356\265@(n\027?#\225F@\217;\230?Ed\202@w\213\267@\264\034\304?\357\242\247@|\216C@\235?\260@_\205\312>\356\245.@P\212\254@\326\202\314>\252\203d@g\233:>L\372\216@\303\2211@\252\233`>Re}?\334o3@\313K\366?\2200h@\264\313\301@n\314\207@\313G @\350B\250@:W|@m\303\251@\253\2031@\007}\007@\334i\212?\277\225\237@`\007\221@\373\251\224@;\035\246?\017z\207@l\250\343?)}\216?\357\213\030@\342\030S@F\020m@\262L\203@\314x\240@}\2202?{\026T@y^\177@X\202\261@5\034\246?\022\364\255@\254\330\363?\362\350\205@*\263\245@\373\244l?\177\312\223@\0379\307@:\201\005@\254\235\235@\3071\336?\330U\005@\323\276\336?*\350\254@\356\321\253@\221-m?\251Q\257>!\375\031@\206\342\274@#\032\324?\013d\202@\240?\267@uI\266@H:\013@\255\013\211@\277O\270@\301\301\205@\250\330\270@%\307D@\310\275\252@r\210\027@&\024\305?f\366\202@F\027b@\324ww@\203\'\244@Y9q@\037l\277@0p[@\251\365\247@\316\244\212@\315i\235?\217\366E?)\336T@\245\002\236@\017\007\226@r\302\226?\"\302\273?\rF\022@\303\207\222@\241\006\202@"
      }
    }
  }
}
node {
  name: "Const_1"
  op: "Const"
  device: "/device:CPU:0"
  attr {
    key: "_output_shapes"
    value {
      list {
        shape {
          dim {
            size: 1000
          }
          dim {
            size: 1
          }
        }
      }
    }
  }
  attr {
    key: "dtype"
    value {
      type: DT_FLOAT
    }
  }
  attr {
    key: "value"
    value {
      tensor {
        dtype: DT_FLOAT
        tensor_shape {
          dim {
            size: 1000
          }
          dim {
            size: 1
          }
        }
        tensor_content: "\000\000\200?\000\000\200?\000\000\200?\000\000\200?\000\000\200?\000\000\200?\000\000\200?\000\000\200?\000\000\200?\000\000\200?\000\000\200?\000\000\200?\000\000\200?\000\000\200?\000\000\200?\000\000\200?\000\000\200?\000\000\200?\000\000\200?\000\000\200?\000\000\200?\000\000\200?\000\000\200?\000\000\200?\000\000\200?\000\000\200?\000\000\200?\000\000\200?\000\000\200?\000\000\200?\000\000\200?\000\000\200?\000\000\200?\000\000\200?\000\000\200?\000\000\200?\000\000\200?\000\000\200?\000\000\200?\000\000\200?\000\000\200?\000\000\200?\000\000\200?\000\000\200?\000\000\200?\000\000\200?\000\000\200?\000\000\200?\000\000\200?\000\000\200?\000\000\200?\000\000\200?\000\000\200?\000\000\200?\000\000\200?\000\000\200?\000\000\200?\000\000\200?\000\000\200?\000\000\200?\000\000\200?\000\000\200?\000\000\200?\000\000\200?\000\000\200?\000\000\200?\000\000\200?\000\000\200?\000\000\200?\000\000\200?\000\000\200?\000\000\200?\000\000\200?\000\000\200?\000\000\200?\000\000\200?\000\000\200?\000\000\200?\000\000\200?\000\000\200?\000\000\200?\000\000\200?\000\000\200?\000\000\200?\000\000\200?\000\000\200?\000\000\200?\000\000\200?\000\000\200?\000\000\200?\000\000\200?\000\000\200?\000\000\200?\000\000\200?\000\000\200?\000\000\200?\000\000\200?\000\000\200?\000\000\200?\000\000\200?\000\000\200?\000\000\200?\000\000\200?\000\000\200?\000\000\200?\000\000\200?\000\000\200?\000\000\200?\000\000\200?\000\000\200?\000\000\200?\000\000\200?\000\000\200?\000\000\200?\000\000\200?\000\000\200?\000\000\200?\000\000\200?\000\000\200?\000\000\200?\000\000\200?\000\000\200?\000\000\200?\000\000\200?\000\000\200?\000\000\200?\000\000\200?\000\000\200?\000\000\200?\000\000\200?\000\000\200?\000\000\200?\000\000\200?\000\000\200?\000\000\200?\000\000\200?\000\000\200?\000\000\200?\000\000\200?\000\000\200?\000\000\200?\000\000\200?\000\000\200?\000\000\200?\000\000\200?\000\000\200?\000\000\200?\000\000\200?\000\000\200?\000\000\200?\000\000\200?\000\000\200?\000\000\200?\000\000\200?\000\000\200?\000\000\200?\000\000\200?\000\000\200?\000\000\200?\000\000\200?\000\000\200?\000\000\200?\000\000\200?\000\000\200?\000\000\200?\000\000\200?\000\000\200?\000\000\200?\000\000\200?\000\000\200?\000\000\200?\000\000\200?\000\000\200?\000\000\200?\000\000\200?\000\000\200?\000\000\200?\000\000\200?\000\000\200?\000\000\200?\000\000\200?\000\000\200?\000\000\200?\000\000\200?\000\000\200?\000\000\200?\000\000\200?\000\000\200?\000\000\200?\000\000\200?\000\000\200?\000\000\200?\000\000\200?\000\000\200?\000\000\200?\000\000\200?\000\000\200?\000\000\200?\000\000\200?\000\000\200?\000\000\200?\000\000\200?\000\000\200?\000\000\200?\000\000\200?\000\000\200?\000\000\200?\000\000\200?\000\000\200?\000\000\200?\000\000\200?\000\000\200?\000\000\200?\000\000\200?\000\000\200?\000\000\200?\000\000\200?\000\000\200?\000\000\200?\000\000\200?\000\000\200?\000\000\200?\000\000\200?\000\000\200?\000\000\200?\000\000\200?\000\000\200?\000\000\200?\000\000\200?\000\000\200?\000\000\200?\000\000\200?\000\000\200?\000\000\200?\000\000\200?\000\000\200?\000\000\200?\000\000\200?\000\000\200?\000\000\200?\000\000\200?\000\000\200?\000\000\200?\000\000\200?\000\000\200?\000\000\200?\000\000\200?\000\000\200?\000\000\200?\000\000\200?\000\000\200?\000\000\200?\000\000\200?\000\000\200?\000\000\200?\000\000\200?\000\000\200?\000\000\200?\000\000\200?\000\000\200?\000\000\200?\000\000\200?\000\000\200?\000\000\200?\000\000\200?\000\000\200?\000\000\200?\000\000\200?\000\000\200?\000\000\200?\000\000\200?\000\000\200?\000\000\200?\000\000\200?\000\000\200?\000\000\200?\000\000\200?\000\000\200?\000\000\200?\000\000\200?\000\000\200?\000\000\200?\000\000\200?\000\000\200?\000\000\200?\000\000\200?\000\000\200?\000\000\200?\000\000\200?\000\000\200?\000\000\200?\000\000\200?\000\000\200?\000\000\200?\000\000\200?\000\000\200?\000\000\200?\000\000\200?\000\000\200?\000\000\200?\000\000\200?\000\000\200?\000\000\200?\000\000\200?\000\000\200?\000\000\200?\000\000\200?\000\000\200?\000\000\200?\000\000\200?\000\000\200?\000\000\200?\000\000\200?\000\000\200?\000\000\200?\000\000\200?\000\000\200?\000\000\200?\000\000\200?\000\000\200?\000\000\200?\000\000\200?\000\000\200?\000\000\200?\000\000\200?\000\000\200?\000\000\200?\000\000\200?\000\000\200?\000\000\200?\000\000\200?\000\000\200?\000\000\200?\000\000\200?\000\000\200?\000\000\200?\000\000\200?\000\000\200?\000\000\200?\000\000\200?\000\000\200?\000\000\200?\000\000\200?\000\000\200?\000\000\200?\000\000\200?\000\000\200?\000\000\200?\000\000\200?\000\000\200?\000\000\200?\000\000\200?\000\000\200?\000\000\200?\000\000\200?\000\000\200?\000\000\200?\000\000\200?\000\000\200?\000\000\200?\000\000\200?\000\000\200?\000\000\200?\000\000\200?\000\000\200?\000\000\200?\000\000\200?\000\000\200?\000\000\200?\000\000\200?\000\000\200?\000\000\200?\000\000\200?\000\000\200?\000\000\200?\000\000\200?\000\000\200?\000\000\200?\000\000\200?\000\000\200?\000\000\200?\000\000\200?\000\000\200?\000\000\200?\000\000\200?\000\000\200?\000\000\200?\000\000\200?\000\000\200?\000\000\200?\000\000\200?\000\000\200?\000\000\200?\000\000\200?\000\000\200?\000\000\200?\000\000\200?\000\000\200?\000\000\200?\000\000\200?\000\000\200?\000\000\200?\000\000\200?\000\000\200?\000\000\200?\000\000\200?\000\000\200?\000\000\200?\000\000\200?\000\000\200?\000\000\200?\000\000\200?\000\000\200?\000\000\200?\000\000\200?\000\000\200?\000\000\200?\000\000\200?\000\000\200?\000\000\200?\000\000\200?\000\000\200?\000\000\200?\000\000\200?\000\000\200?\000\000\200?\000\000\200?\000\000\200?\000\000\200?\000\000\200?\000\000\200?\000\000\200?\000\000\200?\000\000\200?\000\000\200?\000\000\200?\000\000\200?\000\000\200?\000\000\200?\000\000\200?\000\000\200?\000\000\200?\000\000\200?\000\000\200?\000\000\200?\000\000\200?\000\000\200?\000\000\200?\000\000\200?\000\000\200?\000\000\200?\000\000\200?\000\000\200?\000\000\200?\000\000\200?\000\000\200?\000\000\200?\000\000\200?\000\000\200?\000\000\200?\000\000\200?\000\000\200?\000\000\200?\000\000\200?\000\000\200?\000\000\200?\000\000\200?\000\000\200?\000\000\200?\000\000\200?\000\000\200?\000\000\200?\000\000\200?\000\000\200?\000\000\200?\000\000\200?\000\000\200?\000\000\200?\000\000\200?\000\000\200?\000\000\200?\000\000\200?\000\000\200?\000\000\200?\000\000\200?\000\000\200?\000\000\200?\000\000\200?\000\000\200?\000\000\200?\000\000\200?\000\000\200?\000\000\200?\000\000\200?\000\000\200?\000\000\200?\000\000\200?\000\000\200?\000\000\200?\000\000\200?\000\000\200?\000\000\200?\000\000\200?\000\000\200?\000\000\200?\000\000\200?\000\000\200?\000\000\200?\000\000\200?\000\000\200?\000\000\200?\000\000\200?\000\000\200?\000\000\200?\000\000\200?\000\000\200?\000\000\200?\000\000\200?\000\000\200?\000\000\200?\000\000\200?\000\000\200?\000\000\200?\000\000\200?\000\000\200?\000\000\200?\000\000\200?\000\000\200?\000\000\200?\000\000\200?\000\000\200?\000\000\200?\000\000\200?\000\000\200?\000\000\200?\000\000\200?\000\000\200?\000\000\200?\000\000\200?\000\000\200?\000\000\200?\000\000\200?\000\000\200?\000\000\200?\000\000\200?\000\000\200?\000\000\200?\000\000\200?\000\000\200?\000\000\200?\000\000\200?\000\000\200?\000\000\200?\000\000\200?\000\000\200?\000\000\200?\000\000\200?\000\000\200?\000\000\200?\000\000\200?\000\000\200?\000\000\200?\000\000\200?\000\000\200?\000\000\200?\000\000\200?\000\000\200?\000\000\200?\000\000\200?\000\000\200?\000\000\200?\000\000\200?\000\000\200?\000\000\200?\000\000\200?\000\000\200?\000\000\200?\000\000\200?\000\000\200?\000\000\200?\000\000\200?\000\000\200?\000\000\200?\000\000\200?\000\000\200?\000\000\200?\000\000\200?\000\000\200?\000\000\200?\000\000\200?\000\000\200?\000\000\200?\000\000\200?\000\000\200?\000\000\200?\000\000\200?\000\000\200?\000\000\200?\000\000\200?\000\000\200?\000\000\200?\000\000\200?\000\000\200?\000\000\200?\000\000\200?\000\000\200?\000\000\200?\000\000\200?\000\000\200?\000\000\200?\000\000\200?\000\000\200?\000\000\200?\000\000\200?\000\000\200?\000\000\200?\000\000\200?\000\000\200?\000\000\200?\000\000\200?\000\000\200?\000\000\200?\000\000\200?\000\000\200?\000\000\200?\000\000\200?\000\000\200?\000\000\200?\000\000\200?\000\000\200?\000\000\200?\000\000\200?\000\000\200?\000\000\200?\000\000\200?\000\000\200?\000\000\200?\000\000\200?\000\000\200?\000\000\200?\000\000\200?\000\000\200?\000\000\200?\000\000\200?\000\000\200?\000\000\200?\000\000\200?\000\000\200?\000\000\200?\000\000\200?\000\000\200?\000\000\200?\000\000\200?\000\000\200?\000\000\200?\000\000\200?\000\000\200?\000\000\200?\000\000\200?\000\000\200?\000\000\200?\000\000\200?\000\000\200?\000\000\200?\000\000\200?\000\000\200?\000\000\200?\000\000\200?\000\000\200?\000\000\200?\000\000\200?\000\000\200?\000\000\200?\000\000\200?\000\000\200?\000\000\200?\000\000\200?\000\000\200?\000\000\200?\000\000\200?\000\000\200?\000\000\200?\000\000\200?\000\000\200?\000\000\200?\000\000\200?\000\000\200?\000\000\200?\000\000\200?\000\000\200?\000\000\200?\000\000\200?\000\000\200?\000\000\200?\000\000\200?\000\000\200?\000\000\200?\000\000\200?\000\000\200?\000\000\200?\000\000\200?\000\000\200?\000\000\200?\000\000\200?\000\000\200?\000\000\200?\000\000\200?\000\000\200?\000\000\200?\000\000\200?\000\000\200?\000\000\200?\000\000\200?\000\000\200?\000\000\200?\000\000\200?\000\000\200?\000\000\200?\000\000\200?\000\000\200?\000\000\200?\000\000\200?\000\000\200?\000\000\200?\000\000\200?\000\000\200?\000\000\200?\000\000\200?\000\000\200?\000\000\200?\000\000\200?\000\000\200?\000\000\200?\000\000\200?\000\000\200?\000\000\200?\000\000\200?\000\000\200?\000\000\200?\000\000\200?\000\000\200?\000\000\200?\000\000\200?\000\000\200?\000\000\200?\000\000\200?\000\000\200?\000\000\200?\000\000\200?\000\000\200?\000\000\200?\000\000\200?\000\000\200?\000\000\200?\000\000\200?\000\000\200?\000\000\200?\000\000\200?\000\000\200?\000\000\200?\000\000\200?\000\000\200?\000\000\200?\000\000\200?\000\000\200?\000\000\200?\000\000\200?\000\000\200?\000\000\200?\000\000\200?\000\000\200?\000\000\200?\000\000\200?\000\000\200?\000\000\200?\000\000\200?\000\000\200?\000\000\200?\000\000\200?\000\000\200?\000\000\200?\000\000\200?\000\000\200?\000\000\200?\000\000\200?\000\000\200?\000\000\200?\000\000\200?\000\000\200?\000\000\200?\000\000\200?\000\000\200?\000\000\200?\000\000\200?\000\000\200?\000\000\200?\000\000\200?\000\000\200?\000\000\200?\000\000\200?\000\000\200?\000\000\200?\000\000\200?\000\000\200?\000\000\200?\000\000\200?\000\000\200?\000\000\200?\000\000\200?\000\000\200?\000\000\200?\000\000\200?\000\000\200?\000\000\200?\000\000\200?\000\000\200?\000\000\200?\000\000\200?\000\000\200?\000\000\200?\000\000\200?\000\000\200?\000\000\200?\000\000\200?\000\000\200?\000\000\200?\000\000\200?\000\000\200?\000\000\200?\000\000\200?\000\000\200?\000\000\200?\000\000\200?\000\000\200?\000\000\200?\000\000\200?\000\000\200?\000\000\200?\000\000\200?\000\000\200?\000\000\200?\000\000\200?\000\000\200?\000\000\200?\000\000\200?\000\000\200?\000\000\200?\000\000\200?\000\000\200?\000\000\200?\000\000\200?\000\000\200?\000\000\200?\000\000\200?\000\000\200?\000\000\200?\000\000\200?\000\000\200?\000\000\200?\000\000\200?\000\000\200?\000\000\200?\000\000\200?\000\000\200?\000\000\200?\000\000\200?\000\000\200?\000\000\200?\000\000\200?\000\000\200?\000\000\200?\000\000\200?\000\000\200?\000\000\200?\000\000\200?\000\000\200?\000\000\200?\000\000\200?\000\000\200?\000\000\200?\000\000\200?\000\000\200?\000\000\200?\000\000\200?\000\000\200?\000\000\200?\000\000\200?\000\000\200?\000\000\200?\000\000\200?\000\000\200?\000\000\200?\000\000\200?\000\000\200?\000\000\200?\000\000\200?\000\000\200?\000\000\200?\000\000\200?\000\000\200?\000\000\200?\000\000\200?\000\000\200?\000\000\200?\000\000\200?\000\000\200?\000\000\200?\000\000\200?\000\000\200?\000\000\200?\000\000\200?\000\000\200?\000\000\200?\000\000\200?\000\000\200?\000\000\200?\000\000\200?\000\000\200?\000\000\200?\000\000\200?\000\000\200?\000\000\200?\000\000\200?\000\000\200?\000\000\200?\000\000\200?\000\000\200?\000\000\200?\000\000\200?\000\000\200?\000\000\200?\000\000\200?\000\000\200?\000\000\200?\000\000\200?\000\000\200?\000\000\200?\000\000\200?\000\000\200?\000\000\200?\000\000\200?\000\000\200?\000\000\200?\000\000\200?\000\000\200?\000\000\200?\000\000\200?\000\000\200?\000\000\200?\000\000\200?\000\000\200?\000\000\200?\000\000\200?\000\000\200?\000\000\200?\000\000\200?\000\000\200?\000\000\200?\000\000\200?\000\000\200?\000\000\200?\000\000\200?\000\000\200?\000\000\200?\000\000\200?\000\000\200?\000\000\200?\000\000\200?\000\000\200?\000\000\200?\000\000\200?\000\000\200?\000\000\200?\000\000\200?\000\000\200?\000\000\200?\000\000\200?\000\000\200?\000\000\200?\000\000\200?\000\000\200?\000\000\200?\000\000\200?\000\000\200?\000\000\200?\000\000\200?\000\000\200?\000\000\200?\000\000\200?\000\000\200?\000\000\200?\000\000\200?\000\000\200?\000\000\200?\000\000\200?\000\000\200?\000\000\200?\000\000\200?\000\000\200?\000\000\200?"
      }
    }
  }
}
node {
  name: "Const_2"
  op: "Const"
  device: "/device:CPU:0"
  attr {
    key: "_output_shapes"
    value {
      list {
        shape {
          dim {
            size: 1000
          }
          dim {
            size: 1
          }
        }
      }
    }
  }
  attr {
    key: "dtype"
    value {
      type: DT_FLOAT
    }
  }
  attr {
    key: "value"
    value {
      tensor {
        dtype: DT_FLOAT
        tensor_shape {
          dim {
            size: 1000
          }
          dim {
            size: 1
          }
        }
        tensor_content: "o\350i@\314\036z@\033\023\214@\244\\\252?;\231\205@+ET@y\217\237@6\360j@m\300\264?\001Z\234@WFM@\224B\032@Fz\014?V\320\310@\2724y@\032\346\354?\234\315l@\206%e@\010\325M@\304\024>@\014\210\202@s\300\276@\261M\213@\271t\306@\302G,@\344\231\r@r\311\213@F\266\301@\320\023/@CD\030@j\2550@(lh?\005R\030@&\375\300@\370\250\240@\007\201>>\240\000\310@q\205\204@\312\022\234@\225\206V@(\306\257@}/\300?\240\331\324?B\316\217@\233\242\007?\233]\231>N\341\245@K\251\221?\220\352\277@h=;@3\237\363?|\250l?\242\352\364>\321\240\276@\323\274\004@=\226\233@\234f\230@\252\021?@\333\240\000?Q\244\251?\315\017\302@\233?l@\236\335\261?\210\332\017@8\0131?\204\246Y@\224Q\233@\225\003\354=m64@v\237V@\313\251\210@\004\245\036@\302\322\247@\314?I@l\256\202?\320F\221@\024\022\312>\'\245|@\335: ?E\353\016@t\021\026@\206i\225@\326j|?\302\236\003@\001\361o@\237[%@\253\033\221@\344\203\202@\022\200\206@\374\326\210@\211\262\210>t\213\271@^\326\230@\247TU?\264\273\025@\212\023\257>\240\0173@\324y\252@*\217\257?p\237\335?\371n\277@\335K\271@V\253\227@\024\255\230@\255=y@\031#\222@\202\351\245@X\234\224?-\003\\@A\321\246?r\216\257@X\n\214@\342\315\357?\352\rS@\324\343\202@j\231k@\274\2326=\363\020)@\207\177(@\036$@@\250\347J?\016u\305@s\326\303@\274\005\271@\023\037\266@1\217\245@\016\000\006@\225\246\356?\360\374\257?E\n}@@\030\353><#\257@qjY?~\017\233>\300\334\277@C\352\320?\241\021E@\213\365-@\320\r\n@\204\256K@oq|@\375q\032=\272NK@\371\213\227?\242\376\227@aK\261?P\350\264?8\026\272?\232\364\322?\\nR@%\235$@\210Y\254@\234\236\204@(Xg?\260\020\303@u\252s@\223|\370=\033&-@\3725\272@\354t\263@\177\213e@]7\017@\027\367y@\245e\001?\322\334\230@\273\271\337?*\244[@\3074\267@;\177\302@V\000.>\236\226\233@\225ix@\2526\277?\027\234\007>\230\213\373>\243\303\312?p\262\211@~\317\026@t\210\002@7\340\275>c\017\232@>\233\005@G&1@\371\305\t@\321\221\267@Za=@\"\222\220@\272\337\253@I\357_@7q\255@\003]\n@\220\201\004@\301{\267@\276\361\311<3\276\224@\257?x@\260\026\267@.\206\327>\346\275\n?\212\377\242@\323\355q<M@\226@\276\343f?x~\375<_Ep?\023\305\221@\331\\F@\023\363\356?W \257?N\303\223?\016\264\247@\317\257W@\322D\232@0Nk@{\235\002@I\335K@\206u\222@^\322@@\377C\234@\014q\202@4\266j?\326,\026>\347\305F@\345\215\233@\353A\344?\354\232\242@\227\\\001?3\034\016@\314\265S@\"n\240?\027\277\256@d\006\002@\241%l? \311\266@3\276\232@\276\232\235@\333&&@\326\004\231?\200\310\234<\222\223\231@\335B\366?\030\255\264@\354\247\303@\026^\270@\003\215\275=\372n\222@\310d\306@\005\226\226?\205\203\027@\323\020\262@\025a6?\177?\364?\3334\256@\206\232\203@\023\320\251@\352 \233@\010h3@\257\001,@\302j\"@E\001\213@\320J\223@\001\237\232@\277q\224@f_\224?\314\246\301@6v\276?\207\245\277@DQ\242@\302_\233@t\3644@bl\007@\222c\214?r \247?\030QB@\304\307\275>\363\034\r?i\014\260@\003\254\233@JW\266@\032jm@\362\014\311@\335\305\227@\343(F@be\021@?\354\226?\210t/@\370{v@Z\354\305@m\221\256@.j\276?\305\005\204@\344\223\025@\352\373r@\336\264\242@\006\273\032@\1771\305@\307I\217@^R\301@\220\003\'=\037\260M@\3368\244@B\252\234@u\\\"@\216Q\000?Q0\247@0\227!@\356$\302@\204 \237@\322$#@\r\342\231@\242+\026@\275\367H@\334qj?RL\302@\214\023\344>\231!\307@;\177\317=\267\275\220@\313\264P@\240\'\275@~P\177@\367\267_?\230\337;@\370\024\031@\255L\353?7\310\250?\274\347l@\002@\236@Spu@\323\0205?\351\026\002?\372|\341?~\002\266@Q#\263@\307z\215=\273\0169@\016\'\257@)8\263@\275\nD@p-E@\264cL@\251N\037@\315;\250>B\255\305@<\347\255@+\374|@\224f\300@\227\324\277?\304\254u@Tz\257>Q\320d?\317\305W@\002\217K@\221\007\016@\362\251\371?&\016\030@6\024\217@\025\362\013@\257\346s@z\211\310@\215\214\254@lp\330>p@q@\023`\002@\256\311\270@\312(M?\001\002J@\364\271W@c\\\'@1\014\301>uU\334?\021L\207;\343\303?@\265\t\020@]\004D?1\376\241@<sX?\014;\236@\225\263c@SFQ?f\353\204@1U\261?UQ\002@\1779\220?\013h\\@\257\035\003@J#\313?\354\021\210@`\355\207@T\026\225@\262$\301=)\177\273@\na\251?\316\265c@}\223\216?\253c\307?XY\226?\r\312\272@\023*\n?8~:@\213\255\013@\341\352\221@U\375\350>r\307\222?\332\244Z@\023-r@%\240\205@0\013\\@\004+\215@\376\325\037?S\321K@\234\242\251>*\3223@\265x\005?\016N\036@\350\017\220@\323\346m@]~\267>\372\273\236?\320o\276?|\024\257@|#\270@\342N\266@\343\326\255?n\353\"@!\225\001@\216\023\377?\360\320r@|x\n@E\207\017@\233\351*>\0264\201@:\307\212@\255\314Q@\337y\253@0\302\235@\r\270\211?\350m\306@?\354\303@T\2234?]\200\374?\237\254N?o\024\263@\261\245\260@\'P\021?6\311M@q\352y?\303\241\034?\334h\033@h\341\246@\033\325\233?\003i\223@\204h\013?T\373\266@=!\251@FM\266?\027\326\003@i>\271@S\017\006?\344\225\005?n\347\306>\250\314\231@\275cr@\215\220\274@\0132/@\332\247\202@\007\307b@\315\254\275@\264mJ@P\240\213?\004\341\353>\356a.@\004)\257@\235\206\333>\t\315\365>8&+@\267;E@\303\271\022@\037\254%@\351K\332?\002\276\005@O\210\212@\216\2516@\210\373\354?\n^\n@\n\032\243@\301\237\007?\300\361\355?w\374Q?\365\177:@u\304|@\241\241R@\006@\316?\274=\t@\263X\220@{,\025@ji\023@\315\362\026@\317\032\303@\203W\204>\270\227\033@a\341\307@\034\236\251@\353\264\206?\274\2356?\277\207\016=\226\363\025@\205&\245@\242\365\232@\242\233\254?\275\277\305@\311cE@\"\003R@\213\237\227@\025\261\226?%^\333?\003\002\031@\271\003\243@!\361+@z\243\r@\004\232\304@^\265H@\341|\214@G\332i@\360\234,@\271\235\201@\225\321\234?\003\013_@\250\262\327?n\255b@\3642\232?IZ\205@\346\226t@\004\223\232@p\006]@\020?3>!\313X?E5\212?\235\327\303?\357 \273@Z^b@\305,I@\253\310r@\2723\321?\33588@\004$\307@\245|}@\202W\204@\350~\241@-f\202@M\342\024@%\323G@E\265H@\246\330\231@\022\246\254@r\232r@\224\366\253@\334\322\270?\001\252f@u\263\240@\253\352T@\374\342\256@\207\204\222@6\t\303@\300\330\212>0\351\212@\213\3622@\344w\305@\372\233\024@\002\213\255?4\361\302>\377:\314?\r\3203@\365]#@\264\1777@\006\263,@&\001\226@\311t\345?dp:@x\270\252@\031\311\351?\304i\305@\303@\264@mW\207@\216\010F@\036;\250@Mo\267>\344b\310?\256\233[@\374L\221@\254V\200?\256N\216?\013 \310@\241.\306@7\322g@3\n\314>\217\004\324?5y\275?\233\256e@\nN\205?\272\275\266@]\273\224@9\201\257@{\231\231?\331=E?XP\231@3\313\206@\323\301H?\3468D?\275.\250@\276\375\212>\024\334\322>\251\232\257@\360\226X?\315\270d>#l\007?j\323\224@\351\006\263?\260\017\215?\2358\276@\013\337\303@n;\310@`\333\002?%\241R?\316\325\235@\026\320\211?\000}\307@\241\375u@WJ\030@\030\214+@H]N@2\360s@\271\371\270@\3308\264@>\027d@\017\252\274?\220\r\305>nD.@\332\250#@\263JN@/~\227?\322Lz@H\3744@\017\200\204@\203\026t??\346v@\023s\257@\332\350\010@\367\315\232>\317\264\270@\022\246\321>\\\304\207@i\n\355?\3513\276@a7 @3Wi@\024\222J@;\203k>\232\244\030@B\344\237@ 9\351?\027\325\201?$\364{@Z\022\177@}\233\223@\271#\271@{\260\301@\033U\\@\320\\\265@\205+V@\322\200\256@\366\357\231@\032n\235?\r\370\306@\374\305\346?\0160\024@\023\"J@ss\314?\363\177W@[\211\'@;^=@I\364<@t\326\220?\322\235\245?\313o\007>1R\234?D%\220@\250T\177@2/\356>\242{\003@S\203l@\0262\227@\341=\344?]\305\255>tY\216@\003T>@\312\354\234@\311\211\203@BK\214@\030\327\253?\030\241\300?\364\034\017?\361\257\241@~\202\t@*\213]?\t\223\303@fA,@\274\336\247>\254\355\307?DN\004@x\326\246@/Fe@\343P3@\301\252f?\313;\222?\363\026~@\341\363\361>I\2177>H\371\177@n\361\356?\310\030\200@\226\324\203@\3534\205@\315\203\222@y\311r@44B?\242\210&?\3029<?C\302H@\236\213\243>\323\347\304@\023\017\017@\213a\r@\\\021U@\021\242\215@\006\317\215@4\257\201@\204\321\031@,\006\263@\325b\236@\373\362\236@n<\254@b\325\210@\341\2030@\201\215a?W\263\307@\033\272~@\243\230\254@\232c\271?\233\007\237?`\315\215@zM\237@\264\003\356?\225h\256@\005\261\241@\007\332\225@\034\352\315?\\{\240@\267\322\320?\246\350\213?\031hk@yg\225@\000\215\254?j\204\245@\244k\220@N(\310@m\205\r@?\227T@i\340\305>}\377+?\211\006\023@\330\022\017@\"\200\247<`\305c?2\235\241@\224\334\304@\2775B@\003z\237?\260\366\343?\254\371\310@\255\353\\@\031G\202@Io\264@>S*?\231Z\271?\376]\264?\273\202\237@\335_\205@&\214X?\266\343\200@\003\371\256@\233\000\263@\211\346\032@\210xp@\251\310\300@Ud\220@l^\256@\036\360t@\263\225p?\032\311\224@\201\242\333?n\037\236?\214\250\000@5\241\232@\\\002\272>A\303y?\340|\302@O\022\276@\221\265\000?\245\337\213@F\274\222?p\315\271@s\251\375?\025\365Q>\001\246\263@\241*y@\343\374x@j\330\035@\361\334;@\252\371\024@)\263q@\r\270]@F\333\226@\323P\370?f\004\263?=F\033?-\227\\@\371|G@\237\276\251@8\244\252?\243\312\355?Ja\244@\344\350g?\212\332\223?9\220\235@Z\322r@\307\261\275@\227\000p@\302\326\207?`\227\310@\316E\255@\t\317R?\003\212\225@\274\334\246@A\326\307@jY?@|O\226@\211\026\034@]\033\264?\301\367\240>\014\027k@\010d\231@w\036\260>\356\300\232@ \r\220@\013B\321>?\227\256@\352\311]>\255\233\365?2\350\330?Jdw@\330\217\\@\350hM?\204\231y@\307\001o@\315\255b?M\237\305@\355\374\303@?I\375?7j\262@\334\341\021?F\213;@\2104\354>\245a\262@\024\274\322>k]\276@\361\035\304@\335z\001@\222\361\260@\0032t?}\3210@\230\027\203@A\343^?\275\017\231@i\206\326?\237\354\216@\364\022v@L\255\234@\3478\352?\234T\203@m\376\251@\355\004\271>DF\227@\342\345f@\217\203\237@s\256\346?\243\004\016@s\246C@il\177@\014\371\004@\264\224\206?\323\376\257?a\330G@Jk\212?\256T\317>\206dF@\304\225\t@m\320\274@k5u@Y\210\213>\t\361\231@ax\203@=\300\253@o\323\204?\303\273\214@V\267\217@&u\314?\031T\r@\217\337\030@\334(\000?R#\275@Y\265\254@\007\221i@\271\317\323?\244\371\304@s\026\224@83\261@6m\303@\264\210\206@\322%\245?\222:\310@+\030g@\000\262\307@q\202\255@\320\343\255@r\001\212@\352\022\267@\305\323\235@\200\201\301@r\261\200?\270\003\257@\321@\202@F\024\236@\235\232\267@\r\372\\@*\224\251@\215\355g@\317\376\236>r\177\306@R\n\276?^\353\306@5SX@\320\366\237@}M\006@b\2103@\356\031l@\220\242\200@dy\243@\263*\020@\0312\265@\000u\217=\367\201J@OY\322>\270#\204?\002\244\253@/\327p?\260 }@\2205\200@\033\300\245@\275\026P@6(\255@\2462N@6\341\251@4.\310@L)\342?\304\360\026@\221\004*?o\257L@\325\341\251?<v\244>\376\013>@\220B\203@\r\317*@xF\310@8\016=?>\215{>\000\207#?\\\212\033@\2158{?\362\264\257@)\207 @p \240@\006N\306@v6l@F&\250@\363\361\002@\030\312\225@\302\302v@\225\230!@\013\177&@"
      }
    }
  }
}
node {
  name: "Const_3"
  op: "Const"
  device: "/device:CPU:0"
  attr {
    key: "_output_shapes"
    value {
      list {
        shape {
          dim {
            size: 1000
          }
          dim {
            size: 1
          }
        }
      }
    }
  }
  attr {
    key: "dtype"
    value {
      type: DT_FLOAT
    }
  }
  attr {
    key: "value"
    value {
      tensor {
        dtype: DT_FLOAT
        tensor_shape {
          dim {
            size: 1000
          }
          dim {
            size: 1
          }
        }
        tensor_content: "\000\000\200?\000\000\200?\000\000\200?\000\000\200?\000\000\200?\000\000\200?\000\000\200?\000\000\200?\000\000\200?\000\000\200?\000\000\200?\000\000\200?\000\000\200?\000\000\200?\000\000\200?\000\000\200?\000\000\200?\000\000\200?\000\000\200?\000\000\200?\000\000\200?\000\000\200?\000\000\200?\000\000\200?\000\000\200?\000\000\200?\000\000\200?\000\000\200?\000\000\200?\000\000\200?\000\000\200?\000\000\200?\000\000\200?\000\000\200?\000\000\200?\000\000\200?\000\000\200?\000\000\200?\000\000\200?\000\000\200?\000\000\200?\000\000\200?\000\000\200?\000\000\200?\000\000\200?\000\000\200?\000\000\200?\000\000\200?\000\000\200?\000\000\200?\000\000\200?\000\000\200?\000\000\200?\000\000\200?\000\000\200?\000\000\200?\000\000\200?\000\000\200?\000\000\200?\000\000\200?\000\000\200?\000\000\200?\000\000\200?\000\000\200?\000\000\200?\000\000\200?\000\000\200?\000\000\200?\000\000\200?\000\000\200?\000\000\200?\000\000\200?\000\000\200?\000\000\200?\000\000\200?\000\000\200?\000\000\200?\000\000\200?\000\000\200?\000\000\200?\000\000\200?\000\000\200?\000\000\200?\000\000\200?\000\000\200?\000\000\200?\000\000\200?\000\000\200?\000\000\200?\000\000\200?\000\000\200?\000\000\200?\000\000\200?\000\000\200?\000\000\200?\000\000\200?\000\000\200?\000\000\200?\000\000\200?\000\000\200?\000\000\200?\000\000\200?\000\000\200?\000\000\200?\000\000\200?\000\000\200?\000\000\200?\000\000\200?\000\000\200?\000\000\200?\000\000\200?\000\000\200?\000\000\200?\000\000\200?\000\000\200?\000\000\200?\000\000\200?\000\000\200?\000\000\200?\000\000\200?\000\000\200?\000\000\200?\000\000\200?\000\000\200?\000\000\200?\000\000\200?\000\000\200?\000\000\200?\000\000\200?\000\000\200?\000\000\200?\000\000\200?\000\000\200?\000\000\200?\000\000\200?\000\000\200?\000\000\200?\000\000\200?\000\000\200?\000\000\200?\000\000\200?\000\000\200?\000\000\200?\000\000\200?\000\000\200?\000\000\200?\000\000\200?\000\000\200?\000\000\200?\000\000\200?\000\000\200?\000\000\200?\000\000\200?\000\000\200?\000\000\200?\000\000\200?\000\000\200?\000\000\200?\000\000\200?\000\000\200?\000\000\200?\000\000\200?\000\000\200?\000\000\200?\000\000\200?\000\000\200?\000\000\200?\000\000\200?\000\000\200?\000\000\200?\000\000\200?\000\000\200?\000\000\200?\000\000\200?\000\000\200?\000\000\200?\000\000\200?\000\000\200?\000\000\200?\000\000\200?\000\000\200?\000\000\200?\000\000\200?\000\000\200?\000\000\200?\000\000\200?\000\000\200?\000\000\200?\000\000\200?\000\000\200?\000\000\200?\000\000\200?\000\000\200?\000\000\200?\000\000\200?\000\000\200?\000\000\200?\000\000\200?\000\000\200?\000\000\200?\000\000\200?\000\000\200?\000\000\200?\000\000\200?\000\000\200?\000\000\200?\000\000\200?\000\000\200?\000\000\200?\000\000\200?\000\000\200?\000\000\200?\000\000\200?\000\000\200?\000\000\200?\000\000\200?\000\000\200?\000\000\200?\000\000\200?\000\000\200?\000\000\200?\000\000\200?\000\000\200?\000\000\200?\000\000\200?\000\000\200?\000\000\200?\000\000\200?\000\000\200?\000\000\200?\000\000\200?\000\000\200?\000\000\200?\000\000\200?\000\000\200?\000\000\200?\000\000\200?\000\000\200?\000\000\200?\000\000\200?\000\000\200?\000\000\200?\000\000\200?\000\000\200?\000\000\200?\000\000\200?\000\000\200?\000\000\200?\000\000\200?\000\000\200?\000\000\200?\000\000\200?\000\000\200?\000\000\200?\000\000\200?\000\000\200?\000\000\200?\000\000\200?\000\000\200?\000\000\200?\000\000\200?\000\000\200?\000\000\200?\000\000\200?\000\000\200?\000\000\200?\000\000\200?\000\000\200?\000\000\200?\000\000\200?\000\000\200?\000\000\200?\000\000\200?\000\000\200?\000\000\200?\000\000\200?\000\000\200?\000\000\200?\000\000\200?\000\000\200?\000\000\200?\000\000\200?\000\000\200?\000\000\200?\000\000\200?\000\000\200?\000\000\200?\000\000\200?\000\000\200?\000\000\200?\000\000\200?\000\000\200?\000\000\200?\000\000\200?\000\000\200?\000\000\200?\000\000\200?\000\000\200?\000\000\200?\000\000\200?\000\000\200?\000\000\200?\000\000\200?\000\000\200?\000\000\200?\000\000\200?\000\000\200?\000\000\200?\000\000\200?\000\000\200?\000\000\200?\000\000\200?\000\000\200?\000\000\200?\000\000\200?\000\000\200?\000\000\200?\000\000\200?\000\000\200?\000\000\200?\000\000\200?\000\000\200?\000\000\200?\000\000\200?\000\000\200?\000\000\200?\000\000\200?\000\000\200?\000\000\200?\000\000\200?\000\000\200?\000\000\200?\000\000\200?\000\000\200?\000\000\200?\000\000\200?\000\000\200?\000\000\200?\000\000\200?\000\000\200?\000\000\200?\000\000\200?\000\000\200?\000\000\200?\000\000\200?\000\000\200?\000\000\200?\000\000\200?\000\000\200?\000\000\200?\000\000\200?\000\000\200?\000\000\200?\000\000\200?\000\000\200?\000\000\200?\000\000\200?\000\000\200?\000\000\200?\000\000\200?\000\000\200?\000\000\200?\000\000\200?\000\000\200?\000\000\200?\000\000\200?\000\000\200?\000\000\200?\000\000\200?\000\000\200?\000\000\200?\000\000\200?\000\000\200?\000\000\200?\000\000\200?\000\000\200?\000\000\200?\000\000\200?\000\000\200?\000\000\200?\000\000\200?\000\000\200?\000\000\200?\000\000\200?\000\000\200?\000\000\200?\000\000\200?\000\000\200?\000\000\200?\000\000\200?\000\000\200?\000\000\200?\000\000\200?\000\000\200?\000\000\200?\000\000\200?\000\000\200?\000\000\200?\000\000\200?\000\000\200?\000\000\200?\000\000\200?\000\000\200?\000\000\200?\000\000\200?\000\000\200?\000\000\200?\000\000\200?\000\000\200?\000\000\200?\000\000\200?\000\000\200?\000\000\200?\000\000\200?\000\000\200?\000\000\200?\000\000\200?\000\000\200?\000\000\200?\000\000\200?\000\000\200?\000\000\200?\000\000\200?\000\000\200?\000\000\200?\000\000\200?\000\000\200?\000\000\200?\000\000\200?\000\000\200?\000\000\200?\000\000\200?\000\000\200?\000\000\200?\000\000\200?\000\000\200?\000\000\200?\000\000\200?\000\000\200?\000\000\200?\000\000\200?\000\000\200?\000\000\200?\000\000\200?\000\000\200?\000\000\200?\000\000\200?\000\000\200?\000\000\200?\000\000\200?\000\000\200?\000\000\200?\000\000\200?\000\000\200?\000\000\200?\000\000\200?\000\000\200?\000\000\200?\000\000\200?\000\000\200?\000\000\200?\000\000\200?\000\000\200?\000\000\200?\000\000\200?\000\000\200?\000\000\200?\000\000\200?\000\000\200?\000\000\200?\000\000\200?\000\000\200?\000\000\200?\000\000\200?\000\000\200?\000\000\200?\000\000\200?\000\000\200?\000\000\200?\000\000\200?\000\000\200?\000\000\200?\000\000\200?\000\000\200?\000\000\200?\000\000\200?\000\000\200?\000\000\200?\000\000\200?\000\000\200?\000\000\200?\000\000\200?\000\000\200?\000\000\200?\000\000\200?\000\000\200?\000\000\200?\000\000\200?\000\000\200?\000\000\200?\000\000\200?\000\000\200?\000\000\200?\000\000\200?\000\000\200?\000\000\200?\000\000\200?\000\000\200?\000\000\200?\000\000\200?\000\000\200?\000\000\200?\000\000\200?\000\000\200?\000\000\200?\000\000\200?\000\000\200?\000\000\200?\000\000\200?\000\000\200?\000\000\200?\000\000\200?\000\000\200?\000\000\200?\000\000\200?\000\000\200?\000\000\200?\000\000\200?\000\000\200?\000\000\200?\000\000\200?\000\000\200?\000\000\200?\000\000\200?\000\000\200?\000\000\200?\000\000\200?\000\000\200?\000\000\200?\000\000\200?\000\000\200?\000\000\200?\000\000\200?\000\000\200?\000\000\200?\000\000\200?\000\000\200?\000\000\200?\000\000\200?\000\000\200?\000\000\200?\000\000\200?\000\000\200?\000\000\200?\000\000\200?\000\000\200?\000\000\200?\000\000\200?\000\000\200?\000\000\200?\000\000\200?\000\000\200?\000\000\200?\000\000\200?\000\000\200?\000\000\200?\000\000\200?\000\000\200?\000\000\200?\000\000\200?\000\000\200?\000\000\200?\000\000\200?\000\000\200?\000\000\200?\000\000\200?\000\000\200?\000\000\200?\000\000\200?\000\000\200?\000\000\200?\000\000\200?\000\000\200?\000\000\200?\000\000\200?\000\000\200?\000\000\200?\000\000\200?\000\000\200?\000\000\200?\000\000\200?\000\000\200?\000\000\200?\000\000\200?\000\000\200?\000\000\200?\000\000\200?\000\000\200?\000\000\200?\000\000\200?\000\000\200?\000\000\200?\000\000\200?\000\000\200?\000\000\200?\000\000\200?\000\000\200?\000\000\200?\000\000\200?\000\000\200?\000\000\200?\000\000\200?\000\000\200?\000\000\200?\000\000\200?\000\000\200?\000\000\200?\000\000\200?\000\000\200?\000\000\200?\000\000\200?\000\000\200?\000\000\200?\000\000\200?\000\000\200?\000\000\200?\000\000\200?\000\000\200?\000\000\200?\000\000\200?\000\000\200?\000\000\200?\000\000\200?\000\000\200?\000\000\200?\000\000\200?\000\000\200?\000\000\200?\000\000\200?\000\000\200?\000\000\200?\000\000\200?\000\000\200?\000\000\200?\000\000\200?\000\000\200?\000\000\200?\000\000\200?\000\000\200?\000\000\200?\000\000\200?\000\000\200?\000\000\200?\000\000\200?\000\000\200?\000\000\200?\000\000\200?\000\000\200?\000\000\200?\000\000\200?\000\000\200?\000\000\200?\000\000\200?\000\000\200?\000\000\200?\000\000\200?\000\000\200?\000\000\200?\000\000\200?\000\000\200?\000\000\200?\000\000\200?\000\000\200?\000\000\200?\000\000\200?\000\000\200?\000\000\200?\000\000\200?\000\000\200?\000\000\200?\000\000\200?\000\000\200?\000\000\200?\000\000\200?\000\000\200?\000\000\200?\000\000\200?\000\000\200?\000\000\200?\000\000\200?\000\000\200?\000\000\200?\000\000\200?\000\000\200?\000\000\200?\000\000\200?\000\000\200?\000\000\200?\000\000\200?\000\000\200?\000\000\200?\000\000\200?\000\000\200?\000\000\200?\000\000\200?\000\000\200?\000\000\200?\000\000\200?\000\000\200?\000\000\200?\000\000\200?\000\000\200?\000\000\200?\000\000\200?\000\000\200?\000\000\200?\000\000\200?\000\000\200?\000\000\200?\000\000\200?\000\000\200?\000\000\200?\000\000\200?\000\000\200?\000\000\200?\000\000\200?\000\000\200?\000\000\200?\000\000\200?\000\000\200?\000\000\200?\000\000\200?\000\000\200?\000\000\200?\000\000\200?\000\000\200?\000\000\200?\000\000\200?\000\000\200?\000\000\200?\000\000\200?\000\000\200?\000\000\200?\000\000\200?\000\000\200?\000\000\200?\000\000\200?\000\000\200?\000\000\200?\000\000\200?\000\000\200?\000\000\200?\000\000\200?\000\000\200?\000\000\200?\000\000\200?\000\000\200?\000\000\200?\000\000\200?\000\000\200?\000\000\200?\000\000\200?\000\000\200?\000\000\200?\000\000\200?\000\000\200?\000\000\200?\000\000\200?\000\000\200?\000\000\200?\000\000\200?\000\000\200?\000\000\200?\000\000\200?\000\000\200?\000\000\200?\000\000\200?\000\000\200?\000\000\200?\000\000\200?\000\000\200?\000\000\200?\000\000\200?\000\000\200?\000\000\200?\000\000\200?\000\000\200?\000\000\200?\000\000\200?\000\000\200?\000\000\200?\000\000\200?\000\000\200?\000\000\200?\000\000\200?\000\000\200?\000\000\200?\000\000\200?\000\000\200?\000\000\200?\000\000\200?\000\000\200?\000\000\200?\000\000\200?\000\000\200?\000\000\200?\000\000\200?\000\000\200?\000\000\200?\000\000\200?\000\000\200?\000\000\200?\000\000\200?\000\000\200?\000\000\200?\000\000\200?\000\000\200?\000\000\200?\000\000\200?\000\000\200?\000\000\200?\000\000\200?\000\000\200?\000\000\200?\000\000\200?\000\000\200?\000\000\200?\000\000\200?\000\000\200?\000\000\200?\000\000\200?\000\000\200?\000\000\200?\000\000\200?\000\000\200?\000\000\200?\000\000\200?\000\000\200?\000\000\200?\000\000\200?\000\000\200?\000\000\200?\000\000\200?\000\000\200?\000\000\200?\000\000\200?\000\000\200?\000\000\200?\000\000\200?\000\000\200?\000\000\200?\000\000\200?\000\000\200?\000\000\200?\000\000\200?\000\000\200?\000\000\200?\000\000\200?\000\000\200?\000\000\200?\000\000\200?\000\000\200?\000\000\200?\000\000\200?\000\000\200?\000\000\200?\000\000\200?\000\000\200?\000\000\200?\000\000\200?\000\000\200?\000\000\200?\000\000\200?\000\000\200?\000\000\200?\000\000\200?\000\000\200?\000\000\200?\000\000\200?\000\000\200?\000\000\200?\000\000\200?\000\000\200?\000\000\200?\000\000\200?\000\000\200?\000\000\200?\000\000\200?\000\000\200?\000\000\200?\000\000\200?\000\000\200?\000\000\200?\000\000\200?\000\000\200?\000\000\200?\000\000\200?\000\000\200?\000\000\200?\000\000\200?\000\000\200?\000\000\200?\000\000\200?\000\000\200?\000\000\200?\000\000\200?\000\000\200?\000\000\200?\000\000\200?\000\000\200?\000\000\200?\000\000\200?\000\000\200?\000\000\200?\000\000\200?\000\000\200?\000\000\200?\000\000\200?\000\000\200?\000\000\200?\000\000\200?\000\000\200?\000\000\200?\000\000\200?\000\000\200?\000\000\200?\000\000\200?\000\000\200?\000\000\200?\000\000\200?\000\000\200?\000\000\200?\000\000\200?\000\000\200?\000\000\200?\000\000\200?\000\000\200?\000\000\200?\000\000\200?\000\000\200?\000\000\200?\000\000\200?\000\000\200?\000\000\200?\000\000\200?\000\000\200?\000\000\200?\000\000\200?\000\000\200?\000\000\200?\000\000\200?\000\000\200?\000\000\200?\000\000\200?\000\000\200?\000\000\200?\000\000\200?\000\000\200?\000\000\200?\000\000\200?\000\000\200?\000\000\200?\000\000\200?\000\000\200?\000\000\200?\000\000\200?\000\000\200?\000\000\200?\000\000\200?\000\000\200?\000\000\200?\000\000\200?\000\000\200?\000\000\200?\000\000\200?\000\000\200?\000\000\200?\000\000\200?\000\000\200?\000\000\200?\000\000\200?\000\000\200?\000\000\200?\000\000\200?\000\000\200?\000\000\200?\000\000\200?\000\000\200?\000\000\200?\000\000\200?\000\000\200?\000\000\200?\000\000\200?\000\000\200?\000\000\200?\000\000\200?\000\000\200?\000\000\200?\000\000\200?\000\000\200?"
      }
    }
  }
}
node {
  name: "Const_4"
  op: "Const"
  device: "/device:CPU:0"
  attr {
    key: "_output_shapes"
    value {
      list {
        shape {
          dim {
            size: 1000
          }
          dim {
            size: 1
          }
        }
      }
    }
  }
  attr {
    key: "dtype"
    value {
      type: DT_FLOAT
    }
  }
  attr {
    key: "value"
    value {
      tensor {
        dtype: DT_FLOAT
        tensor_shape {
          dim {
            size: 1000
          }
          dim {
            size: 1
          }
        }
        tensor_content: " \224w@\r8\206@\006Q\271@\014h\023@\237\205\216@\233\223\231>_\224\n@\304\372C@o\327\201@A\025\237@\004\242\375?\225n1@PR&?\242\214\242@\303\246\261@\2561f@\020\362\023@\020\330\246@\t\301Z@\235\265\234@\367\0338@\213\277\002@\372v\000@q\276\252@\003#\235@F*X@\242\346\024@\266\324\023@\033\230\207@9\277\337?\253\256R?!-\245@\n]S?\343\207\201?\372\367B@\222,\306@\'\371J@\362\264\263> \305\271@\340\010\177@8\237L@.\273\217>\216\235\306@$g\207@\352\016\223@\3025\275@\375h\235@2?\326?T\372\226@p\213k<hB\305@\210(P@\201R\213@\014\037\275>i\336\026?f\343\273@\240\261\310?s\354\257@\352!Z@\017\357\215?\243pe@\000\376\232@9\3179@\254\236\302@\026q\346?R\204\'?\037\371\250?|\372\034@>\327\255@\302h\352>/\211\263?.i\262?\243u\266@\354\013\201?\005\362\341? 2\244?f\257X@\265\234\250@|N%?\236\010\221@\3538c>\213\311\n@\336#\236@y h?\327\247\207@\330\215\263@\3407\217@\201\242\013@\315v\310@G\272\266@\"\031\352>\025\264\266?^\310\375=\314\350\303?\335\215O@\316\210G@\230\032\227@\341\247\370?]D\237@\006\241#@\322Dy>\272%(@\344\376\205@\272\361\376?\374\2156@\332u\240@o6K@~\340\363?\321]\317?\014\032\271@\"\t\252@E0\227@\"\227\032@\033\014\217@4m\\?Q\363\246@\020\205\217>^D\014@\001)\206?\337\302Y@$\3414@+\252`@M\tY@{\200\273@d\371\353? \366\272@\006o\016@\227\234(@VH\271@\260&I@at\201@\377s+@\340\360\270@K\341x@\204\247*@\255\343\226?\331<\224@\370^c@#\341\306@\226\035\202@\375\205\300?X\273\332?\240\321D@\257g\247@X\372\232?\2553\202?_\373\231@\317O\335;\304\364\221?%j\247?\305C]@y\276l@z\023\246@\360\211:?\212\302\225@^!O@\245\311^?e\271\246@+\204\034?\"#\200@t/\373?\301\320\257@\237LV@T3\231@[\"\256@\275\270\251@E\321:@\317\217\271@\004\354\212?\213\233:@\355KU@\217\203M?\314[\234@T\360\006@\265\201\310?\231\206%@\020\013\315?\006\227E@K\377\277?\005x\257@\0230|@\347\205\035@\206\311\224@\261\270\300@\027\377\236@\000 2@\356\032\240@I\377\260@x\222~>\264t\032><\272s?\317\257\301@\226 \233@\316\006\212@\006\222\207?L\243\264@K\201\016@ip-@|X\223?\330\374\263@\330\347\316?v\311\254@PO!@\037\250\240>\270\277\206?\231\010\210@xf\010?\034<\022>Z\327K@\226w\036@\244\260t?\333V\201@H\325\300@\\TZ@\230\211\340?\034\272w@k\214\253@\013<\035?\022\032\022@\245\336o@U\005\242?q\263\206@\263\356\274@\226\274\275? xV@QO\204@\366)\240@\205\3678@p\371\247@HR\366?~\225(?(\370<@]\272~@v\3475@\362U\230@\322F0@\370\364\260@\'\370W?\257\023\302@\246{\310@\325`\342?\3512q?\357\213.?\352\005\230@(\244\336?\363\205J?O\036\226@\207[\"@W\366\233?cfS@\007\301r@_\303\204@\242y\336?%\313j?\344\"u?Y\216~@\312\303U@\3424)@\352\332\201@\317N\306@\211i\277@?\247\246@\032\311c=\341Q$@\216(\275>\310\304\030@\350\244$@\r\211\'@[\303\206@\267rg@4\346\231@\241D\265@w\275b@\023\236\230?\213\004\307?o6\255@\304e\300?,\376/@7\005\\@\311\334\357?\350\274p@\342\032b@u\304\277@)z\262@\345\034f@lK\337?=\333j@1\216\267@\021DY@\237H>?!!\344>\327C\273@]\365\362>$\010\224?\2357\342>\263i\033@\000I\302@n\243\247@\356\273\000?\372\340\021@\213\374I?\261\276Q@l\231\346>FQ\364?\030\002\335?\317\206\005@R\037\210@\032\001\200@\000.\270@#)8@\265\0018@\220\303\310@\301\177<?\301o\206@\317\270i>D\364}@\032by@S$\277@F\276\035@y\260\237>\230\022\257>\177\312\252?$\214\310@\223\306\036@\034\250>@\335\274\230?\263\336\226@\215\253\231@\220\301-@\237\2078@\317\n!@\324\253\253@\264\313\017@\363\270\031@\032\037^@\277v/?\213\007I?Y/\204@\376\177h@\226w\206@@\006\235@\311\036w@]3\317?$\005=?\3271|@\342\'\230@\234\237\223@\251|\225@w\274=@|\341\002@\257)\337?6\371\310@\325\035\277@\235U\220@\217\355\301@\317\035+@\304P\017@7\004\216?\314%\310@7\363M@\234\336\245@KG/@\017\224\215@y\n\"@+\274=@u\201\246<\221\261\231@\356\314\022@\203\002\237@\241\036Y@q\334i@x\243\031?%6\245?c\271N@\'\\\207?\321\177\275@\202\377\202?\322V\013@\336\325\000@\377\205\277@\346\025q@\217\321\207@\275\t\001@/7\020@^\022\227@\036`\n@\324Z\200@\356\365L?\260#\231@\"a/@!k\312? \306,@\341_w>E7\327?L\344*@7\002|@\241\325\225@\261\351V@\275\361\315?p\256\236?\230\222\260@b\357\014@\300\243\002@4\233\"@\202>\365=\232\320\263@\014\271\226@\334T\270?\324\204\334?\001\377\023?S\247\251@\234\244\n?\377M\260@\272>\265@\250[\274@\371>\322?\331\177\304@\276\242\203@|\213\300@$c<@L\364\216@I\344\266@\342\017\030@\3161\024@[\273*@\306\203\220@a5;@]\214\242?\362P\242@\013\250\226@]ji?\342\014\216@\271\237\230@\244:\213@\013II?\216/\264@\307AH@B\274\300@-\276\232?\366\272z@YEU?e\235\272@\374\226\221@-(\253@?\313\310?E\331\224@\274\266\225@\324<\217@\342>R@\016\344\t@3\003\261?\226\325\202@\227\336\256@\250B\370?\213^\235@\307#P@\017Y\200@hH\244@\'T`@\212\303\260@T\330v?*g\261@\353\270\t@z\215\014@\360\277\267@\010\231\345?\341t\374?\317\302S@1\325\244@\233A\017?\244\333\213?\332\0039?\025\217F@\036\341\354>\225 \316=6\306s?\325h\264?Y\222\360=\235=\221>\205ch@}\007;@\372H\240?\310Xq?\312\311k?\240\232!@}\265\233@j\306\264@\347,\027@\214\\\202?\247\020\t>\200\246\364>\372\315\337?\030Pv>[\3255@9x\027@Q\215\265@\274\321\001>\253w\323>\370\t\254@\235\234\261@\246\355\340?eV\364>\034\203a@ J\261@?\277l@\224\276\252?Xu\022@\013\303L@)n\316=\374Y\251@$\223\336>G\263S?\336\217\313?N\356\034@\354\363\r@\251\016\261@\310\026\003@\260\305R@`\200\265@\357\027\220@\344*\275@T\277\266@\372%\241@\355\200\204@y\334.@`\235&@$\020h@|a\216@\332\327\257@\304\377|?k\2457@I\231\321?\301\021\264@B+}@\321\231\244?`I\261@\014\225%?\326\313J@\205r\034?\224\322D@sI\023@\026\345\237?\204V\334?Tk\236@\2271!@\377%\270@\302f\272@r\222\264@\205{\225@\320g\017@\366\207a@cl\235@\302-\205@\3251\034@\037\223\205@(2\305?\230\203\"@\245\372\004?\357\350\310@\333\363\277@\276\211\302@g\010\223@\177\363\373=T]\365?\215\"\236@\300\356\255@\264F\014@\372$C@G9\237@&jk@`\233\250?\234\320\263@y\267\217?\005|8@\230\250\027@SFN@\264\233y?R]\262@\r\001\267@\257d7@\203\\)@\0368\246@\'\376\304@\340\351\206?\321\237\222@x}\252@\210LT@/\364\225@\322\367y@\300\215M@e\226\274?\347\031\256@\016\250\256@\204\004\204>\2012\252@\036VS@<\217\"@l\2030?\345~Q@\273\374I@\031\"\242@Gi\203@\351\021\265@o3\221@\311\303\260@L\027\276>q R@\363\344\251@\251\261(@\205\022\245@\323\036\010@l\250\000@q\243_@\031\234\217@\333\233/@U\374\214@\260\001\265@\014y\215@bJ\326>CM\217>\253\034\246@\020\017q=\006Yd@!\302}?\204\267r@\037\372\204@\313L\200=\3665\302?W\246\212@\032|\234?\214\334a@\230D\205@\177\344\256@\354\334\237@\177\212\353?\227R\003@\317+<?\345]\220?aF\201@\n\233\377?\004 \262?G%\010?\033!\241>\326\323\005@nL?@lQ\233@\252z\372?\276\305\264@\257\300\233@\250\364\032@\315:\247@h;\231@T\246:@a\350O@\240\020\362?k=\'@Br~@\237\031\307<\027%\211@C\254\223@\027\025\253@(nA@\306\204\340>\021\231\247@o\004\305@\237\317\345?Px\211@\372\346\033@\3648v@M\337K@\350}=@\330a\020?+\371\340?\020oB@\240\034U@\205\213g@\255?\\@\333\357\223?Z\336<=`\224\362?\360\272\202@9j\005@\245\305~@\206\024\250@\331\036\223@\346m\223@\025\250\310@k\272+@\351\304\263@\234\003U@\337F\350>!+\221@=#~>\366o\373?\207uV@@\"W@#\002\301?\256-j@\307\345\210@\341=a@U\234\231@\033\213E@\034R\306@\353\013\262@\344\022\030>\363\014\224?}\031\204@K\302:@\342Z\205@\274\270\322?OJ\266@\244ky?\311L\265@\236\315\304@q\302\221@\323P\252@\354$\236@\322\335\347?\225q\025?\252\242\225@o2\271?\010Z\242@9jx@!\354\266?\251\271A@\350r\220@\236\001A@\272\220\035@\350\005\373?\315|7@\222\3164@\016*9>\003\352\260@\r\217\265@\224z\'?\273\251=@j\244\371>\265\026\'@\003[\023@\236_T?\003\361V@FI\304@\'\336\t@\022K\226@\220N\243>\270\nX@v\355\310@/D\304@%\233=@\000\'\317>\226]D@?\r\231?\322\001\211@I[\033@\263\201O@\224nu@\374\326\306@\333R*@\032On?WL\207@\245\256\302@\031L\272?y68@\353.\300@)-\001@c<_?l\341\222@\220U\271@\257\260\217@\206a<@\225\243G@$w\232@\000i\264?\003\276\221@%\320\260@\354@4@\331\036\036=\321\376\254>\027\375\331?\006G\025@\205\321\355?\250e\275@\0269\252@\364L,?h\024\305?|\200\033@\374\337Q?\227f\343?\027\005\240@\024\333q?\246\022x@\202\021?@Rw\220@/\252\204@\225\336?@\262\310\014?f\306\027?\025\307\027@\235GF@Aq\255@^l\207?\362)\261@T\350\277@\203\266\225@\032\363\255@\263K{@\'\300\347>}\335\177@\250\016\205@\213\345 @\234\374\200>\241\344\262@\025%\261@\032\210\227>9\355\260@\362LH@\233\310\247@ `\247?\234\234\327>NbC@g\376\234@\214\330\035@uC\330?\220k\010@\032\341\225@rO\231?\311\373\222?\336F\000@YZ\035@8\222}@\201\2273@q\231.@\230\331{?zX\247@\221\221M@\r\3140@/\254\306@\343&\034@JB @j\0355?\207\013\251@\030}\265@\246\237\200@\275v\277@\2655\026@\242\307\265@\315bM@\032\251\242>5M?@N\272?@<\210\246@\254\265>@b\324\263@\222\300\n@\033\343\213@\273\352F@e&\024?\302\241\307?**S@\253\313\334?\275X{@\205t\253@\226\202\232?]k\202@R^I@Q\306\360?\344x{@\030\n\022@\021\255\213@n\245V@\370>c@H\375\234@\267\203\200@\036\367\266@a6F@#\360o@I`\361<\365\250\237@$y\226@\226\237\321?\252*\245@a\t\212?\221\244\215@\021g>@\275o$@\261\200F@\262\266\016@\rx\036@\362d\005@\234\237\234@4\362\017@\372\027#@\211k\226@\006H\361?\200\253\252@\016\305\223@X\207F@\212\356\022?\213\351\356?\"\245\001@Mq\303@l\367\240@\355\035.@\362\262\r@\302\357#?4\373r@@\035\333?\337\264F@:\257\306@\350\225\037@\276 \205@\371\n\220@Zg\243@\364K\302@\016\343\301@B\031\346?\243f\246>m\256v@lbS@\322\250\273@e\320\266??\304!@\224\3672@0Ho@I\021e@\014\345c@\214\204\352?+\247\251@L\243y@=\340\220?W+D?\222MN? \375\013@\3702`>\233\2751?z>h@O\202-@\236\2241@\274\217\035@/\255\272@\376\017\305@8\242\276@\027\3340>\254%\261@%\217\322?m\251S@A\240\235@E\274\221@$\006\303@\314\203\340>\255*\271?u-\336?e\363\273@:\376\213@/(\251@\2452\237>\351\352\031@.\325\227@\325\252\237@6\267\225@\224\310\213@\\W\267@s\2370@\305\033\375?\350\\\200@\261\237f@E\025\'@F\367\275@\307\262\363=\030\n\265>)\020\224?\033H\233@_\247\003@y\237\252>\342\023\307?_\022\023@>\337\243?\307_\215@^\354\234@U\004m@\021\273\355=\211\202\201@\242\001\201@\302W\347? K\271>]\261\264@\2242\254@s\322\203@\326\343\260@\204G\\@.k\231@\"\231\310@\3620\237@\303\032?@d\245\271@\r\0026?z`\217@q\327\333>\252\205H?\017\223O@"
      }
    }
  }
}
node {
  name: "Const_5"
  op: "Const"
  device: "/device:CPU:0"
  attr {
    key: "_output_shapes"
    value {
      list {
        shape {
          dim {
            size: 1000
          }
          dim {
            size: 1
          }
        }
      }
    }
  }
  attr {
    key: "dtype"
    value {
      type: DT_FLOAT
    }
  }
  attr {
    key: "value"
    value {
      tensor {
        dtype: DT_FLOAT
        tensor_shape {
          dim {
            size: 1000
          }
          dim {
            size: 1
          }
        }
        tensor_content: "\000\000\200?\000\000\200?\000\000\200?\000\000\200?\000\000\200?\000\000\200?\000\000\200?\000\000\200?\000\000\200?\000\000\200?\000\000\200?\000\000\200?\000\000\200?\000\000\200?\000\000\200?\000\000\200?\000\000\200?\000\000\200?\000\000\200?\000\000\200?\000\000\200?\000\000\200?\000\000\200?\000\000\200?\000\000\200?\000\000\200?\000\000\200?\000\000\200?\000\000\200?\000\000\200?\000\000\200?\000\000\200?\000\000\200?\000\000\200?\000\000\200?\000\000\200?\000\000\200?\000\000\200?\000\000\200?\000\000\200?\000\000\200?\000\000\200?\000\000\200?\000\000\200?\000\000\200?\000\000\200?\000\000\200?\000\000\200?\000\000\200?\000\000\200?\000\000\200?\000\000\200?\000\000\200?\000\000\200?\000\000\200?\000\000\200?\000\000\200?\000\000\200?\000\000\200?\000\000\200?\000\000\200?\000\000\200?\000\000\200?\000\000\200?\000\000\200?\000\000\200?\000\000\200?\000\000\200?\000\000\200?\000\000\200?\000\000\200?\000\000\200?\000\000\200?\000\000\200?\000\000\200?\000\000\200?\000\000\200?\000\000\200?\000\000\200?\000\000\200?\000\000\200?\000\000\200?\000\000\200?\000\000\200?\000\000\200?\000\000\200?\000\000\200?\000\000\200?\000\000\200?\000\000\200?\000\000\200?\000\000\200?\000\000\200?\000\000\200?\000\000\200?\000\000\200?\000\000\200?\000\000\200?\000\000\200?\000\000\200?\000\000\200?\000\000\200?\000\000\200?\000\000\200?\000\000\200?\000\000\200?\000\000\200?\000\000\200?\000\000\200?\000\000\200?\000\000\200?\000\000\200?\000\000\200?\000\000\200?\000\000\200?\000\000\200?\000\000\200?\000\000\200?\000\000\200?\000\000\200?\000\000\200?\000\000\200?\000\000\200?\000\000\200?\000\000\200?\000\000\200?\000\000\200?\000\000\200?\000\000\200?\000\000\200?\000\000\200?\000\000\200?\000\000\200?\000\000\200?\000\000\200?\000\000\200?\000\000\200?\000\000\200?\000\000\200?\000\000\200?\000\000\200?\000\000\200?\000\000\200?\000\000\200?\000\000\200?\000\000\200?\000\000\200?\000\000\200?\000\000\200?\000\000\200?\000\000\200?\000\000\200?\000\000\200?\000\000\200?\000\000\200?\000\000\200?\000\000\200?\000\000\200?\000\000\200?\000\000\200?\000\000\200?\000\000\200?\000\000\200?\000\000\200?\000\000\200?\000\000\200?\000\000\200?\000\000\200?\000\000\200?\000\000\200?\000\000\200?\000\000\200?\000\000\200?\000\000\200?\000\000\200?\000\000\200?\000\000\200?\000\000\200?\000\000\200?\000\000\200?\000\000\200?\000\000\200?\000\000\200?\000\000\200?\000\000\200?\000\000\200?\000\000\200?\000\000\200?\000\000\200?\000\000\200?\000\000\200?\000\000\200?\000\000\200?\000\000\200?\000\000\200?\000\000\200?\000\000\200?\000\000\200?\000\000\200?\000\000\200?\000\000\200?\000\000\200?\000\000\200?\000\000\200?\000\000\200?\000\000\200?\000\000\200?\000\000\200?\000\000\200?\000\000\200?\000\000\200?\000\000\200?\000\000\200?\000\000\200?\000\000\200?\000\000\200?\000\000\200?\000\000\200?\000\000\200?\000\000\200?\000\000\200?\000\000\200?\000\000\200?\000\000\200?\000\000\200?\000\000\200?\000\000\200?\000\000\200?\000\000\200?\000\000\200?\000\000\200?\000\000\200?\000\000\200?\000\000\200?\000\000\200?\000\000\200?\000\000\200?\000\000\200?\000\000\200?\000\000\200?\000\000\200?\000\000\200?\000\000\200?\000\000\200?\000\000\200?\000\000\200?\000\000\200?\000\000\200?\000\000\200?\000\000\200?\000\000\200?\000\000\200?\000\000\200?\000\000\200?\000\000\200?\000\000\200?\000\000\200?\000\000\200?\000\000\200?\000\000\200?\000\000\200?\000\000\200?\000\000\200?\000\000\200?\000\000\200?\000\000\200?\000\000\200?\000\000\200?\000\000\200?\000\000\200?\000\000\200?\000\000\200?\000\000\200?\000\000\200?\000\000\200?\000\000\200?\000\000\200?\000\000\200?\000\000\200?\000\000\200?\000\000\200?\000\000\200?\000\000\200?\000\000\200?\000\000\200?\000\000\200?\000\000\200?\000\000\200?\000\000\200?\000\000\200?\000\000\200?\000\000\200?\000\000\200?\000\000\200?\000\000\200?\000\000\200?\000\000\200?\000\000\200?\000\000\200?\000\000\200?\000\000\200?\000\000\200?\000\000\200?\000\000\200?\000\000\200?\000\000\200?\000\000\200?\000\000\200?\000\000\200?\000\000\200?\000\000\200?\000\000\200?\000\000\200?\000\000\200?\000\000\200?\000\000\200?\000\000\200?\000\000\200?\000\000\200?\000\000\200?\000\000\200?\000\000\200?\000\000\200?\000\000\200?\000\000\200?\000\000\200?\000\000\200?\000\000\200?\000\000\200?\000\000\200?\000\000\200?\000\000\200?\000\000\200?\000\000\200?\000\000\200?\000\000\200?\000\000\200?\000\000\200?\000\000\200?\000\000\200?\000\000\200?\000\000\200?\000\000\200?\000\000\200?\000\000\200?\000\000\200?\000\000\200?\000\000\200?\000\000\200?\000\000\200?\000\000\200?\000\000\200?\000\000\200?\000\000\200?\000\000\200?\000\000\200?\000\000\200?\000\000\200?\000\000\200?\000\000\200?\000\000\200?\000\000\200?\000\000\200?\000\000\200?\000\000\200?\000\000\200?\000\000\200?\000\000\200?\000\000\200?\000\000\200?\000\000\200?\000\000\200?\000\000\200?\000\000\200?\000\000\200?\000\000\200?\000\000\200?\000\000\200?\000\000\200?\000\000\200?\000\000\200?\000\000\200?\000\000\200?\000\000\200?\000\000\200?\000\000\200?\000\000\200?\000\000\200?\000\000\200?\000\000\200?\000\000\200?\000\000\200?\000\000\200?\000\000\200?\000\000\200?\000\000\200?\000\000\200?\000\000\200?\000\000\200?\000\000\200?\000\000\200?\000\000\200?\000\000\200?\000\000\200?\000\000\200?\000\000\200?\000\000\200?\000\000\200?\000\000\200?\000\000\200?\000\000\200?\000\000\200?\000\000\200?\000\000\200?\000\000\200?\000\000\200?\000\000\200?\000\000\200?\000\000\200?\000\000\200?\000\000\200?\000\000\200?\000\000\200?\000\000\200?\000\000\200?\000\000\200?\000\000\200?\000\000\200?\000\000\200?\000\000\200?\000\000\200?\000\000\200?\000\000\200?\000\000\200?\000\000\200?\000\000\200?\000\000\200?\000\000\200?\000\000\200?\000\000\200?\000\000\200?\000\000\200?\000\000\200?\000\000\200?\000\000\200?\000\000\200?\000\000\200?\000\000\200?\000\000\200?\000\000\200?\000\000\200?\000\000\200?\000\000\200?\000\000\200?\000\000\200?\000\000\200?\000\000\200?\000\000\200?\000\000\200?\000\000\200?\000\000\200?\000\000\200?\000\000\200?\000\000\200?\000\000\200?\000\000\200?\000\000\200?\000\000\200?\000\000\200?\000\000\200?\000\000\200?\000\000\200?\000\000\200?\000\000\200?\000\000\200?\000\000\200?\000\000\200?\000\000\200?\000\000\200?\000\000\200?\000\000\200?\000\000\200?\000\000\200?\000\000\200?\000\000\200?\000\000\200?\000\000\200?\000\000\200?\000\000\200?\000\000\200?\000\000\200?\000\000\200?\000\000\200?\000\000\200?\000\000\200?\000\000\200?\000\000\200?\000\000\200?\000\000\200?\000\000\200?\000\000\200?\000\000\200?\000\000\200?\000\000\200?\000\000\200?\000\000\200?\000\000\200?\000\000\200?\000\000\200?\000\000\200?\000\000\200?\000\000\200?\000\000\200?\000\000\200?\000\000\200?\000\000\200?\000\000\200?\000\000\200?\000\000\200?\000\000\200?\000\000\200?\000\000\200?\000\000\200?\000\000\200?\000\000\200?\000\000\200?\000\000\200?\000\000\200?\000\000\200?\000\000\200?\000\000\200?\000\000\200?\000\000\200?\000\000\200?\000\000\200?\000\000\200?\000\000\200?\000\000\200?\000\000\200?\000\000\200?\000\000\200?\000\000\200?\000\000\200?\000\000\200?\000\000\200?\000\000\200?\000\000\200?\000\000\200?\000\000\200?\000\000\200?\000\000\200?\000\000\200?\000\000\200?\000\000\200?\000\000\200?\000\000\200?\000\000\200?\000\000\200?\000\000\200?\000\000\200?\000\000\200?\000\000\200?\000\000\200?\000\000\200?\000\000\200?\000\000\200?\000\000\200?\000\000\200?\000\000\200?\000\000\200?\000\000\200?\000\000\200?\000\000\200?\000\000\200?\000\000\200?\000\000\200?\000\000\200?\000\000\200?\000\000\200?\000\000\200?\000\000\200?\000\000\200?\000\000\200?\000\000\200?\000\000\200?\000\000\200?\000\000\200?\000\000\200?\000\000\200?\000\000\200?\000\000\200?\000\000\200?\000\000\200?\000\000\200?\000\000\200?\000\000\200?\000\000\200?\000\000\200?\000\000\200?\000\000\200?\000\000\200?\000\000\200?\000\000\200?\000\000\200?\000\000\200?\000\000\200?\000\000\200?\000\000\200?\000\000\200?\000\000\200?\000\000\200?\000\000\200?\000\000\200?\000\000\200?\000\000\200?\000\000\200?\000\000\200?\000\000\200?\000\000\200?\000\000\200?\000\000\200?\000\000\200?\000\000\200?\000\000\200?\000\000\200?\000\000\200?\000\000\200?\000\000\200?\000\000\200?\000\000\200?\000\000\200?\000\000\200?\000\000\200?\000\000\200?\000\000\200?\000\000\200?\000\000\200?\000\000\200?\000\000\200?\000\000\200?\000\000\200?\000\000\200?\000\000\200?\000\000\200?\000\000\200?\000\000\200?\000\000\200?\000\000\200?\000\000\200?\000\000\200?\000\000\200?\000\000\200?\000\000\200?\000\000\200?\000\000\200?\000\000\200?\000\000\200?\000\000\200?\000\000\200?\000\000\200?\000\000\200?\000\000\200?\000\000\200?\000\000\200?\000\000\200?\000\000\200?\000\000\200?\000\000\200?\000\000\200?\000\000\200?\000\000\200?\000\000\200?\000\000\200?\000\000\200?\000\000\200?\000\000\200?\000\000\200?\000\000\200?\000\000\200?\000\000\200?\000\000\200?\000\000\200?\000\000\200?\000\000\200?\000\000\200?\000\000\200?\000\000\200?\000\000\200?\000\000\200?\000\000\200?\000\000\200?\000\000\200?\000\000\200?\000\000\200?\000\000\200?\000\000\200?\000\000\200?\000\000\200?\000\000\200?\000\000\200?\000\000\200?\000\000\200?\000\000\200?\000\000\200?\000\000\200?\000\000\200?\000\000\200?\000\000\200?\000\000\200?\000\000\200?\000\000\200?\000\000\200?\000\000\200?\000\000\200?\000\000\200?\000\000\200?\000\000\200?\000\000\200?\000\000\200?\000\000\200?\000\000\200?\000\000\200?\000\000\200?\000\000\200?\000\000\200?\000\000\200?\000\000\200?\000\000\200?\000\000\200?\000\000\200?\000\000\200?\000\000\200?\000\000\200?\000\000\200?\000\000\200?\000\000\200?\000\000\200?\000\000\200?\000\000\200?\000\000\200?\000\000\200?\000\000\200?\000\000\200?\000\000\200?\000\000\200?\000\000\200?\000\000\200?\000\000\200?\000\000\200?\000\000\200?\000\000\200?\000\000\200?\000\000\200?\000\000\200?\000\000\200?\000\000\200?\000\000\200?\000\000\200?\000\000\200?\000\000\200?\000\000\200?\000\000\200?\000\000\200?\000\000\200?\000\000\200?\000\000\200?\000\000\200?\000\000\200?\000\000\200?\000\000\200?\000\000\200?\000\000\200?\000\000\200?\000\000\200?\000\000\200?\000\000\200?\000\000\200?\000\000\200?\000\000\200?\000\000\200?\000\000\200?\000\000\200?\000\000\200?\000\000\200?\000\000\200?\000\000\200?\000\000\200?\000\000\200?\000\000\200?\000\000\200?\000\000\200?\000\000\200?\000\000\200?\000\000\200?\000\000\200?\000\000\200?\000\000\200?\000\000\200?\000\000\200?\000\000\200?\000\000\200?\000\000\200?\000\000\200?\000\000\200?\000\000\200?\000\000\200?\000\000\200?\000\000\200?\000\000\200?\000\000\200?\000\000\200?\000\000\200?\000\000\200?\000\000\200?\000\000\200?\000\000\200?\000\000\200?\000\000\200?\000\000\200?\000\000\200?\000\000\200?\000\000\200?\000\000\200?\000\000\200?\000\000\200?\000\000\200?\000\000\200?\000\000\200?\000\000\200?\000\000\200?\000\000\200?\000\000\200?\000\000\200?\000\000\200?\000\000\200?\000\000\200?\000\000\200?\000\000\200?\000\000\200?\000\000\200?\000\000\200?\000\000\200?\000\000\200?\000\000\200?\000\000\200?\000\000\200?\000\000\200?\000\000\200?\000\000\200?\000\000\200?\000\000\200?\000\000\200?\000\000\200?\000\000\200?\000\000\200?\000\000\200?\000\000\200?\000\000\200?\000\000\200?\000\000\200?\000\000\200?\000\000\200?\000\000\200?\000\000\200?\000\000\200?\000\000\200?\000\000\200?\000\000\200?\000\000\200?\000\000\200?\000\000\200?\000\000\200?\000\000\200?\000\000\200?\000\000\200?\000\000\200?\000\000\200?\000\000\200?\000\000\200?\000\000\200?\000\000\200?\000\000\200?\000\000\200?\000\000\200?\000\000\200?\000\000\200?\000\000\200?\000\000\200?\000\000\200?\000\000\200?\000\000\200?\000\000\200?\000\000\200?\000\000\200?\000\000\200?\000\000\200?\000\000\200?\000\000\200?\000\000\200?\000\000\200?\000\000\200?\000\000\200?\000\000\200?\000\000\200?\000\000\200?\000\000\200?\000\000\200?\000\000\200?\000\000\200?\000\000\200?\000\000\200?\000\000\200?\000\000\200?\000\000\200?\000\000\200?\000\000\200?\000\000\200?\000\000\200?\000\000\200?\000\000\200?\000\000\200?\000\000\200?\000\000\200?\000\000\200?\000\000\200?\000\000\200?\000\000\200?\000\000\200?\000\000\200?\000\000\200?\000\000\200?\000\000\200?\000\000\200?\000\000\200?\000\000\200?\000\000\200?\000\000\200?\000\000\200?\000\000\200?\000\000\200?\000\000\200?\000\000\200?\000\000\200?\000\000\200?\000\000\200?\000\000\200?\000\000\200?\000\000\200?\000\000\200?\000\000\200?\000\000\200?\000\000\200?\000\000\200?\000\000\200?\000\000\200?\000\000\200?\000\000\200?\000\000\200?\000\000\200?\000\000\200?\000\000\200?\000\000\200?\000\000\200?\000\000\200?\000\000\200?\000\000\200?\000\000\200?\000\000\200?\000\000\200?\000\000\200?\000\000\200?\000\000\200?\000\000\200?\000\000\200?\000\000\200?\000\000\200?\000\000\200?\000\000\200?\000\000\200?\000\000\200?\000\000\200?\000\000\200?\000\000\200?\000\000\200?\000\000\200?\000\000\200?\000\000\200?\000\000\200?\000\000\200?\000\000\200?\000\000\200?\000\000\200?\000\000\200?\000\000\200?\000\000\200?\000\000\200?\000\000\200?\000\000\200?\000\000\200?\000\000\200?"
      }
    }
  }
}
node {
  name: "concat/axis"
  op: "Const"
  device: "/device:CPU:0"
  attr {
    key: "_output_shapes"
    value {
      list {
        shape {
        }
      }
    }
  }
  attr {
    key: "dtype"
    value {
      type: DT_INT32
    }
  }
  attr {
    key: "value"
    value {
      tensor {
        dtype: DT_INT32
        tensor_shape {
        }
        int_val: 1
      }
    }
  }
}
node {
  name: "concat"
  op: "ConcatV2"
  input: "Const"
  input: "Const_2"
  input: "Const_4"
  input: "concat/axis"
  device: "/device:CPU:0"
  attr {
    key: "N"
    value {
      i: 3
    }
  }
  attr {
    key: "T"
    value {
      type: DT_FLOAT
    }
  }
  attr {
    key: "Tidx"
    value {
      type: DT_INT32
    }
  }
  attr {
    key: "_output_shapes"
    value {
      list {
        shape {
          dim {
            size: 1000
          }
          dim {
            size: 3
          }
        }
      }
    }
  }
}
node {
  name: "concat_1/axis"
  op: "Const"
  device: "/device:CPU:0"
  attr {
    key: "_output_shapes"
    value {
      list {
        shape {
        }
      }
    }
  }
  attr {
    key: "dtype"
    value {
      type: DT_INT32
    }
  }
  attr {
    key: "value"
    value {
      tensor {
        dtype: DT_INT32
        tensor_shape {
        }
        int_val: 1
      }
    }
  }
}
node {
  name: "concat_1"
  op: "ConcatV2"
  input: "Const_1"
  input: "Const_3"
  input: "Const_5"
  input: "concat_1/axis"
  device: "/device:CPU:0"
  attr {
    key: "N"
    value {
      i: 3
    }
  }
  attr {
    key: "T"
    value {
      type: DT_FLOAT
    }
  }
  attr {
    key: "Tidx"
    value {
      type: DT_INT32
    }
  }
  attr {
    key: "_output_shapes"
    value {
      list {
        shape {
          dim {
            size: 1000
          }
          dim {
            size: 3
          }
        }
      }
    }
  }
}
node {
  name: "Cumsum/axis"
  op: "Const"
  device: "/device:CPU:0"
  attr {
    key: "_output_shapes"
    value {
      list {
        shape {
        }
      }
    }
  }
  attr {
    key: "dtype"
    value {
      type: DT_INT32
    }
  }
  attr {
    key: "value"
    value {
      tensor {
        dtype: DT_INT32
        tensor_shape {
        }
        int_val: 1
      }
    }
  }
}
node {
  name: "Cumsum"
  op: "Cumsum"
  input: "concat"
  input: "Cumsum/axis"
  device: "/device:CPU:0"
  attr {
    key: "T"
    value {
      type: DT_FLOAT
    }
  }
  attr {
    key: "Tidx"
    value {
      type: DT_INT32
    }
  }
  attr {
    key: "_output_shapes"
    value {
      list {
        shape {
          dim {
            size: 1000
          }
          dim {
            size: 3
          }
        }
      }
    }
  }
  attr {
    key: "exclusive"
    value {
      b: false
    }
  }
  attr {
    key: "reverse"
    value {
      b: false
    }
  }
}
node {
  name: "Sin"
  op: "Sin"
  input: "Cumsum"
  device: "/device:CPU:0"
  attr {
    key: "T"
    value {
      type: DT_FLOAT
    }
  }
  attr {
    key: "_output_shapes"
    value {
      list {
        shape {
          dim {
            size: 1000
          }
          dim {
            size: 3
          }
        }
      }
    }
  }
}
node {
  name: "Cumsum_1/axis"
  op: "Const"
  device: "/device:CPU:0"
  attr {
    key: "_output_shapes"
    value {
      list {
        shape {
        }
      }
    }
  }
  attr {
    key: "dtype"
    value {
      type: DT_INT32
    }
  }
  attr {
    key: "value"
    value {
      tensor {
        dtype: DT_INT32
        tensor_shape {
        }
        int_val: 1
      }
    }
  }
}
node {
  name: "Cumsum_1"
  op: "Cumsum"
  input: "concat"
  input: "Cumsum_1/axis"
  device: "/device:CPU:0"
  attr {
    key: "T"
    value {
      type: DT_FLOAT
    }
  }
  attr {
    key: "Tidx"
    value {
      type: DT_INT32
    }
  }
  attr {
    key: "_output_shapes"
    value {
      list {
        shape {
          dim {
            size: 1000
          }
          dim {
            size: 3
          }
        }
      }
    }
  }
  attr {
    key: "exclusive"
    value {
      b: false
    }
  }
  attr {
    key: "reverse"
    value {
      b: false
    }
  }
}
node {
  name: "Cos"
  op: "Cos"
  input: "Cumsum_1"
  device: "/device:CPU:0"
  attr {
    key: "T"
    value {
      type: DT_FLOAT
    }
  }
  attr {
    key: "_output_shapes"
    value {
      list {
        shape {
          dim {
            size: 1000
          }
          dim {
            size: 3
          }
        }
      }
    }
  }
}
node {
  name: "Mul"
  op: "Mul"
  input: "concat_1"
  input: "Cos"
  device: "/device:CPU:0"
  attr {
    key: "T"
    value {
      type: DT_FLOAT
    }
  }
  attr {
    key: "_output_shapes"
    value {
      list {
        shape {
          dim {
            size: 1000
          }
          dim {
            size: 3
          }
        }
      }
    }
  }
}
node {
  name: "Mul_1"
  op: "Mul"
  input: "concat_1"
  input: "Sin"
  device: "/device:CPU:0"
  attr {
    key: "T"
    value {
      type: DT_FLOAT
    }
  }
  attr {
    key: "_output_shapes"
    value {
      list {
        shape {
          dim {
            size: 1000
          }
          dim {
            size: 3
          }
        }
      }
    }
  }
}
node {
  name: "Sum/reduction_indices"
  op: "Const"
  device: "/device:CPU:0"
  attr {
    key: "_output_shapes"
    value {
      list {
        shape {
        }
      }
    }
  }
  attr {
    key: "dtype"
    value {
      type: DT_INT32
    }
  }
  attr {
    key: "value"
    value {
      tensor {
        dtype: DT_INT32
        tensor_shape {
        }
        int_val: 1
      }
    }
  }
}
node {
  name: "Sum"
  op: "Sum"
  input: "Mul"
  input: "Sum/reduction_indices"
  device: "/device:CPU:0"
  attr {
    key: "T"
    value {
      type: DT_FLOAT
    }
  }
  attr {
    key: "Tidx"
    value {
      type: DT_INT32
    }
  }
  attr {
    key: "_output_shapes"
    value {
      list {
        shape {
          dim {
            size: 1000
          }
          dim {
            size: 1
          }
        }
      }
    }
  }
  attr {
    key: "keep_dims"
    value {
      b: true
    }
  }
}
node {
  name: "Sum_1/reduction_indices"
  op: "Const"
  device: "/device:CPU:0"
  attr {
    key: "_output_shapes"
    value {
      list {
        shape {
        }
      }
    }
  }
  attr {
    key: "dtype"
    value {
      type: DT_INT32
    }
  }
  attr {
    key: "value"
    value {
      tensor {
        dtype: DT_INT32
        tensor_shape {
        }
        int_val: 1
      }
    }
  }
}
node {
  name: "Sum_1"
  op: "Sum"
  input: "Mul_1"
  input: "Sum_1/reduction_indices"
  device: "/device:CPU:0"
  attr {
    key: "T"
    value {
      type: DT_FLOAT
    }
  }
  attr {
    key: "Tidx"
    value {
      type: DT_INT32
    }
  }
  attr {
    key: "_output_shapes"
    value {
      list {
        shape {
          dim {
            size: 1000
          }
          dim {
            size: 1
          }
        }
      }
    }
  }
  attr {
    key: "keep_dims"
    value {
      b: true
    }
  }
}
node {
  name: "Shape"
  op: "Const"
  device: "/device:CPU:0"
  attr {
    key: "_output_shapes"
    value {
      list {
        shape {
          dim {
            size: 2
          }
        }
      }
    }
  }
  attr {
    key: "dtype"
    value {
      type: DT_INT32
    }
  }
  attr {
    key: "value"
    value {
      tensor {
        dtype: DT_INT32
        tensor_shape {
          dim {
            size: 2
          }
        }
        tensor_content: "\350\003\000\000\001\000\000\000"
      }
    }
  }
}
node {
  name: "zeros/Const"
  op: "Const"
  device: "/device:CPU:0"
  attr {
    key: "_output_shapes"
    value {
      list {
        shape {
        }
      }
    }
  }
  attr {
    key: "dtype"
    value {
      type: DT_FLOAT
    }
  }
  attr {
    key: "value"
    value {
      tensor {
        dtype: DT_FLOAT
        tensor_shape {
        }
        float_val: 0.0
      }
    }
  }
}
node {
  name: "zeros"
  op: "Fill"
  input: "Shape"
  input: "zeros/Const"
  device: "/device:CPU:0"
  attr {
    key: "T"
    value {
      type: DT_FLOAT
    }
  }
  attr {
    key: "_output_shapes"
    value {
      list {
        shape {
          dim {
            size: 1000
          }
          dim {
            size: 1
          }
        }
      }
    }
  }
}
node {
  name: "concat_2/axis"
  op: "Const"
  device: "/device:CPU:0"
  attr {
    key: "_output_shapes"
    value {
      list {
        shape {
        }
      }
    }
  }
  attr {
    key: "dtype"
    value {
      type: DT_INT32
    }
  }
  attr {
    key: "value"
    value {
      tensor {
        dtype: DT_INT32
        tensor_shape {
        }
        int_val: 1
      }
    }
  }
}
node {
  name: "concat_2"
  op: "ConcatV2"
  input: "Sum"
  input: "Sum_1"
  input: "zeros"
  input: "concat_2/axis"
  device: "/device:CPU:0"
  attr {
    key: "N"
    value {
      i: 3
    }
  }
  attr {
    key: "T"
    value {
      type: DT_FLOAT
    }
  }
  attr {
    key: "Tidx"
    value {
      type: DT_INT32
    }
  }
  attr {
    key: "_output_shapes"
    value {
      list {
        shape {
          dim {
            size: 1000
          }
          dim {
            size: 3
          }
        }
      }
    }
  }
}
node {
  name: "Const_6"
  op: "Const"
  device: "/device:CPU:0"
  attr {
    key: "_output_shapes"
    value {
      list {
        shape {
          dim {
            size: 1
          }
          dim {
            size: 1
          }
        }
      }
    }
  }
  attr {
    key: "dtype"
    value {
      type: DT_FLOAT
    }
  }
  attr {
    key: "value"
    value {
      tensor {
        dtype: DT_FLOAT
        tensor_shape {
          dim {
            size: 1
          }
          dim {
            size: 1
          }
        }
        float_val: 0.00999999977648
      }
    }
  }
}
node {
  name: "Const_7"
  op: "Const"
  device: "/device:CPU:0"
  attr {
    key: "_output_shapes"
    value {
      list {
        shape {
          dim {
            size: 1
          }
          dim {
            size: 3
          }
        }
      }
    }
  }
  attr {
    key: "dtype"
    value {
      type: DT_FLOAT
    }
  }
  attr {
    key: "value"
    value {
      tensor {
        dtype: DT_FLOAT
        tensor_shape {
          dim {
            size: 1
          }
          dim {
            size: 3
          }
        }
        tensor_content: "\245\005U?f\017\004?\000\000\000\000"
      }
    }
  }
}
node {
  name: "Mul_2"
  op: "Mul"
  input: "Const_7"
  input: "Const_6"
  device: "/device:CPU:0"
  attr {
    key: "T"
    value {
      type: DT_FLOAT
    }
  }
  attr {
    key: "_output_shapes"
    value {
      list {
        shape {
          dim {
            size: 1
          }
          dim {
            size: 3
          }
        }
      }
    }
  }
}
node {
  name: "Const_8"
  op: "Const"
  device: "/device:CPU:0"
  attr {
    key: "_output_shapes"
    value {
      list {
        shape {
          dim {
            size: 1
          }
          dim {
            size: 3
          }
        }
      }
    }
  }
  attr {
    key: "dtype"
    value {
      type: DT_FLOAT
    }
  }
  attr {
    key: "value"
    value {
      tensor {
        dtype: DT_FLOAT
        tensor_shape {
          dim {
            size: 1
          }
          dim {
            size: 3
          }
        }
        tensor_content: "f%\352>.T\024>\000\000\000\000"
      }
    }
  }
}
node {
  name: "Mul_3"
  op: "Mul"
  input: "Const_8"
  input: "Const_6"
  device: "/device:CPU:0"
  attr {
    key: "T"
    value {
      type: DT_FLOAT
    }
  }
  attr {
    key: "_output_shapes"
    value {
      list {
        shape {
          dim {
            size: 1
          }
          dim {
            size: 3
          }
        }
      }
    }
  }
}
node {
  name: "Const_9"
  op: "Const"
  device: "/device:CPU:0"
  attr {
    key: "_output_shapes"
    value {
      list {
        shape {
          dim {
            size: 1
          }
          dim {
            size: 3
          }
        }
      }
    }
  }
  attr {
    key: "dtype"
    value {
      type: DT_FLOAT
    }
  }
  attr {
    key: "value"
    value {
      tensor {
        dtype: DT_FLOAT
        tensor_shape {
          dim {
            size: 1
          }
          dim {
            size: 3
          }
        }
        tensor_content: "g:\030?\013\373M?\000\000\000\000"
      }
    }
  }
}
node {
  name: "Mul_4"
  op: "Mul"
  input: "Const_9"
  input: "Const_6"
  device: "/device:CPU:0"
  attr {
    key: "T"
    value {
      type: DT_FLOAT
    }
  }
  attr {
    key: "_output_shapes"
    value {
      list {
        shape {
          dim {
            size: 1
          }
          dim {
            size: 3
          }
        }
      }
    }
  }
}
node {
  name: "Const_10"
  op: "Const"
  device: "/device:CPU:0"
  attr {
    key: "_output_shapes"
    value {
      list {
        shape {
          dim {
            size: 1
          }
          dim {
            size: 3
          }
        }
      }
    }
  }
  attr {
    key: "dtype"
    value {
      type: DT_FLOAT
    }
  }
  attr {
    key: "value"
    value {
      tensor {
        dtype: DT_FLOAT
        tensor_shape {
          dim {
            size: 1
          }
          dim {
            size: 3
          }
        }
        tensor_content: "\335\314:?\255\204\315>\000\000\000\000"
      }
    }
  }
}
node {
  name: "Mul_5"
  op: "Mul"
  input: "Const_10"
  input: "Const_6"
  device: "/device:CPU:0"
  attr {
    key: "T"
    value {
      type: DT_FLOAT
    }
  }
  attr {
    key: "_output_shapes"
    value {
      list {
        shape {
          dim {
            size: 1
          }
          dim {
            size: 3
          }
        }
      }
    }
  }
}
node {
  name: "Const_11"
  op: "Const"
  device: "/device:CPU:0"
  attr {
    key: "_output_shapes"
    value {
      list {
        shape {
          dim {
            size: 1
          }
          dim {
            size: 3
          }
        }
      }
    }
  }
  attr {
    key: "dtype"
    value {
      type: DT_FLOAT
    }
  }
  attr {
    key: "value"
    value {
      tensor {
        dtype: DT_FLOAT
        tensor_shape {
          dim {
            size: 1
          }
          dim {
            size: 3
          }
        }
        tensor_content: "\355\026i?\027\334$?\000\000\000\000"
      }
    }
  }
}
node {
  name: "Mul_6"
  op: "Mul"
  input: "Const_11"
  input: "Const_6"
  device: "/device:CPU:0"
  attr {
    key: "T"
    value {
      type: DT_FLOAT
    }
  }
  attr {
    key: "_output_shapes"
    value {
      list {
        shape {
          dim {
            size: 1
          }
          dim {
            size: 3
          }
        }
      }
    }
  }
}
node {
  name: "Const_12"
  op: "Const"
  device: "/device:CPU:0"
  attr {
    key: "_output_shapes"
    value {
      list {
        shape {
          dim {
            size: 1
          }
          dim {
            size: 3
          }
        }
      }
    }
  }
  attr {
    key: "dtype"
    value {
      type: DT_FLOAT
    }
  }
  attr {
    key: "value"
    value {
      tensor {
        dtype: DT_FLOAT
        tensor_shape {
          dim {
            size: 1
          }
          dim {
            size: 3
          }
        }
        tensor_content: ",\021z?\270\363\\?\000\000\000\000"
      }
    }
  }
}
node {
  name: "Mul_7"
  op: "Mul"
  input: "Const_12"
  input: "Const_6"
  device: "/device:CPU:0"
  attr {
    key: "T"
    value {
      type: DT_FLOAT
    }
  }
  attr {
    key: "_output_shapes"
    value {
      list {
        shape {
          dim {
            size: 1
          }
          dim {
            size: 3
          }
        }
      }
    }
  }
}
node {
  name: "Const_13"
  op: "Const"
  device: "/device:CPU:0"
  attr {
    key: "_output_shapes"
    value {
      list {
        shape {
          dim {
            size: 1
          }
          dim {
            size: 3
          }
        }
      }
    }
  }
  attr {
    key: "dtype"
    value {
      type: DT_FLOAT
    }
  }
  attr {
    key: "value"
    value {
      tensor {
        dtype: DT_FLOAT
        tensor_shape {
          dim {
            size: 1
          }
          dim {
            size: 3
          }
        }
        tensor_content: "\225\351\366>DO\001?\000\000\000\000"
      }
    }
  }
}
node {
  name: "Mul_8"
  op: "Mul"
  input: "Const_13"
  input: "Const_6"
  device: "/device:CPU:0"
  attr {
    key: "T"
    value {
      type: DT_FLOAT
    }
  }
  attr {
    key: "_output_shapes"
    value {
      list {
        shape {
          dim {
            size: 1
          }
          dim {
            size: 3
          }
        }
      }
    }
  }
}
node {
  name: "Const_14"
  op: "Const"
  device: "/device:CPU:0"
  attr {
    key: "_output_shapes"
    value {
      list {
        shape {
          dim {
            size: 1
          }
          dim {
            size: 3
          }
        }
      }
    }
  }
  attr {
    key: "dtype"
    value {
      type: DT_FLOAT
    }
  }
  attr {
    key: "value"
    value {
      tensor {
        dtype: DT_FLOAT
        tensor_shape {
          dim {
            size: 1
          }
          dim {
            size: 3
          }
        }
        tensor_content: "\371|\362>H\005\r>\000\000\000\000"
      }
    }
  }
}
node {
  name: "Mul_9"
  op: "Mul"
  input: "Const_14"
  input: "Const_6"
  device: "/device:CPU:0"
  attr {
    key: "T"
    value {
      type: DT_FLOAT
    }
  }
  attr {
    key: "_output_shapes"
    value {
      list {
        shape {
          dim {
            size: 1
          }
          dim {
            size: 3
          }
        }
      }
    }
  }
}
node {
  name: "Const_15"
  op: "Const"
  device: "/device:CPU:0"
  attr {
    key: "_output_shapes"
    value {
      list {
        shape {
          dim {
            size: 1
          }
          dim {
            size: 3
          }
        }
      }
    }
  }
  attr {
    key: "dtype"
    value {
      type: DT_FLOAT
    }
  }
  attr {
    key: "value"
    value {
      tensor {
        dtype: DT_FLOAT
        tensor_shape {
          dim {
            size: 1
          }
          dim {
            size: 3
          }
        }
        tensor_content: "\371\033W?\316\243\225>\000\000\000\000"
      }
    }
  }
}
node {
  name: "Mul_10"
  op: "Mul"
  input: "Const_15"
  input: "Const_6"
  device: "/device:CPU:0"
  attr {
    key: "T"
    value {
      type: DT_FLOAT
    }
  }
  attr {
    key: "_output_shapes"
    value {
      list {
        shape {
          dim {
            size: 1
          }
          dim {
            size: 3
          }
        }
      }
    }
  }
}
node {
  name: "Const_16"
  op: "Const"
  device: "/device:CPU:0"
  attr {
    key: "_output_shapes"
    value {
      list {
        shape {
          dim {
            size: 1
          }
          dim {
            size: 3
          }
        }
      }
    }
  }
  attr {
    key: "dtype"
    value {
      type: DT_FLOAT
    }
  }
  attr {
    key: "value"
    value {
      tensor {
        dtype: DT_FLOAT
        tensor_shape {
          dim {
            size: 1
          }
          dim {
            size: 3
          }
        }
        tensor_content: "9\252U>\245\032J?\000\000\000\000"
      }
    }
  }
}
node {
  name: "Mul_11"
  op: "Mul"
  input: "Const_16"
  input: "Const_6"
  device: "/device:CPU:0"
  attr {
    key: "T"
    value {
      type: DT_FLOAT
    }
  }
  attr {
    key: "_output_shapes"
    value {
      list {
        shape {
          dim {
            size: 1
          }
          dim {
            size: 3
          }
        }
      }
    }
  }
}
node {
  name: "Const_17"
  op: "Const"
  device: "/device:CPU:0"
  attr {
    key: "_output_shapes"
    value {
      list {
        shape {
          dim {
            size: 1
          }
          dim {
            size: 3
          }
        }
      }
    }
  }
  attr {
    key: "dtype"
    value {
      type: DT_FLOAT
    }
  }
  attr {
    key: "value"
    value {
      tensor {
        dtype: DT_FLOAT
        tensor_shape {
          dim {
            size: 1
          }
          dim {
            size: 3
          }
        }
        tensor_content: "\243aI?\0339V?\000\000\000\000"
      }
    }
  }
}
node {
  name: "Mul_12"
  op: "Mul"
  input: "Const_17"
  input: "Const_6"
  device: "/device:CPU:0"
  attr {
    key: "T"
    value {
      type: DT_FLOAT
    }
  }
  attr {
    key: "_output_shapes"
    value {
      list {
        shape {
          dim {
            size: 1
          }
          dim {
            size: 3
          }
        }
      }
    }
  }
}
node {
  name: "Const_18"
  op: "Const"
  device: "/device:CPU:0"
  attr {
    key: "_output_shapes"
    value {
      list {
        shape {
          dim {
            size: 1
          }
          dim {
            size: 3
          }
        }
      }
    }
  }
  attr {
    key: "dtype"
    value {
      type: DT_FLOAT
    }
  }
  attr {
    key: "value"
    value {
      tensor {
        dtype: DT_FLOAT
        tensor_shape {
          dim {
            size: 1
          }
          dim {
            size: 3
          }
        }
        tensor_content: "\331\017\004=R\326J?\000\000\000\000"
      }
    }
  }
}
node {
  name: "Mul_13"
  op: "Mul"
  input: "Const_18"
  input: "Const_6"
  device: "/device:CPU:0"
  attr {
    key: "T"
    value {
      type: DT_FLOAT
    }
  }
  attr {
    key: "_output_shapes"
    value {
      list {
        shape {
          dim {
            size: 1
          }
          dim {
            size: 3
          }
        }
      }
    }
  }
}
node {
  name: "Const_19"
  op: "Const"
  device: "/device:CPU:0"
  attr {
    key: "_output_shapes"
    value {
      list {
        shape {
          dim {
            size: 1
          }
          dim {
            size: 3
          }
        }
      }
    }
  }
  attr {
    key: "dtype"
    value {
      type: DT_FLOAT
    }
  }
  attr {
    key: "value"
    value {
      tensor {
        dtype: DT_FLOAT
        tensor_shape {
          dim {
            size: 1
          }
          dim {
            size: 3
          }
        }
