node {
  name: "global_step/Initializer/zeros"
  op: "Const"
  attr {
    key: "_class"
    value {
      list {
        s: "loc:@global_step"
      }
    }
  }
  attr {
    key: "_output_shapes"
    value {
      list {
        shape {
        }
      }
    }
  }
  attr {
    key: "dtype"
    value {
      type: DT_INT64
    }
  }
  attr {
    key: "value"
    value {
      tensor {
        dtype: DT_INT64
        tensor_shape {
        }
        int64_val: 0
      }
    }
  }
}
node {
  name: "global_step"
  op: "VariableV2"
  attr {
    key: "_class"
    value {
      list {
        s: "loc:@global_step"
      }
    }
  }
  attr {
    key: "_output_shapes"
    value {
      list {
        shape {
        }
      }
    }
  }
  attr {
    key: "container"
    value {
      s: ""
    }
  }
  attr {
    key: "dtype"
    value {
      type: DT_INT64
    }
  }
  attr {
    key: "shape"
    value {
      shape {
      }
    }
  }
  attr {
    key: "shared_name"
    value {
      s: ""
    }
  }
}
node {
  name: "global_step/Assign"
  op: "Assign"
  input: "global_step"
  input: "global_step/Initializer/zeros"
  attr {
    key: "T"
    value {
      type: DT_INT64
    }
  }
  attr {
    key: "_class"
    value {
      list {
        s: "loc:@global_step"
      }
    }
  }
  attr {
    key: "_output_shapes"
    value {
      list {
        shape {
        }
      }
    }
  }
  attr {
    key: "use_locking"
    value {
      b: true
    }
  }
  attr {
    key: "validate_shape"
    value {
      b: true
    }
  }
}
node {
  name: "global_step/read"
  op: "Identity"
  input: "global_step"
  attr {
    key: "T"
    value {
      type: DT_INT64
    }
  }
  attr {
    key: "_class"
    value {
      list {
        s: "loc:@global_step"
      }
    }
  }
  attr {
    key: "_output_shapes"
    value {
      list {
        shape {
        }
      }
    }
  }
}
node {
  name: "global_step/IsVariableInitialized"
  op: "IsVariableInitialized"
  input: "global_step"
  attr {
    key: "_class"
    value {
      list {
        s: "loc:@global_step"
      }
    }
  }
  attr {
    key: "_output_shapes"
    value {
      list {
        shape {
        }
      }
    }
  }
  attr {
    key: "dtype"
    value {
      type: DT_INT64
    }
  }
}
node {
  name: "global_step/cond/Switch"
  op: "Switch"
  input: "global_step/IsVariableInitialized"
  input: "global_step/IsVariableInitialized"
  attr {
    key: "T"
    value {
      type: DT_BOOL
    }
  }
  attr {
    key: "_output_shapes"
    value {
      list {
        shape {
        }
        shape {
        }
      }
    }
  }
}
node {
  name: "global_step/cond/switch_t"
  op: "Identity"
  input: "global_step/cond/Switch:1"
  attr {
    key: "T"
    value {
      type: DT_BOOL
    }
  }
  attr {
    key: "_output_shapes"
    value {
      list {
        shape {
        }
      }
    }
  }
}
node {
  name: "global_step/cond/switch_f"
  op: "Identity"
  input: "global_step/cond/Switch"
  attr {
    key: "T"
    value {
      type: DT_BOOL
    }
  }
  attr {
    key: "_output_shapes"
    value {
      list {
        shape {
        }
      }
    }
  }
}
node {
  name: "global_step/cond/pred_id"
  op: "Identity"
  input: "global_step/IsVariableInitialized"
  attr {
    key: "T"
    value {
      type: DT_BOOL
    }
  }
  attr {
    key: "_output_shapes"
    value {
      list {
        shape {
        }
      }
    }
  }
}
node {
  name: "global_step/cond/read"
  op: "Identity"
  input: "global_step/cond/read/Switch:1"
  attr {
    key: "T"
    value {
      type: DT_INT64
    }
  }
  attr {
    key: "_output_shapes"
    value {
      list {
        shape {
        }
      }
    }
  }
}
node {
  name: "global_step/cond/read/Switch"
  op: "RefSwitch"
  input: "global_step"
  input: "global_step/cond/pred_id"
  attr {
    key: "T"
    value {
      type: DT_INT64
    }
  }
  attr {
    key: "_class"
    value {
      list {
        s: "loc:@global_step"
      }
    }
  }
  attr {
    key: "_output_shapes"
    value {
      list {
        shape {
        }
        shape {
        }
      }
    }
  }
}
node {
  name: "global_step/cond/Switch_1"
  op: "Switch"
  input: "global_step/Initializer/zeros"
  input: "global_step/cond/pred_id"
  attr {
    key: "T"
    value {
      type: DT_INT64
    }
  }
  attr {
    key: "_class"
    value {
      list {
        s: "loc:@global_step"
      }
    }
  }
  attr {
    key: "_output_shapes"
    value {
      list {
        shape {
        }
        shape {
        }
      }
    }
  }
}
node {
  name: "global_step/cond/Merge"
  op: "Merge"
  input: "global_step/cond/Switch_1"
  input: "global_step/cond/read"
  attr {
    key: "N"
    value {
      i: 2
    }
  }
  attr {
    key: "T"
    value {
      type: DT_INT64
    }
  }
  attr {
    key: "_output_shapes"
    value {
      list {
        shape {
        }
        shape {
        }
      }
    }
  }
}
node {
  name: "global_step/add/y"
  op: "Const"
  attr {
    key: "_output_shapes"
    value {
      list {
        shape {
        }
      }
    }
  }
  attr {
    key: "dtype"
    value {
      type: DT_INT64
    }
  }
  attr {
    key: "value"
    value {
      tensor {
        dtype: DT_INT64
        tensor_shape {
        }
        int64_val: 0
      }
    }
  }
}
node {
  name: "global_step/add"
  op: "Add"
  input: "global_step/cond/Merge"
  input: "global_step/add/y"
  attr {
    key: "T"
    value {
      type: DT_INT64
    }
  }
  attr {
    key: "_output_shapes"
    value {
      list {
        shape {
        }
      }
    }
  }
}
node {
  name: "Const"
  op: "Const"
  device: "/device:CPU:0"
  attr {
    key: "_output_shapes"
    value {
      list {
        shape {
          dim {
            size: 1000
          }
          dim {
            size: 1
          }
        }
      }
    }
  }
  attr {
    key: "dtype"
    value {
      type: DT_FLOAT
    }
  }
  attr {
    key: "value"
    value {
      tensor {
        dtype: DT_FLOAT
        tensor_shape {
          dim {
            size: 1000
          }
          dim {
            size: 1
          }
        }
        tensor_content: ">\013\230@\027\262\257@\225e\226@v\363\037?Y\030\223@\343\342\203@\270$\t@\364W\326?S\333\311>\306w\364?\r\206\201@\t\021\033@\341\257#@\3440\034@\203\005\240@:`\027@\345i2?\2622\354?*\251%>\370\3500>t$\255@\202,\231@\010r\242@%\177\026@\202\324\006@_\364\200@\327\364\213?\344\212^@V\035\276@<s\270@9p*@\315\'x@y_\206@\234\256Z@|\350{>\360X\261>\231\364\267@\302\335\261?\205\356\302@r%\306@\241\006\212@`\317\274?I\374k@Hf\006@\235\027\221@,\303>?\206\201&@\017\036F@\225t\265@ars>yM @\035\322:@\212q\271>\203oN@\321\266\310@\371\360\325?\257\0303@\353\311\276?\306@\247>\363x\377<\316\364a?\205\260\310@\354\253 @\200\034t@\003\017*@|\252\236@l\353Y@:\327\241?\323\342\274?\251\216\364?\2410\275@\"\201?>6s\202@\343\254\301@,}H@\340\356k@\023 B@\023(i@\356c\206@\317b\273@\022\264q?X\300I@\337\030\274@\202:\230@\t@\234?\013u\002?\350*\305>\273\234\221@\3251Z?K\233\213@n\025\306@x\243\256@}\017\r@\237\210\364?\3715A@Z-\032@\217L\227@\235\256\232@8Rt?\023P\237=\336\023E@Kt\273@\231\'\"@TY*@\304\216\225@\261\213q@c\034\222@~(u@\336\316\277@\354\006v@t\226b@u\253[@p\251c@\251\215\003@W\232\225@\235\223\222?\345\214D@\236\224\231@\327~\276@\231p\215@\365\206\013@\020\321\035@\340O\300@Vu@@{\030e@\371\330,@\371J\030@.c>?l\346\351?\232\214\t@\341(q@\357J\236@\315m\237@\333\023Z?t\025\334?\000\020(?3\355\275@\364\327\245@\312\317\273@\025\025\307?\264\002\227@S\354\247>\335\245\361?\234\022\251@\307*P@\316\032g@YL\276@\rC\221@CBk>K\370\202?X+\275?v2\245?\003\377\265@:\303~@\305\266\033?\370n\300?<s\203@\312\257\202>\200\006\277@\037@\261@1\031M@\263\306\\@\325\215a?\021\240\300@\026O,@r\333B?/\362\003>\255w\307?\014[D@:\371\213@vD\354?\355\025\327?Bx\036@Z\323\302@\274\235\330?)\000\272@\020\334\032@eZZ?\314+\205?j\203\206@\245j\002?\260\317\t@\276\311\244@\247\026d?\274b\303@8\371\376?\000\000E@@r\223?\372\005\242?\323\201c@\345\014\217@\200\255\220@7\337}@\241\031\250@S)\262@\273\310\241?`\346\240@K:f@\023\300}@\314\352\214@[\211:?B\355\203@\374\274\356?]\341_@\220\t\304@\356N%@\335K\265@\323\243\365?\021Ly@\226<2?\000F\r@:S\261@\234\304D@B\227p@\224\013\305@Xp\'?hR(?\023\325\234@pU>@\263\223\347>\002\201\270?\3272\212>\364\277\251?z\332b@\255\374\003@=44@\223\033\177?`\025_@,\251\235@\375U\254@\311(\300?<\177[@\343d\244>\264\322\352?\203r\177@}\223\332?\274\177[@\314]\n@w\264\356?w\306\254@I\345\213@x\276@@\211\346>@t\332\225?\2161\375?G2\027@\263\304\272@\232\326\220?\275\367N@\232$\276@s\304\227@\276\276\002@\354\330\204?\245\013*@\271\237\025>\305\331\202<\310\013\t@>~\276@z\027%?$\305\206@\356\313\266?L\306\224@\313\336\203@m]$>d\022@@+\220\360>\003\237\271@f\032\256?!\236\200@\253\314w@b\222\310@\225\232\262@\222Y\035@W\2074@\330\3017@V\016\036@K\232!@\222\264\024@\200\306\217@2\302\310?\322\026\237@\254\337{@\304\363V@\315u\273?\360\2076@U\r#<_\334\r@\347\247a@k\344\314?n\211\024@kKn@\275\206\207@*\302\300@\325u\362?d+\024?\363\277\245@^$x@\t\034\031>~\207\255@p\344\201@\362\200\262@\001\257\374>\267 n@I8r@\226\321\232?\360G^@\024t\346?F\271E>\367\017\220@L2E?\351\203-@\241\330\312?\346[\251@G1x@\315P\025>\342\321D@\334\325\254@~\031\242@\0347\236?\006BN@\370\007u@!\371\221@\370\242\336?\203\205\267@d\022\002@\300\026*@\3733\210?%\217f@\020+h@K&R@%\262k@-\275\210@\341\337\252@H/\036@\215C\237@\")\007@\022\035m@\023<\264?\333Z\237?;?\242@\016\200\204@\240\252\236@L1\266@q(\301@\235\310\275@\035\246\234@\t,\233@\260\025B@\021\264\232?\020\211\007@\376^\202>\027\023L@\304\277B@\277\225\306@w\363\302@\215A\265>N\361:@\314\007\200?\305\264\220@\031|\357>\364y\303@\321\025\322?\330\313\275?\306\033\014@\370\266J>\214\260\261?\034 \212@Q\250G?\032\340U@\363-\212@}\263\354?\253\257\277@y\203\307@#c\272@mdX?3\2050>\277\273\247@\203+\257@\377\235\242@\377\206\200@\351i%>\361W\305@\224\177\306@x\366\257@@\225}@\n\334h@\036D\232@\321\235\323?(\272\302>f\004\203>\311\373\214@Q\005o@\303\370a@\350Ar@/\340p@\270\342\335=\350\315\245@,\201\261@\252\273n@\322K\223>>\035\021@lVc@\220\ri@\330$\312?\247\361\227@\366\027\020>\330y3@*!?@u\341\220>\2055\241@]\0044?\301aH@\202\022\347?\360&\004@\034\227\254@\2368\235@\200\037\031@\n\305\022?\t\315\334?R\360\272@\016L;@~;\250@\336\264\007@\235t\301@\331\271\255@o\031C?5\001B@\016\032\250@\323]\220@?\266\256@kG\243@\235Q\304@\351\327Z?l\326F@\366\350I@\034\244\006>\263g\262?=\343E@\361\004\325?F\240#@\013\351k@\214\307\247@\204\022b@:\331\026@\002[\254@f\234~@[\374\002@\006\351\200?\272\311\013@\270\025\276@\205i\356?4\313\224@$\302\207@\371\260\340?\203\307\375?~a\365=\275\266\302@\000+0@\361S\242@\265f\245@\375\372\302@;\366\215>xF\243@R;Y@on3@\321\236\027@+!;@\263\236\010?\334M\254@[#\263@B\314\340=H\344\225@\240\321\240@NX\306@#\021O?\3113?@\240\305\256@\334\004\330?\321\306\230?\017\217\221@q\357\265?\353|\230?\234\347\021@x\346\232@\344DH@\267\316\327?$Z9?\336Y\257@O\366o@\277\356\252@\277v_@\271\373r@\361t\274@\374h>@\377\274\230@i\271\223?\021\374 @\224\251\244@\325\300\243?&\233\t@\230z<@*\203^@\203\316\357?\013\255\262?\032\321\200@\314\033&@\014bd@\323?\310@\031\337\300?8\240\257@\322J0?\213\357\374?\325\341\377?\370\307\310@n\345\317?|\274\232@/\206\246@\311G\206@\366mI@5\324\210@r\017\264??\007]@,\243\253@\324\\\310@\3658\252@sp\222@V\263\245?%\350`?v\360\264@\261\007\017?\334p3@\246\305N@\363\341\201@\276\323\004@\220\342 @\353\365\305@\372#Y@\031\311\021?G:\014@ZR\027@\266N\302@\212\312c@\013\206\205?\246\022\224@G\n\373>\267]\323>/\231\244@\242\000\246@i\342\211@\352\236 ?iU\034?\336\200\023@\2723\274@.{\257@\254XT@\021\227\271@e\\Z@\016 \310@\361\300\030?\3262\341?\020\311\260@\237=E@\233\327\023@h\3532@\202\235\017@n\245\267<\374\2525@\336\025+@a\315g@E\023\037@\253\013\221@\217o\026@\335n\347?\237!`@\363m\241@\235\301a@\220\245\201@6S\273@\366\032\337=\355:\022?r\231\320>\241\t\344?m\025i@\032\221\266@\000\250\304>\341\322\264>\364\3714@\370\020/@\315\213J?\342\305\222@\317\312A@[I\244@N\304\223@\361\240!?\013\207\250@\"\307\201@[\254\342?.\324U@Rj\003?OT\323>\3644\274>\315\262\364?f}0@853@2\302\212@B\264,@\226\240\241?\2472y@\035;$@\025\336D@Y\355\250?\224It@-\341\326>\325\361\037@\257m\271@\251o\177@\333\375\275?\277\334B>^ \221@\256\322\204?$\312V@\017\224\357=%\261!>;\027\024@j\332\267@$b\357?\212\006\275@M\315\305@@\212\262>h\207\206@U\361\202?\004\307\022?>~\265@K\251\272@\240\021\203@\345\n\030?I\320]@\331\252U@\214\000\020@\230Z\366?\315\324\236?\002\320\211@\331\3314>\336\317\217@HN\203?\255&u@\310K\317>\r\271q@Dj\315?\\\247{@V1p@\036\335\333?\214+9@j\360\017?3\327\022@\274\247\213?>\241d@\333\276\277>2\342\247@\272\255[@\267\305\245@\035\247{@}7G@\221\354\333?o\014\252@C\001a@\311\376\267@5Dh?\357\336\255@\343f\032?FlD@\253\322\036>\t\\\\@\266\306\254?\021\211w@\213\001\263@\352w(?-\034g@\327E\235?\364\004*?N\035\377?M\333b@\344\017v?\364`q@\r`\271@5\336\267@\351\351s@\337\217\255@!\355\250@$\017\227>2Q\272@\361\347\275?M\275H?,\027\353>\311\'\204@\234\235\001@h\035\305@\304\322\211@#\032\007>\327o\217@f8\363=\r\007\"@\361\313\221@E\302\241@B\212\210@m\004\267?\027\372\364?\032SI@f?C?\370\240\272?\333J\272@\234v.?\2542\326?\005\215k@\3503\340>t\375\212@\r\266\231@\3421[?\220r~@F3\362?\016\026\r@p\272J@20\036@\377:\272@\003\251)@\025\252\222@\263\323\201@\2200\253@\025\232\246@1^\204@\003\315`?\355r\227@\330\350U?\351\245\221@2\310\307@*\000\256@\311N\365?\373\3228@o\205?@\311f\230@\035\232X@Gb\260@<\332t@\3241\274@49\273@\252\304t@O\261\343>\017\371\002@\313\353u@\374\004k?\375\312\026@{`\212@\255\013E@GRO@\346\275\343?\313xZ?\023[/@\301\306\001@\265O\377?\372\0177@r\037B@\266\317\227?\336\202W?\203\274@@8C*@@\207M@\331\027\300@>\251\203@\003\253;?L\215e@\005\236L@M\\\277?C/\264@rd\214@XU\227?z\332k@\365\251\210@1n\207@\234\021Y?>\324\265@^A\225@\237\333\204@\200\336\036@^\001\255@e\261\236@\033e\214@\247\276<@\014\030E@Ck\262@dc@@:C\366>\227\273\006@\364p\345?.\003\264>\373a:?y\366\350>7\254\374>r\353\234?\2020M@J\210\245@\273-\217?\321-9?F\204\267@$F\234@\005\270\223?:\017\257@k\3634@\306\207j@\250\235\303@G\327\276@\366\016\343?qo!@\361\301\262@\203\t\326?\207\220i@\273\021z@uP\346>\037\t\235@,y\200?\3717\276@\'\020\256@\215P\360=\214\014\220@&\177\232@%\372\252@j\2103@\255\311\271@\023\336\326<_l\201@\210G\226@\027\306I@\337\346\016@\212\375\022?\334C)@S/\205@Z\002\030@=\204\301@5s\247@\262\220r@\301G\302@P\215\354?\375\336\204@/\\\273@\305o\310?\3157\271@\003}7@X\300\251@\213\333\264@\200F\271@y8\336?PE\227@fH\203@ [\205? {g@VR\204@b\234>?\311;-@]\205\025@\333T6@\\O\221@\341\001\223@0\003G@\310\312c@\367\271\267@\004\373\214@`\250\221??[\254>:\253J?X(\016@0\251M@{\225?@\324([@W\034\220@\006\237\346?\215^/@v\341\242@L\205\376>\263\243\346?\223\031\257?\2067)@\"\225\200@>~\251@\240&\214@\372\\\236@\326\005\223@\345\345\207@i\205\362?\350\000\311?\010\277\262@O\202\265@\233\010\217@\307}\r@\025(Y@\3620@@\310`\306@\300\365\270?\010\337\032@P[}@\316}\305@\002_\222@\207}\222@b\317\227?\375i\204?P\312\006@f\327Z?\364-\244@\232\022\370?\221i*@\315\242q@\203\265\307?T\242f@\253\251u=:}\322?\345\233\221@\362\025\245@\324\301\207@d\327\202@\3376\221?\240q4?\323\210\234@\242\216\257@J\307a=\353\347s@\362\337!?#\263x@\252T\303@N\177\313?_\367A@>\021H@X?\302@\013\304\350?h\n\226@2\020\257@\3074$@\035\370\240@\325\006\262@\335\216I@\026wO?n\232\236@\360#,@i\323\264@\355\370\273>l\032l?\205\211\213?\375X\022>t\363\232?,\020V@\202\036\263@\205\250+@\376\262\006@F7\272@\3455\017>\336)\026@%n7@<\311\235@\035W\273>\363y\221@\246n\260@\354\214\226@\031\250.@(\023\276?\340\376\277@\360\270\\@\247S\301?8\262\363?5\247\340?)X\253@a\202\246@\226P\024?/*\036=\250\364\224@\010\355r?0\226\255?;o\263@\311\337T@\261\234\020@\327\360\274@u\300\337?\020\345\r@\241\343\371?\361\336\307@\350\021\r?D(I@\204YO@\225qT@\370\340\321>\242\tH@\323\366\342?\003\360\206?\340*\211=\005\225\221@\261\010d<0:\237@\241\013\302@\331\344\220>\"\275\215@j\342\244?\327P\212?\355\371\267>\223\2563@"
      }
    }
  }
}
node {
  name: "Const_1"
  op: "Const"
  device: "/device:CPU:0"
  attr {
    key: "_output_shapes"
    value {
      list {
        shape {
          dim {
            size: 1000
          }
          dim {
            size: 1
          }
        }
      }
    }
  }
  attr {
    key: "dtype"
    value {
      type: DT_FLOAT
    }
  }
  attr {
    key: "value"
    value {
      tensor {
        dtype: DT_FLOAT
        tensor_shape {
          dim {
            size: 1000
          }
          dim {
            size: 1
          }
        }
        tensor_content: "\000\000\200?\000\000\200?\000\000\200?\000\000\200?\000\000\200?\000\000\200?\000\000\200?\000\000\200?\000\000\200?\000\000\200?\000\000\200?\000\000\200?\000\000\200?\000\000\200?\000\000\200?\000\000\200?\000\000\200?\000\000\200?\000\000\200?\000\000\200?\000\000\200?\000\000\200?\000\000\200?\000\000\200?\000\000\200?\000\000\200?\000\000\200?\000\000\200?\000\000\200?\000\000\200?\000\000\200?\000\000\200?\000\000\200?\000\000\200?\000\000\200?\000\000\200?\000\000\200?\000\000\200?\000\000\200?\000\000\200?\000\000\200?\000\000\200?\000\000\200?\000\000\200?\000\000\200?\000\000\200?\000\000\200?\000\000\200?\000\000\200?\000\000\200?\000\000\200?\000\000\200?\000\000\200?\000\000\200?\000\000\200?\000\000\200?\000\000\200?\000\000\200?\000\000\200?\000\000\200?\000\000\200?\000\000\200?\000\000\200?\000\000\200?\000\000\200?\000\000\200?\000\000\200?\000\000\200?\000\000\200?\000\000\200?\000\000\200?\000\000\200?\000\000\200?\000\000\200?\000\000\200?\000\000\200?\000\000\200?\000\000\200?\000\000\200?\000\000\200?\000\000\200?\000\000\200?\000\000\200?\000\000\200?\000\000\200?\000\000\200?\000\000\200?\000\000\200?\000\000\200?\000\000\200?\000\000\200?\000\000\200?\000\000\200?\000\000\200?\000\000\200?\000\000\200?\000\000\200?\000\000\200?\000\000\200?\000\000\200?\000\000\200?\000\000\200?\000\000\200?\000\000\200?\000\000\200?\000\000\200?\000\000\200?\000\000\200?\000\000\200?\000\000\200?\000\000\200?\000\000\200?\000\000\200?\000\000\200?\000\000\200?\000\000\200?\000\000\200?\000\000\200?\000\000\200?\000\000\200?\000\000\200?\000\000\200?\000\000\200?\000\000\200?\000\000\200?\000\000\200?\000\000\200?\000\000\200?\000\000\200?\000\000\200?\000\000\200?\000\000\200?\000\000\200?\000\000\200?\000\000\200?\000\000\200?\000\000\200?\000\000\200?\000\000\200?\000\000\200?\000\000\200?\000\000\200?\000\000\200?\000\000\200?\000\000\200?\000\000\200?\000\000\200?\000\000\200?\000\000\200?\000\000\200?\000\000\200?\000\000\200?\000\000\200?\000\000\200?\000\000\200?\000\000\200?\000\000\200?\000\000\200?\000\000\200?\000\000\200?\000\000\200?\000\000\200?\000\000\200?\000\000\200?\000\000\200?\000\000\200?\000\000\200?\000\000\200?\000\000\200?\000\000\200?\000\000\200?\000\000\200?\000\000\200?\000\000\200?\000\000\200?\000\000\200?\000\000\200?\000\000\200?\000\000\200?\000\000\200?\000\000\200?\000\000\200?\000\000\200?\000\000\200?\000\000\200?\000\000\200?\000\000\200?\000\000\200?\000\000\200?\000\000\200?\000\000\200?\000\000\200?\000\000\200?\000\000\200?\000\000\200?\000\000\200?\000\000\200?\000\000\200?\000\000\200?\000\000\200?\000\000\200?\000\000\200?\000\000\200?\000\000\200?\000\000\200?\000\000\200?\000\000\200?\000\000\200?\000\000\200?\000\000\200?\000\000\200?\000\000\200?\000\000\200?\000\000\200?\000\000\200?\000\000\200?\000\000\200?\000\000\200?\000\000\200?\000\000\200?\000\000\200?\000\000\200?\000\000\200?\000\000\200?\000\000\200?\000\000\200?\000\000\200?\000\000\200?\000\000\200?\000\000\200?\000\000\200?\000\000\200?\000\000\200?\000\000\200?\000\000\200?\000\000\200?\000\000\200?\000\000\200?\000\000\200?\000\000\200?\000\000\200?\000\000\200?\000\000\200?\000\000\200?\000\000\200?\000\000\200?\000\000\200?\000\000\200?\000\000\200?\000\000\200?\000\000\200?\000\000\200?\000\000\200?\000\000\200?\000\000\200?\000\000\200?\000\000\200?\000\000\200?\000\000\200?\000\000\200?\000\000\200?\000\000\200?\000\000\200?\000\000\200?\000\000\200?\000\000\200?\000\000\200?\000\000\200?\000\000\200?\000\000\200?\000\000\200?\000\000\200?\000\000\200?\000\000\200?\000\000\200?\000\000\200?\000\000\200?\000\000\200?\000\000\200?\000\000\200?\000\000\200?\000\000\200?\000\000\200?\000\000\200?\000\000\200?\000\000\200?\000\000\200?\000\000\200?\000\000\200?\000\000\200?\000\000\200?\000\000\200?\000\000\200?\000\000\200?\000\000\200?\000\000\200?\000\000\200?\000\000\200?\000\000\200?\000\000\200?\000\000\200?\000\000\200?\000\000\200?\000\000\200?\000\000\200?\000\000\200?\000\000\200?\000\000\200?\000\000\200?\000\000\200?\000\000\200?\000\000\200?\000\000\200?\000\000\200?\000\000\200?\000\000\200?\000\000\200?\000\000\200?\000\000\200?\000\000\200?\000\000\200?\000\000\200?\000\000\200?\000\000\200?\000\000\200?\000\000\200?\000\000\200?\000\000\200?\000\000\200?\000\000\200?\000\000\200?\000\000\200?\000\000\200?\000\000\200?\000\000\200?\000\000\200?\000\000\200?\000\000\200?\000\000\200?\000\000\200?\000\000\200?\000\000\200?\000\000\200?\000\000\200?\000\000\200?\000\000\200?\000\000\200?\000\000\200?\000\000\200?\000\000\200?\000\000\200?\000\000\200?\000\000\200?\000\000\200?\000\000\200?\000\000\200?\000\000\200?\000\000\200?\000\000\200?\000\000\200?\000\000\200?\000\000\200?\000\000\200?\000\000\200?\000\000\200?\000\000\200?\000\000\200?\000\000\200?\000\000\200?\000\000\200?\000\000\200?\000\000\200?\000\000\200?\000\000\200?\000\000\200?\000\000\200?\000\000\200?\000\000\200?\000\000\200?\000\000\200?\000\000\200?\000\000\200?\000\000\200?\000\000\200?\000\000\200?\000\000\200?\000\000\200?\000\000\200?\000\000\200?\000\000\200?\000\000\200?\000\000\200?\000\000\200?\000\000\200?\000\000\200?\000\000\200?\000\000\200?\000\000\200?\000\000\200?\000\000\200?\000\000\200?\000\000\200?\000\000\200?\000\000\200?\000\000\200?\000\000\200?\000\000\200?\000\000\200?\000\000\200?\000\000\200?\000\000\200?\000\000\200?\000\000\200?\000\000\200?\000\000\200?\000\000\200?\000\000\200?\000\000\200?\000\000\200?\000\000\200?\000\000\200?\000\000\200?\000\000\200?\000\000\200?\000\000\200?\000\000\200?\000\000\200?\000\000\200?\000\000\200?\000\000\200?\000\000\200?\000\000\200?\000\000\200?\000\000\200?\000\000\200?\000\000\200?\000\000\200?\000\000\200?\000\000\200?\000\000\200?\000\000\200?\000\000\200?\000\000\200?\000\000\200?\000\000\200?\000\000\200?\000\000\200?\000\000\200?\000\000\200?\000\000\200?\000\000\200?\000\000\200?\000\000\200?\000\000\200?\000\000\200?\000\000\200?\000\000\200?\000\000\200?\000\000\200?\000\000\200?\000\000\200?\000\000\200?\000\000\200?\000\000\200?\000\000\200?\000\000\200?\000\000\200?\000\000\200?\000\000\200?\000\000\200?\000\000\200?\000\000\200?\000\000\200?\000\000\200?\000\000\200?\000\000\200?\000\000\200?\000\000\200?\000\000\200?\000\000\200?\000\000\200?\000\000\200?\000\000\200?\000\000\200?\000\000\200?\000\000\200?\000\000\200?\000\000\200?\000\000\200?\000\000\200?\000\000\200?\000\000\200?\000\000\200?\000\000\200?\000\000\200?\000\000\200?\000\000\200?\000\000\200?\000\000\200?\000\000\200?\000\000\200?\000\000\200?\000\000\200?\000\000\200?\000\000\200?\000\000\200?\000\000\200?\000\000\200?\000\000\200?\000\000\200?\000\000\200?\000\000\200?\000\000\200?\000\000\200?\000\000\200?\000\000\200?\000\000\200?\000\000\200?\000\000\200?\000\000\200?\000\000\200?\000\000\200?\000\000\200?\000\000\200?\000\000\200?\000\000\200?\000\000\200?\000\000\200?\000\000\200?\000\000\200?\000\000\200?\000\000\200?\000\000\200?\000\000\200?\000\000\200?\000\000\200?\000\000\200?\000\000\200?\000\000\200?\000\000\200?\000\000\200?\000\000\200?\000\000\200?\000\000\200?\000\000\200?\000\000\200?\000\000\200?\000\000\200?\000\000\200?\000\000\200?\000\000\200?\000\000\200?\000\000\200?\000\000\200?\000\000\200?\000\000\200?\000\000\200?\000\000\200?\000\000\200?\000\000\200?\000\000\200?\000\000\200?\000\000\200?\000\000\200?\000\000\200?\000\000\200?\000\000\200?\000\000\200?\000\000\200?\000\000\200?\000\000\200?\000\000\200?\000\000\200?\000\000\200?\000\000\200?\000\000\200?\000\000\200?\000\000\200?\000\000\200?\000\000\200?\000\000\200?\000\000\200?\000\000\200?\000\000\200?\000\000\200?\000\000\200?\000\000\200?\000\000\200?\000\000\200?\000\000\200?\000\000\200?\000\000\200?\000\000\200?\000\000\200?\000\000\200?\000\000\200?\000\000\200?\000\000\200?\000\000\200?\000\000\200?\000\000\200?\000\000\200?\000\000\200?\000\000\200?\000\000\200?\000\000\200?\000\000\200?\000\000\200?\000\000\200?\000\000\200?\000\000\200?\000\000\200?\000\000\200?\000\000\200?\000\000\200?\000\000\200?\000\000\200?\000\000\200?\000\000\200?\000\000\200?\000\000\200?\000\000\200?\000\000\200?\000\000\200?\000\000\200?\000\000\200?\000\000\200?\000\000\200?\000\000\200?\000\000\200?\000\000\200?\000\000\200?\000\000\200?\000\000\200?\000\000\200?\000\000\200?\000\000\200?\000\000\200?\000\000\200?\000\000\200?\000\000\200?\000\000\200?\000\000\200?\000\000\200?\000\000\200?\000\000\200?\000\000\200?\000\000\200?\000\000\200?\000\000\200?\000\000\200?\000\000\200?\000\000\200?\000\000\200?\000\000\200?\000\000\200?\000\000\200?\000\000\200?\000\000\200?\000\000\200?\000\000\200?\000\000\200?\000\000\200?\000\000\200?\000\000\200?\000\000\200?\000\000\200?\000\000\200?\000\000\200?\000\000\200?\000\000\200?\000\000\200?\000\000\200?\000\000\200?\000\000\200?\000\000\200?\000\000\200?\000\000\200?\000\000\200?\000\000\200?\000\000\200?\000\000\200?\000\000\200?\000\000\200?\000\000\200?\000\000\200?\000\000\200?\000\000\200?\000\000\200?\000\000\200?\000\000\200?\000\000\200?\000\000\200?\000\000\200?\000\000\200?\000\000\200?\000\000\200?\000\000\200?\000\000\200?\000\000\200?\000\000\200?\000\000\200?\000\000\200?\000\000\200?\000\000\200?\000\000\200?\000\000\200?\000\000\200?\000\000\200?\000\000\200?\000\000\200?\000\000\200?\000\000\200?\000\000\200?\000\000\200?\000\000\200?\000\000\200?\000\000\200?\000\000\200?\000\000\200?\000\000\200?\000\000\200?\000\000\200?\000\000\200?\000\000\200?\000\000\200?\000\000\200?\000\000\200?\000\000\200?\000\000\200?\000\000\200?\000\000\200?\000\000\200?\000\000\200?\000\000\200?\000\000\200?\000\000\200?\000\000\200?\000\000\200?\000\000\200?\000\000\200?\000\000\200?\000\000\200?\000\000\200?\000\000\200?\000\000\200?\000\000\200?\000\000\200?\000\000\200?\000\000\200?\000\000\200?\000\000\200?\000\000\200?\000\000\200?\000\000\200?\000\000\200?\000\000\200?\000\000\200?\000\000\200?\000\000\200?\000\000\200?\000\000\200?\000\000\200?\000\000\200?\000\000\200?\000\000\200?\000\000\200?\000\000\200?\000\000\200?\000\000\200?\000\000\200?\000\000\200?\000\000\200?\000\000\200?\000\000\200?\000\000\200?\000\000\200?\000\000\200?\000\000\200?\000\000\200?\000\000\200?\000\000\200?\000\000\200?\000\000\200?\000\000\200?\000\000\200?\000\000\200?\000\000\200?\000\000\200?\000\000\200?\000\000\200?\000\000\200?\000\000\200?\000\000\200?\000\000\200?\000\000\200?\000\000\200?\000\000\200?\000\000\200?\000\000\200?\000\000\200?\000\000\200?\000\000\200?\000\000\200?\000\000\200?\000\000\200?\000\000\200?\000\000\200?\000\000\200?\000\000\200?\000\000\200?\000\000\200?\000\000\200?\000\000\200?\000\000\200?\000\000\200?\000\000\200?\000\000\200?\000\000\200?\000\000\200?\000\000\200?\000\000\200?\000\000\200?\000\000\200?\000\000\200?\000\000\200?\000\000\200?\000\000\200?\000\000\200?\000\000\200?\000\000\200?\000\000\200?\000\000\200?\000\000\200?\000\000\200?\000\000\200?\000\000\200?\000\000\200?\000\000\200?\000\000\200?\000\000\200?\000\000\200?\000\000\200?\000\000\200?\000\000\200?\000\000\200?\000\000\200?\000\000\200?\000\000\200?\000\000\200?\000\000\200?\000\000\200?\000\000\200?\000\000\200?\000\000\200?\000\000\200?\000\000\200?\000\000\200?\000\000\200?\000\000\200?\000\000\200?\000\000\200?\000\000\200?\000\000\200?\000\000\200?\000\000\200?\000\000\200?\000\000\200?\000\000\200?\000\000\200?\000\000\200?\000\000\200?\000\000\200?\000\000\200?\000\000\200?\000\000\200?\000\000\200?\000\000\200?\000\000\200?\000\000\200?\000\000\200?\000\000\200?\000\000\200?\000\000\200?\000\000\200?\000\000\200?\000\000\200?\000\000\200?\000\000\200?\000\000\200?\000\000\200?\000\000\200?\000\000\200?\000\000\200?\000\000\200?\000\000\200?\000\000\200?\000\000\200?\000\000\200?\000\000\200?\000\000\200?\000\000\200?\000\000\200?\000\000\200?\000\000\200?\000\000\200?\000\000\200?\000\000\200?\000\000\200?\000\000\200?\000\000\200?\000\000\200?\000\000\200?\000\000\200?\000\000\200?\000\000\200?\000\000\200?\000\000\200?\000\000\200?\000\000\200?\000\000\200?\000\000\200?\000\000\200?\000\000\200?\000\000\200?\000\000\200?\000\000\200?\000\000\200?\000\000\200?\000\000\200?\000\000\200?\000\000\200?\000\000\200?\000\000\200?\000\000\200?\000\000\200?\000\000\200?\000\000\200?\000\000\200?\000\000\200?\000\000\200?\000\000\200?\000\000\200?\000\000\200?\000\000\200?\000\000\200?\000\000\200?\000\000\200?\000\000\200?\000\000\200?\000\000\200?\000\000\200?\000\000\200?\000\000\200?\000\000\200?\000\000\200?\000\000\200?\000\000\200?\000\000\200?\000\000\200?\000\000\200?\000\000\200?\000\000\200?\000\000\200?\000\000\200?\000\000\200?\000\000\200?\000\000\200?\000\000\200?\000\000\200?\000\000\200?\000\000\200?\000\000\200?\000\000\200?\000\000\200?\000\000\200?\000\000\200?\000\000\200?\000\000\200?\000\000\200?\000\000\200?\000\000\200?\000\000\200?\000\000\200?\000\000\200?\000\000\200?\000\000\200?\000\000\200?\000\000\200?\000\000\200?\000\000\200?\000\000\200?\000\000\200?\000\000\200?\000\000\200?\000\000\200?\000\000\200?\000\000\200?\000\000\200?\000\000\200?"
      }
    }
  }
}
node {
  name: "Const_2"
  op: "Const"
  device: "/device:CPU:0"
  attr {
    key: "_output_shapes"
    value {
      list {
        shape {
          dim {
            size: 1000
          }
          dim {
            size: 1
          }
        }
      }
    }
  }
  attr {
    key: "dtype"
    value {
      type: DT_FLOAT
    }
  }
  attr {
    key: "value"
    value {
      tensor {
        dtype: DT_FLOAT
        tensor_shape {
          dim {
            size: 1000
          }
          dim {
            size: 1
          }
        }
        tensor_content: ";\230+@v\\d@@\234y@\0206X@\223\251T@\220K\323>.\303\214@cr%?\354\224\223@m\312=@\274\225\\@\361N\023=\366il?\236\242\303@3\031z@\244\210\217@\006j\350?F\367\332?\202\\_@\032\206\302?y*\336?%\"\003>X\202\213@v\262\200@1\336\336?\003\216\033@d\032U@\233\344\177@\310G\240@\004\337-@x\344\205@\234D\213@&\243\262@\245Kw@\270\031\310@\371\362_@L6\242@\026\3324?L!\272@\274\232-<H\375\343?&\031c@\013\255\242@u\005\223@\276\323g@\262\t\371>\352\235d@\3201\226@]\'@@[\325\025>q\023\315>\372\360\276@Z\272\271@\333\371x@\333\355\216?\235\230\270@\340\224\260@/y\224@ \262.@\370\202!@\332RY@\330z\262>N.\256@\234\n\310@Aj\300@\"w~@\270\275\304@\375\321j@\260\251\241>\036\376\365>;\177\366?\n\237G@\321\n\230@\330\210u@j\312\217@\370\323\212@,\2529@p\271(@h\301\267@N\314#@\267\334\203?\266\303\251?\337\3303?LC!@~KB@]u\202@@\240|@PZ\004@m\241\230?-\266\246?\035`3@\rI\365?\261Zb>9\223\221?\236\001\017@E\221\312?cT ?K\257\203?&\263\226>\232%\n?\332?\232?*\201#@92\345?g\256\301?\333\275\307@\330a\303@k\313\213?\3251\026@\242\223\226@*\364#@z\241\307@\306\232n>OF\326?\257\321\226?b\177\221?r\372\034?\242\311\224@\217\027u@\274\347\025@\342\265\263@\303_\215@\rE\330?3\303\345>t&y@\236\027G@H\366T?0\003T@\305\351\301@T\020\210@\032>\357?\'\200T=0\253\253?\231\373Q@\363h\323?\243\007\204@\217O\301@\306\375\303@\007\233\254@\312\270\306@f\340\332?\331\0136?\037G\302@\0148-@\010\267\017@\225\353g@\023\336\312=r\205>@f\200\223@f\036\372?\362\014v?mS\035@\301+\214@\225\326d@\021\256\213@\276\330\241@\255\226\305?\272\257\303@\273`\234@\340j\302@\212\'\273@\021\247\306@\376\234\030@I{\335?V=\224@E\"x@\374\312\301?\247=\332?\020\227\200?\313m\223@^\317l?\026\252\247?\311\322\274@\212\023\002?\310\234\377>R\272B@\340\2663?\036\201\026@\005\360U@\312\206\241?}be@V\013\225@\n\227\222@ci2@\033\215>@1\370#@\000n1@\263\352N@\264\351\253@\265\233X@\270\365\201?\036T\260@\0077\017?\r\316\212@.T\243@\225\023\034?\370\361\255?A$\241@l\034>@\272\217(?\nx\226?\225Q}?\346\272\303@\363\035\252@d\r\324?\270\261f@B?\031@\326:\234@\244\210\212?\233\226\274@\236\277`=\373b\214@\234\315m@\024\367@@\335\341\221?\0043\004@\26451@\350\200\246@\t\216\254?W\335\244@\206\033\353?\031=\230@\235O\277@\204\204\300@\215\000\356?o\342\270@\364\016\246@\377\205\230@\330T\256?\342\335\224@/ i@8\223\204@S\227#@S^\255@4&\242@\273;\021@\216\312\016@\316\245\205@\307Hj@\252\177\037@\001\252\210@\"\336\010?3\325\223>MA\227@D\217x@w\356\206@\272\036\016@\234L\031?\317\202\202@\306\220\246@\274\266\326?\356\200h@+\243\024@\253\201\230>^\257\201@4\227\272@\332b\204@\221r\211@\362\003\322>0\317Y@\344\203\307?\370D\274?\2367\312>\251\'\307@:\321\270@\027\221\216@B\325\210@\263\205\217@\223\220\205?\257\210\274?l6W@\272\033I@\037?z@\227U\254>8\366c?\006\316\n@\r@\326?\311;\253@d\322\253?[\344\347?\031\t\237@\222/\266@\272\362\232@\327\3509@\177\262)@D\225N@\346\364\\>JTN@e\213;?#\254\244>\340\355\345>\3314\216@P\343\270@\005\322z@\035I\364>\231\247-@\235\206\235@\3173\005@\225\214S@\260\335(@A\n\305@Q\014\371>\217YF?h\214\256@KQ`?L\311\304@\270\007\250?\257W\205@\361J\031?\330\241@?\000\244\222@\354\215}@\251[S@}\255:@xo\263?h,3<h\227\363?u\034\260@\207\331\274?\031\225|@\354i\236@y\245S@\265\273l@5\302\350?\312\016\257@\300\340k@{\004X@&Z\224=0\253\244@\216C\304@q\2253?s\247\246@\247\272\300@\231\255h?A\310\213@\234c\220?Z\376\275@-p\205@P\226\276?a\241\000?\330 \215?\377\213\343?\276\312\345?\205\346\213@N\261l@\332\222#@\035\301\305?\320h9@\330 \230@\t\027\372?\306\312\233@\271\227r@k\312\231@\364I\013@\026\332M@\262/s@}\020-@BZ\206@P\251(@\216O\013@\262\354B@\344D\225@\257\222\260@9pq@`\302i@Cj\240@\316d\322?\321\211x>X\245\372?w\021\262?m\367\222?\'\363\307@\376\215\366?%\030N@\003\304\262@\306\225\267@\013J\262?af\247@$\250\"@:\004\225>&\351>@\246\371i@!\220\221@\013N\305@=\227:?[\374~?\023)K@FXD@\325\t\232@$\346j@\377\311\003@\'U\212?\"W\271@\260o\246?p\217\261@l\304\217@O\374\222@\253\270\361?\322k\013>TQ\371?/\334\036@\275~\004>\030}\223@Z}\325>L\242\251?\377\335+@\237A\332?\354\224M@\301\231\357?\010\260\225@\331\360A@\377XX@\032b\240?#\203\357=-5\234>\271\200\246@\002\262\301@\014j\213@\035\354\271@l\016\220@\212\022\225@9I\242@\t\363\206@\233\272.?\002\370\356?\260\314\302@\216\217\224?68\312>\22383@n\"4@\201m\253@\366y\235@D\324\303@\000\r\306@\243\000\266>\224V=?\3300\033@(r.@\004\253\262@/:q?\252\344\036@\222I\210@}`\257@\r\306\014@\363\000\264@\331\222Q>\317\227\245@\250\250,?s\021\305@\022\253\226@QH\226@\271X\263@.\222*@\300M\026@\376\355\264>\2217\331<\203N\254?I\023x@\216\240\224@\304>\236@\032\333n@\334=\232@9\354;@\304E\336?\307\247\215@\323\260^@)\374\036@\0174\216@\266\233X@\2441y?\032\306\262@\212B\314=\027\321\303@^\354\234@\026[]@\2649U@.\233n@\221\242\205@\234\342\310@~m\343?`\341\203@9\331)@\340+\'@\324\007\204@\364\025h@m\246Y?\223W\243?P|F@\363\300\264@\177b\213?\351\266\202?\003K\200@\362\006\256@OH\242?J\377\\@/\316\343?\'\330\016@z\300\337?$\235\203@\215&\240@\254\220+@q\033S@R\n\226@\317u^@\236\305\264@\010\203.?jn0@\001\na>\227\246\322?\n\257g@\031\"\267@>\306o?\367\267\n?\325w\270@}9\273?\246)->\343\244\210@\023\206\363?\222\310=@\037,\300@#\323%@\013\347C>6\333F@\0300$@\263JV?\030\212J?\356%\303?\022\317\376?\002h\307?A\301\014@\342<\226?\033\204,@\371-\334?]^\006?K\235I@3\335\260@%\302\235>\205\253\006@D\302\337>\342\315\265@y\360W@\351\344e?\345\364\204@\262q*@\241\na?\3052\376?\207~Y@\261MS@m\nB@\"\241)@P\007\254?\r\230\306@\3314\213@\366X\300@G\337\240>\340\233\375?-x\024@\227\276\202@Iy\236?\205\257\261@-\264z?\255\270\242?\302j?@l5\207@\r\305V@\226\026\371>t\317m@k\336\021>i\025t?\235^\266@\276\005\235@\2405\010@0\326%@\017\021\372?\215\2115@\007\203\264@A\323\t?\233\276\210@\317,\253@\032\271\236@)\3249@C\241\263@\341\3438@I\024\n@,\274N@\251Z\252@\234g\243@\231\215\211@~E\366?\300\"\367?YC9?\275\3677?e\353\252@%L\250?\341Gr@^zj@\343\252\244?\277*\216@\017\311^@\304\205\233?\253\301\207@w\213U?\256\313*@S\033\023@\335}\362?A\330\214?P\344\201@=A\305@\006\242w@\323\224u@\035\362\024?\375Q\033@nd2@\353=\321?\361*\256@\270\337j@\261\247\222@C\221k@\032.\302@)\260W@\025\223\005@\305\362\366?\276\016\256@\356r\245@j\335d@\335Q\271@\311\203D@O\003|@\355\003\276@\244\020C?9\355`@\253\302\237@\017x\240@\346\000\226@\314\242\270@r\245\263?\344\332\227@\315*\215@\345\023\244@H\023\257@\350\221\241?F\016S@\221V\351?\014?\300@\013\355e@\327r\334?\330\204s@\026\247=@}Re@D@\241@\355\350\022@\373\373p@z\275n@S\350\216?\356y\353<a\346\213@\231\372#@\206M\251@w\231\305@\341\341\272@kM\025@\246l\002@\005t\260@\032\241\356?%`\243<g\263\212@\215\260\302>\266\2560@n]N?T|a@\200^\007@ss\233@\314y\301@\375~\224?\027\305>@<\363\010?\352\370\005>rXa@9Dp@\270h\200@\036\236\214@\213\004\301@e\265\031=\267\177\357?\231#\002@\342\331\241@\374\332\265@\375\354g?\352\004^?5\266\262?\224u\250@\205\274\216@UW\305@\035\354r@rJ\242?nS\215?\001fi?W/J@\347\236\376?\303\000p@\337\365u>\004\217\232@\302\342\225@\007e\304@\371\324\260@\332\214C@\274\301\305@\267\266\003@\222$\013@\3126)@\037\200\377?\363H\267?\ri\251@\376\306(@+X\230?\315k\225@4\363\222@\354\205\253@\023\242\263@\347\016\344?\036\215\241?\326J\313?\341\362\225@Wvz@\313:\244?\223\237\213@@\235\242@\344,\227?\244\346\242@%b\251@\353\251\301@\213\270\267>\022\342\252?\303\305\005@\221p\202@6\376\274@\013W\351?\207\372\263>Y3\265@\306\277\274@\255\004\270@\263\003\013@\343\350w@g\317\243>{\354\251@\013\375\252@\021+:@KGq@\305b\303@\262\273\n?\325o\250@\273&\322?\236r8@\245\272\177?\r\247\214@\0051\274?=$\237?\303rV?\257\013\036@P\034A@\017{\234@9,\243?\276?\223@\220\206\254@\362\210\253@}.K@\355\263\253?\300\264\234>V\007;@E\t\037>\355\2536@\326np@f\276\032@\311\275\240@>4|?\224\301\363>\216B\216@\262Y\225@\270\235\004>\361\305\202;\034\351n<T\004\007?\276\261\200?\006\200\211@\357\235%?\376\217|?\321%\272@\005=\010@\205\212\027?.\023\374?J\332L?Z\037t@2\361\307@&\265\266@\254\206u@\021\352\260@\007\257\205@1\370\217@\010\325\251@\003\023y@T8?@]\334\262@\034\001\340?\006\326\277@\270\366K@\370V#@\231:Q@\024\017\335?\321\337\263@\313\002\363?\242\353\265@\211\014\250@\332\036O@O*\t?t\356\374?\351\014\273@\370]X@\010\364v@\262pJ>:\302\030?3\244\302@O\313\264@T\2015@l\205\201>|\352^@\235\r\021?i\271\212@\230\205\301@ZM\270@s\037\'@\3673\241@\014\213g@\2131B@O\005\031@ \230\335>\361\261Q?\222\027b@\234b\005@[,\034@?\331\260@\262@+?\204\257\247@Ff\370?\2712\205@\261\262U@d\n\030@\203r\301@k,R@\"(G@\361\2625=(!r?\227\303\242@\203E\261@\362mn@\300F\004@\212\033O@\005t\211@\3064\267?8\307\260?\275\323\237@r\031\301@\355&\344?\362`+@\375\005\212@\r*\306@U\253\213?>s\r@\213\323O@i\251\302?s~\265@\226\215O@\024O\325=\244\276e@\203+3?\201\026\212@\334\033\206@9\376\241@p{\307@\031$\271@*/\205@CX\364?0\0175@.\354I@H\016\037@f\237\335?\347}q@@\250??\206\211\303@\036$\272@\005n\277@-\220#@#\302\253@6\002d@@\006/?R\327\215@\241\361l@\376\351\232@xQ\300@\271<\224@\240Z\247@\322\345\336?\354F\032@\031\231\004@\211\256\025@\023E1@\240\0148@\001\203Z@a\245Q@r\320\253=\374\362\200@%\357\255@\026=\263@Ja\276@R\346\177@\375?o@\354\324=?\346<`@<N\256@\330JD?\t\367\025?\022+K@\332\354#@)5\303@\273\023\014@\340G\301@$\250\032=\271\2075?\240\223\013@\261&\\@\004o\006@\210\374\003@G89@bG\212@\351\235F@\362\342\220?V$\245@\3302C@\013c\225@\025X\307@\033x\003@\344\361\276@?\307\254@\211\236L>\034\345}@\373\271\276@j\024\343?\335\263\272@\323u\206@\2716\310@F\251\274?\2632g@t\3671@e\031\031@\001\334\271@\214\334\301>\230\306{@\337\260>@\013\204??\272\277E@ \024\211@\262-=@\006b\372>\r\260Y?\370\345\234@\234\317\250@\n,\265>\336kc@;\226R@EK\026@]\023\030@R\243\021@\256\231\353?l(N?\023\372\227@\017\204,@\353\371W?\347\203\023?\265\355;?\353{r@\354\024\266@4\375[@O\206S@l\371!@p\n\262@py\004@\362\222\231?\374\350\215@P\033\274@\241\306\272@\323\313\271@F\226\304@\373rc>n\017M@\247\226\250>\276Zq@\344\376\260@\371\326\333?%R\250@\326\370\367?q\333\273@fn\013@"
      }
    }
  }
}
node {
  name: "Const_3"
  op: "Const"
  device: "/device:CPU:0"
  attr {
    key: "_output_shapes"
    value {
      list {
        shape {
          dim {
            size: 1000
          }
          dim {
            size: 1
          }
        }
      }
    }
  }
  attr {
    key: "dtype"
    value {
      type: DT_FLOAT
    }
  }
  attr {
    key: "value"
    value {
      tensor {
        dtype: DT_FLOAT
        tensor_shape {
          dim {
            size: 1000
          }
          dim {
            size: 1
          }
        }
        tensor_content: "\000\000\200?\000\000\200?\000\000\200?\000\000\200?\000\000\200?\000\000\200?\000\000\200?\000\000\200?\000\000\200?\000\000\200?\000\000\200?\000\000\200?\000\000\200?\000\000\200?\000\000\200?\000\000\200?\000\000\200?\000\000\200?\000\000\200?\000\000\200?\000\000\200?\000\000\200?\000\000\200?\000\000\200?\000\000\200?\000\000\200?\000\000\200?\000\000\200?\000\000\200?\000\000\200?\000\000\200?\000\000\200?\000\000\200?\000\000\200?\000\000\200?\000\000\200?\000\000\200?\000\000\200?\000\000\200?\000\000\200?\000\000\200?\000\000\200?\000\000\200?\000\000\200?\000\000\200?\000\000\200?\000\000\200?\000\000\200?\000\000\200?\000\000\200?\000\000\200?\000\000\200?\000\000\200?\000\000\200?\000\000\200?\000\000\200?\000\000\200?\000\000\200?\000\000\200?\000\000\200?\000\000\200?\000\000\200?\000\000\200?\000\000\200?\000\000\200?\000\000\200?\000\000\200?\000\000\200?\000\000\200?\000\000\200?\000\000\200?\000\000\200?\000\000\200?\000\000\200?\000\000\200?\000\000\200?\000\000\200?\000\000\200?\000\000\200?\000\000\200?\000\000\200?\000\000\200?\000\000\200?\000\000\200?\000\000\200?\000\000\200?\000\000\200?\000\000\200?\000\000\200?\000\000\200?\000\000\200?\000\000\200?\000\000\200?\000\000\200?\000\000\200?\000\000\200?\000\000\200?\000\000\200?\000\000\200?\000\000\200?\000\000\200?\000\000\200?\000\000\200?\000\000\200?\000\000\200?\000\000\200?\000\000\200?\000\000\200?\000\000\200?\000\000\200?\000\000\200?\000\000\200?\000\000\200?\000\000\200?\000\000\200?\000\000\200?\000\000\200?\000\000\200?\000\000\200?\000\000\200?\000\000\200?\000\000\200?\000\000\200?\000\000\200?\000\000\200?\000\000\200?\000\000\200?\000\000\200?\000\000\200?\000\000\200?\000\000\200?\000\000\200?\000\000\200?\000\000\200?\000\000\200?\000\000\200?\000\000\200?\000\000\200?\000\000\200?\000\000\200?\000\000\200?\000\000\200?\000\000\200?\000\000\200?\000\000\200?\000\000\200?\000\000\200?\000\000\200?\000\000\200?\000\000\200?\000\000\200?\000\000\200?\000\000\200?\000\000\200?\000\000\200?\000\000\200?\000\000\200?\000\000\200?\000\000\200?\000\000\200?\000\000\200?\000\000\200?\000\000\200?\000\000\200?\000\000\200?\000\000\200?\000\000\200?\000\000\200?\000\000\200?\000\000\200?\000\000\200?\000\000\200?\000\000\200?\000\000\200?\000\000\200?\000\000\200?\000\000\200?\000\000\200?\000\000\200?\000\000\200?\000\000\200?\000\000\200?\000\000\200?\000\000\200?\000\000\200?\000\000\200?\000\000\200?\000\000\200?\000\000\200?\000\000\200?\000\000\200?\000\000\200?\000\000\200?\000\000\200?\000\000\200?\000\000\200?\000\000\200?\000\000\200?\000\000\200?\000\000\200?\000\000\200?\000\000\200?\000\000\200?\000\000\200?\000\000\200?\000\000\200?\000\000\200?\000\000\200?\000\000\200?\000\000\200?\000\000\200?\000\000\200?\000\000\200?\000\000\200?\000\000\200?\000\000\200?\000\000\200?\000\000\200?\000\000\200?\000\000\200?\000\000\200?\000\000\200?\000\000\200?\000\000\200?\000\000\200?\000\000\200?\000\000\200?\000\000\200?\000\000\200?\000\000\200?\000\000\200?\000\000\200?\000\000\200?\000\000\200?\000\000\200?\000\000\200?\000\000\200?\000\000\200?\000\000\200?\000\000\200?\000\000\200?\000\000\200?\000\000\200?\000\000\200?\000\000\200?\000\000\200?\000\000\200?\000\000\200?\000\000\200?\000\000\200?\000\000\200?\000\000\200?\000\000\200?\000\000\200?\000\000\200?\000\000\200?\000\000\200?\000\000\200?\000\000\200?\000\000\200?\000\000\200?\000\000\200?\000\000\200?\000\000\200?\000\000\200?\000\000\200?\000\000\200?\000\000\200?\000\000\200?\000\000\200?\000\000\200?\000\000\200?\000\000\200?\000\000\200?\000\000\200?\000\000\200?\000\000\200?\000\000\200?\000\000\200?\000\000\200?\000\000\200?\000\000\200?\000\000\200?\000\000\200?\000\000\200?\000\000\200?\000\000\200?\000\000\200?\000\000\200?\000\000\200?\000\000\200?\000\000\200?\000\000\200?\000\000\200?\000\000\200?\000\000\200?\000\000\200?\000\000\200?\000\000\200?\000\000\200?\000\000\200?\000\000\200?\000\000\200?\000\000\200?\000\000\200?\000\000\200?\000\000\200?\000\000\200?\000\000\200?\000\000\200?\000\000\200?\000\000\200?\000\000\200?\000\000\200?\000\000\200?\000\000\200?\000\000\200?\000\000\200?\000\000\200?\000\000\200?\000\000\200?\000\000\200?\000\000\200?\000\000\200?\000\000\200?\000\000\200?\000\000\200?\000\000\200?\000\000\200?\000\000\200?\000\000\200?\000\000\200?\000\000\200?\000\000\200?\000\000\200?\000\000\200?\000\000\200?\000\000\200?\000\000\200?\000\000\200?\000\000\200?\000\000\200?\000\000\200?\000\000\200?\000\000\200?\000\000\200?\000\000\200?\000\000\200?\000\000\200?\000\000\200?\000\000\200?\000\000\200?\000\000\200?\000\000\200?\000\000\200?\000\000\200?\000\000\200?\000\000\200?\000\000\200?\000\000\200?\000\000\200?\000\000\200?\000\000\200?\000\000\200?\000\000\200?\000\000\200?\000\000\200?\000\000\200?\000\000\200?\000\000\200?\000\000\200?\000\000\200?\000\000\200?\000\000\200?\000\000\200?\000\000\200?\000\000\200?\000\000\200?\000\000\200?\000\000\200?\000\000\200?\000\000\200?\000\000\200?\000\000\200?\000\000\200?\000\000\200?\000\000\200?\000\000\200?\000\000\200?\000\000\200?\000\000\200?\000\000\200?\000\000\200?\000\000\200?\000\000\200?\000\000\200?\000\000\200?\000\000\200?\000\000\200?\000\000\200?\000\000\200?\000\000\200?\000\000\200?\000\000\200?\000\000\200?\000\000\200?\000\000\200?\000\000\200?\000\000\200?\000\000\200?\000\000\200?\000\000\200?\000\000\200?\000\000\200?\000\000\200?\000\000\200?\000\000\200?\000\000\200?\000\000\200?\000\000\200?\000\000\200?\000\000\200?\000\000\200?\000\000\200?\000\000\200?\000\000\200?\000\000\200?\000\000\200?\000\000\200?\000\000\200?\000\000\200?\000\000\200?\000\000\200?\000\000\200?\000\000\200?\000\000\200?\000\000\200?\000\000\200?\000\000\200?\000\000\200?\000\000\200?\000\000\200?\000\000\200?\000\000\200?\000\000\200?\000\000\200?\000\000\200?\000\000\200?\000\000\200?\000\000\200?\000\000\200?\000\000\200?\000\000\200?\000\000\200?\000\000\200?\000\000\200?\000\000\200?\000\000\200?\000\000\200?\000\000\200?\000\000\200?\000\000\200?\000\000\200?\000\000\200?\000\000\200?\000\000\200?\000\000\200?\000\000\200?\000\000\200?\000\000\200?\000\000\200?\000\000\200?\000\000\200?\000\000\200?\000\000\200?\000\000\200?\000\000\200?\000\000\200?\000\000\200?\000\000\200?\000\000\200?\000\000\200?\000\000\200?\000\000\200?\000\000\200?\000\000\200?\000\000\200?\000\000\200?\000\000\200?\000\000\200?\000\000\200?\000\000\200?\000\000\200?\000\000\200?\000\000\200?\000\000\200?\000\000\200?\000\000\200?\000\000\200?\000\000\200?\000\000\200?\000\000\200?\000\000\200?\000\000\200?\000\000\200?\000\000\200?\000\000\200?\000\000\200?\000\000\200?\000\000\200?\000\000\200?\000\000\200?\000\000\200?\000\000\200?\000\000\200?\000\000\200?\000\000\200?\000\000\200?\000\000\200?\000\000\200?\000\000\200?\000\000\200?\000\000\200?\000\000\200?\000\000\200?\000\000\200?\000\000\200?\000\000\200?\000\000\200?\000\000\200?\000\000\200?\000\000\200?\000\000\200?\000\000\200?\000\000\200?\000\000\200?\000\000\200?\000\000\200?\000\000\200?\000\000\200?\000\000\200?\000\000\200?\000\000\200?\000\000\200?\000\000\200?\000\000\200?\000\000\200?\000\000\200?\000\000\200?\000\000\200?\000\000\200?\000\000\200?\000\000\200?\000\000\200?\000\000\200?\000\000\200?\000\000\200?\000\000\200?\000\000\200?\000\000\200?\000\000\200?\000\000\200?\000\000\200?\000\000\200?\000\000\200?\000\000\200?\000\000\200?\000\000\200?\000\000\200?\000\000\200?\000\000\200?\000\000\200?\000\000\200?\000\000\200?\000\000\200?\000\000\200?\000\000\200?\000\000\200?\000\000\200?\000\000\200?\000\000\200?\000\000\200?\000\000\200?\000\000\200?\000\000\200?\000\000\200?\000\000\200?\000\000\200?\000\000\200?\000\000\200?\000\000\200?\000\000\200?\000\000\200?\000\000\200?\000\000\200?\000\000\200?\000\000\200?\000\000\200?\000\000\200?\000\000\200?\000\000\200?\000\000\200?\000\000\200?\000\000\200?\000\000\200?\000\000\200?\000\000\200?\000\000\200?\000\000\200?\000\000\200?\000\000\200?\000\000\200?\000\000\200?\000\000\200?\000\000\200?\000\000\200?\000\000\200?\000\000\200?\000\000\200?\000\000\200?\000\000\200?\000\000\200?\000\000\200?\000\000\200?\000\000\200?\000\000\200?\000\000\200?\000\000\200?\000\000\200?\000\000\200?\000\000\200?\000\000\200?\000\000\200?\000\000\200?\000\000\200?\000\000\200?\000\000\200?\000\000\200?\000\000\200?\000\000\200?\000\000\200?\000\000\200?\000\000\200?\000\000\200?\000\000\200?\000\000\200?\000\000\200?\000\000\200?\000\000\200?\000\000\200?\000\000\200?\000\000\200?\000\000\200?\000\000\200?\000\000\200?\000\000\200?\000\000\200?\000\000\200?\000\000\200?\000\000\200?\000\000\200?\000\000\200?\000\000\200?\000\000\200?\000\000\200?\000\000\200?\000\000\200?\000\000\200?\000\000\200?\000\000\200?\000\000\200?\000\000\200?\000\000\200?\000\000\200?\000\000\200?\000\000\200?\000\000\200?\000\000\200?\000\000\200?\000\000\200?\000\000\200?\000\000\200?\000\000\200?\000\000\200?\000\000\200?\000\000\200?\000\000\200?\000\000\200?\000\000\200?\000\000\200?\000\000\200?\000\000\200?\000\000\200?\000\000\200?\000\000\200?\000\000\200?\000\000\200?\000\000\200?\000\000\200?\000\000\200?\000\000\200?\000\000\200?\000\000\200?\000\000\200?\000\000\200?\000\000\200?\000\000\200?\000\000\200?\000\000\200?\000\000\200?\000\000\200?\000\000\200?\000\000\200?\000\000\200?\000\000\200?\000\000\200?\000\000\200?\000\000\200?\000\000\200?\000\000\200?\000\000\200?\000\000\200?\000\000\200?\000\000\200?\000\000\200?\000\000\200?\000\000\200?\000\000\200?\000\000\200?\000\000\200?\000\000\200?\000\000\200?\000\000\200?\000\000\200?\000\000\200?\000\000\200?\000\000\200?\000\000\200?\000\000\200?\000\000\200?\000\000\200?\000\000\200?\000\000\200?\000\000\200?\000\000\200?\000\000\200?\000\000\200?\000\000\200?\000\000\200?\000\000\200?\000\000\200?\000\000\200?\000\000\200?\000\000\200?\000\000\200?\000\000\200?\000\000\200?\000\000\200?\000\000\200?\000\000\200?\000\000\200?\000\000\200?\000\000\200?\000\000\200?\000\000\200?\000\000\200?\000\000\200?\000\000\200?\000\000\200?\000\000\200?\000\000\200?\000\000\200?\000\000\200?\000\000\200?\000\000\200?\000\000\200?\000\000\200?\000\000\200?\000\000\200?\000\000\200?\000\000\200?\000\000\200?\000\000\200?\000\000\200?\000\000\200?\000\000\200?\000\000\200?\000\000\200?\000\000\200?\000\000\200?\000\000\200?\000\000\200?\000\000\200?\000\000\200?\000\000\200?\000\000\200?\000\000\200?\000\000\200?\000\000\200?\000\000\200?\000\000\200?\000\000\200?\000\000\200?\000\000\200?\000\000\200?\000\000\200?\000\000\200?\000\000\200?\000\000\200?\000\000\200?\000\000\200?\000\000\200?\000\000\200?\000\000\200?\000\000\200?\000\000\200?\000\000\200?\000\000\200?\000\000\200?\000\000\200?\000\000\200?\000\000\200?\000\000\200?\000\000\200?\000\000\200?\000\000\200?\000\000\200?\000\000\200?\000\000\200?\000\000\200?\000\000\200?\000\000\200?\000\000\200?\000\000\200?\000\000\200?\000\000\200?\000\000\200?\000\000\200?\000\000\200?\000\000\200?\000\000\200?\000\000\200?\000\000\200?\000\000\200?\000\000\200?\000\000\200?\000\000\200?\000\000\200?\000\000\200?\000\000\200?\000\000\200?\000\000\200?\000\000\200?\000\000\200?\000\000\200?\000\000\200?\000\000\200?\000\000\200?\000\000\200?\000\000\200?\000\000\200?\000\000\200?\000\000\200?\000\000\200?\000\000\200?\000\000\200?\000\000\200?\000\000\200?\000\000\200?\000\000\200?\000\000\200?\000\000\200?\000\000\200?\000\000\200?\000\000\200?\000\000\200?\000\000\200?\000\000\200?\000\000\200?\000\000\200?\000\000\200?\000\000\200?\000\000\200?\000\000\200?\000\000\200?\000\000\200?\000\000\200?\000\000\200?\000\000\200?\000\000\200?\000\000\200?\000\000\200?\000\000\200?\000\000\200?\000\000\200?\000\000\200?\000\000\200?\000\000\200?\000\000\200?\000\000\200?\000\000\200?\000\000\200?\000\000\200?\000\000\200?\000\000\200?\000\000\200?\000\000\200?\000\000\200?\000\000\200?\000\000\200?\000\000\200?\000\000\200?\000\000\200?\000\000\200?\000\000\200?\000\000\200?\000\000\200?\000\000\200?\000\000\200?\000\000\200?\000\000\200?\000\000\200?\000\000\200?\000\000\200?\000\000\200?\000\000\200?\000\000\200?\000\000\200?\000\000\200?\000\000\200?\000\000\200?\000\000\200?\000\000\200?\000\000\200?\000\000\200?\000\000\200?\000\000\200?\000\000\200?\000\000\200?\000\000\200?\000\000\200?\000\000\200?\000\000\200?\000\000\200?\000\000\200?\000\000\200?\000\000\200?\000\000\200?\000\000\200?\000\000\200?\000\000\200?\000\000\200?\000\000\200?\000\000\200?\000\000\200?\000\000\200?\000\000\200?\000\000\200?\000\000\200?\000\000\200?\000\000\200?\000\000\200?\000\000\200?\000\000\200?\000\000\200?\000\000\200?\000\000\200?\000\000\200?\000\000\200?\000\000\200?\000\000\200?\000\000\200?\000\000\200?\000\000\200?\000\000\200?\000\000\200?\000\000\200?\000\000\200?\000\000\200?\000\000\200?\000\000\200?\000\000\200?\000\000\200?\000\000\200?\000\000\200?\000\000\200?\000\000\200?\000\000\200?\000\000\200?\000\000\200?\000\000\200?\000\000\200?\000\000\200?\000\000\200?\000\000\200?\000\000\200?\000\000\200?\000\000\200?\000\000\200?\000\000\200?"
      }
    }
  }
}
node {
  name: "Const_4"
  op: "Const"
  device: "/device:CPU:0"
  attr {
    key: "_output_shapes"
    value {
      list {
        shape {
          dim {
            size: 1000
          }
          dim {
            size: 1
          }
        }
      }
    }
  }
  attr {
    key: "dtype"
    value {
      type: DT_FLOAT
    }
  }
  attr {
    key: "value"
    value {
      tensor {
        dtype: DT_FLOAT
        tensor_shape {
          dim {
            size: 1000
          }
          dim {
            size: 1
          }
        }
        tensor_content: "\022Z)@\320\365\026>Z=\253@.& @h\305\303@\317\311i@\251}P@\025\275{?yl\236>\026yP>\342\264/?\264|\007@\346H\245@n\003\263@\225B\250@\245\274\312?G\254\t?.uw?\'$^?\223v\320?\360\270H;0(\307@\217\351\263@\224\216\211>\010\006\253@\003`T>n\307\236@v\225\203@\353\034\276@\207t;?;\\s>m0(@\022y\313?N\375\265@\275\260\213@\017\361\025@\350|i@\315\323\250=\357\320\243?\201\345\204@\240xD?\244\005H@4\322Z@<?\367?C\202\363>\n\215\224@\307\342;@\307Bl@Y\207E>\340;\007@\266\210\270@6\367h@@Em?\324\202\237=KA\037@\344\201\201@t\014\253@\351\333\232@\t\300\024@5\274\253@4\tp?VA\264@W\257\275@\270v\211@Z\351\251@\227\016t@\017\206\376?\275\265\177@\r\214\326?H\231\335>\244\020z@~\256\260@\245BV@R\310\016@\341<\234@0\316\n@A\242r@\273\322\260@\rML@Cx\270@\267\261\233?\230\377X@ec5@\376=\235@u\316E?r\014\362>`[t?\021\240(@dq=?\352\346\202?\2752\206>vGQ@\352\030\227=5\324\300@_\212\245?\016\351~>_\226/?\027I\270@0|\216@s$.@k\275\374?\245\253\216?\177\231\345?\332\273b@L\300\336>.e\031?\t\002\246?\210\227\304@\005$\231@\211\240\243@,\034\257?\226\250\202@\253\230>@\271\002-@km\230@\333\313\332?~4\262>\320t\245@\364\315\262@\001\177\243@\t\266B?\272\2216?\254j7@\244\3338?I\206\020@{\360\240?\2304\347;\255\013\244?\037\263G@\010\023\212@\000,j@\022\"\266@\026\003Z@\377\006\261@\003h\203>]V9@\2040\343>\326,7@V\341\347?\222\313\201@\351Og@\266+\213@\004Q\257@*\036\306@\243\247\262@\267q\033>\205\236\274@\313g\250?\333\316\234>\250\260=@\036\2113@j(X?\356\354\233@\265#\336?~\211F@\316@\236?\362\211X@\340\017h@\266\371\316?\332\307\237<\254\351\227@\254\246\033@w|Q@\031\na@\017\t+@\205\314H@\302\371^@\003\222\003@<C\306@\325\360N?!\301\270@\272\345\361?\\&\201@\355 \240@\272\337E@\317R\227@\216rj@y\270\350><\352\251?\003\034\211@i\231\306@{Tz?\201/\252=\342f\262?\366\327\200@\347\234\271@\310\272\203?\352S@@Jv\267@z\252\343?\241KG@\242\2652@\354\232\240@O\341\206?O\351y?\002\0044@\343D\303?\220\226q@c]\255?\037\3468@C\346\237@\033\356\204@\240\302\255?\271\0004>K{\271@f\264\254@%\311\236@D1e@Z>\231@x\371\340>\362\275\225@0\367\004@\377<\237@o\303\214?D\243\254@*\261r@\277\335h@\3316|?>j3?\300\343F@R\335\325?*\033\017?Ti\253@\242\274D@\035\267\234?\252\370j@\005\340\316?Qv)@\330o\203@\261\003V@\235\203\004@\320m\025@K\301_?)\023\241?\311\353_@\031h\275@r\017\273?\277K\204@\004\022\350>\324\2551@0q\210?\215o\n@\r\335L@nk\031@#\362[?zQ\273@\206\001\243@|\351\227@\025\313\035@/g\211@\224\313t?@x\211@.3\324>V\355\253<\301\335p>i\356\027@L\350\242@x\204\034@m\2053?\370\337\365?&\361\316?\0017\214>F\362o>\200\246\221@(\377\212@\032\366\016@\275#J?\000\325\247@\034\034j@\276\350\266?Z\317\252@\316\213\271@\016\\\037@\252~\260@k\272\227@\371\241H@\177\354\\@\375q\241@<\022\233@\364\373H?\016\341\327?\271\325\351?V,\217@\274se>k\326`@i\320\021@\236[\037@\032\337\264?\004m\357=\207\3437@\316Y\005@^z\303?`H3@H\340\262@c\312\223?\352)\250@\260\253\373?\321\327\226@~\253{@\320\207O@\301t\227@=\227\220?\256\"\253@3\003\264@\216\031\237@o\267\316?\227\271j>\335\006@@\334p\214?\370\206\201?t\273\302@\016\207>@\321\372\263@\357J\200@\003\200\271@7g\235@\026\205\036@\010\032\305@\371\275\301@x\006\262@\2679\214@[\247P@+\'t@O\346\016@8o_?k\302\274>\367A\034@\370\324\266?8Z:@t\340\267@D6I@\317\200X@c\016\347?\334\t\'@\330\216!=\030if@[ \213@\006\347\271@$K\306?\000w%@\320P\273@\262\203.?e\\\262?\356\016\026@\216[\035?\267\233s@\t\305 @kp\232>\276\355\206@\313\321\267@n\342>@\217W\221@\212\316\227@=n\220@!`\216@\373K@@\3573\345?\221\n\302@\341v\264@t\022\302@\335X\310?f\2618@{\342\203?\323\351\215@JF\n@\335n\210?\"u\274>\367B.?k\210\006?}B\236?cv\177@r\231B@d\270\247@\210f:@\241\036\272@\374\377J@\035\000:@\374E\305@\031JM@S\005\274@\315i\236@M\205\364?\315\220\252@\356\236\273@\210\277\267@\235\261\241@\367\234\"@|\326\217@\316\203~@\313c\003>4\352\211@\252p\251@\363\206\331=\002!\016@~U\305@\263n\007@cF\262@\265\335\361?\260\331n@bYY@\234B\344?\360\267\301@\314\033\276@*\361\307@\240vP@\027Mp=\220\255i@ \206&@I\341\234?\377\013\266@\266\266\005@_\317?@\274\337\323?[o\376?\251$\274@P=\306@\332H\274@\\`\336?\242d\242@Fv\331?]\327\227@>\342-@L]\243@\265*\276@D\214\266@q\224\211@I\212\306@\216\017\250@ mo@\207\213\344?\014\256\257@y\204\"@\224\375\n@\222\375o@1\321^@\266\331\257@k\365\273@\025u\224>\270\022\301?\220\3117@\356\337\274@\340\365c@\005\250>?o[B@\327\023\331>\266\227\264@6\364\212@\243\233\207@\225\324\347?\013\302\304@\013\227\327?\260\n\307@G\374\277@\321\210k@\340k\256@4\300`@r:m?\2237\253?\324W\230@\344\\\331?\331\024x@s\353\260@\273~\332?\265M\274@Z\344T@=)\226@\312x\007@V(\244@\273\233\240@(\203|?]}\213?\013\302\226@\366<#@\367,\210@\230\257u@\2652\301@f\3219>\316rV@\nq)?\325\330{@\240\324\246@\223k\201@)/\253@\346\373\026@\037\334\215@^*\272@\362_\016?\232\240\277?*\326\253?L\302\016@(\014@@\001\007\320=\033\300\326?\027\001\'@\365\221H?X\224\266@\313\237W@0\235\363?\323f\263@\375\250\377?\300\247\267?\356\016\257@\356\317\203?\217x\226@\324\247f?\3409\022@h\366v@\207o\205@:\253\270?Q\365\234@\303\211\200@k\302\253@u\334\303@\364\321R@n\335\321?\376\251<@$\002\252@\374sN@\345@\016?#\274\037@\325\324\235?\247\017\335?\354y\300@\222aR@?\342\305?\252\322\275?\342Z\253?\367\234\302@\330R\245@\340,y@\1776\363?\205\353 @\346+\003?o\270\301?\362\177\300@\233\230\004?c\307]@\264b\031?2>o@m\342\363>\260\025\302@\251\205I?\206\273\237@L\313\254@\342)q@w+\300@_\025\273>\000\210\310@\354\216b@\352\213u?\022A\261@\357#|@4\026\032@\302\352\246?]\304.@.\003\226=#\362\272?\321\230\212@w\257\256@)\260\225@r.G@^\307\037?@\352[@\221\375\205@\357\301`@\036\266\332?mKd@5p\260@\255\322\220?\321\350\227@t\303{?\237\204\010@\031~\257>\2237\261@\206\001H@\0179u@\313\363D>\330v\263@\232\256\010@\302\344\372?\362\304\204@{\016\263@\240\315\304@L\311\213?B3P>{\224\201?\271\205*=c7;?`7\266@}\341\221@3ta@8\212\024@F\230\304@[\323\021@\265\314k@:\364c?\3033\000>\367\246?@D\274\'@k\037\220@E\307\226@\356y{@)O\245@\303.B@\017\217W?\346\242\224@:\213\031@E\253\023@R\035)@\362c*?\3076\320?#6S@n8\230@\352B\017@\272\014\217@\261\355i@\023h,@fs\004?\300\224\020@\311\202\307@&\345\251@&8\335?\227\355\253?\010\034\037?t_\212@\376\027`@\027\251>@\251c\272?Kh\001@npG@\010\271\233?Qi\260?\375\352S@\013fd@O\274\220@\020\006\352?\247\306b?\355\341\004@\367\361t>\342~\024@JQ2@\222\274\177@\025\255\256?\357\220\306@\303e\303@\241\021\216?+,\227@\362\2452@\261\231\033@\311\213g@\366\363-=\304\254\217?Q\270\266@nC\240@\305\007\243@\'\333\256@f=7?\217\372\003@\312\317g@\326\277~@\335/\262@\3673\277@\t3\231@t\312\305@\216\342\235@\360\035\253@I\356\267@\267\'\240?\210\216\264@\361,\261@\273\225\226@\264)\260@\273\231c?\330\017\007@\343\214\307?hQC@\253\375\207@\220\n\024?|\275\244@\257\310\300@\262\211\276@i!\310@\1771b@\313\210O@\005\'3?`\n\256@*\035\261@\322?\211@\263\367\211>3y7@8N\010@\211%~@\274\346\257@\356\247h@7\245\274@\035D\217@\264\302>@\370\017\235@\324Y\243@h\2369@\253q7@\254t\234@ \373\226?\265\262\256>z*\022@\025\211\307@ E<@7\226\264<aAJ@M\311.@\243\367Q@\317F\372?\237\351\301@\'\205\224>\005\324\223@\345\020\227?\223\0226?\017$-@LB @\255\024^?\302eB@\216q\\@\'\221.@0\221~>\341:\213@\303\372\n>R\'!>z~X@\320>\253@h\006\276@\262\377\243?\245\263)@\271\337\026@0\231\377=\274|/@PA\365?\201\340\301?\035n\274?G\273\233@L\320\277@f\210\030@\352Q\241@\376\246\374?\254\030\203@\351lK?\230\373\035@{t\234@y\036\000@\247\224\264@\227\001\220@\334\310\037@\257\235\375?\353`\263@#w\273@x\256\337?&\004$@\033\240\246@|\200\270@\204W\037?\265 A?\"\247\206@1F\210@\334.\334>\031\370|@2\302\377?p\335\303@\\\014\226@\212\263\275@\213w\210@/\356Y@\275\372\345?\213\361L@c\316\206@\374\323\\@\003\305\302@8r\230@\215P\323>\301\304\351?\023\361\316?.>P@o\r\242@m6\266@\212\334S?\266\310\232@\361\214\223@\'|\303@\216\010\336?\231Vp?\212\204\227@\322\211)>\346\254l?c>\306@\225\003\312?\303\364P?-\346\201?\316\336\271@\353\234P@\2317A@\253\336\244@\275%\200@\252\300\006@\317\'4@@\266\301?\265\t\224@\300\205\"@\236[\267@\362M#@\226\262\237@\252\330H?<\345\271=n\265H@\343\270\201@\373\002\253@\265\341\240@\344\206/@2\265\362>\343j\242?>\222R?o\n\240@\327\251\002?\344\232\267<8\320[@G \234?\037\203\217@\032\316u@ \232\250@8\2517@0\032\360?Y$\307@\202\335a?\361-a@-\214y@`!\010@\240\202,@:I=@w\035\232@\351\252\361?\2327\233@B\323R@gw\204>)\322\266@\032\2200@\234\002\256@E\033\242@yk\t@\032\373\346?\321n\323?\257i[@\370\204w?\177Q\263@\273\225\240?\232\222\300@\344\326\013@\007\270\215@b\277\206@%\201\267@\033lP>[\310/=[4\225@\001.J>\003z\226?\272^\200@\261\247X@j\n7@\352$\226@)\341\205@\267#\177@\212\230/@\316K\260@`\351\266@\243\035\225@G\345\250@\255\0179@\231\300\255?\252D{@20\203@M\240R?=\355O@Q\013\260?{\257\210@\030\365\324?7g\243@w\263+@\225\273l@\317U\365?\326g\267@&\323_?\327\372\013@78z@U;\205@`U\244?\255\002\266?\272\000\335?\006}\016@\236\002|@~\016S@\004\265\261@\330\252\020@\300\013\247@\002\3764@\205\343\247?BfF@\372\032\177@g/\265@v\n\372>x\240\276@\020\260\271@\265\312\311?\\\026m@\020J^@F\222\241>\236\272_?\250\210\255?j\353\303@\301\221d?w\264\374?\036\217\321?\371c\376?\266\033D@\330\337 @\213\220\247@U\315\261@\375\324\235@_\'\310?\352WD@2\342\234@\311X\215@\276\210\332>\364\0170@\233\232\205@QI\253@;\211\317?\243WB@\322%\243@\376#\244@g\234\232@876@(\226\377?\311C\275@\215\024\031@R\025\265>\212\234\212@\033\320\216?\205F\270@^I\262@\306\010q@Ck\237?\013]N@\331G\217@3\250\221@{\010\243@|\362\020@I\370\260@~ZR@5Dj@\260\262+@\026\'x@\323\203\253?\367q\266@\035O\241@$\371\230@\032\214\240@n\226<?N[5>b4\212?\'\250\357?\227\272b?{\336\200@@\004\233@S\311\251@\341\277\252>\267\243\226@M$\255@\347{\205>\333=z>\033\231\305@k]\034@\207\210v@\255\324N@\266\236!?J\273!@j8\212?\255\375\226?\226\306i@\350U\204?T\340\014@\266\010p@\230#\025@\311<r@ \007\214@\216\004\336?I\340F@\253\302V@\236\336\030?\222[r@S\260l>\365\351\307?\253\365\325?sI\270@\023~\226@"
      }
    }
  }
}
node {
  name: "Const_5"
  op: "Const"
  device: "/device:CPU:0"
  attr {
    key: "_output_shapes"
    value {
      list {
        shape {
          dim {
            size: 1000
          }
          dim {
            size: 1
          }
        }
      }
    }
  }
  attr {
    key: "dtype"
    value {
      type: DT_FLOAT
    }
  }
  attr {
    key: "value"
    value {
      tensor {
        dtype: DT_FLOAT
        tensor_shape {
          dim {
            size: 1000
          }
          dim {
            size: 1
          }
        }
        tensor_content: "\000\000\200?\000\000\200?\000\000\200?\000\000\200?\000\000\200?\000\000\200?\000\000\200?\000\000\200?\000\000\200?\000\000\200?\000\000\200?\000\000\200?\000\000\200?\000\000\200?\000\000\200?\000\000\200?\000\000\200?\000\000\200?\000\000\200?\000\000\200?\000\000\200?\000\000\200?\000\000\200?\000\000\200?\000\000\200?\000\000\200?\000\000\200?\000\000\200?\000\000\200?\000\000\200?\000\000\200?\000\000\200?\000\000\200?\000\000\200?\000\000\200?\000\000\200?\000\000\200?\000\000\200?\000\000\200?\000\000\200?\000\000\200?\000\000\200?\000\000\200?\000\000\200?\000\000\200?\000\000\200?\000\000\200?\000\000\200?\000\000\200?\000\000\200?\000\000\200?\000\000\200?\000\000\200?\000\000\200?\000\000\200?\000\000\200?\000\000\200?\000\000\200?\000\000\200?\000\000\200?\000\000\200?\000\000\200?\000\000\200?\000\000\200?\000\000\200?\000\000\200?\000\000\200?\000\000\200?\000\000\200?\000\000\200?\000\000\200?\000\000\200?\000\000\200?\000\000\200?\000\000\200?\000\000\200?\000\000\200?\000\000\200?\000\000\200?\000\000\200?\000\000\200?\000\000\200?\000\000\200?\000\000\200?\000\000\200?\000\000\200?\000\000\200?\000\000\200?\000\000\200?\000\000\200?\000\000\200?\000\000\200?\000\000\200?\000\000\200?\000\000\200?\000\000\200?\000\000\200?\000\000\200?\000\000\200?\000\000\200?\000\000\200?\000\000\200?\000\000\200?\000\000\200?\000\000\200?\000\000\200?\000\000\200?\000\000\200?\000\000\200?\000\000\200?\000\000\200?\000\000\200?\000\000\200?\000\000\200?\000\000\200?\000\000\200?\000\000\200?\000\000\200?\000\000\200?\000\000\200?\000\000\200?\000\000\200?\000\000\200?\000\000\200?\000\000\200?\000\000\200?\000\000\200?\000\000\200?\000\000\200?\000\000\200?\000\000\200?\000\000\200?\000\000\200?\000\000\200?\000\000\200?\000\000\200?\000\000\200?\000\000\200?\000\000\200?\000\000\200?\000\000\200?\000\000\200?\000\000\200?\000\000\200?\000\000\200?\000\000\200?\000\000\200?\000\000\200?\000\000\200?\000\000\200?\000\000\200?\000\000\200?\000\000\200?\000\000\200?\000\000\200?\000\000\200?\000\000\200?\000\000\200?\000\000\200?\000\000\200?\000\000\200?\000\000\200?\000\000\200?\000\000\200?\000\000\200?\000\000\200?\000\000\200?\000\000\200?\000\000\200?\000\000\200?\000\000\200?\000\000\200?\000\000\200?\000\000\200?\000\000\200?\000\000\200?\000\000\200?\000\000\200?\000\000\200?\000\000\200?\000\000\200?\000\000\200?\000\000\200?\000\000\200?\000\000\200?\000\000\200?\000\000\200?\000\000\200?\000\000\200?\000\000\200?\000\000\200?\000\000\200?\000\000\200?\000\000\200?\000\000\200?\000\000\200?\000\000\200?\000\000\200?\000\000\200?\000\000\200?\000\000\200?\000\000\200?\000\000\200?\000\000\200?\000\000\200?\000\000\200?\000\000\200?\000\000\200?\000\000\200?\000\000\200?\000\000\200?\000\000\200?\000\000\200?\000\000\200?\000\000\200?\000\000\200?\000\000\200?\000\000\200?\000\000\200?\000\000\200?\000\000\200?\000\000\200?\000\000\200?\000\000\200?\000\000\200?\000\000\200?\000\000\200?\000\000\200?\000\000\200?\000\000\200?\000\000\200?\000\000\200?\000\000\200?\000\000\200?\000\000\200?\000\000\200?\000\000\200?\000\000\200?\000\000\200?\000\000\200?\000\000\200?\000\000\200?\000\000\200?\000\000\200?\000\000\200?\000\000\200?\000\000\200?\000\000\200?\000\000\200?\000\000\200?\000\000\200?\000\000\200?\000\000\200?\000\000\200?\000\000\200?\000\000\200?\000\000\200?\000\000\200?\000\000\200?\000\000\200?\000\000\200?\000\000\200?\000\000\200?\000\000\200?\000\000\200?\000\000\200?\000\000\200?\000\000\200?\000\000\200?\000\000\200?\000\000\200?\000\000\200?\000\000\200?\000\000\200?\000\000\200?\000\000\200?\000\000\200?\000\000\200?\000\000\200?\000\000\200?\000\000\200?\000\000\200?\000\000\200?\000\000\200?\000\000\200?\000\000\200?\000\000\200?\000\000\200?\000\000\200?\000\000\200?\000\000\200?\000\000\200?\000\000\200?\000\000\200?\000\000\200?\000\000\200?\000\000\200?\000\000\200?\000\000\200?\000\000\200?\000\000\200?\000\000\200?\000\000\200?\000\000\200?\000\000\200?\000\000\200?\000\000\200?\000\000\200?\000\000\200?\000\000\200?\000\000\200?\000\000\200?\000\000\200?\000\000\200?\000\000\200?\000\000\200?\000\000\200?\000\000\200?\000\000\200?\000\000\200?\000\000\200?\000\000\200?\000\000\200?\000\000\200?\000\000\200?\000\000\200?\000\000\200?\000\000\200?\000\000\200?\000\000\200?\000\000\200?\000\000\200?\000\000\200?\000\000\200?\000\000\200?\000\000\200?\000\000\200?\000\000\200?\000\000\200?\000\000\200?\000\000\200?\000\000\200?\000\000\200?\000\000\200?\000\000\200?\000\000\200?\000\000\200?\000\000\200?\000\000\200?\000\000\200?\000\000\200?\000\000\200?\000\000\200?\000\000\200?\000\000\200?\000\000\200?\000\000\200?\000\000\200?\000\000\200?\000\000\200?\000\000\200?\000\000\200?\000\000\200?\000\000\200?\000\000\200?\000\000\200?\000\000\200?\000\000\200?\000\000\200?\000\000\200?\000\000\200?\000\000\200?\000\000\200?\000\000\200?\000\000\200?\000\000\200?\000\000\200?\000\000\200?\000\000\200?\000\000\200?\000\000\200?\000\000\200?\000\000\200?\000\000\200?\000\000\200?\000\000\200?\000\000\200?\000\000\200?\000\000\200?\000\000\200?\000\000\200?\000\000\200?\000\000\200?\000\000\200?\000\000\200?\000\000\200?\000\000\200?\000\000\200?\000\000\200?\000\000\200?\000\000\200?\000\000\200?\000\000\200?\000\000\200?\000\000\200?\000\000\200?\000\000\200?\000\000\200?\000\000\200?\000\000\200?\000\000\200?\000\000\200?\000\000\200?\000\000\200?\000\000\200?\000\000\200?\000\000\200?\000\000\200?\000\000\200?\000\000\200?\000\000\200?\000\000\200?\000\000\200?\000\000\200?\000\000\200?\000\000\200?\000\000\200?\000\000\200?\000\000\200?\000\000\200?\000\000\200?\000\000\200?\000\000\200?\000\000\200?\000\000\200?\000\000\200?\000\000\200?\000\000\200?\000\000\200?\000\000\200?\000\000\200?\000\000\200?\000\000\200?\000\000\200?\000\000\200?\000\000\200?\000\000\200?\000\000\200?\000\000\200?\000\000\200?\000\000\200?\000\000\200?\000\000\200?\000\000\200?\000\000\200?\000\000\200?\000\000\200?\000\000\200?\000\000\200?\000\000\200?\000\000\200?\000\000\200?\000\000\200?\000\000\200?\000\000\200?\000\000\200?\000\000\200?\000\000\200?\000\000\200?\000\000\200?\000\000\200?\000\000\200?\000\000\200?\000\000\200?\000\000\200?\000\000\200?\000\000\200?\000\000\200?\000\000\200?\000\000\200?\000\000\200?\000\000\200?\000\000\200?\000\000\200?\000\000\200?\000\000\200?\000\000\200?\000\000\200?\000\000\200?\000\000\200?\000\000\200?\000\000\200?\000\000\200?\000\000\200?\000\000\200?\000\000\200?\000\000\200?\000\000\200?\000\000\200?\000\000\200?\000\000\200?\000\000\200?\000\000\200?\000\000\200?\000\000\200?\000\000\200?\000\000\200?\000\000\200?\000\000\200?\000\000\200?\000\000\200?\000\000\200?\000\000\200?\000\000\200?\000\000\200?\000\000\200?\000\000\200?\000\000\200?\000\000\200?\000\000\200?\000\000\200?\000\000\200?\000\000\200?\000\000\200?\000\000\200?\000\000\200?\000\000\200?\000\000\200?\000\000\200?\000\000\200?\000\000\200?\000\000\200?\000\000\200?\000\000\200?\000\000\200?\000\000\200?\000\000\200?\000\000\200?\000\000\200?\000\000\200?\000\000\200?\000\000\200?\000\000\200?\000\000\200?\000\000\200?\000\000\200?\000\000\200?\000\000\200?\000\000\200?\000\000\200?\000\000\200?\000\000\200?\000\000\200?\000\000\200?\000\000\200?\000\000\200?\000\000\200?\000\000\200?\000\000\200?\000\000\200?\000\000\200?\000\000\200?\000\000\200?\000\000\200?\000\000\200?\000\000\200?\000\000\200?\000\000\200?\000\000\200?\000\000\200?\000\000\200?\000\000\200?\000\000\200?\000\000\200?\000\000\200?\000\000\200?\000\000\200?\000\000\200?\000\000\200?\000\000\200?\000\000\200?\000\000\200?\000\000\200?\000\000\200?\000\000\200?\000\000\200?\000\000\200?\000\000\200?\000\000\200?\000\000\200?\000\000\200?\000\000\200?\000\000\200?\000\000\200?\000\000\200?\000\000\200?\000\000\200?\000\000\200?\000\000\200?\000\000\200?\000\000\200?\000\000\200?\000\000\200?\000\000\200?\000\000\200?\000\000\200?\000\000\200?\000\000\200?\000\000\200?\000\000\200?\000\000\200?\000\000\200?\000\000\200?\000\000\200?\000\000\200?\000\000\200?\000\000\200?\000\000\200?\000\000\200?\000\000\200?\000\000\200?\000\000\200?\000\000\200?\000\000\200?\000\000\200?\000\000\200?\000\000\200?\000\000\200?\000\000\200?\000\000\200?\000\000\200?\000\000\200?\000\000\200?\000\000\200?\000\000\200?\000\000\200?\000\000\200?\000\000\200?\000\000\200?\000\000\200?\000\000\200?\000\000\200?\000\000\200?\000\000\200?\000\000\200?\000\000\200?\000\000\200?\000\000\200?\000\000\200?\000\000\200?\000\000\200?\000\000\200?\000\000\200?\000\000\200?\000\000\200?\000\000\200?\000\000\200?\000\000\200?\000\000\200?\000\000\200?\000\000\200?\000\000\200?\000\000\200?\000\000\200?\000\000\200?\000\000\200?\000\000\200?\000\000\200?\000\000\200?\000\000\200?\000\000\200?\000\000\200?\000\000\200?\000\000\200?\000\000\200?\000\000\200?\000\000\200?\000\000\200?\000\000\200?\000\000\200?\000\000\200?\000\000\200?\000\000\200?\000\000\200?\000\000\200?\000\000\200?\000\000\200?\000\000\200?\000\000\200?\000\000\200?\000\000\200?\000\000\200?\000\000\200?\000\000\200?\000\000\200?\000\000\200?\000\000\200?\000\000\200?\000\000\200?\000\000\200?\000\000\200?\000\000\200?\000\000\200?\000\000\200?\000\000\200?\000\000\200?\000\000\200?\000\000\200?\000\000\200?\000\000\200?\000\000\200?\000\000\200?\000\000\200?\000\000\200?\000\000\200?\000\000\200?\000\000\200?\000\000\200?\000\000\200?\000\000\200?\000\000\200?\000\000\200?\000\000\200?\000\000\200?\000\000\200?\000\000\200?\000\000\200?\000\000\200?\000\000\200?\000\000\200?\000\000\200?\000\000\200?\000\000\200?\000\000\200?\000\000\200?\000\000\200?\000\000\200?\000\000\200?\000\000\200?\000\000\200?\000\000\200?\000\000\200?\000\000\200?\000\000\200?\000\000\200?\000\000\200?\000\000\200?\000\000\200?\000\000\200?\000\000\200?\000\000\200?\000\000\200?\000\000\200?\000\000\200?\000\000\200?\000\000\200?\000\000\200?\000\000\200?\000\000\200?\000\000\200?\000\000\200?\000\000\200?\000\000\200?\000\000\200?\000\000\200?\000\000\200?\000\000\200?\000\000\200?\000\000\200?\000\000\200?\000\000\200?\000\000\200?\000\000\200?\000\000\200?\000\000\200?\000\000\200?\000\000\200?\000\000\200?\000\000\200?\000\000\200?\000\000\200?\000\000\200?\000\000\200?\000\000\200?\000\000\200?\000\000\200?\000\000\200?\000\000\200?\000\000\200?\000\000\200?\000\000\200?\000\000\200?\000\000\200?\000\000\200?\000\000\200?\000\000\200?\000\000\200?\000\000\200?\000\000\200?\000\000\200?\000\000\200?\000\000\200?\000\000\200?\000\000\200?\000\000\200?\000\000\200?\000\000\200?\000\000\200?\000\000\200?\000\000\200?\000\000\200?\000\000\200?\000\000\200?\000\000\200?\000\000\200?\000\000\200?\000\000\200?\000\000\200?\000\000\200?\000\000\200?\000\000\200?\000\000\200?\000\000\200?\000\000\200?\000\000\200?\000\000\200?\000\000\200?\000\000\200?\000\000\200?\000\000\200?\000\000\200?\000\000\200?\000\000\200?\000\000\200?\000\000\200?\000\000\200?\000\000\200?\000\000\200?\000\000\200?\000\000\200?\000\000\200?\000\000\200?\000\000\200?\000\000\200?\000\000\200?\000\000\200?\000\000\200?\000\000\200?\000\000\200?\000\000\200?\000\000\200?\000\000\200?\000\000\200?\000\000\200?\000\000\200?\000\000\200?\000\000\200?\000\000\200?\000\000\200?\000\000\200?\000\000\200?\000\000\200?\000\000\200?\000\000\200?\000\000\200?\000\000\200?\000\000\200?\000\000\200?\000\000\200?\000\000\200?\000\000\200?\000\000\200?\000\000\200?\000\000\200?\000\000\200?\000\000\200?\000\000\200?\000\000\200?\000\000\200?\000\000\200?\000\000\200?\000\000\200?\000\000\200?\000\000\200?\000\000\200?\000\000\200?\000\000\200?\000\000\200?\000\000\200?\000\000\200?\000\000\200?\000\000\200?\000\000\200?\000\000\200?\000\000\200?\000\000\200?\000\000\200?\000\000\200?\000\000\200?\000\000\200?\000\000\200?\000\000\200?\000\000\200?\000\000\200?\000\000\200?\000\000\200?\000\000\200?\000\000\200?\000\000\200?\000\000\200?\000\000\200?\000\000\200?\000\000\200?\000\000\200?\000\000\200?\000\000\200?\000\000\200?\000\000\200?\000\000\200?\000\000\200?\000\000\200?\000\000\200?\000\000\200?\000\000\200?\000\000\200?\000\000\200?\000\000\200?\000\000\200?\000\000\200?\000\000\200?\000\000\200?\000\000\200?\000\000\200?\000\000\200?\000\000\200?\000\000\200?\000\000\200?\000\000\200?\000\000\200?\000\000\200?\000\000\200?\000\000\200?\000\000\200?\000\000\200?\000\000\200?\000\000\200?\000\000\200?\000\000\200?\000\000\200?\000\000\200?\000\000\200?\000\000\200?\000\000\200?\000\000\200?\000\000\200?\000\000\200?\000\000\200?\000\000\200?\000\000\200?\000\000\200?\000\000\200?\000\000\200?\000\000\200?\000\000\200?\000\000\200?\000\000\200?\000\000\200?\000\000\200?\000\000\200?\000\000\200?\000\000\200?\000\000\200?\000\000\200?\000\000\200?\000\000\200?\000\000\200?\000\000\200?\000\000\200?\000\000\200?\000\000\200?\000\000\200?\000\000\200?\000\000\200?\000\000\200?\000\000\200?\000\000\200?\000\000\200?\000\000\200?\000\000\200?\000\000\200?\000\000\200?\000\000\200?\000\000\200?\000\000\200?\000\000\200?\000\000\200?\000\000\200?\000\000\200?\000\000\200?\000\000\200?"
      }
    }
  }
}
node {
  name: "concat/axis"
  op: "Const"
  device: "/device:CPU:0"
  attr {
    key: "_output_shapes"
    value {
      list {
        shape {
        }
      }
    }
  }
  attr {
    key: "dtype"
    value {
      type: DT_INT32
    }
  }
  attr {
    key: "value"
    value {
      tensor {
        dtype: DT_INT32
        tensor_shape {
        }
        int_val: 1
      }
    }
  }
}
node {
  name: "concat"
  op: "ConcatV2"
  input: "Const"
  input: "Const_2"
  input: "Const_4"
  input: "concat/axis"
  device: "/device:CPU:0"
  attr {
    key: "N"
    value {
      i: 3
    }
  }
  attr {
    key: "T"
    value {
      type: DT_FLOAT
    }
  }
  attr {
    key: "Tidx"
    value {
      type: DT_INT32
    }
  }
  attr {
    key: "_output_shapes"
    value {
      list {
        shape {
          dim {
            size: 1000
          }
          dim {
            size: 3
          }
        }
      }
    }
  }
}
node {
  name: "concat_1/axis"
  op: "Const"
  device: "/device:CPU:0"
  attr {
    key: "_output_shapes"
    value {
      list {
        shape {
        }
      }
    }
  }
  attr {
    key: "dtype"
    value {
      type: DT_INT32
    }
  }
  attr {
    key: "value"
    value {
      tensor {
        dtype: DT_INT32
        tensor_shape {
        }
        int_val: 1
      }
    }
  }
}
node {
  name: "concat_1"
  op: "ConcatV2"
  input: "Const_1"
  input: "Const_3"
  input: "Const_5"
  input: "concat_1/axis"
  device: "/device:CPU:0"
  attr {
    key: "N"
    value {
      i: 3
    }
  }
  attr {
    key: "T"
    value {
      type: DT_FLOAT
    }
  }
  attr {
    key: "Tidx"
    value {
      type: DT_INT32
    }
  }
  attr {
    key: "_output_shapes"
    value {
      list {
        shape {
          dim {
            size: 1000
          }
          dim {
            size: 3
          }
        }
      }
    }
  }
}
node {
  name: "Cumsum/axis"
  op: "Const"
  device: "/device:CPU:0"
  attr {
    key: "_output_shapes"
    value {
      list {
        shape {
        }
      }
    }
  }
  attr {
    key: "dtype"
    value {
      type: DT_INT32
    }
  }
  attr {
    key: "value"
    value {
      tensor {
        dtype: DT_INT32
        tensor_shape {
        }
        int_val: 1
      }
    }
  }
}
node {
  name: "Cumsum"
  op: "Cumsum"
  input: "concat"
  input: "Cumsum/axis"
  device: "/device:CPU:0"
  attr {
    key: "T"
    value {
      type: DT_FLOAT
    }
  }
  attr {
    key: "Tidx"
    value {
      type: DT_INT32
    }
  }
  attr {
    key: "_output_shapes"
    value {
      list {
        shape {
          dim {
            size: 1000
          }
          dim {
            size: 3
          }
        }
      }
    }
  }
  attr {
    key: "exclusive"
    value {
      b: false
    }
  }
  attr {
    key: "reverse"
    value {
      b: false
    }
  }
}
node {
  name: "Sin"
  op: "Sin"
  input: "Cumsum"
  device: "/device:CPU:0"
  attr {
    key: "T"
    value {
      type: DT_FLOAT
    }
  }
  attr {
    key: "_output_shapes"
    value {
      list {
        shape {
          dim {
            size: 1000
          }
          dim {
            size: 3
          }
        }
      }
    }
  }
}
node {
  name: "Cumsum_1/axis"
  op: "Const"
  device: "/device:CPU:0"
  attr {
    key: "_output_shapes"
    value {
      list {
        shape {
        }
      }
    }
  }
  attr {
    key: "dtype"
    value {
      type: DT_INT32
    }
  }
  attr {
    key: "value"
    value {
      tensor {
        dtype: DT_INT32
        tensor_shape {
        }
        int_val: 1
      }
    }
  }
}
node {
  name: "Cumsum_1"
  op: "Cumsum"
  input: "concat"
  input: "Cumsum_1/axis"
  device: "/device:CPU:0"
  attr {
    key: "T"
    value {
      type: DT_FLOAT
    }
  }
  attr {
    key: "Tidx"
    value {
      type: DT_INT32
    }
  }
  attr {
    key: "_output_shapes"
    value {
      list {
        shape {
          dim {
            size: 1000
          }
          dim {
            size: 3
          }
        }
      }
    }
  }
  attr {
    key: "exclusive"
    value {
      b: false
    }
  }
  attr {
    key: "reverse"
    value {
      b: false
    }
  }
}
node {
  name: "Cos"
  op: "Cos"
  input: "Cumsum_1"
  device: "/device:CPU:0"
  attr {
    key: "T"
    value {
      type: DT_FLOAT
    }
  }
  attr {
    key: "_output_shapes"
    value {
      list {
        shape {
          dim {
            size: 1000
          }
          dim {
            size: 3
          }
        }
      }
    }
  }
}
node {
  name: "Mul"
  op: "Mul"
  input: "concat_1"
  input: "Cos"
  device: "/device:CPU:0"
  attr {
    key: "T"
    value {
      type: DT_FLOAT
    }
  }
  attr {
    key: "_output_shapes"
    value {
      list {
        shape {
          dim {
            size: 1000
          }
          dim {
            size: 3
          }
        }
      }
    }
  }
}
node {
  name: "Mul_1"
  op: "Mul"
  input: "concat_1"
  input: "Sin"
  device: "/device:CPU:0"
  attr {
    key: "T"
    value {
      type: DT_FLOAT
    }
  }
  attr {
    key: "_output_shapes"
    value {
      list {
        shape {
          dim {
            size: 1000
          }
          dim {
            size: 3
          }
        }
      }
    }
  }
}
node {
  name: "Sum/reduction_indices"
  op: "Const"
  device: "/device:CPU:0"
  attr {
    key: "_output_shapes"
    value {
      list {
        shape {
        }
      }
    }
  }
  attr {
    key: "dtype"
    value {
      type: DT_INT32
    }
  }
  attr {
    key: "value"
    value {
      tensor {
        dtype: DT_INT32
        tensor_shape {
        }
        int_val: 1
      }
    }
  }
}
node {
  name: "Sum"
  op: "Sum"
  input: "Mul"
  input: "Sum/reduction_indices"
  device: "/device:CPU:0"
  attr {
    key: "T"
    value {
      type: DT_FLOAT
    }
  }
  attr {
    key: "Tidx"
    value {
      type: DT_INT32
    }
  }
  attr {
    key: "_output_shapes"
    value {
      list {
        shape {
          dim {
            size: 1000
          }
          dim {
            size: 1
          }
        }
      }
    }
  }
  attr {
    key: "keep_dims"
    value {
      b: true
    }
  }
}
node {
  name: "Sum_1/reduction_indices"
  op: "Const"
  device: "/device:CPU:0"
  attr {
    key: "_output_shapes"
    value {
      list {
        shape {
        }
      }
    }
  }
  attr {
    key: "dtype"
    value {
      type: DT_INT32
    }
  }
  attr {
    key: "value"
    value {
      tensor {
        dtype: DT_INT32
        tensor_shape {
        }
        int_val: 1
      }
    }
  }
}
node {
  name: "Sum_1"
  op: "Sum"
  input: "Mul_1"
  input: "Sum_1/reduction_indices"
  device: "/device:CPU:0"
  attr {
    key: "T"
    value {
      type: DT_FLOAT
    }
  }
  attr {
    key: "Tidx"
    value {
      type: DT_INT32
    }
  }
  attr {
    key: "_output_shapes"
    value {
      list {
        shape {
          dim {
            size: 1000
          }
          dim {
            size: 1
          }
        }
      }
    }
  }
  attr {
    key: "keep_dims"
    value {
      b: true
    }
  }
}
node {
  name: "Shape"
  op: "Const"
  device: "/device:CPU:0"
  attr {
    key: "_output_shapes"
    value {
      list {
        shape {
          dim {
            size: 2
          }
        }
      }
    }
  }
  attr {
    key: "dtype"
    value {
      type: DT_INT32
    }
  }
  attr {
    key: "value"
    value {
      tensor {
        dtype: DT_INT32
        tensor_shape {
          dim {
            size: 2
          }
        }
        tensor_content: "\350\003\000\000\001\000\000\000"
      }
    }
  }
}
node {
  name: "zeros/Const"
  op: "Const"
  device: "/device:CPU:0"
  attr {
    key: "_output_shapes"
    value {
      list {
        shape {
        }
      }
    }
  }
  attr {
    key: "dtype"
    value {
      type: DT_FLOAT
    }
  }
  attr {
    key: "value"
    value {
      tensor {
        dtype: DT_FLOAT
        tensor_shape {
        }
        float_val: 0.0
      }
    }
  }
}
node {
  name: "zeros"
  op: "Fill"
  input: "Shape"
  input: "zeros/Const"
  device: "/device:CPU:0"
  attr {
    key: "T"
    value {
      type: DT_FLOAT
    }
  }
  attr {
    key: "_output_shapes"
    value {
      list {
        shape {
          dim {
            size: 1000
          }
          dim {
            size: 1
          }
        }
      }
    }
  }
}
node {
  name: "concat_2/axis"
  op: "Const"
  device: "/device:CPU:0"
  attr {
    key: "_output_shapes"
    value {
      list {
        shape {
        }
      }
    }
  }
  attr {
    key: "dtype"
    value {
      type: DT_INT32
    }
  }
  attr {
    key: "value"
    value {
      tensor {
        dtype: DT_INT32
        tensor_shape {
        }
        int_val: 1
      }
    }
  }
}
node {
  name: "concat_2"
  op: "ConcatV2"
  input: "Sum"
  input: "Sum_1"
  input: "zeros"
  input: "concat_2/axis"
  device: "/device:CPU:0"
  attr {
    key: "N"
    value {
      i: 3
    }
  }
  attr {
    key: "T"
    value {
      type: DT_FLOAT
    }
  }
  attr {
    key: "Tidx"
    value {
      type: DT_INT32
    }
  }
  attr {
    key: "_output_shapes"
    value {
      list {
        shape {
          dim {
            size: 1000
          }
          dim {
            size: 3
          }
        }
      }
    }
  }
}
node {
  name: "Const_6"
  op: "Const"
  device: "/device:CPU:0"
  attr {
    key: "_output_shapes"
    value {
      list {
        shape {
          dim {
            size: 1
          }
          dim {
            size: 1
          }
        }
      }
    }
  }
  attr {
    key: "dtype"
    value {
      type: DT_FLOAT
    }
  }
  attr {
    key: "value"
    value {
      tensor {
        dtype: DT_FLOAT
        tensor_shape {
          dim {
            size: 1
          }
          dim {
            size: 1
          }
        }
        float_val: 0.00999999977648
      }
    }
  }
}
node {
  name: "Const_7"
  op: "Const"
  device: "/device:CPU:0"
  attr {
    key: "_output_shapes"
    value {
      list {
        shape {
          dim {
            size: 1
          }
          dim {
            size: 3
          }
        }
      }
    }
  }
  attr {
    key: "dtype"
    value {
      type: DT_FLOAT
    }
  }
  attr {
    key: "value"
    value {
      tensor {
        dtype: DT_FLOAT
        tensor_shape {
          dim {
            size: 1
          }
          dim {
            size: 3
          }
        }
        tensor_content: "E\023~>\266\nx?\000\000\000\000"
      }
    }
  }
}
node {
  name: "Mul_2"
  op: "Mul"
  input: "Const_7"
  input: "Const_6"
  device: "/device:CPU:0"
  attr {
    key: "T"
    value {
      type: DT_FLOAT
    }
  }
  attr {
    key: "_output_shapes"
    value {
      list {
        shape {
          dim {
            size: 1
          }
          dim {
            size: 3
          }
        }
      }
    }
  }
}
node {
  name: "Const_8"
  op: "Const"
  device: "/device:CPU:0"
  attr {
    key: "_output_shapes"
    value {
      list {
        shape {
          dim {
            size: 1
          }
          dim {
            size: 3
          }
        }
      }
    }
  }
  attr {
    key: "dtype"
    value {
      type: DT_FLOAT
    }
  }
  attr {
    key: "value"
    value {
      tensor {
        dtype: DT_FLOAT
        tensor_shape {
          dim {
            size: 1
          }
          dim {
            size: 3
          }
        }
        tensor_content: "\354 C=L\003\372>\000\000\000\000"
      }
    }
  }
}
node {
  name: "Mul_3"
  op: "Mul"
  input: "Const_8"
  input: "Const_6"
  device: "/device:CPU:0"
  attr {
    key: "T"
    value {
      type: DT_FLOAT
    }
  }
  attr {
    key: "_output_shapes"
    value {
      list {
        shape {
          dim {
            size: 1
          }
          dim {
            size: 3
          }
        }
      }
    }
  }
}
node {
  name: "Const_9"
  op: "Const"
  device: "/device:CPU:0"
  attr {
    key: "_output_shapes"
    value {
      list {
        shape {
          dim {
            size: 1
          }
          dim {
            size: 3
          }
        }
      }
    }
  }
  attr {
    key: "dtype"
    value {
      type: DT_FLOAT
    }
  }
  attr {
    key: "value"
    value {
      tensor {
        dtype: DT_FLOAT
        tensor_shape {
          dim {
            size: 1
          }
          dim {
            size: 3
          }
        }
        tensor_content: "\360\020\266>\277\352Z?\000\000\000\000"
      }
    }
  }
}
node {
  name: "Mul_4"
  op: "Mul"
  input: "Const_9"
  input: "Const_6"
  device: "/device:CPU:0"
  attr {
    key: "T"
    value {
      type: DT_FLOAT
    }
  }
  attr {
    key: "_output_shapes"
    value {
      list {
        shape {
          dim {
            size: 1
          }
          dim {
            size: 3
          }
        }
      }
    }
  }
}
node {
  name: "Const_10"
  op: "Const"
  device: "/device:CPU:0"
  attr {
    key: "_output_shapes"
    value {
      list {
        shape {
          dim {
            size: 1
          }
          dim {
            size: 3
          }
        }
      }
    }
  }
  attr {
    key: "dtype"
    value {
      type: DT_FLOAT
    }
  }
  attr {
    key: "value"
    value {
      tensor {
        dtype: DT_FLOAT
        tensor_shape {
          dim {
            size: 1
          }
          dim {
            size: 3
          }
        }
        tensor_content: "\302\300\374=\321\037x=\000\000\000\000"
      }
    }
  }
}
node {
  name: "Mul_5"
  op: "Mul"
  input: "Const_10"
  input: "Const_6"
  device: "/device:CPU:0"
  attr {
    key: "T"
    value {
      type: DT_FLOAT
    }
  }
  attr {
    key: "_output_shapes"
    value {
      list {
        shape {
          dim {
            size: 1
          }
          dim {
            size: 3
          }
        }
      }
    }
  }
}
node {
  name: "Const_11"
  op: "Const"
  device: "/device:CPU:0"
  attr {
    key: "_output_shapes"
    value {
      list {
        shape {
          dim {
            size: 1
          }
          dim {
            size: 3
          }
        }
      }
    }
  }
  attr {
    key: "dtype"
    value {
      type: DT_FLOAT
    }
  }
  attr {
    key: "value"
    value {
      tensor {
        dtype: DT_FLOAT
        tensor_shape {
          dim {
            size: 1
          }
          dim {
            size: 3
          }
        }
        tensor_content: "\227\277\347>:\377\220<\000\000\000\000"
      }
    }
  }
}
node {
  name: "Mul_6"
  op: "Mul"
  input: "Const_11"
  input: "Const_6"
  device: "/device:CPU:0"
  attr {
    key: "T"
    value {
      type: DT_FLOAT
    }
  }
  attr {
    key: "_output_shapes"
    value {
      list {
        shape {
          dim {
            size: 1
          }
          dim {
            size: 3
          }
        }
      }
    }
  }
}
node {
  name: "Const_12"
  op: "Const"
  device: "/device:CPU:0"
  attr {
    key: "_output_shapes"
    value {
      list {
        shape {
          dim {
            size: 1
          }
          dim {
            size: 3
          }
        }
      }
    }
  }
  attr {
    key: "dtype"
    value {
      type: DT_FLOAT
    }
  }
  attr {
    key: "value"
    value {
      tensor {
        dtype: DT_FLOAT
        tensor_shape {
          dim {
            size: 1
          }
          dim {
            size: 3
          }
        }
        tensor_content: "\3747\340<A1P?\000\000\000\000"
      }
    }
  }
}
node {
  name: "Mul_7"
  op: "Mul"
  input: "Const_12"
  input: "Const_6"
  device: "/device:CPU:0"
  attr {
    key: "T"
    value {
      type: DT_FLOAT
    }
  }
  attr {
    key: "_output_shapes"
    value {
      list {
        shape {
          dim {
            size: 1
          }
          dim {
            size: 3
          }
        }
      }
    }
  }
}
node {
  name: "Const_13"
  op: "Const"
  device: "/device:CPU:0"
  attr {
    key: "_output_shapes"
    value {
      list {
        shape {
          dim {
            size: 1
          }
          dim {
            size: 3
          }
        }
      }
    }
  }
  attr {
    key: "dtype"
    value {
      type: DT_FLOAT
    }
  }
  attr {
    key: "value"
    value {
      tensor {
        dtype: DT_FLOAT
        tensor_shape {
          dim {
            size: 1
          }
          dim {
            size: 3
          }
        }
        tensor_content: "~S ?\r\340i?\000\000\000\000"
      }
    }
  }
}
node {
  name: "Mul_8"
  op: "Mul"
  input: "Const_13"
  input: "Const_6"
  device: "/device:CPU:0"
  attr {
    key: "T"
    value {
      type: DT_FLOAT
    }
  }
  attr {
    key: "_output_shapes"
    value {
      list {
        shape {
          dim {
            size: 1
          }
          dim {
            size: 3
          }
        }
      }
    }
  }
}
node {
  name: "Const_14"
  op: "Const"
  device: "/device:CPU:0"
  attr {
    key: "_output_shapes"
    value {
      list {
        shape {
          dim {
            size: 1
          }
          dim {
            size: 3
          }
        }
      }
    }
  }
  attr {
    key: "dtype"
    value {
      type: DT_FLOAT
    }
  }
  attr {
    key: "value"
    value {
      tensor {
        dtype: DT_FLOAT
        tensor_shape {
          dim {
            size: 1
          }
          dim {
            size: 3
          }
        }
        tensor_content: "d7\220=p\214d?\000\000\000\000"
      }
    }
  }
}
node {
  name: "Mul_9"
  op: "Mul"
  input: "Const_14"
  input: "Const_6"
  device: "/device:CPU:0"
  attr {
    key: "T"
    value {
      type: DT_FLOAT
    }
  }
  attr {
    key: "_output_shapes"
    value {
      list {
        shape {
          dim {
            size: 1
          }
          dim {
            size: 3
          }
        }
      }
    }
  }
}
node {
  name: "Const_15"
  op: "Const"
  device: "/device:CPU:0"
  attr {
    key: "_output_shapes"
    value {
      list {
        shape {
          dim {
            size: 1
          }
          dim {
            size: 3
          }
        }
      }
    }
  }
  attr {
    key: "dtype"
    value {
      type: DT_FLOAT
    }
  }
  attr {
    key: "value"
    value {
      tensor {
        dtype: DT_FLOAT
        tensor_shape {
          dim {
            size: 1
          }
          dim {
            size: 3
          }
        }
        tensor_content: "B\307Z=AUS?\000\000\000\000"
      }
    }
  }
}
node {
  name: "Mul_10"
  op: "Mul"
  input: "Const_15"
  input: "Const_6"
  device: "/device:CPU:0"
  attr {
    key: "T"
    value {
      type: DT_FLOAT
    }
  }
  attr {
    key: "_output_shapes"
    value {
      list {
        shape {
          dim {
            size: 1
          }
          dim {
            size: 3
          }
        }
      }
    }
  }
}
node {
  name: "Const_16"
  op: "Const"
  device: "/device:CPU:0"
  attr {
    key: "_output_shapes"
    value {
      list {
        shape {
          dim {
            size: 1
          }
          dim {
            size: 3
          }
        }
      }
    }
  }
  attr {
    key: "dtype"
    value {
      type: DT_FLOAT
    }
  }
  attr {
    key: "value"
    value {
      tensor {
        dtype: DT_FLOAT
        tensor_shape {
          dim {
            size: 1
          }
          dim {
            size: 3
          }
        }
        tensor_content: "/\375\343>\215[\002?\000\000\000\000"
      }
    }
  }
}
node {
  name: "Mul_11"
  op: "Mul"
  input: "Const_16"
  input: "Const_6"
  device: "/device:CPU:0"
  attr {
    key: "T"
    value {
      type: DT_FLOAT
    }
  }
  attr {
    key: "_output_shapes"
    value {
      list {
        shape {
          dim {
            size: 1
          }
          dim {
            size: 3
          }
        }
      }
    }
  }
}
node {
  name: "Const_17"
  op: "Const"
  device: "/device:CPU:0"
  attr {
    key: "_output_shapes"
    value {
      list {
        shape {
          dim {
            size: 1
          }
          dim {
            size: 3
          }
        }
      }
    }
  }
  attr {
    key: "dtype"
    value {
      type: DT_FLOAT
    }
  }
  attr {
    key: "value"
    value {
      tensor {
        dtype: DT_FLOAT
        tensor_shape {
          dim {
            size: 1
          }
          dim {
            size: 3
          }
        }
        tensor_content: ".r==d\033=?\000\000\000\000"
      }
    }
  }
}
node {
  name: "Mul_12"
  op: "Mul"
  input: "Const_17"
  input: "Const_6"
  device: "/device:CPU:0"
  attr {
    key: "T"
    value {
      type: DT_FLOAT
    }
  }
  attr {
    key: "_output_shapes"
    value {
      list {
        shape {
          dim {
            size: 1
          }
          dim {
            size: 3
          }
        }
      }
    }
  }
}
node {
  name: "Const_18"
  op: "Const"
  device: "/device:CPU:0"
  attr {
    key: "_output_shapes"
    value {
      list {
        shape {
          dim {
            size: 1
          }
          dim {
            size: 3
          }
        }
      }
    }
  }
  attr {
    key: "dtype"
    value {
      type: DT_FLOAT
    }
  }
  attr {
    key: "value"
    value {
      tensor {
        dtype: DT_FLOAT
        tensor_shape {
          dim {
            size: 1
          }
          dim {
            size: 3
          }
        }
        tensor_content: "\216\262*>\226\333\306>\000\000\000\000"
      }
    }
  }
}
node {
  name: "Mul_13"
  op: "Mul"
  input: "Const_18"
  input: "Const_6"
  device: "/device:CPU:0"
  attr {
    key: "T"
    value {
      type: DT_FLOAT
    }
  }
  attr {
    key: "_output_shapes"
    value {
      list {
        shape {
          dim {
            size: 1
          }
          dim {
            size: 3
          }
        }
      }
    }
  }
}
node {
  name: "Const_19"
  op: "Const"
  device: "/device:CPU:0"
  attr {
    key: "_output_shapes"
    value {
      list {
        shape {
          dim {
            size: 1
          }
          dim {
            size: 3
          }
        }
      }
    }
  }
  attr {
    key: "dtype"
    value {
      type: DT_FLOAT
    }
  }
  attr {
    key: "value"
    value {
      tensor {
        dtype: DT_FLOAT
        tensor_shape {
          dim {
            size: 1
          }
          dim {
            size: 3
          }
        }
        tensor_content: "\223$\271>\034\250_?\000\000\000\000"
      }
    }
  }
}
node {
  name: "Mul_14"
  op: "Mul"
  input: "Const_19"
  input: "Const_6"
  device: "/device:CPU:0"
  attr {
    key: "T"
    value {
      type: DT_FLOAT
    }
  }
  attr {
