node {
  name: "global_step/Initializer/zeros"
  op: "Const"
  attr {
    key: "_class"
    value {
      list {
        s: "loc:@global_step"
      }
    }
  }
  attr {
    key: "_output_shapes"
    value {
      list {
        shape {
        }
      }
    }
  }
  attr {
    key: "dtype"
    value {
      type: DT_INT64
    }
  }
  attr {
    key: "value"
    value {
      tensor {
        dtype: DT_INT64
        tensor_shape {
        }
        int64_val: 0
      }
    }
  }
}
node {
  name: "global_step"
  op: "VariableV2"
  attr {
    key: "_class"
    value {
      list {
        s: "loc:@global_step"
      }
    }
  }
  attr {
    key: "_output_shapes"
    value {
      list {
        shape {
        }
      }
    }
  }
  attr {
    key: "container"
    value {
      s: ""
    }
  }
  attr {
    key: "dtype"
    value {
      type: DT_INT64
    }
  }
  attr {
    key: "shape"
    value {
      shape {
      }
    }
  }
  attr {
    key: "shared_name"
    value {
      s: ""
    }
  }
}
node {
  name: "global_step/Assign"
  op: "Assign"
  input: "global_step"
  input: "global_step/Initializer/zeros"
  attr {
    key: "T"
    value {
      type: DT_INT64
    }
  }
  attr {
    key: "_class"
    value {
      list {
        s: "loc:@global_step"
      }
    }
  }
  attr {
    key: "_output_shapes"
    value {
      list {
        shape {
        }
      }
    }
  }
  attr {
    key: "use_locking"
    value {
      b: true
    }
  }
  attr {
    key: "validate_shape"
    value {
      b: true
    }
  }
}
node {
  name: "global_step/read"
  op: "Identity"
  input: "global_step"
  attr {
    key: "T"
    value {
      type: DT_INT64
    }
  }
  attr {
    key: "_class"
    value {
      list {
        s: "loc:@global_step"
      }
    }
  }
  attr {
    key: "_output_shapes"
    value {
      list {
        shape {
        }
      }
    }
  }
}
node {
  name: "global_step/IsVariableInitialized"
  op: "IsVariableInitialized"
  input: "global_step"
  attr {
    key: "_class"
    value {
      list {
        s: "loc:@global_step"
      }
    }
  }
  attr {
    key: "_output_shapes"
    value {
      list {
        shape {
        }
      }
    }
  }
  attr {
    key: "dtype"
    value {
      type: DT_INT64
    }
  }
}
node {
  name: "global_step/cond/Switch"
  op: "Switch"
  input: "global_step/IsVariableInitialized"
  input: "global_step/IsVariableInitialized"
  attr {
    key: "T"
    value {
      type: DT_BOOL
    }
  }
  attr {
    key: "_output_shapes"
    value {
      list {
        shape {
        }
        shape {
        }
      }
    }
  }
}
node {
  name: "global_step/cond/switch_t"
  op: "Identity"
  input: "global_step/cond/Switch:1"
  attr {
    key: "T"
    value {
      type: DT_BOOL
    }
  }
  attr {
    key: "_output_shapes"
    value {
      list {
        shape {
        }
      }
    }
  }
}
node {
  name: "global_step/cond/switch_f"
  op: "Identity"
  input: "global_step/cond/Switch"
  attr {
    key: "T"
    value {
      type: DT_BOOL
    }
  }
  attr {
    key: "_output_shapes"
    value {
      list {
        shape {
        }
      }
    }
  }
}
node {
  name: "global_step/cond/pred_id"
  op: "Identity"
  input: "global_step/IsVariableInitialized"
  attr {
    key: "T"
    value {
      type: DT_BOOL
    }
  }
  attr {
    key: "_output_shapes"
    value {
      list {
        shape {
        }
      }
    }
  }
}
node {
  name: "global_step/cond/read"
  op: "Identity"
  input: "global_step/cond/read/Switch:1"
  attr {
    key: "T"
    value {
      type: DT_INT64
    }
  }
  attr {
    key: "_output_shapes"
    value {
      list {
        shape {
        }
      }
    }
  }
}
node {
  name: "global_step/cond/read/Switch"
  op: "RefSwitch"
  input: "global_step"
  input: "global_step/cond/pred_id"
  attr {
    key: "T"
    value {
      type: DT_INT64
    }
  }
  attr {
    key: "_class"
    value {
      list {
        s: "loc:@global_step"
      }
    }
  }
  attr {
    key: "_output_shapes"
    value {
      list {
        shape {
        }
        shape {
        }
      }
    }
  }
}
node {
  name: "global_step/cond/Switch_1"
  op: "Switch"
  input: "global_step/Initializer/zeros"
  input: "global_step/cond/pred_id"
  attr {
    key: "T"
    value {
      type: DT_INT64
    }
  }
  attr {
    key: "_class"
    value {
      list {
        s: "loc:@global_step"
      }
    }
  }
  attr {
    key: "_output_shapes"
    value {
      list {
        shape {
        }
        shape {
        }
      }
    }
  }
}
node {
  name: "global_step/cond/Merge"
  op: "Merge"
  input: "global_step/cond/Switch_1"
  input: "global_step/cond/read"
  attr {
    key: "N"
    value {
      i: 2
    }
  }
  attr {
    key: "T"
    value {
      type: DT_INT64
    }
  }
  attr {
    key: "_output_shapes"
    value {
      list {
        shape {
        }
        shape {
        }
      }
    }
  }
}
node {
  name: "global_step/add/y"
  op: "Const"
  attr {
    key: "_output_shapes"
    value {
      list {
        shape {
        }
      }
    }
  }
  attr {
    key: "dtype"
    value {
      type: DT_INT64
    }
  }
  attr {
    key: "value"
    value {
      tensor {
        dtype: DT_INT64
        tensor_shape {
        }
        int64_val: 0
      }
    }
  }
}
node {
  name: "global_step/add"
  op: "Add"
  input: "global_step/cond/Merge"
  input: "global_step/add/y"
  attr {
    key: "T"
    value {
      type: DT_INT64
    }
  }
  attr {
    key: "_output_shapes"
    value {
      list {
        shape {
        }
      }
    }
  }
}
node {
  name: "Const"
  op: "Const"
  device: "/device:CPU:0"
  attr {
    key: "_output_shapes"
    value {
      list {
        shape {
          dim {
            size: 1000
          }
          dim {
            size: 1
          }
        }
      }
    }
  }
  attr {
    key: "dtype"
    value {
      type: DT_FLOAT
    }
  }
  attr {
    key: "value"
    value {
      tensor {
        dtype: DT_FLOAT
        tensor_shape {
          dim {
            size: 1000
          }
          dim {
            size: 1
          }
        }
        tensor_content: "\370J\252@5L:@\272\225\001@\213\304Y@\001\364\227@]\341\211@\036\242\267@@\254]@Yk\007@,X\240@-\265]>\006\2143<\344\357L?r\301\253?w;a@\307\365\037@i\360\302?\002\017;>\303\200\222@H\031\306>\375\261:@\230\205\220>\025Rt@^\270\306@w%s@\302\233U>\361\244[?\376[\300@\257\226\254@\340\311\266@\370\211\304@O}\232@\355[\320?!z]@0\243\037@\2528\252?O\016\263?\316A\216@\2416\203>\274\342\000@\355+\221@a?v@\272v\375?{\"\263@\325\006{@\337\251\367<\201\244\247?\250^\255@_h\233@X\275\223@\332\002\t@\251I\264@\016uP@j\270\247>\337f\202@\363\005\201@M\214\243@\311tP@?\275\251?#\205\304@N\032G>\306:r?h\363y@\253:\221@Sl\236@\244;<@\024Q\027@\013\220\213@\233\025\267@\350\367\266@K\331\363?\361\022W@gLf@\372\256n?U\314b@\353*D?;v`@\335\261\212@E\351\224@\376\311\035@\226:J?IF\034@tc\236?\247\370\215@\256\251\262@\336Dt?\246m\267@\306\025\216>.\276\024@\r\034C?B\005R?t\225\235>\370\276\305@\266\353\215@n\223/@\217\342\256@\3248\034@\220\366J@\326\016\236@1B~@\256Lg@\301\204\255?\322\300\252?Yy\247@\025\364\220@\315\222]@kHh@\005\226\244@\277\024\033@v\313T@\254\347\220@a5\222@\371M,@\014\310\240@8\357+?\037\245\031@\223\227\235@M\033\277@\316\355<@\000\261\257@\000\"\265@+\324P@^C_@\371\326\241@\023N\031@CK\277?3[G@\037 \263?\255\304o@\313\306\347>Q\2173@1\322*@\000(\004@\311\216R@\211E\251@\344\261\300@\271\024b@J\256\354?Th2@9\021\272@\221\020\261>\342+\265@Dq?>\332\010\322?\227f\310@\247K\023@\257@\223?9\350:@\001{Z@\227H\360>\371<\\@es\255@*@$@\220\313`@\214P\202@Y\341s@)\357}@U\003\207@\036\233\260?\265\"X@\376\214\253=\\\350\\@\\\177\232@2\327c@Q\342\316>i(B@\227$\220@\036\217\210?\371\356u?hf\201@\352m\244@\335Ml@\242\306\232=\316jb@\250\322\310@?(\330>e\342G>6\'\232?\270\332\253>%\005\271@\010\263\344?o\032\233@\215\024\233@\261x<@a\235\001@\243\351X?\347t~@\006\234\210@\035;\223?:\000\\?k\037b@\007\033b@g\360\244>k \273?u[\024@IJ\276@?K\013@}\232\307>\227\2671@\255\365\206@\212By>\356\236.?sL\005@\242o\204@:X\234@\247y\232@\327u\021@l\242\204@f\276c@\215S\203?9\025a?\377\340\246@\306?\261@\336$\235@q\231z@f\213\025@\3312\212?Z\313\276>\355\273m@\372\255\221>3<^?\354\3628@\3226\007@*\020\237@\253\350\270?\',\235@nC5?V\324]@t\376\200?\235\366C@H\270\302@\333\335h@\3511K@\006\213v?8\037\323?\254\025\304?E(\251@\335k\237?\314\026\254@\002\344\003@\311\231\243@9\314\302?Xk\240>Dt\177@\274\310\225@\261(\026@KA:@\001\310\226?Xvb=r\233\254@Y\225f@\371}l?\216[p@\363\214\306@_0\301@\265\251\360>\340\355M@<=\237@;j\256@?%\372>\312\300\321?\317A\233@\237#\300?\326C\240@\221\002X@$\325\206@\211\3678?l}\203@\277\034\274@&\245`@\330\220%@~\321\n?\344\224\351?\334zT@0V\230@\261\271\204@\335\002\263@9\342\271@\261\216\261?!\207 @J\261\240@\235UL@\000\010\"?\326\325\317?\312\333\032@\361h\274@^j\267@73\252??\2208@FK\017?Ek\367?H\202e@\253r\260@\360\336\230@\364\2309@\323\366\244@]X.?T\006\237@`\316\023@N\336r@\n:W@&\366\303@\351\266\007?\370\344\273@n\0049@\010\ty?\315\351\025?\215f|@;\267\202?3y\276@\222\237\251?7a\213?\3224\215@\307\234$?\367-~@\024CN@j\020\032@\033\210d@\371O\332?\375\t\347?S\323\006@\361\303\232@\003\261\246@t\2712@x\031\303@\2216\217?\244A\273?\275\024i=Y\340\032@L\006*@\000TR>\3729o@2\343\304@\025.\306?\233`\272@@-\310@\277\321o@0\t\017@\024\350\303>\251\251\004@{\t\216@*\332\272?\235ey?A+O@.\247P@Mp\252@-\252\321?g\233A@7`d@\010\302\214?\025\252\306@\300\200C@m*\211@\223\021\260?\030\272\373?%\025t>\252\325\236>i\325\264@\357\216\005@\026\250V>\363\343\254@\363m\225@\336\270V@\367\353\034@\363h\240@\210\252\207@\237\002\226@\270\177\257@\265\312\301?\3473\177@L\215P@\273\230\334>\342\354<@\261\254`@d\263b?\226\210\032?\252\252K@Y\231#?cd\037>D\247\177@\377\210\233?\026\335\271@]\374`>\360\235\206?\3124\237@3\216*@\'\014(@\266\201\231@\247\263x>\237\314\327?y\223\303@r@y@\370\341x?n\207^@(\266??(\376\211@B\315\216@\337\330_@\205+|@fY\222@\326_\234@\016\255\244@\277`\242?\377\337\200@8\274\330?m\024\213@P\321\006@\375\263\221@\255\0160@\301iA?a\351\264@QR\035@\026\356\260@\334y\320?-c\305@0\235\024?\374\335\243@\350Lr@\212\374Z@\334\024\005@\366%?@%\232\207@&\351\247=P+\272?s#\221@\2365\344?Q^,@\352\307\261@\303\301\217@\203\206\243?/\243\246?Rr\307@\\Vb@\004b}@s\323\367?\325~\215@@D\026?[x\366?\277r+@\322\335\221@\264:\205@D\t\245@+\354>@\301\314!@m\205\274@\221$\230@8\231<@\245X\302@\211t\212?\272\177e?e0j@\254\006k>-\332M@\315\350.?+.1@\346\266\010@\337bH?\024\353\304@\303`\027@\tN>@\364k;@%\246\212@\004K6@\337?\240@\224b\264?\217L\356?\324{\027@\240\356\227@Sx\217@\303z\017@\025\316\345?\0350\303@\310\000\003@\276S\030@\037\234\017@#\204\264@`\021c@\373\003\211@l\262|?\340\220\243?\311T\004@\214R\211@\004\031\276?\211\005\010@\222\2746@\270;\216@1\316f@\217Uu@\224\310\361?\374@\224@1\231\307>\313C$>\332p\247@\2018\013@U&\210@\330O\331?\221\375\304@e\215i@\017\202\210@K1\005>\335\377p@.\025\026@\265\005\320?.\312\203@\244\335\305@$A\301?Qx\307?\004\366Q@\212\331~@\257YT@AK)>\332\304+@l\332\007@Fe\237>\310\267i@L\307P?+Az?Vd\022@\232\214\265>j;\272@D\250O@\307\177\227@\346O\211@I\3252?9\317\250@\275d\222?\010\243\233?c\355*@bH\246?\276\267\256@\020U3@\325Zb@\247\330\034?#\242\321?\240%,@q\3518@\373\001g@\275u\227>\370\232\223@\213\004F@\000]\220@\241\344\301@\304\306\310@\235\037\234@\362\370\007@\240\257\273@\006\002\233@\327\214\204@\317\276b@\271fp@9\032-@l\351{@\310\te?\337m\215@\222\371\213@\205C\332?\352\375\232?\017\350\256@\277\335\002@~[v@\253\327\200@O@\177?E\360\264@\321*\260@\355\255\217@?h\216@Ur\177?=Y\267@\270Z4@\2031\003@\364U\241@\217\031\036@\3408\215@\224\342P@~\202\327?\340e\255@\322\t\"@\276\272[@\200\355\017@\250\301\234?\230$\306@\253uu@\277\207\244=\\\343\266>\263\030i@\366\337\204@\\9\242@\343\327^?n\2727?\350s\272@h\232E@\000[\272?\263\364`>\320h\026?.U\031?L\250S@\352\365\240@\370\006i@\260\351\240@\231`u@\202]i@<3\350?}\034\025@\341h\270@q&\030@?\316\342>\347\377\304@Z\273\016@\341i\334>\025l\224@\212\376\365?y\007\233@\031\031H@\316s\215@\235c\236?Mrv@o\"\300?\351\r\036@\264;W@Z\264\270@\325\023\006@vR\204@\244\365\265?\261u\242?I\377=@\333.Q@\323\2251@\336\231D@\225v\236@\213\313\016?]\236\276?\025D\211>\260X\204@E\377\206@E\311\313>2\244(@Zr @o0\302@\0101\210@\325sC@{\336\260@9\363I@\025\352m>\340\256\005@}:\n@\026-!@v`-?\312\\\221@f!\340>\264\n\236@\222\027\307?L\352[@\254p\201@\317\304/@\014\270\t>\n\374\003@\377\215\246?\312\205z?4\337\033@\221\231\276@\326G;?\006\347\021@\270t\372?v#\262@\223X\300@\234\262\001@\261\353\264@\206@\211@/eW@\237\237\000@\200\310g>\372\032z@H%\243@\363\232\237@\260\237\272@\r\315:@\211\306\203@.\214\207@w\331\n@P\202\210?&@\233@\345*\266@\361\'\242=\357\241\244@\252C\253@\030\277$@\032\263\227@-\2225?M#)@\347I\002@\231\221\033@\351\243O?\003Y6@i\030i?\276\354\215@\017\266J?\303[=@\220f\213@GW\231@k1\324?\2041\370>\345\003\202@\305\226\305@F\237~@@~\267@\276\363\213@\355\237\212@\326T\261@\013\017\235@\300T\034@\234\346\307?\211\311\254?\2237\265?6\2608@h\217\371?\262\227<@\231\374\240@\006\355\306>\323\233\205@0\022^@\242\330\304@\235\207Z?\214\376K@X\313G@\300t~@+c\221@\207\324\350?\025\227)@\032\223\367>\223I\301?\260p\315?\032\270E?\364\031\232>\344\361\271@\307\031n@\207(\231@\363\331\207;\303;\267@\026\343\246?\263\202\270@\333\327\231@\237dR@\364\347\n@\322%\233?K\352Z@u\325\261@\274/\231@\023[?@\346KF=\335\203\206@\217\025\224@S~\216?\371\027\033>D\373\255@3\357\204@\200\227\306@-\220\003@r\343\220@9S\234?p\355h@\260\264y?\005>h@Su\210@R\355k@\nK\231?2\212j@\2453\266@\345q\204@\013A1@\354\027\267@\345\t\333?\233\201\013@k\263\225@\314n\010@\207hq@\307\241\000@\210\007\222@\207\237\317?\301\366J@\204]\235@\001f\305@h\033Y@B\342\211@\036 (@X\341\326?\276_\200?-\223\202?\036\355\226?<\026\220@1;i@\032G\342?\316gK>\254qM@)\n\241@s#D>}\357 @\267\300\025@w\255\032?\303\376O<}aL?\316It?q\266\n@d\213\032@rF\262=\365\366%?\371\354\r?l\217c@\302\244\026@[\360\265>)\222\210@\\\241]@\337\241\274?\371&\355?\303\026\272>\250\320Y@<\3238@\371\206\204@\236rv>U\307\010@\005\324\260@\330\265\266@\257\317\266?\240\325\212@s\204\247@\201\265L@\242V\202@R2\261@\001-8@\374\243\221@\020\016x@\331\341\272@x*\211@?\374\212>\367_\271@zL\240@\302\220\224@\323\276B@n\'\240@\214\322\256@t\305\225@e\261\235@\251\276\271@_t\031>\234\373\206@\271\322p@\235\244\005@\255\315-@n\374\006@\341\033\215@\215$\250@\273\212\330>\367\356\247@\374\330\305@\254`z@Kd\271@n\026O@\005\323\010?\206 \234?\340j\215@\244L\353>PD6@=\'\211@\017\255\302?\016/\205@\006;\300@\354\224\346?\303K\206=w\t\243?n\216_?\233\306o@\273\251\262?\3417\r@\360\205\024@J\033b@\276\341\255@.y\235@u^&@^O\n@K\005t?Jc\266@v\222\007=3r\205@\225d_@5\364\231?m#(@D\317\211@\356\2673@\260_F@\377 \214@fW\200@\234)\320?m\356\247@\257ik@\027y\307?\330\364\223@\316\324K@f\3225@\235\237%@Y+\375?e\236&?\262\237\375?\234\003,;\266\234\344?o\002H@g\246\254@\207\226q@\272\274y@\343mV>\200\007]@\236\020\362>7\245\023@h\344#@#[s?\3534s@\245\306\031>?\2016@\025\203\222@\rl\230@^R\201@\036\241i@\354k\230@\241\2075@\254\0038@_T6?\260\354\210@\260\304\201@\217\"\250=\327U\317?\027g\206@6\223x?\260\023=@\224\3060@\230.?@\312\353b?a\367\211?\342\304\302>q\351\033?\237\177&?\016\226\301@\375\363\035@\332\322\010=*Z\302@\317\326.>f\022=@\244\026Q?\371\273\211>\001{\023?P\017I@\004\331\261@\373\223c@,\363[?\266%2@U\373\277@\022\263\261@\336\216\351?\214\270A@\034\242\300?\031PH?\202M\n@\223\314\364>\247`\224@\320\251\204@\377\326L@\345\214\357?\327\365@@\256\265\301@\325\254\343>\361\215\031@w@\333>,Pw?\321[N@\322\321\272@\023\371L@x\352e?\014,\224@\350\270\214@\275,\240@#\006S@\315\033\225@\221\017\266@g\036\257@\2077K@\2763O<4\333\235@\312d\301@\213\310\236?O\332\252@\r*\367?\273\006\243@\366iV@\322>\342?w\003\274@\322E\021@|\364\027@\0210\224@^\304`@\234\354v@\315\022C@\363\365\020@\354e\267>"
      }
    }
  }
}
node {
  name: "Const_1"
  op: "Const"
  device: "/device:CPU:0"
  attr {
    key: "_output_shapes"
    value {
      list {
        shape {
          dim {
            size: 1000
          }
          dim {
            size: 1
          }
        }
      }
    }
  }
  attr {
    key: "dtype"
    value {
      type: DT_FLOAT
    }
  }
  attr {
    key: "value"
    value {
      tensor {
        dtype: DT_FLOAT
        tensor_shape {
          dim {
            size: 1000
          }
          dim {
            size: 1
          }
        }
        tensor_content: "\000\000\200?\000\000\200?\000\000\200?\000\000\200?\000\000\200?\000\000\200?\000\000\200?\000\000\200?\000\000\200?\000\000\200?\000\000\200?\000\000\200?\000\000\200?\000\000\200?\000\000\200?\000\000\200?\000\000\200?\000\000\200?\000\000\200?\000\000\200?\000\000\200?\000\000\200?\000\000\200?\000\000\200?\000\000\200?\000\000\200?\000\000\200?\000\000\200?\000\000\200?\000\000\200?\000\000\200?\000\000\200?\000\000\200?\000\000\200?\000\000\200?\000\000\200?\000\000\200?\000\000\200?\000\000\200?\000\000\200?\000\000\200?\000\000\200?\000\000\200?\000\000\200?\000\000\200?\000\000\200?\000\000\200?\000\000\200?\000\000\200?\000\000\200?\000\000\200?\000\000\200?\000\000\200?\000\000\200?\000\000\200?\000\000\200?\000\000\200?\000\000\200?\000\000\200?\000\000\200?\000\000\200?\000\000\200?\000\000\200?\000\000\200?\000\000\200?\000\000\200?\000\000\200?\000\000\200?\000\000\200?\000\000\200?\000\000\200?\000\000\200?\000\000\200?\000\000\200?\000\000\200?\000\000\200?\000\000\200?\000\000\200?\000\000\200?\000\000\200?\000\000\200?\000\000\200?\000\000\200?\000\000\200?\000\000\200?\000\000\200?\000\000\200?\000\000\200?\000\000\200?\000\000\200?\000\000\200?\000\000\200?\000\000\200?\000\000\200?\000\000\200?\000\000\200?\000\000\200?\000\000\200?\000\000\200?\000\000\200?\000\000\200?\000\000\200?\000\000\200?\000\000\200?\000\000\200?\000\000\200?\000\000\200?\000\000\200?\000\000\200?\000\000\200?\000\000\200?\000\000\200?\000\000\200?\000\000\200?\000\000\200?\000\000\200?\000\000\200?\000\000\200?\000\000\200?\000\000\200?\000\000\200?\000\000\200?\000\000\200?\000\000\200?\000\000\200?\000\000\200?\000\000\200?\000\000\200?\000\000\200?\000\000\200?\000\000\200?\000\000\200?\000\000\200?\000\000\200?\000\000\200?\000\000\200?\000\000\200?\000\000\200?\000\000\200?\000\000\200?\000\000\200?\000\000\200?\000\000\200?\000\000\200?\000\000\200?\000\000\200?\000\000\200?\000\000\200?\000\000\200?\000\000\200?\000\000\200?\000\000\200?\000\000\200?\000\000\200?\000\000\200?\000\000\200?\000\000\200?\000\000\200?\000\000\200?\000\000\200?\000\000\200?\000\000\200?\000\000\200?\000\000\200?\000\000\200?\000\000\200?\000\000\200?\000\000\200?\000\000\200?\000\000\200?\000\000\200?\000\000\200?\000\000\200?\000\000\200?\000\000\200?\000\000\200?\000\000\200?\000\000\200?\000\000\200?\000\000\200?\000\000\200?\000\000\200?\000\000\200?\000\000\200?\000\000\200?\000\000\200?\000\000\200?\000\000\200?\000\000\200?\000\000\200?\000\000\200?\000\000\200?\000\000\200?\000\000\200?\000\000\200?\000\000\200?\000\000\200?\000\000\200?\000\000\200?\000\000\200?\000\000\200?\000\000\200?\000\000\200?\000\000\200?\000\000\200?\000\000\200?\000\000\200?\000\000\200?\000\000\200?\000\000\200?\000\000\200?\000\000\200?\000\000\200?\000\000\200?\000\000\200?\000\000\200?\000\000\200?\000\000\200?\000\000\200?\000\000\200?\000\000\200?\000\000\200?\000\000\200?\000\000\200?\000\000\200?\000\000\200?\000\000\200?\000\000\200?\000\000\200?\000\000\200?\000\000\200?\000\000\200?\000\000\200?\000\000\200?\000\000\200?\000\000\200?\000\000\200?\000\000\200?\000\000\200?\000\000\200?\000\000\200?\000\000\200?\000\000\200?\000\000\200?\000\000\200?\000\000\200?\000\000\200?\000\000\200?\000\000\200?\000\000\200?\000\000\200?\000\000\200?\000\000\200?\000\000\200?\000\000\200?\000\000\200?\000\000\200?\000\000\200?\000\000\200?\000\000\200?\000\000\200?\000\000\200?\000\000\200?\000\000\200?\000\000\200?\000\000\200?\000\000\200?\000\000\200?\000\000\200?\000\000\200?\000\000\200?\000\000\200?\000\000\200?\000\000\200?\000\000\200?\000\000\200?\000\000\200?\000\000\200?\000\000\200?\000\000\200?\000\000\200?\000\000\200?\000\000\200?\000\000\200?\000\000\200?\000\000\200?\000\000\200?\000\000\200?\000\000\200?\000\000\200?\000\000\200?\000\000\200?\000\000\200?\000\000\200?\000\000\200?\000\000\200?\000\000\200?\000\000\200?\000\000\200?\000\000\200?\000\000\200?\000\000\200?\000\000\200?\000\000\200?\000\000\200?\000\000\200?\000\000\200?\000\000\200?\000\000\200?\000\000\200?\000\000\200?\000\000\200?\000\000\200?\000\000\200?\000\000\200?\000\000\200?\000\000\200?\000\000\200?\000\000\200?\000\000\200?\000\000\200?\000\000\200?\000\000\200?\000\000\200?\000\000\200?\000\000\200?\000\000\200?\000\000\200?\000\000\200?\000\000\200?\000\000\200?\000\000\200?\000\000\200?\000\000\200?\000\000\200?\000\000\200?\000\000\200?\000\000\200?\000\000\200?\000\000\200?\000\000\200?\000\000\200?\000\000\200?\000\000\200?\000\000\200?\000\000\200?\000\000\200?\000\000\200?\000\000\200?\000\000\200?\000\000\200?\000\000\200?\000\000\200?\000\000\200?\000\000\200?\000\000\200?\000\000\200?\000\000\200?\000\000\200?\000\000\200?\000\000\200?\000\000\200?\000\000\200?\000\000\200?\000\000\200?\000\000\200?\000\000\200?\000\000\200?\000\000\200?\000\000\200?\000\000\200?\000\000\200?\000\000\200?\000\000\200?\000\000\200?\000\000\200?\000\000\200?\000\000\200?\000\000\200?\000\000\200?\000\000\200?\000\000\200?\000\000\200?\000\000\200?\000\000\200?\000\000\200?\000\000\200?\000\000\200?\000\000\200?\000\000\200?\000\000\200?\000\000\200?\000\000\200?\000\000\200?\000\000\200?\000\000\200?\000\000\200?\000\000\200?\000\000\200?\000\000\200?\000\000\200?\000\000\200?\000\000\200?\000\000\200?\000\000\200?\000\000\200?\000\000\200?\000\000\200?\000\000\200?\000\000\200?\000\000\200?\000\000\200?\000\000\200?\000\000\200?\000\000\200?\000\000\200?\000\000\200?\000\000\200?\000\000\200?\000\000\200?\000\000\200?\000\000\200?\000\000\200?\000\000\200?\000\000\200?\000\000\200?\000\000\200?\000\000\200?\000\000\200?\000\000\200?\000\000\200?\000\000\200?\000\000\200?\000\000\200?\000\000\200?\000\000\200?\000\000\200?\000\000\200?\000\000\200?\000\000\200?\000\000\200?\000\000\200?\000\000\200?\000\000\200?\000\000\200?\000\000\200?\000\000\200?\000\000\200?\000\000\200?\000\000\200?\000\000\200?\000\000\200?\000\000\200?\000\000\200?\000\000\200?\000\000\200?\000\000\200?\000\000\200?\000\000\200?\000\000\200?\000\000\200?\000\000\200?\000\000\200?\000\000\200?\000\000\200?\000\000\200?\000\000\200?\000\000\200?\000\000\200?\000\000\200?\000\000\200?\000\000\200?\000\000\200?\000\000\200?\000\000\200?\000\000\200?\000\000\200?\000\000\200?\000\000\200?\000\000\200?\000\000\200?\000\000\200?\000\000\200?\000\000\200?\000\000\200?\000\000\200?\000\000\200?\000\000\200?\000\000\200?\000\000\200?\000\000\200?\000\000\200?\000\000\200?\000\000\200?\000\000\200?\000\000\200?\000\000\200?\000\000\200?\000\000\200?\000\000\200?\000\000\200?\000\000\200?\000\000\200?\000\000\200?\000\000\200?\000\000\200?\000\000\200?\000\000\200?\000\000\200?\000\000\200?\000\000\200?\000\000\200?\000\000\200?\000\000\200?\000\000\200?\000\000\200?\000\000\200?\000\000\200?\000\000\200?\000\000\200?\000\000\200?\000\000\200?\000\000\200?\000\000\200?\000\000\200?\000\000\200?\000\000\200?\000\000\200?\000\000\200?\000\000\200?\000\000\200?\000\000\200?\000\000\200?\000\000\200?\000\000\200?\000\000\200?\000\000\200?\000\000\200?\000\000\200?\000\000\200?\000\000\200?\000\000\200?\000\000\200?\000\000\200?\000\000\200?\000\000\200?\000\000\200?\000\000\200?\000\000\200?\000\000\200?\000\000\200?\000\000\200?\000\000\200?\000\000\200?\000\000\200?\000\000\200?\000\000\200?\000\000\200?\000\000\200?\000\000\200?\000\000\200?\000\000\200?\000\000\200?\000\000\200?\000\000\200?\000\000\200?\000\000\200?\000\000\200?\000\000\200?\000\000\200?\000\000\200?\000\000\200?\000\000\200?\000\000\200?\000\000\200?\000\000\200?\000\000\200?\000\000\200?\000\000\200?\000\000\200?\000\000\200?\000\000\200?\000\000\200?\000\000\200?\000\000\200?\000\000\200?\000\000\200?\000\000\200?\000\000\200?\000\000\200?\000\000\200?\000\000\200?\000\000\200?\000\000\200?\000\000\200?\000\000\200?\000\000\200?\000\000\200?\000\000\200?\000\000\200?\000\000\200?\000\000\200?\000\000\200?\000\000\200?\000\000\200?\000\000\200?\000\000\200?\000\000\200?\000\000\200?\000\000\200?\000\000\200?\000\000\200?\000\000\200?\000\000\200?\000\000\200?\000\000\200?\000\000\200?\000\000\200?\000\000\200?\000\000\200?\000\000\200?\000\000\200?\000\000\200?\000\000\200?\000\000\200?\000\000\200?\000\000\200?\000\000\200?\000\000\200?\000\000\200?\000\000\200?\000\000\200?\000\000\200?\000\000\200?\000\000\200?\000\000\200?\000\000\200?\000\000\200?\000\000\200?\000\000\200?\000\000\200?\000\000\200?\000\000\200?\000\000\200?\000\000\200?\000\000\200?\000\000\200?\000\000\200?\000\000\200?\000\000\200?\000\000\200?\000\000\200?\000\000\200?\000\000\200?\000\000\200?\000\000\200?\000\000\200?\000\000\200?\000\000\200?\000\000\200?\000\000\200?\000\000\200?\000\000\200?\000\000\200?\000\000\200?\000\000\200?\000\000\200?\000\000\200?\000\000\200?\000\000\200?\000\000\200?\000\000\200?\000\000\200?\000\000\200?\000\000\200?\000\000\200?\000\000\200?\000\000\200?\000\000\200?\000\000\200?\000\000\200?\000\000\200?\000\000\200?\000\000\200?\000\000\200?\000\000\200?\000\000\200?\000\000\200?\000\000\200?\000\000\200?\000\000\200?\000\000\200?\000\000\200?\000\000\200?\000\000\200?\000\000\200?\000\000\200?\000\000\200?\000\000\200?\000\000\200?\000\000\200?\000\000\200?\000\000\200?\000\000\200?\000\000\200?\000\000\200?\000\000\200?\000\000\200?\000\000\200?\000\000\200?\000\000\200?\000\000\200?\000\000\200?\000\000\200?\000\000\200?\000\000\200?\000\000\200?\000\000\200?\000\000\200?\000\000\200?\000\000\200?\000\000\200?\000\000\200?\000\000\200?\000\000\200?\000\000\200?\000\000\200?\000\000\200?\000\000\200?\000\000\200?\000\000\200?\000\000\200?\000\000\200?\000\000\200?\000\000\200?\000\000\200?\000\000\200?\000\000\200?\000\000\200?\000\000\200?\000\000\200?\000\000\200?\000\000\200?\000\000\200?\000\000\200?\000\000\200?\000\000\200?\000\000\200?\000\000\200?\000\000\200?\000\000\200?\000\000\200?\000\000\200?\000\000\200?\000\000\200?\000\000\200?\000\000\200?\000\000\200?\000\000\200?\000\000\200?\000\000\200?\000\000\200?\000\000\200?\000\000\200?\000\000\200?\000\000\200?\000\000\200?\000\000\200?\000\000\200?\000\000\200?\000\000\200?\000\000\200?\000\000\200?\000\000\200?\000\000\200?\000\000\200?\000\000\200?\000\000\200?\000\000\200?\000\000\200?\000\000\200?\000\000\200?\000\000\200?\000\000\200?\000\000\200?\000\000\200?\000\000\200?\000\000\200?\000\000\200?\000\000\200?\000\000\200?\000\000\200?\000\000\200?\000\000\200?\000\000\200?\000\000\200?\000\000\200?\000\000\200?\000\000\200?\000\000\200?\000\000\200?\000\000\200?\000\000\200?\000\000\200?\000\000\200?\000\000\200?\000\000\200?\000\000\200?\000\000\200?\000\000\200?\000\000\200?\000\000\200?\000\000\200?\000\000\200?\000\000\200?\000\000\200?\000\000\200?\000\000\200?\000\000\200?\000\000\200?\000\000\200?\000\000\200?\000\000\200?\000\000\200?\000\000\200?\000\000\200?\000\000\200?\000\000\200?\000\000\200?\000\000\200?\000\000\200?\000\000\200?\000\000\200?\000\000\200?\000\000\200?\000\000\200?\000\000\200?\000\000\200?\000\000\200?\000\000\200?\000\000\200?\000\000\200?\000\000\200?\000\000\200?\000\000\200?\000\000\200?\000\000\200?\000\000\200?\000\000\200?\000\000\200?\000\000\200?\000\000\200?\000\000\200?\000\000\200?\000\000\200?\000\000\200?\000\000\200?\000\000\200?\000\000\200?\000\000\200?\000\000\200?\000\000\200?\000\000\200?\000\000\200?\000\000\200?\000\000\200?\000\000\200?\000\000\200?\000\000\200?\000\000\200?\000\000\200?\000\000\200?\000\000\200?\000\000\200?\000\000\200?\000\000\200?\000\000\200?\000\000\200?\000\000\200?\000\000\200?\000\000\200?\000\000\200?\000\000\200?\000\000\200?\000\000\200?\000\000\200?\000\000\200?\000\000\200?\000\000\200?\000\000\200?\000\000\200?\000\000\200?\000\000\200?\000\000\200?\000\000\200?\000\000\200?\000\000\200?\000\000\200?\000\000\200?\000\000\200?\000\000\200?\000\000\200?\000\000\200?\000\000\200?\000\000\200?\000\000\200?\000\000\200?\000\000\200?\000\000\200?\000\000\200?\000\000\200?\000\000\200?\000\000\200?\000\000\200?\000\000\200?\000\000\200?\000\000\200?\000\000\200?\000\000\200?\000\000\200?\000\000\200?\000\000\200?\000\000\200?\000\000\200?\000\000\200?\000\000\200?\000\000\200?\000\000\200?\000\000\200?\000\000\200?\000\000\200?\000\000\200?\000\000\200?\000\000\200?\000\000\200?\000\000\200?\000\000\200?\000\000\200?\000\000\200?\000\000\200?\000\000\200?\000\000\200?\000\000\200?\000\000\200?\000\000\200?\000\000\200?\000\000\200?\000\000\200?\000\000\200?\000\000\200?\000\000\200?\000\000\200?\000\000\200?\000\000\200?\000\000\200?\000\000\200?\000\000\200?\000\000\200?\000\000\200?\000\000\200?\000\000\200?\000\000\200?\000\000\200?\000\000\200?\000\000\200?\000\000\200?\000\000\200?\000\000\200?\000\000\200?\000\000\200?\000\000\200?\000\000\200?\000\000\200?\000\000\200?\000\000\200?\000\000\200?\000\000\200?\000\000\200?\000\000\200?\000\000\200?\000\000\200?\000\000\200?\000\000\200?\000\000\200?\000\000\200?\000\000\200?\000\000\200?\000\000\200?\000\000\200?\000\000\200?\000\000\200?\000\000\200?\000\000\200?\000\000\200?\000\000\200?\000\000\200?\000\000\200?\000\000\200?\000\000\200?\000\000\200?"
      }
    }
  }
}
node {
  name: "Const_2"
  op: "Const"
  device: "/device:CPU:0"
  attr {
    key: "_output_shapes"
    value {
      list {
        shape {
          dim {
            size: 1000
          }
          dim {
            size: 1
          }
        }
      }
    }
  }
  attr {
    key: "dtype"
    value {
      type: DT_FLOAT
    }
  }
  attr {
    key: "value"
    value {
      tensor {
        dtype: DT_FLOAT
        tensor_shape {
          dim {
            size: 1000
          }
          dim {
            size: 1
          }
        }
        tensor_content: "!\335,@\0051r@\221\021\347?\0229:@\022\017\270@\201S\245?\017\317\212@\n\235m@$\003\274@\233,b@3;\226@\361\257\237@$\277\n@@d\246@\017<(@\371\245\320?\356\214%;\374\265u@\022\204\371?1\341\365?\343.\257@\307\233\033?\367\030\326?,\325\246@\2567\353=\007\276\225@\375\025\304?\342\225\267@\212\001\247@\363\027!@\205\205\352?D\240\274@\252\030m@.\257~@\260h\027@W\266\\@n\\\250?\374\221\213@\3052\211>D\213|@\303\023\305@\3063\244@\211\352\233@\320\'\036?b\207\275=\233\\\001@Ux\306>\375\035\301@j8G@\355\273\302@\353\007Y@\342\2476@\307OD@V^\034@%b\213?6;)?\321\341L@\355\025r@D\007\377?W\225\256@\243-\247?\322\312X@\241\022\216@Bx\227@:\\\233?\335\256\212@7\216.@\303B\036?\340\227\237@\025\037[>\306o|@\352@\215@\363\035\261@n\375\307@g(\310@\022A\223@V\264\244@f\177B@\233\n\244@I(o@\277\365\216@/\000(@\260\340\252@p\030\271@,\002\351>\"\365\211@\243Z\271@\030\216H@f\035!@\265\213H?\242\330\352=eE\346?\353\204>@=\004(@\327\2151?\003\021`@\332\360r?\200cP@\330\362\306?\240G}@Y\030\301@N\356\252>\341v\003?\007\314~@kHj@y*\255@\200\240\245@ky\205@\251nq@e\377\007>\203\271\247@\224RK?\3249\203@\217\354\256@\262>:@\261_\265@w\211\235@b!?@Z\351\020@\366\305\253@\220\026\220?f\213\212@\315j\250@s9f?\312\333b@\224\325\273@\300\266\211@\264\214^?@I\202@vD9?\362\327\001@\005\226R@\036;E@\323\357\374?\000\360\265@\250\2301@4c\317>\271N-@\262z\270@?\354\236@\374\022\244@w\232\242@S\220\211@^\227Z@\312\267r@\307E\026@\355Wp@\021XJ@UK6@\033\231\207@Z\245\024?\205\t\225@$f\\@(\311\231@ \000\343?\006)\302@>\277\342>\212\035\207>y\020\211?c\205X@\352\367\252@\312L\000?\216\321\231@\001\205L>rG\200@\205\024~@Cd\321?5C\305?\372\214\341?V\351\276@.\026\030@\250\033\240@\220mK@\"L\234@\350\200\226@\004\000\301>.}\271@\230\276\302@F\260\021@\034.*@\243W\271>\031\267$@U\326\020@!u\263@\022.\230@6_\007@\315\353\177?\232\363\000?\010:!@M\214\377=\324\005\301@\007\221\305?\344\031j@L\270\303?sXc@\254Q\224@d\271\254?\0035\206@\305\363g@6\207\330?m\022\244?\031\253\364?\257H\222@.jW@\312\313&@\374\342\177?\342\0340>\210\331\256?\210nk@\360\252\322?\343v\261@i\031\036?M\337\242?\002\371\314>\251\270\224?Y\345\215@\326\325\273?x\204\325?\311n*@\224m\313?4\372\211?a\370\214@\202E\276?\213,n@oq\214?\n\325\247@(/~@u\2673@\r8\201?\212)\300@\235\263C@\225\031~?=a\230@\243)u=\307\201o@9\031o@\257`]@\255\237\356?8s\353?\376\375w@\241L\224@\340\311j>E\355\244@\005\272\310=1\026~@0\310U@\000\203\327>4\357B@\007V\216@\031\233\206@\213\267\333=\357\022E?!P\241@2f\300?h\r\031?\200\227\020@T\006\252>\226(k@\0011\213@\232\031\205?S\306\245@_j\241@\\\343\275@\301m\002@\251D\004@:(\234@\352P\033@\030|\245>b\016\207@:|\221@\247\010\304@h\020\232@\216)\304@\267\177\202@\203\0077@\361\'\\>\277\347\305@\232\376j@9\2700@\305d\024?\311|\004@]h\356?\0320\241@_\036\275@\316\353\260@\002\017#@j\246r@\220\215Y@>\310\224@Z\251\224@\326i\370?\377H\033@2\0276>\222Y%@\037\271\'>m\236P@\233\334\302@\312\r\233@\364\221\006@\233V\374?x\2028?\256[\003@\366\275\313?4`\276>\203\221\036@v1\342?;~\247?I\314\240@\345\nZ@\225Xv@\374f\206@Q\330\261@Z\261\235?\377\003\004?\036\243h?\304\226\276@W(\256?PjU?\326=\246@\t{6@\0000C@k\254\212@\033t\204@\361\017c@\214\367l?\213\317$@\034\361\271@\326B\245@H\377\241@\372\\\010?F^\203@\371\336\260=\344\377\255@\302,\301@\213\337\314?\323\366\215>\013\311j@WoE@^tL?\346hk@f=g?\253\256x@6o\207@\006\211\017@:\013l@\306\006;@\262\303\274@\223\344\r?\307`\245@\227\352\233@\2775C@\265H\n=\356\2427@t\275@@y\264X@?\235\260?\327\373\200@\204\227\364?\200\305E@M\336m=\324I\201@\355\212\321?\377\317\254@D\301\203@%X\377?\356\036\241@\236\321\277@t\327\223@\033\rc?\243P\356>\250i\344?R2\233@Bf\213>\306\020\000@\356\243k?9\302\363?\025\326\262@+\245@@|+\257>\300\365\224@tS\254?\372\327c@\020\205\277@\\4\222@\210\261\313?%\377P@\035^@@\237\031%@c\364\223?\365T\207?\0160\244@\374\371\004?\361\342\236@\350\314t@\005\256\304@702@\006m+@hK]@)\312\212=uB\277?\022t\002@\026\3323@q\016\217@\206q\025?7?Q@\344\265\303@+v\267?k^\270@\322\002\273?<\353\377>\3731\201?\000?4@\222\203\271@4rw?G\3730@\007\271\235@(\360\027@\341\034\253@G\\\303@\214\031\275@\236\277\271@T\307\265@\304\263\216@\352\257\352?\236\323??\265\014g@\207\226\331?k@\010@\277r\266@v\333\230>\327WH@:\361z?;\2531@o\267\367?\026CN?E:\020@\312\r\200@\272\302\304@e%\270@\013\226\240@l\241\217@<\247\265@k&s@\205)\307@\030\276\033@\310\341i@\034\377\275@3\207\265?\346Rk@\221\261\362?\360F?@\324\344?@\'9}@\243\204\271@$?E?\177\006\003?\'[\311?J\244o?\233\'\225@\246\003\277@Q\\J@\210\302@@4\330#@8<d?N\360\363=hu~<w\351\210@\237\371\346>\325\205B@\371\017\216@\212h}@\034Z4@\355\025\275@G\032\262@\371\366\322?\213\241\233@\357\353\215?\324X\034@\020\213$?\225_\315?,\375n@\352\246\257@\035\345\270@\"\342/@\321l\237@_t\267@\301g\202?\276r\221@{\223\021@a\302\300@q\315\337?g\t\222@-|\202?qTs@\303\276\262@\301\265\325?\206,\255@&\354\224@\367\372>@#\375\304@\354\366\252?\242\370\323?\310\037\230?\340j@@\376\022$@{tl@\375:\371?\347at@RSC@\230\247\357?\332o\177@\360|\214@\366\254\300@\273\236\023@\325Bb@\376\247v@\305\206\353?\355\231\200@?\344;@\261\227\237?N\360Y@\324\247\300?\007l\264>}Z\222@y\250\264@\251/\006@2\356\257@3x\263@\205<\211@\021\316\264@\216S\273@\263\027\271@\216R\031?\202\342\217@,\203\320>\007H\323?\333\230?@\201\003\037@\016Xa@\020I\262@\'\260\224@\360:\242@86\214@\256]+@A\2644@Le\232@*\355\217@\003\305t@\232\270{@\257V\272@t\261\020@\233\361\231@\372Nf?\006\027A@\201\357\227@\372.n@e\330\307@aA0@\231\206}@\022\234\325?5R\240@\031S\305>b\014\321?:\177\244?\035\365\325?\223\237 @\3732\004@\373\356\252@BFs@\033Z~@\264%\221?>\327\214@((\300?\262\016\210@+\227\272@\036\001t@)\273\341?h \267@\312\3704@\217\027\367?\335\001\344>J\244\205=:\263\220@\035\025U@\347\336}@l>a?\233\355\243@\021\t\262@\302;\237@\265\006P?4\021\253@d\023\350?\326\214\241@i\261\210@M\312\020@\322x\330?\313\324\236@u\263\307@\2704\203@\247\006\223@_\373\231?\276\252\275@T\251\214@\263\266\222@\265\342p?>\243\333?X\371C@2\216\260@Ax\031@\267\216\371?\301\006\255>\360\016\273@\221\262\234@\271\2444@sW|?\374\331\014?\344Xs>\254RH@\203\024\004?\345Nc@\021\"\307@\255\3537@\233DF?\275Z\303@\366\325\356?\353\246\256@\022&e@\370F\275@\365\372\230@o\354\262@qC\267@\025\357\235=&!\"@\253\205\260@\315\0375@\362ys@\274\253\315?\270\352\225@y\300#?\231\376c?Ma\336?A\367+?\241\233V@\356\003\203@\003g\225@\206~ @s\035\177?\271\277b?\037\257K@\001\303\n@\316\304\236@>J\260@\024\2061@\032\n\224?\323\313\004@Pm\254@%\002\211?\333GM@x\357\276@Y\330\301@\316\274G@\275\322g@\013\2352@\346\377\212@t\227\211=\035\361\257@\376>\265@0\'3@\362\323`?l0.@m\307\232@\256w\024@g?|?E\342\202@\315.\307@\250\002Z@`\246\257?\322\032\237@\353\201\277@@\276\227@\221o9@\252\0062@\335=f@\263st@Y\314\250@\346f\216?j\221\'@:l\220?\374O\002@QF9?\337\372\251@\272\017\035@5\241<@-%\005?\340\006V>\261\346L@\017Pw?f\217\207@\033\0175@n\354m>\347\333\376?\001~\277?\372k\\@\003\303\235@\265\354\021<\344_\311>i\317\236@\356\344%?\222`\250@\300Y\337>\207\244\032@\212|@@\247\305\034@\253\370\205?\250\265\215@p\321 >\233,\n?%C\262@\341\361~@h\261\257@xM\267@\0014u@{\272\272@\304\241\273@\271\251\324>\316S\030={\001K@1o\300@\032\206\257?\243)\010@\345J\216?\342\214\301@\266\302\034@\303\332\353?\014\305\255?\"\360\005?3\324\036@\244\036\035@\006\210x@\363]\211@\010\373\242@X\313\335>\252U\322?\204j\245@\305(\242@j\023\205@\374\3005?W&\177@t\277u?\262\217\271@$$\027@\207,a?\214\356\033@\236\206\333?5[\242@\222Y\240@\255>I>\256\240[@\347\030\212@\035KM>>\034{@\257x\225@\017\340\337?\254cv@\256\034V@>\240\022>\027\360_@Ke\306@\250\352\004@\262\364\217@n\020!@\256r*@)\004\202@\355\031\274@\235\303.>\014\001a@\327\004\255@WB\004?\370\014<@\244\235t@N=w@\257q\242@\346\314\344?\315S\014@\023\024\032@X\246\300@\177pc?\2665\202?\253\212\216@\241\025L@\275\340\275?*\243\264@\220\016\342?\222\370E@\020\022\275@7\032/@\303K\306@\010\022\247@\315\021-@\262\342h@\2554\245@\250\2141@M\227\256@\357\253\350?L\272\213?D\275\273@\006\334\023?]70@\024X\232@)\234\340?p\337\243?\223\245T@\265\216\306@g-`@\226w\224@0\2153@y\256E?$z\210@\346K\330?\036\250w@q.\251@\252qA@Xt\245@L\226\255@Y?\366>v\017\247@F5s@\"\3772@\303U\237@-\024:@9\337E@\027\360q>\306\n\002@\237\013\270@xzT@\343h\236@z\205M@\332\367\243@\254p\201@\236\025\275@6\211\214=\225x\240@_\250Y?\230\016\003@\020\360S@\230[j@\301\244\225@}+n?\306\013\237@j\004\230@\346\211\203@\014\351R@#o\276@\250d\242@\255\027L@n:\231?\246\033\216@\374Db@\002\000\306@r\353\232@HI\215@\"\304Q@\234\262d@\267tq@w7l>\233\273\257@\'\376\227@OP\206@\030\374\022@\022\232\266@I\274\007@\254\207\253@\272\\\233@3\301\207@\311\022\202@\230\263D@\024\342\377?\000\204\253>\036\222\236?\031\254\251?\330e\"@\225\257\201@\221p[@\000i\033@9a\254@\3636\031@\347?\256@mG\332?\260\236,@4\252!@\307\330W?5C\347?M\254\n@\365\021\362?\341 \376?\375>\253@s\357\333?\204\244\245@\036~\"@\371\204\341? \354\353?\314\336<?\233\306\021@+V\005@`\232m>\256\026\204@JT\021??0X@N\370\307@bB\202@X\235\256@\324\017\211@\316@S?\325\313\233?\301\363:?!\265\034>\215\213[@\024\306\245@\256\221\223@z\n\252@\300\232\255@\331\367\352?\332\351\307@\333\033P@9\324<@\333\341\240@\370\225_@\275\272\356?\222\347a@\200\234\265@N\023\277@;\3734>\307\234\021?\276\027\340?LH\016@p\333\240@e\267\223@\313\361B@\235\243\211@<\247\033@x\350\234@\000\004\332?%\226\213@\321:G?\017}\267=\303\235\270@\275\262\304?\013\315\261?\267\210\244@ZJ\274@\025A:@A\326\330?\023\247\270@\243% ?f\217\310@\032\303p@\366`]@\262\007\212?\247<]@;O\200?v_\020@$\247b@\205\274\330?2\314u@d\215\255@\221\251\304@\311+\212@EV\364?\227?i@\364\013\304@\317O\231@\003Fm@\003\366S@}<~?\321\005\311@p\227\266@\255W\n@5\'\302@\336zt> \'\322>\n\263\007@\'\0061@Y\201O@_p\211@\254\025\276@N_\312?`\200\021?\273Ez@\304\r\344?\016\027\302@\365\324\275@|T\234@\307}\256@}(M?\275\323\245@5Y\302@\310F\306@\350i\r@\373\227L@\004n@@"
      }
    }
  }
}
node {
  name: "Const_3"
  op: "Const"
  device: "/device:CPU:0"
  attr {
    key: "_output_shapes"
    value {
      list {
        shape {
          dim {
            size: 1000
          }
          dim {
            size: 1
          }
        }
      }
    }
  }
  attr {
    key: "dtype"
    value {
      type: DT_FLOAT
    }
  }
  attr {
    key: "value"
    value {
      tensor {
        dtype: DT_FLOAT
        tensor_shape {
          dim {
            size: 1000
          }
          dim {
            size: 1
          }
        }
        tensor_content: "\000\000\200?\000\000\200?\000\000\200?\000\000\200?\000\000\200?\000\000\200?\000\000\200?\000\000\200?\000\000\200?\000\000\200?\000\000\200?\000\000\200?\000\000\200?\000\000\200?\000\000\200?\000\000\200?\000\000\200?\000\000\200?\000\000\200?\000\000\200?\000\000\200?\000\000\200?\000\000\200?\000\000\200?\000\000\200?\000\000\200?\000\000\200?\000\000\200?\000\000\200?\000\000\200?\000\000\200?\000\000\200?\000\000\200?\000\000\200?\000\000\200?\000\000\200?\000\000\200?\000\000\200?\000\000\200?\000\000\200?\000\000\200?\000\000\200?\000\000\200?\000\000\200?\000\000\200?\000\000\200?\000\000\200?\000\000\200?\000\000\200?\000\000\200?\000\000\200?\000\000\200?\000\000\200?\000\000\200?\000\000\200?\000\000\200?\000\000\200?\000\000\200?\000\000\200?\000\000\200?\000\000\200?\000\000\200?\000\000\200?\000\000\200?\000\000\200?\000\000\200?\000\000\200?\000\000\200?\000\000\200?\000\000\200?\000\000\200?\000\000\200?\000\000\200?\000\000\200?\000\000\200?\000\000\200?\000\000\200?\000\000\200?\000\000\200?\000\000\200?\000\000\200?\000\000\200?\000\000\200?\000\000\200?\000\000\200?\000\000\200?\000\000\200?\000\000\200?\000\000\200?\000\000\200?\000\000\200?\000\000\200?\000\000\200?\000\000\200?\000\000\200?\000\000\200?\000\000\200?\000\000\200?\000\000\200?\000\000\200?\000\000\200?\000\000\200?\000\000\200?\000\000\200?\000\000\200?\000\000\200?\000\000\200?\000\000\200?\000\000\200?\000\000\200?\000\000\200?\000\000\200?\000\000\200?\000\000\200?\000\000\200?\000\000\200?\000\000\200?\000\000\200?\000\000\200?\000\000\200?\000\000\200?\000\000\200?\000\000\200?\000\000\200?\000\000\200?\000\000\200?\000\000\200?\000\000\200?\000\000\200?\000\000\200?\000\000\200?\000\000\200?\000\000\200?\000\000\200?\000\000\200?\000\000\200?\000\000\200?\000\000\200?\000\000\200?\000\000\200?\000\000\200?\000\000\200?\000\000\200?\000\000\200?\000\000\200?\000\000\200?\000\000\200?\000\000\200?\000\000\200?\000\000\200?\000\000\200?\000\000\200?\000\000\200?\000\000\200?\000\000\200?\000\000\200?\000\000\200?\000\000\200?\000\000\200?\000\000\200?\000\000\200?\000\000\200?\000\000\200?\000\000\200?\000\000\200?\000\000\200?\000\000\200?\000\000\200?\000\000\200?\000\000\200?\000\000\200?\000\000\200?\000\000\200?\000\000\200?\000\000\200?\000\000\200?\000\000\200?\000\000\200?\000\000\200?\000\000\200?\000\000\200?\000\000\200?\000\000\200?\000\000\200?\000\000\200?\000\000\200?\000\000\200?\000\000\200?\000\000\200?\000\000\200?\000\000\200?\000\000\200?\000\000\200?\000\000\200?\000\000\200?\000\000\200?\000\000\200?\000\000\200?\000\000\200?\000\000\200?\000\000\200?\000\000\200?\000\000\200?\000\000\200?\000\000\200?\000\000\200?\000\000\200?\000\000\200?\000\000\200?\000\000\200?\000\000\200?\000\000\200?\000\000\200?\000\000\200?\000\000\200?\000\000\200?\000\000\200?\000\000\200?\000\000\200?\000\000\200?\000\000\200?\000\000\200?\000\000\200?\000\000\200?\000\000\200?\000\000\200?\000\000\200?\000\000\200?\000\000\200?\000\000\200?\000\000\200?\000\000\200?\000\000\200?\000\000\200?\000\000\200?\000\000\200?\000\000\200?\000\000\200?\000\000\200?\000\000\200?\000\000\200?\000\000\200?\000\000\200?\000\000\200?\000\000\200?\000\000\200?\000\000\200?\000\000\200?\000\000\200?\000\000\200?\000\000\200?\000\000\200?\000\000\200?\000\000\200?\000\000\200?\000\000\200?\000\000\200?\000\000\200?\000\000\200?\000\000\200?\000\000\200?\000\000\200?\000\000\200?\000\000\200?\000\000\200?\000\000\200?\000\000\200?\000\000\200?\000\000\200?\000\000\200?\000\000\200?\000\000\200?\000\000\200?\000\000\200?\000\000\200?\000\000\200?\000\000\200?\000\000\200?\000\000\200?\000\000\200?\000\000\200?\000\000\200?\000\000\200?\000\000\200?\000\000\200?\000\000\200?\000\000\200?\000\000\200?\000\000\200?\000\000\200?\000\000\200?\000\000\200?\000\000\200?\000\000\200?\000\000\200?\000\000\200?\000\000\200?\000\000\200?\000\000\200?\000\000\200?\000\000\200?\000\000\200?\000\000\200?\000\000\200?\000\000\200?\000\000\200?\000\000\200?\000\000\200?\000\000\200?\000\000\200?\000\000\200?\000\000\200?\000\000\200?\000\000\200?\000\000\200?\000\000\200?\000\000\200?\000\000\200?\000\000\200?\000\000\200?\000\000\200?\000\000\200?\000\000\200?\000\000\200?\000\000\200?\000\000\200?\000\000\200?\000\000\200?\000\000\200?\000\000\200?\000\000\200?\000\000\200?\000\000\200?\000\000\200?\000\000\200?\000\000\200?\000\000\200?\000\000\200?\000\000\200?\000\000\200?\000\000\200?\000\000\200?\000\000\200?\000\000\200?\000\000\200?\000\000\200?\000\000\200?\000\000\200?\000\000\200?\000\000\200?\000\000\200?\000\000\200?\000\000\200?\000\000\200?\000\000\200?\000\000\200?\000\000\200?\000\000\200?\000\000\200?\000\000\200?\000\000\200?\000\000\200?\000\000\200?\000\000\200?\000\000\200?\000\000\200?\000\000\200?\000\000\200?\000\000\200?\000\000\200?\000\000\200?\000\000\200?\000\000\200?\000\000\200?\000\000\200?\000\000\200?\000\000\200?\000\000\200?\000\000\200?\000\000\200?\000\000\200?\000\000\200?\000\000\200?\000\000\200?\000\000\200?\000\000\200?\000\000\200?\000\000\200?\000\000\200?\000\000\200?\000\000\200?\000\000\200?\000\000\200?\000\000\200?\000\000\200?\000\000\200?\000\000\200?\000\000\200?\000\000\200?\000\000\200?\000\000\200?\000\000\200?\000\000\200?\000\000\200?\000\000\200?\000\000\200?\000\000\200?\000\000\200?\000\000\200?\000\000\200?\000\000\200?\000\000\200?\000\000\200?\000\000\200?\000\000\200?\000\000\200?\000\000\200?\000\000\200?\000\000\200?\000\000\200?\000\000\200?\000\000\200?\000\000\200?\000\000\200?\000\000\200?\000\000\200?\000\000\200?\000\000\200?\000\000\200?\000\000\200?\000\000\200?\000\000\200?\000\000\200?\000\000\200?\000\000\200?\000\000\200?\000\000\200?\000\000\200?\000\000\200?\000\000\200?\000\000\200?\000\000\200?\000\000\200?\000\000\200?\000\000\200?\000\000\200?\000\000\200?\000\000\200?\000\000\200?\000\000\200?\000\000\200?\000\000\200?\000\000\200?\000\000\200?\000\000\200?\000\000\200?\000\000\200?\000\000\200?\000\000\200?\000\000\200?\000\000\200?\000\000\200?\000\000\200?\000\000\200?\000\000\200?\000\000\200?\000\000\200?\000\000\200?\000\000\200?\000\000\200?\000\000\200?\000\000\200?\000\000\200?\000\000\200?\000\000\200?\000\000\200?\000\000\200?\000\000\200?\000\000\200?\000\000\200?\000\000\200?\000\000\200?\000\000\200?\000\000\200?\000\000\200?\000\000\200?\000\000\200?\000\000\200?\000\000\200?\000\000\200?\000\000\200?\000\000\200?\000\000\200?\000\000\200?\000\000\200?\000\000\200?\000\000\200?\000\000\200?\000\000\200?\000\000\200?\000\000\200?\000\000\200?\000\000\200?\000\000\200?\000\000\200?\000\000\200?\000\000\200?\000\000\200?\000\000\200?\000\000\200?\000\000\200?\000\000\200?\000\000\200?\000\000\200?\000\000\200?\000\000\200?\000\000\200?\000\000\200?\000\000\200?\000\000\200?\000\000\200?\000\000\200?\000\000\200?\000\000\200?\000\000\200?\000\000\200?\000\000\200?\000\000\200?\000\000\200?\000\000\200?\000\000\200?\000\000\200?\000\000\200?\000\000\200?\000\000\200?\000\000\200?\000\000\200?\000\000\200?\000\000\200?\000\000\200?\000\000\200?\000\000\200?\000\000\200?\000\000\200?\000\000\200?\000\000\200?\000\000\200?\000\000\200?\000\000\200?\000\000\200?\000\000\200?\000\000\200?\000\000\200?\000\000\200?\000\000\200?\000\000\200?\000\000\200?\000\000\200?\000\000\200?\000\000\200?\000\000\200?\000\000\200?\000\000\200?\000\000\200?\000\000\200?\000\000\200?\000\000\200?\000\000\200?\000\000\200?\000\000\200?\000\000\200?\000\000\200?\000\000\200?\000\000\200?\000\000\200?\000\000\200?\000\000\200?\000\000\200?\000\000\200?\000\000\200?\000\000\200?\000\000\200?\000\000\200?\000\000\200?\000\000\200?\000\000\200?\000\000\200?\000\000\200?\000\000\200?\000\000\200?\000\000\200?\000\000\200?\000\000\200?\000\000\200?\000\000\200?\000\000\200?\000\000\200?\000\000\200?\000\000\200?\000\000\200?\000\000\200?\000\000\200?\000\000\200?\000\000\200?\000\000\200?\000\000\200?\000\000\200?\000\000\200?\000\000\200?\000\000\200?\000\000\200?\000\000\200?\000\000\200?\000\000\200?\000\000\200?\000\000\200?\000\000\200?\000\000\200?\000\000\200?\000\000\200?\000\000\200?\000\000\200?\000\000\200?\000\000\200?\000\000\200?\000\000\200?\000\000\200?\000\000\200?\000\000\200?\000\000\200?\000\000\200?\000\000\200?\000\000\200?\000\000\200?\000\000\200?\000\000\200?\000\000\200?\000\000\200?\000\000\200?\000\000\200?\000\000\200?\000\000\200?\000\000\200?\000\000\200?\000\000\200?\000\000\200?\000\000\200?\000\000\200?\000\000\200?\000\000\200?\000\000\200?\000\000\200?\000\000\200?\000\000\200?\000\000\200?\000\000\200?\000\000\200?\000\000\200?\000\000\200?\000\000\200?\000\000\200?\000\000\200?\000\000\200?\000\000\200?\000\000\200?\000\000\200?\000\000\200?\000\000\200?\000\000\200?\000\000\200?\000\000\200?\000\000\200?\000\000\200?\000\000\200?\000\000\200?\000\000\200?\000\000\200?\000\000\200?\000\000\200?\000\000\200?\000\000\200?\000\000\200?\000\000\200?\000\000\200?\000\000\200?\000\000\200?\000\000\200?\000\000\200?\000\000\200?\000\000\200?\000\000\200?\000\000\200?\000\000\200?\000\000\200?\000\000\200?\000\000\200?\000\000\200?\000\000\200?\000\000\200?\000\000\200?\000\000\200?\000\000\200?\000\000\200?\000\000\200?\000\000\200?\000\000\200?\000\000\200?\000\000\200?\000\000\200?\000\000\200?\000\000\200?\000\000\200?\000\000\200?\000\000\200?\000\000\200?\000\000\200?\000\000\200?\000\000\200?\000\000\200?\000\000\200?\000\000\200?\000\000\200?\000\000\200?\000\000\200?\000\000\200?\000\000\200?\000\000\200?\000\000\200?\000\000\200?\000\000\200?\000\000\200?\000\000\200?\000\000\200?\000\000\200?\000\000\200?\000\000\200?\000\000\200?\000\000\200?\000\000\200?\000\000\200?\000\000\200?\000\000\200?\000\000\200?\000\000\200?\000\000\200?\000\000\200?\000\000\200?\000\000\200?\000\000\200?\000\000\200?\000\000\200?\000\000\200?\000\000\200?\000\000\200?\000\000\200?\000\000\200?\000\000\200?\000\000\200?\000\000\200?\000\000\200?\000\000\200?\000\000\200?\000\000\200?\000\000\200?\000\000\200?\000\000\200?\000\000\200?\000\000\200?\000\000\200?\000\000\200?\000\000\200?\000\000\200?\000\000\200?\000\000\200?\000\000\200?\000\000\200?\000\000\200?\000\000\200?\000\000\200?\000\000\200?\000\000\200?\000\000\200?\000\000\200?\000\000\200?\000\000\200?\000\000\200?\000\000\200?\000\000\200?\000\000\200?\000\000\200?\000\000\200?\000\000\200?\000\000\200?\000\000\200?\000\000\200?\000\000\200?\000\000\200?\000\000\200?\000\000\200?\000\000\200?\000\000\200?\000\000\200?\000\000\200?\000\000\200?\000\000\200?\000\000\200?\000\000\200?\000\000\200?\000\000\200?\000\000\200?\000\000\200?\000\000\200?\000\000\200?\000\000\200?\000\000\200?\000\000\200?\000\000\200?\000\000\200?\000\000\200?\000\000\200?\000\000\200?\000\000\200?\000\000\200?\000\000\200?\000\000\200?\000\000\200?\000\000\200?\000\000\200?\000\000\200?\000\000\200?\000\000\200?\000\000\200?\000\000\200?\000\000\200?\000\000\200?\000\000\200?\000\000\200?\000\000\200?\000\000\200?\000\000\200?\000\000\200?\000\000\200?\000\000\200?\000\000\200?\000\000\200?\000\000\200?\000\000\200?\000\000\200?\000\000\200?\000\000\200?\000\000\200?\000\000\200?\000\000\200?\000\000\200?\000\000\200?\000\000\200?\000\000\200?\000\000\200?\000\000\200?\000\000\200?\000\000\200?\000\000\200?\000\000\200?\000\000\200?\000\000\200?\000\000\200?\000\000\200?\000\000\200?\000\000\200?\000\000\200?\000\000\200?\000\000\200?\000\000\200?\000\000\200?\000\000\200?\000\000\200?\000\000\200?\000\000\200?\000\000\200?\000\000\200?\000\000\200?\000\000\200?\000\000\200?\000\000\200?\000\000\200?\000\000\200?\000\000\200?\000\000\200?\000\000\200?\000\000\200?\000\000\200?\000\000\200?\000\000\200?\000\000\200?\000\000\200?\000\000\200?\000\000\200?\000\000\200?\000\000\200?\000\000\200?\000\000\200?\000\000\200?\000\000\200?\000\000\200?\000\000\200?\000\000\200?\000\000\200?\000\000\200?\000\000\200?\000\000\200?\000\000\200?\000\000\200?\000\000\200?\000\000\200?\000\000\200?\000\000\200?\000\000\200?\000\000\200?\000\000\200?\000\000\200?\000\000\200?\000\000\200?\000\000\200?\000\000\200?\000\000\200?\000\000\200?\000\000\200?\000\000\200?\000\000\200?\000\000\200?\000\000\200?\000\000\200?\000\000\200?\000\000\200?\000\000\200?\000\000\200?\000\000\200?\000\000\200?\000\000\200?\000\000\200?\000\000\200?\000\000\200?\000\000\200?\000\000\200?\000\000\200?\000\000\200?\000\000\200?\000\000\200?\000\000\200?\000\000\200?\000\000\200?\000\000\200?\000\000\200?\000\000\200?\000\000\200?\000\000\200?\000\000\200?\000\000\200?\000\000\200?\000\000\200?\000\000\200?\000\000\200?\000\000\200?\000\000\200?\000\000\200?\000\000\200?\000\000\200?\000\000\200?\000\000\200?\000\000\200?\000\000\200?\000\000\200?\000\000\200?\000\000\200?\000\000\200?\000\000\200?\000\000\200?\000\000\200?\000\000\200?\000\000\200?\000\000\200?\000\000\200?\000\000\200?\000\000\200?\000\000\200?\000\000\200?\000\000\200?\000\000\200?\000\000\200?\000\000\200?\000\000\200?\000\000\200?\000\000\200?\000\000\200?\000\000\200?\000\000\200?\000\000\200?\000\000\200?\000\000\200?\000\000\200?"
      }
    }
  }
}
node {
  name: "Const_4"
  op: "Const"
  device: "/device:CPU:0"
  attr {
    key: "_output_shapes"
    value {
      list {
        shape {
          dim {
            size: 1000
          }
          dim {
            size: 1
          }
        }
      }
    }
  }
  attr {
    key: "dtype"
    value {
      type: DT_FLOAT
    }
  }
  attr {
    key: "value"
    value {
      tensor {
        dtype: DT_FLOAT
        tensor_shape {
          dim {
            size: 1000
          }
          dim {
            size: 1
          }
        }
        tensor_content: "\234\343\030@\017\006\320?!\363o@/U\320=/\252\267?\022\013\215>\014\314G>\225&\251@\004\223\202?\0078j@\227<2@\326+\244@c`\214@\275\325\272=:\003\203@V-]?}\356\010@\343\004j?\352\035+?\246\035\263@6\276f>E\233\241@\344\220m@\210\252\n>D\346\n>$\330\260@\344d\252@\250\3057@\221\027\235@Hc\032?C\342\342?\225\267\243@\315\007.@Q\007\306@\'`\202@\025\366\276?\310\250)>\361\263\217@\324\275\016@X\037\247@Z0\307@\353\033z@\314\317\242@i\257c?\205\376\255?\352I\215@f\315\217@2\225\302@_\017\233?}w\212@\331\272\250@<P\230>\276\214\372?\303\004\265@UE\300@`g\017@\031\331\333?\330\213\247@L\t\277@Tu\273@\323\237\330?\3034\244@\014\237\264?)\026\366?\274\272\022?\343\301\323?R\265K@_\267r@{\356u?\333\237\217@\205\363\261@\276\277?@\177\315e?\367\256\203@\302\327\307=\014\337\253@\"<,@\244\203\244@\202\206\210@\336\031\207@!c\230?\240U\363>9&\247?\342\273\233?\027\027\201@(\330\271?>\200\215@\242a\354?\242\263\271?\252n\255@b\271.@\027{\252>\361j\032@\220\005\264@\243<e@W\370h@x\316\231@\360\024L@N\007\222@\0010\244?I\356\276@\tr\241@y\r\260@\330WK?v\323B?\314rB?\215\250)@\225\0060@ \017\270@7\2401?\225\021B?\230\347\262@\031\316\264@-^`@\177\314\271@i\374a>x>?@I\037\014@eF\254@\372\001\307@\201j\302@\274\030Q@\032]\243@\227+=@\275z\275@\036;\300@\230P=?\305\215\263@]\261\304@\221D\214@I\360\257@\342\342\236?\035\265\243@N\227F@\034{x@E\034\241@\213\023\253?\r\351\301@4\336\310@)\240\336?\204\274\217@\034\3662@!\231Q@\351&\204@\246\301F>\261#\267@RS\305@{\371\225@\335\004\217@g\007\311?\316t\223@s\227\246@\3663\261@+)\250@<d\320?\367\360U@!\177y@\001G\200?\302\327\244?\"\232\307@.\003\301@w\275\260@\271m\222@\250pv@\322\302J?\034Aw@c\373^@k\360\220@K\215\267@\nU\026@\274\337\017@\205]\360?\253\242\t?\227(\233@1\251\001@\250*\222@\230\025\266@m\207\263@b\341B@\327_\303@K\224\330?\302b\245@\004\261\001@\247\374\226@\222\265>@\242\253\226@\220\351\020@\241\373E@\352\306D@\370J\235@d\320\002@0\353\017@y]_@m\270\245@\252i0?D\221\003@ \003\236@[R\036@\344RO>CB\263@\340\246\n@~\275\246?\333\273U?\317f\243?\266-\266@\270\353\221@\215\177|?\000\371\245@\247\002\237@V]\233?\033\220\350?r\263C@\220zu@/e\'>\226V\006@F\006\252@5\3712?\364ia@\306\021\324?\251\326Y@rh\212?\034Z\370?FrL@o\344\204?q\266$?)\314\200=\312)n?S\2563@W\277\250@\005jv@6\375\254@3\345\336?\327K\225@_\376u>_\267\274@\010^\245@D\340q@\300\210\222@\032pb@\224\250\220@\001\333\036@\313J\244@o\371\271@n\276\021?\033P\237@\376\030\341>\271(\021@]/\260@\177\027A@\211\334?@\357\327\243@w\274\235@P}\371?`\t\204?M\356r@\351\266v@\036\300\311?_*l@%`\022@\324\256\230?\026_}=\320\344>@\306&\033?\272\373\025@\220\232\301>B6\367?\202\325\254@\302\323\356?\224[k?\325\247l@\023D\335?=N\030=\216\225\237@\221o\277?\006\224\017?\262\263W@L\240\232?/i\034?\321\254\273@\2351\252?D}\300?y\245A@\263\235\227@\323\260\327?\307\275N@\256\237\214@\311\202\206>\027t\302@\211ll@_P\226@\206\005\255@\re\'@(~g@\203\321\n@M\340\201@|!\300;\2373\201@\272_\310@W\206\317?\254\214\245@\207\3642?\005~2@\356\270\263?\256K\200?\010\276\032@7O\177@\350\242\022=\210j\236@\277y\267@\354\207\034@\226\362\314<@\355\215@h\317K@6\247\217?oo\257?N\0050?\357\036\205?\270\005\215@\022\271v@\374\232b>^\364a@\0265\270@*\361<@\246\035d@\201&K?H+\246@\031Y<@\006\260*@\177\370G@\277\360\256@\243\336t@\270\327\034@\267\360\210<\372S\271@\034\225\224@\017\275\226@\250E\027>\016\312v@H\307;@\345\343\200@\224\322\256>\211\213\022@47\257@Y\270\260?P\352\034@\336\362r@q\207\246?\261\356\207@\3040\177@z~\301?~\372\262>\025\357\367?J\336\214>\217\215\277@^H\267@spM@\246/\236@\206\343\033@K\367\001@\266\312\250@\231\0363@\340>H@\313\030\253@\211V\266@\261\006\214@\340\231&@\304\347*@\332\016N?\324\235\231@\347\313\312?\201\201\261@\256 [@-0\246?\264\215\343?\233\014\216@\033\316\233@\316\314\230@c\223\230@\243\300\234@\237\276\253@Y\035V@P!\344?\344\007\003@~\367q?\351\352k@\335\216\344>\270\301\342?\004\020\241@\2462\240@]a\245?\234J\273@I\376\'?\306\014\266?\257\023n@*\311{@\214\277r@\356\233h@^\'\005>\274\367\235@G\033\344?$\227\204@\306_V?5\225\005@2\370\035?:\203\221@\023s\232@\013\357\331=\0275L@\322\270O?Zd\276@oE\000@\316!\257@\244\242\212@\r\315\251@\003\233m@s\244\224@t\210e?/ \354?C\210\262@|\354\275@~\320\274@\271s\227@\272\024T@aQ\217@\2649\215@\340F5?jg\216@\214\213\245@~\352^>\257\371\231?\3310\216?\353\002\223?\232\357\241@\233T\231>/I\237?\265\254\204@\2408\001?{\004G@\201\'\352?\014\311\303@o\361\271@B\312\355?c\365v@X\341\235?\355\2048?e\351\013@uJ\236@\266r\253?\376S\205@\242\357S@\004U\035@\236\'\303@\221;i@\007_l@\207#\032@l\020Y@\347Y\204@\306\003E@\204\t`@\306\324\026=\372@/?\337D\304@xQ\217@\254DL@\223\002\357?\256\360\331?\336v\211@d\217~@\0305\227@\254AU@\326\034\202@}x\247?\363B\211?3\367@@>\234\216@\034\242\270@*\000Z@\t1\330>\267lW@`\323\243?|$\306@\016a\024@\342\002\203@OW\300@\260\243\207?1\303\224@\277s#?\2736N@\nj\206@\027\321\251@ww\246?b)\240@\302\305\r@\036\014\225@\001O\212@Z\021\033@\207|\350?\024>\245>0\370\354?\276\354I@n\244\253@\270\213\231>-\270\232@\365\226V?+F\n?b\002\333;|$t?R\206F@\267\233\022@s\313M@+\251\374?$(I@\001\317B@\330\310p@\001\227\236@y\254\276?\025\303s@p0\016@\266\223,@\250\337\204@\017\030\007@`\343\036@/\305\303@\020\034\304@\n\032n>\312\240\262@o&\301>\225\037\376?1\031s?lS\300@\346D\'@\266A\222?\276\335R@\206>\227@g\201\264@\202\255\256?\362kr>\013\351\022?O\317\266@x\316G?\304a\267@\231\366\232@\225\t\r@\321\"\300@\226x\255@\033J\353?\007\367\002@\362\312\223?\226\231#@d\273\275@\354\211\262@\2415\372?\r\274\307?+\307\311?\230\257^@<H\303?\205\303*@\207B\324?\003\023B@\263p\221@\222\366\305?(;\213@Y\355V@\020\2221@Q\241\\@\374\277\246@\254D\243@D_\301@\372J\206@\257\370\242@\304rj@\342\356\301@\222>\243@W\246\236?n\271\242?\020\260\016@\365\337\225@o\014\340?\216k\013@\303\363g>\200Zt@\2178\005@\302Y\347?oC\272@\336V\370?\363z\262@\201a\243@`\240,?\211S\230@\275o\214>,\200\360?\313N\306@\343\251\245@bY#@I\242\017@\020\363\205@\030\3671>W\003\335?9\220\235@\200m(@[\035 ?2\305\362>\355\250M@2\347\253@W\342\255?\271o\277@\367\214\004@T}\253@\330I\010@-Hr@\366\264p>\n\274\240@\364ps@\343\223{@\203!\257@\213>\242@i|\240?l\372`?@\352\307?\323K\222@}\273\306?\001\216\300>V\353\251@_\373\272@I\032\206@\265\217\272@\031\304\225@\346\202\027@\027\032\260@\252u7@\303\203\217@\213lr@\r\362f@l\272V@\353\355T@\302X\216@^)\233?\322\354L@z1\222@\344x\214?\273\211\377?St%?\237Rz@-(\200@c\326\365?\0034\r@\201\003F@\351\355\014@\213\307\305?\202\331\267@Gq\261@1\006J@\022\277\032@Q;y@#\360\242@80\237@\200\373\213@)\373\231@$dt?6\036\255@\265\004\310?\037V\345?TN\267@\254\316\032@\3152\'?4\260+@Z\260\225@\331\205S@\241\025\275@n\375S@\216\371\256?nJ6?}\003\206@Fl\212>\254C\252@Tz\235@;\317L?{E\202@\334B\202?\001;\236?d\321!?\311\316\243@\025n\303@\271\353\264@\203R#>\274+\273@O\260\363>o\217!@b\246\222?\024\213\037@k#\227@\310s\007@Q\254\253@\211\276D?&.\272@\010mR?\317\353L@\t\306c@\300\342\010@64|?\302\320\231>\255\017\013?\202\371\203@.\013\000@\323\263\303@\370n\264>thK@V\001\030@\006T)@\263\241S@\026p\220?\337\355\217?\353O\303?\210p\003@1\352&?~\374\005@\232~v@I\233\245?\347\301\213@5\253\201@\036\247\276@]d\227@\020\025\207@\216/:@\2504\241@&W,@\262\321\204?L\240P@*^\211?\262me?y\232U@\316E\220@\354f\003@\256\203!@nRS@\347\367M@\020\340\000@\305\353\255?!\303\230??\033\252@\361%\230@\'\255\262@\021A_@\3276\013>\205\273\273@\363|#@:\352\270@\213\330\266@\221S>?\177\276^@En\233?\021\200+@J\026\260@\342Ld@Q[4@\342#%@\264\212\227@a\236$?\334|\304@\233\360\271@\254v\337?\330\306\237=\252\177\220@\363\005H@)\374 @\227t\237@M0\215@\225\005v@;\245\215@c\300\006@V\205{?F\352\220@\234\300X>\277\017\214?\2708/@,o\200@\366\024\305@m\235\303?M\310\217@Ej\203?\232Z\344>\000\377\240@\366\313W>\362\023\275@\177\001\002>v\347\214@\201]J@\030c\226@H=\017@\202\353\223@w\231\014@\031\231\212@\346\351\206@\266v\031>\200\273\223?\240\007\032@\246\326\027?!\365)@8\363\253@\254\351:@\025[\242@\023\201\277@\235^K@\330\321\222?\306[\211@\006\003\220@)\231!@\243\026\353?\000\002\n@(\333X@\267FF@X\020\274@fN_@(P\275@\022Z\010@\310\372o@Z\"t?\3255\320>C\261\215@\003\357\261@-Q\r@\333\r\207>\373\215,?1\026\013@\337\222d@\317\347\302?3]\257@\345j\035@\006*\270?\260\247\202@2\246\255@\216\020\252@F\257\252@b\300\254@,.\340?\251\225\305@t\236\031@\010#W@\035\"\003@W\200\265>\217\327c?\366y-@\376\360X@m\331\332>\312\316\252@\363\273\206@\257\230\211@\332\230\t@\217\277\260@{\240\305?K\206z?zl9@\327u\236@Pi\305@\252\251\225@\036\2736?9\1771?I\"\272?361>B\355j?\263\272\246?\347Z\006?=U\262@\037\331\240@N\357\243@\265\234\262@\204\311\237@8_\303@TD.?\014\203\250@\355v\263=\2116\'@rp\031@\005\266\263@\306\255\230@\376+\032=\266\367\220?\262\001s@\213\262\217@umr@\371@\334?\253Q\274?\204\037\351?KJe@\017fd?\014-\201?\353H\351?XR:@\316\263\023@\'\262@@\343\322\224@\337=<@*\323\263@\014\375V@M\357}@\245BP@q\222\276@\301\226\274@\027\264\351?\304,\345?\356S\277@8I\236?\322\244c@n\253\314?!y!@\032\225e@\223R\253@\233\203\356>\367bu@\317\224\252@*}\272@{\236\263@O\260\210@\333\345\276@\0311\305@\367\334\211@\244q\006@\312\013P@FU\216@N\375\232@B\310\016@\341.\211@\023>\014@\302h\310@r\247[?\264\301\240@\2711\305@q\202\033?\272|\212@\222p\320?\325\302\306@\374p\211@\201\032p?\325\306L@?\241\372>\321\331\230@M\353\252@\335\300s@\215;\320?\323\271\240?! \217@\005\275\014@\374I\231@\313n\276@p\372\003@?\213|?\037\224\\@\017.\215@!\301>@\210\025\231?m\365\210@:\201\227@\376\224l?\005\242\205@\201\344\036@\277~\033?\033\3420@\317&4>\244E9?e\205@@\2009\n@\002\023\201@\303u[@!\361\005@\321\311\304?\361W\247?\025Yj@X \234@\236\261\222@\353Xg@\037\302\304@\326\356z@\254\341\025@\014\021\232@\0024\270@)\262(@\306mT?l\241\201@\342\010\206@\363\302\266?\364\374\224@\026\327A@\352B\356>\016=\242@O\342\260@\014\017\347?\364t\235?\233\242\305@!\243*@\007\271\245@\357\357%@R\314\244@\244\2462@G=\261?a\036\354>a\240B?\357\344\346?\322\357\004@W\311\324?\215\017\210@"
      }
    }
  }
}
node {
  name: "Const_5"
  op: "Const"
  device: "/device:CPU:0"
  attr {
    key: "_output_shapes"
    value {
      list {
        shape {
          dim {
            size: 1000
          }
          dim {
            size: 1
          }
        }
      }
    }
  }
  attr {
    key: "dtype"
    value {
      type: DT_FLOAT
    }
  }
  attr {
    key: "value"
    value {
      tensor {
        dtype: DT_FLOAT
        tensor_shape {
          dim {
            size: 1000
          }
          dim {
            size: 1
          }
        }
        tensor_content: "\000\000\200?\000\000\200?\000\000\200?\000\000\200?\000\000\200?\000\000\200?\000\000\200?\000\000\200?\000\000\200?\000\000\200?\000\000\200?\000\000\200?\000\000\200?\000\000\200?\000\000\200?\000\000\200?\000\000\200?\000\000\200?\000\000\200?\000\000\200?\000\000\200?\000\000\200?\000\000\200?\000\000\200?\000\000\200?\000\000\200?\000\000\200?\000\000\200?\000\000\200?\000\000\200?\000\000\200?\000\000\200?\000\000\200?\000\000\200?\000\000\200?\000\000\200?\000\000\200?\000\000\200?\000\000\200?\000\000\200?\000\000\200?\000\000\200?\000\000\200?\000\000\200?\000\000\200?\000\000\200?\000\000\200?\000\000\200?\000\000\200?\000\000\200?\000\000\200?\000\000\200?\000\000\200?\000\000\200?\000\000\200?\000\000\200?\000\000\200?\000\000\200?\000\000\200?\000\000\200?\000\000\200?\000\000\200?\000\000\200?\000\000\200?\000\000\200?\000\000\200?\000\000\200?\000\000\200?\000\000\200?\000\000\200?\000\000\200?\000\000\200?\000\000\200?\000\000\200?\000\000\200?\000\000\200?\000\000\200?\000\000\200?\000\000\200?\000\000\200?\000\000\200?\000\000\200?\000\000\200?\000\000\200?\000\000\200?\000\000\200?\000\000\200?\000\000\200?\000\000\200?\000\000\200?\000\000\200?\000\000\200?\000\000\200?\000\000\200?\000\000\200?\000\000\200?\000\000\200?\000\000\200?\000\000\200?\000\000\200?\000\000\200?\000\000\200?\000\000\200?\000\000\200?\000\000\200?\000\000\200?\000\000\200?\000\000\200?\000\000\200?\000\000\200?\000\000\200?\000\000\200?\000\000\200?\000\000\200?\000\000\200?\000\000\200?\000\000\200?\000\000\200?\000\000\200?\000\000\200?\000\000\200?\000\000\200?\000\000\200?\000\000\200?\000\000\200?\000\000\200?\000\000\200?\000\000\200?\000\000\200?\000\000\200?\000\000\200?\000\000\200?\000\000\200?\000\000\200?\000\000\200?\000\000\200?\000\000\200?\000\000\200?\000\000\200?\000\000\200?\000\000\200?\000\000\200?\000\000\200?\000\000\200?\000\000\200?\000\000\200?\000\000\200?\000\000\200?\000\000\200?\000\000\200?\000\000\200?\000\000\200?\000\000\200?\000\000\200?\000\000\200?\000\000\200?\000\000\200?\000\000\200?\000\000\200?\000\000\200?\000\000\200?\000\000\200?\000\000\200?\000\000\200?\000\000\200?\000\000\200?\000\000\200?\000\000\200?\000\000\200?\000\000\200?\000\000\200?\000\000\200?\000\000\200?\000\000\200?\000\000\200?\000\000\200?\000\000\200?\000\000\200?\000\000\200?\000\000\200?\000\000\200?\000\000\200?\000\000\200?\000\000\200?\000\000\200?\000\000\200?\000\000\200?\000\000\200?\000\000\200?\000\000\200?\000\000\200?\000\000\200?\000\000\200?\000\000\200?\000\000\200?\000\000\200?\000\000\200?\000\000\200?\000\000\200?\000\000\200?\000\000\200?\000\000\200?\000\000\200?\000\000\200?\000\000\200?\000\000\200?\000\000\200?\000\000\200?\000\000\200?\000\000\200?\000\000\200?\000\000\200?\000\000\200?\000\000\200?\000\000\200?\000\000\200?\000\000\200?\000\000\200?\000\000\200?\000\000\200?\000\000\200?\000\000\200?\000\000\200?\000\000\200?\000\000\200?\000\000\200?\000\000\200?\000\000\200?\000\000\200?\000\000\200?\000\000\200?\000\000\200?\000\000\200?\000\000\200?\000\000\200?\000\000\200?\000\000\200?\000\000\200?\000\000\200?\000\000\200?\000\000\200?\000\000\200?\000\000\200?\000\000\200?\000\000\200?\000\000\200?\000\000\200?\000\000\200?\000\000\200?\000\000\200?\000\000\200?\000\000\200?\000\000\200?\000\000\200?\000\000\200?\000\000\200?\000\000\200?\000\000\200?\000\000\200?\000\000\200?\000\000\200?\000\000\200?\000\000\200?\000\000\200?\000\000\200?\000\000\200?\000\000\200?\000\000\200?\000\000\200?\000\000\200?\000\000\200?\000\000\200?\000\000\200?\000\000\200?\000\000\200?\000\000\200?\000\000\200?\000\000\200?\000\000\200?\000\000\200?\000\000\200?\000\000\200?\000\000\200?\000\000\200?\000\000\200?\000\000\200?\000\000\200?\000\000\200?\000\000\200?\000\000\200?\000\000\200?\000\000\200?\000\000\200?\000\000\200?\000\000\200?\000\000\200?\000\000\200?\000\000\200?\000\000\200?\000\000\200?\000\000\200?\000\000\200?\000\000\200?\000\000\200?\000\000\200?\000\000\200?\000\000\200?\000\000\200?\000\000\200?\000\000\200?\000\000\200?\000\000\200?\000\000\200?\000\000\200?\000\000\200?\000\000\200?\000\000\200?\000\000\200?\000\000\200?\000\000\200?\000\000\200?\000\000\200?\000\000\200?\000\000\200?\000\000\200?\000\000\200?\000\000\200?\000\000\200?\000\000\200?\000\000\200?\000\000\200?\000\000\200?\000\000\200?\000\000\200?\000\000\200?\000\000\200?\000\000\200?\000\000\200?\000\000\200?\000\000\200?\000\000\200?\000\000\200?\000\000\200?\000\000\200?\000\000\200?\000\000\200?\000\000\200?\000\000\200?\000\000\200?\000\000\200?\000\000\200?\000\000\200?\000\000\200?\000\000\200?\000\000\200?\000\000\200?\000\000\200?\000\000\200?\000\000\200?\000\000\200?\000\000\200?\000\000\200?\000\000\200?\000\000\200?\000\000\200?\000\000\200?\000\000\200?\000\000\200?\000\000\200?\000\000\200?\000\000\200?\000\000\200?\000\000\200?\000\000\200?\000\000\200?\000\000\200?\000\000\200?\000\000\200?\000\000\200?\000\000\200?\000\000\200?\000\000\200?\000\000\200?\000\000\200?\000\000\200?\000\000\200?\000\000\200?\000\000\200?\000\000\200?\000\000\200?\000\000\200?\000\000\200?\000\000\200?\000\000\200?\000\000\200?\000\000\200?\000\000\200?\000\000\200?\000\000\200?\000\000\200?\000\000\200?\000\000\200?\000\000\200?\000\000\200?\000\000\200?\000\000\200?\000\000\200?\000\000\200?\000\000\200?\000\000\200?\000\000\200?\000\000\200?\000\000\200?\000\000\200?\000\000\200?\000\000\200?\000\000\200?\000\000\200?\000\000\200?\000\000\200?\000\000\200?\000\000\200?\000\000\200?\000\000\200?\000\000\200?\000\000\200?\000\000\200?\000\000\200?\000\000\200?\000\000\200?\000\000\200?\000\000\200?\000\000\200?\000\000\200?\000\000\200?\000\000\200?\000\000\200?\000\000\200?\000\000\200?\000\000\200?\000\000\200?\000\000\200?\000\000\200?\000\000\200?\000\000\200?\000\000\200?\000\000\200?\000\000\200?\000\000\200?\000\000\200?\000\000\200?\000\000\200?\000\000\200?\000\000\200?\000\000\200?\000\000\200?\000\000\200?\000\000\200?\000\000\200?\000\000\200?\000\000\200?\000\000\200?\000\000\200?\000\000\200?\000\000\200?\000\000\200?\000\000\200?\000\000\200?\000\000\200?\000\000\200?\000\000\200?\000\000\200?\000\000\200?\000\000\200?\000\000\200?\000\000\200?\000\000\200?\000\000\200?\000\000\200?\000\000\200?\000\000\200?\000\000\200?\000\000\200?\000\000\200?\000\000\200?\000\000\200?\000\000\200?\000\000\200?\000\000\200?\000\000\200?\000\000\200?\000\000\200?\000\000\200?\000\000\200?\000\000\200?\000\000\200?\000\000\200?\000\000\200?\000\000\200?\000\000\200?\000\000\200?\000\000\200?\000\000\200?\000\000\200?\000\000\200?\000\000\200?\000\000\200?\000\000\200?\000\000\200?\000\000\200?\000\000\200?\000\000\200?\000\000\200?\000\000\200?\000\000\200?\000\000\200?\000\000\200?\000\000\200?\000\000\200?\000\000\200?\000\000\200?\000\000\200?\000\000\200?\000\000\200?\000\000\200?\000\000\200?\000\000\200?\000\000\200?\000\000\200?\000\000\200?\000\000\200?\000\000\200?\000\000\200?\000\000\200?\000\000\200?\000\000\200?\000\000\200?\000\000\200?\000\000\200?\000\000\200?\000\000\200?\000\000\200?\000\000\200?\000\000\200?\000\000\200?\000\000\200?\000\000\200?\000\000\200?\000\000\200?\000\000\200?\000\000\200?\000\000\200?\000\000\200?\000\000\200?\000\000\200?\000\000\200?\000\000\200?\000\000\200?\000\000\200?\000\000\200?\000\000\200?\000\000\200?\000\000\200?\000\000\200?\000\000\200?\000\000\200?\000\000\200?\000\000\200?\000\000\200?\000\000\200?\000\000\200?\000\000\200?\000\000\200?\000\000\200?\000\000\200?\000\000\200?\000\000\200?\000\000\200?\000\000\200?\000\000\200?\000\000\200?\000\000\200?\000\000\200?\000\000\200?\000\000\200?\000\000\200?\000\000\200?\000\000\200?\000\000\200?\000\000\200?\000\000\200?\000\000\200?\000\000\200?\000\000\200?\000\000\200?\000\000\200?\000\000\200?\000\000\200?\000\000\200?\000\000\200?\000\000\200?\000\000\200?\000\000\200?\000\000\200?\000\000\200?\000\000\200?\000\000\200?\000\000\200?\000\000\200?\000\000\200?\000\000\200?\000\000\200?\000\000\200?\000\000\200?\000\000\200?\000\000\200?\000\000\200?\000\000\200?\000\000\200?\000\000\200?\000\000\200?\000\000\200?\000\000\200?\000\000\200?\000\000\200?\000\000\200?\000\000\200?\000\000\200?\000\000\200?\000\000\200?\000\000\200?\000\000\200?\000\000\200?\000\000\200?\000\000\200?\000\000\200?\000\000\200?\000\000\200?\000\000\200?\000\000\200?\000\000\200?\000\000\200?\000\000\200?\000\000\200?\000\000\200?\000\000\200?\000\000\200?\000\000\200?\000\000\200?\000\000\200?\000\000\200?\000\000\200?\000\000\200?\000\000\200?\000\000\200?\000\000\200?\000\000\200?\000\000\200?\000\000\200?\000\000\200?\000\000\200?\000\000\200?\000\000\200?\000\000\200?\000\000\200?\000\000\200?\000\000\200?\000\000\200?\000\000\200?\000\000\200?\000\000\200?\000\000\200?\000\000\200?\000\000\200?\000\000\200?\000\000\200?\000\000\200?\000\000\200?\000\000\200?\000\000\200?\000\000\200?\000\000\200?\000\000\200?\000\000\200?\000\000\200?\000\000\200?\000\000\200?\000\000\200?\000\000\200?\000\000\200?\000\000\200?\000\000\200?\000\000\200?\000\000\200?\000\000\200?\000\000\200?\000\000\200?\000\000\200?\000\000\200?\000\000\200?\000\000\200?\000\000\200?\000\000\200?\000\000\200?\000\000\200?\000\000\200?\000\000\200?\000\000\200?\000\000\200?\000\000\200?\000\000\200?\000\000\200?\000\000\200?\000\000\200?\000\000\200?\000\000\200?\000\000\200?\000\000\200?\000\000\200?\000\000\200?\000\000\200?\000\000\200?\000\000\200?\000\000\200?\000\000\200?\000\000\200?\000\000\200?\000\000\200?\000\000\200?\000\000\200?\000\000\200?\000\000\200?\000\000\200?\000\000\200?\000\000\200?\000\000\200?\000\000\200?\000\000\200?\000\000\200?\000\000\200?\000\000\200?\000\000\200?\000\000\200?\000\000\200?\000\000\200?\000\000\200?\000\000\200?\000\000\200?\000\000\200?\000\000\200?\000\000\200?\000\000\200?\000\000\200?\000\000\200?\000\000\200?\000\000\200?\000\000\200?\000\000\200?\000\000\200?\000\000\200?\000\000\200?\000\000\200?\000\000\200?\000\000\200?\000\000\200?\000\000\200?\000\000\200?\000\000\200?\000\000\200?\000\000\200?\000\000\200?\000\000\200?\000\000\200?\000\000\200?\000\000\200?\000\000\200?\000\000\200?\000\000\200?\000\000\200?\000\000\200?\000\000\200?\000\000\200?\000\000\200?\000\000\200?\000\000\200?\000\000\200?\000\000\200?\000\000\200?\000\000\200?\000\000\200?\000\000\200?\000\000\200?\000\000\200?\000\000\200?\000\000\200?\000\000\200?\000\000\200?\000\000\200?\000\000\200?\000\000\200?\000\000\200?\000\000\200?\000\000\200?\000\000\200?\000\000\200?\000\000\200?\000\000\200?\000\000\200?\000\000\200?\000\000\200?\000\000\200?\000\000\200?\000\000\200?\000\000\200?\000\000\200?\000\000\200?\000\000\200?\000\000\200?\000\000\200?\000\000\200?\000\000\200?\000\000\200?\000\000\200?\000\000\200?\000\000\200?\000\000\200?\000\000\200?\000\000\200?\000\000\200?\000\000\200?\000\000\200?\000\000\200?\000\000\200?\000\000\200?\000\000\200?\000\000\200?\000\000\200?\000\000\200?\000\000\200?\000\000\200?\000\000\200?\000\000\200?\000\000\200?\000\000\200?\000\000\200?\000\000\200?\000\000\200?\000\000\200?\000\000\200?\000\000\200?\000\000\200?\000\000\200?\000\000\200?\000\000\200?\000\000\200?\000\000\200?\000\000\200?\000\000\200?\000\000\200?\000\000\200?\000\000\200?\000\000\200?\000\000\200?\000\000\200?\000\000\200?\000\000\200?\000\000\200?\000\000\200?\000\000\200?\000\000\200?\000\000\200?\000\000\200?\000\000\200?\000\000\200?\000\000\200?\000\000\200?\000\000\200?\000\000\200?\000\000\200?\000\000\200?\000\000\200?\000\000\200?\000\000\200?\000\000\200?\000\000\200?\000\000\200?\000\000\200?\000\000\200?\000\000\200?\000\000\200?\000\000\200?\000\000\200?\000\000\200?\000\000\200?\000\000\200?\000\000\200?\000\000\200?\000\000\200?\000\000\200?\000\000\200?\000\000\200?\000\000\200?\000\000\200?\000\000\200?\000\000\200?\000\000\200?\000\000\200?\000\000\200?\000\000\200?\000\000\200?\000\000\200?\000\000\200?\000\000\200?\000\000\200?\000\000\200?\000\000\200?\000\000\200?\000\000\200?\000\000\200?\000\000\200?\000\000\200?\000\000\200?\000\000\200?\000\000\200?\000\000\200?\000\000\200?\000\000\200?\000\000\200?\000\000\200?\000\000\200?\000\000\200?\000\000\200?\000\000\200?\000\000\200?\000\000\200?\000\000\200?\000\000\200?\000\000\200?\000\000\200?\000\000\200?\000\000\200?\000\000\200?\000\000\200?\000\000\200?\000\000\200?\000\000\200?\000\000\200?\000\000\200?\000\000\200?\000\000\200?\000\000\200?\000\000\200?\000\000\200?\000\000\200?\000\000\200?\000\000\200?\000\000\200?\000\000\200?\000\000\200?\000\000\200?\000\000\200?\000\000\200?\000\000\200?\000\000\200?\000\000\200?\000\000\200?\000\000\200?\000\000\200?\000\000\200?\000\000\200?\000\000\200?\000\000\200?\000\000\200?\000\000\200?\000\000\200?\000\000\200?\000\000\200?\000\000\200?\000\000\200?\000\000\200?\000\000\200?\000\000\200?\000\000\200?\000\000\200?\000\000\200?\000\000\200?\000\000\200?\000\000\200?\000\000\200?\000\000\200?\000\000\200?\000\000\200?\000\000\200?\000\000\200?\000\000\200?\000\000\200?\000\000\200?\000\000\200?\000\000\200?\000\000\200?"
      }
    }
  }
}
node {
  name: "concat/axis"
  op: "Const"
  device: "/device:CPU:0"
  attr {
    key: "_output_shapes"
    value {
      list {
        shape {
        }
      }
    }
  }
  attr {
    key: "dtype"
    value {
      type: DT_INT32
    }
  }
  attr {
    key: "value"
    value {
      tensor {
        dtype: DT_INT32
        tensor_shape {
        }
        int_val: 1
      }
    }
  }
}
node {
  name: "concat"
  op: "ConcatV2"
  input: "Const"
  input: "Const_2"
  input: "Const_4"
  input: "concat/axis"
  device: "/device:CPU:0"
  attr {
    key: "N"
    value {
      i: 3
    }
  }
  attr {
    key: "T"
    value {
      type: DT_FLOAT
    }
  }
  attr {
    key: "Tidx"
    value {
      type: DT_INT32
    }
  }
  attr {
    key: "_output_shapes"
    value {
      list {
        shape {
          dim {
            size: 1000
          }
          dim {
            size: 3
          }
        }
      }
    }
  }
}
node {
  name: "concat_1/axis"
  op: "Const"
  device: "/device:CPU:0"
  attr {
    key: "_output_shapes"
    value {
      list {
        shape {
        }
      }
    }
  }
  attr {
    key: "dtype"
    value {
      type: DT_INT32
    }
  }
  attr {
    key: "value"
    value {
      tensor {
        dtype: DT_INT32
        tensor_shape {
        }
        int_val: 1
      }
    }
  }
}
node {
  name: "concat_1"
  op: "ConcatV2"
  input: "Const_1"
  input: "Const_3"
  input: "Const_5"
  input: "concat_1/axis"
  device: "/device:CPU:0"
  attr {
    key: "N"
    value {
      i: 3
    }
  }
  attr {
    key: "T"
    value {
      type: DT_FLOAT
    }
  }
  attr {
    key: "Tidx"
    value {
      type: DT_INT32
    }
  }
  attr {
    key: "_output_shapes"
    value {
      list {
        shape {
          dim {
            size: 1000
          }
          dim {
            size: 3
          }
        }
      }
    }
  }
}
node {
  name: "Cumsum/axis"
  op: "Const"
  device: "/device:CPU:0"
  attr {
    key: "_output_shapes"
    value {
      list {
        shape {
        }
      }
    }
  }
  attr {
    key: "dtype"
    value {
      type: DT_INT32
    }
  }
  attr {
    key: "value"
    value {
      tensor {
        dtype: DT_INT32
        tensor_shape {
        }
        int_val: 1
      }
    }
  }
}
node {
  name: "Cumsum"
  op: "Cumsum"
  input: "concat"
  input: "Cumsum/axis"
  device: "/device:CPU:0"
  attr {
    key: "T"
    value {
      type: DT_FLOAT
    }
  }
  attr {
    key: "Tidx"
    value {
      type: DT_INT32
    }
  }
  attr {
    key: "_output_shapes"
    value {
      list {
        shape {
          dim {
            size: 1000
          }
          dim {
            size: 3
          }
        }
      }
    }
  }
  attr {
    key: "exclusive"
    value {
      b: false
    }
  }
  attr {
    key: "reverse"
    value {
      b: false
    }
  }
}
node {
  name: "Sin"
  op: "Sin"
  input: "Cumsum"
  device: "/device:CPU:0"
  attr {
    key: "T"
    value {
      type: DT_FLOAT
    }
  }
  attr {
    key: "_output_shapes"
    value {
      list {
        shape {
          dim {
            size: 1000
          }
          dim {
            size: 3
          }
        }
      }
    }
  }
}
node {
  name: "Cumsum_1/axis"
  op: "Const"
  device: "/device:CPU:0"
  attr {
    key: "_output_shapes"
    value {
      list {
        shape {
        }
      }
    }
  }
  attr {
    key: "dtype"
    value {
      type: DT_INT32
    }
  }
  attr {
    key: "value"
    value {
      tensor {
        dtype: DT_INT32
        tensor_shape {
        }
        int_val: 1
      }
    }
  }
}
node {
  name: "Cumsum_1"
  op: "Cumsum"
  input: "concat"
  input: "Cumsum_1/axis"
  device: "/device:CPU:0"
  attr {
    key: "T"
    value {
      type: DT_FLOAT
    }
  }
  attr {
    key: "Tidx"
    value {
      type: DT_INT32
    }
  }
  attr {
    key: "_output_shapes"
    value {
      list {
        shape {
          dim {
            size: 1000
          }
          dim {
            size: 3
          }
        }
      }
    }
  }
  attr {
    key: "exclusive"
    value {
      b: false
    }
  }
  attr {
    key: "reverse"
    value {
      b: false
    }
  }
}
node {
  name: "Cos"
  op: "Cos"
  input: "Cumsum_1"
  device: "/device:CPU:0"
  attr {
    key: "T"
    value {
      type: DT_FLOAT
    }
  }
  attr {
    key: "_output_shapes"
    value {
      list {
        shape {
          dim {
            size: 1000
          }
          dim {
            size: 3
          }
        }
      }
    }
  }
}
node {
  name: "Mul"
  op: "Mul"
  input: "concat_1"
  input: "Cos"
  device: "/device:CPU:0"
  attr {
    key: "T"
    value {
      type: DT_FLOAT
    }
  }
  attr {
    key: "_output_shapes"
    value {
      list {
        shape {
          dim {
            size: 1000
          }
          dim {
            size: 3
          }
        }
      }
    }
  }
}
node {
  name: "Mul_1"
  op: "Mul"
  input: "concat_1"
  input: "Sin"
  device: "/device:CPU:0"
  attr {
    key: "T"
    value {
      type: DT_FLOAT
    }
  }
  attr {
    key: "_output_shapes"
    value {
      list {
        shape {
          dim {
            size: 1000
          }
          dim {
            size: 3
          }
        }
      }
    }
  }
}
node {
  name: "Sum/reduction_indices"
  op: "Const"
  device: "/device:CPU:0"
  attr {
    key: "_output_shapes"
    value {
      list {
        shape {
        }
      }
    }
  }
  attr {
    key: "dtype"
    value {
      type: DT_INT32
    }
  }
  attr {
    key: "value"
    value {
      tensor {
        dtype: DT_INT32
        tensor_shape {
        }
        int_val: 1
      }
    }
  }
}
node {
  name: "Sum"
  op: "Sum"
  input: "Mul"
  input: "Sum/reduction_indices"
  device: "/device:CPU:0"
  attr {
    key: "T"
    value {
      type: DT_FLOAT
    }
  }
  attr {
    key: "Tidx"
    value {
      type: DT_INT32
    }
  }
  attr {
    key: "_output_shapes"
    value {
      list {
        shape {
          dim {
            size: 1000
          }
          dim {
            size: 1
          }
        }
      }
    }
  }
  attr {
    key: "keep_dims"
    value {
      b: true
    }
  }
}
node {
  name: "Sum_1/reduction_indices"
  op: "Const"
  device: "/device:CPU:0"
  attr {
    key: "_output_shapes"
    value {
      list {
        shape {
        }
      }
    }
  }
  attr {
    key: "dtype"
    value {
      type: DT_INT32
    }
  }
  attr {
    key: "value"
    value {
      tensor {
        dtype: DT_INT32
        tensor_shape {
        }
        int_val: 1
      }
    }
  }
}
node {
  name: "Sum_1"
  op: "Sum"
  input: "Mul_1"
  input: "Sum_1/reduction_indices"
  device: "/device:CPU:0"
  attr {
    key: "T"
    value {
      type: DT_FLOAT
    }
  }
  attr {
    key: "Tidx"
    value {
      type: DT_INT32
    }
  }
  attr {
    key: "_output_shapes"
    value {
      list {
        shape {
          dim {
            size: 1000
          }
          dim {
            size: 1
          }
        }
      }
    }
  }
  attr {
    key: "keep_dims"
    value {
      b: true
    }
  }
}
node {
  name: "Shape"
  op: "Const"
  device: "/device:CPU:0"
  attr {
    key: "_output_shapes"
    value {
      list {
        shape {
          dim {
            size: 2
          }
        }
      }
    }
  }
  attr {
    key: "dtype"
    value {
      type: DT_INT32
    }
  }
  attr {
    key: "value"
    value {
      tensor {
        dtype: DT_INT32
        tensor_shape {
          dim {
            size: 2
          }
        }
        tensor_content: "\350\003\000\000\001\000\000\000"
      }
    }
  }
}
node {
  name: "zeros/Const"
  op: "Const"
  device: "/device:CPU:0"
  attr {
    key: "_output_shapes"
    value {
      list {
        shape {
        }
      }
    }
  }
  attr {
    key: "dtype"
    value {
      type: DT_FLOAT
    }
  }
  attr {
    key: "value"
    value {
      tensor {
        dtype: DT_FLOAT
        tensor_shape {
        }
        float_val: 0.0
      }
    }
  }
}
node {
  name: "zeros"
  op: "Fill"
  input: "Shape"
  input: "zeros/Const"
  device: "/device:CPU:0"
  attr {
    key: "T"
    value {
      type: DT_FLOAT
    }
  }
  attr {
    key: "_output_shapes"
    value {
      list {
        shape {
          dim {
            size: 1000
          }
          dim {
            size: 1
          }
        }
      }
    }
  }
}
node {
  name: "concat_2/axis"
  op: "Const"
  device: "/device:CPU:0"
  attr {
    key: "_output_shapes"
    value {
      list {
        shape {
        }
      }
    }
  }
  attr {
    key: "dtype"
    value {
      type: DT_INT32
    }
  }
  attr {
    key: "value"
    value {
      tensor {
        dtype: DT_INT32
        tensor_shape {
        }
        int_val: 1
      }
    }
  }
}
node {
  name: "concat_2"
  op: "ConcatV2"
  input: "Sum"
  input: "Sum_1"
  input: "zeros"
  input: "concat_2/axis"
  device: "/device:CPU:0"
  attr {
    key: "N"
    value {
      i: 3
    }
  }
  attr {
    key: "T"
    value {
      type: DT_FLOAT
    }
  }
  attr {
    key: "Tidx"
    value {
      type: DT_INT32
    }
  }
  attr {
    key: "_output_shapes"
    value {
      list {
        shape {
          dim {
            size: 1000
          }
          dim {
            size: 3
          }
        }
      }
    }
  }
}
node {
  name: "Const_6"
  op: "Const"
  device: "/device:CPU:0"
  attr {
    key: "_output_shapes"
    value {
      list {
        shape {
          dim {
            size: 1
          }
          dim {
            size: 1
          }
        }
      }
    }
  }
  attr {
    key: "dtype"
    value {
      type: DT_FLOAT
    }
  }
  attr {
    key: "value"
    value {
      tensor {
        dtype: DT_FLOAT
        tensor_shape {
          dim {
            size: 1
          }
          dim {
            size: 1
          }
        }
        float_val: 0.00999999977648
      }
    }
  }
}
node {
  name: "Const_7"
  op: "Const"
  device: "/device:CPU:0"
  attr {
    key: "_output_shapes"
    value {
      list {
        shape {
          dim {
            size: 1
          }
          dim {
            size: 3
          }
        }
      }
    }
  }
  attr {
    key: "dtype"
    value {
      type: DT_FLOAT
    }
  }
  attr {
    key: "value"
    value {
      tensor {
        dtype: DT_FLOAT
        tensor_shape {
          dim {
            size: 1
          }
          dim {
            size: 3
          }
        }
        tensor_content: ":)\265>\003\006\\?\000\000\000\000"
      }
    }
  }
}
node {
  name: "Mul_2"
  op: "Mul"
  input: "Const_7"
  input: "Const_6"
  device: "/device:CPU:0"
  attr {
    key: "T"
    value {
      type: DT_FLOAT
    }
  }
  attr {
    key: "_output_shapes"
    value {
      list {
        shape {
          dim {
            size: 1
          }
          dim {
            size: 3
          }
        }
      }
    }
  }
}
node {
  name: "Const_8"
  op: "Const"
  device: "/device:CPU:0"
  attr {
    key: "_output_shapes"
    value {
      list {
        shape {
          dim {
            size: 1
          }
          dim {
            size: 3
          }
        }
      }
    }
  }
  attr {
    key: "dtype"
    value {
      type: DT_FLOAT
    }
  }
  attr {
    key: "value"
    value {
      tensor {
        dtype: DT_FLOAT
        tensor_shape {
          dim {
            size: 1
          }
          dim {
            size: 3
          }
        }
        tensor_content: "o\361\304=?5\304>\000\000\000\000"
      }
    }
  }
}
node {
  name: "Mul_3"
  op: "Mul"
  input: "Const_8"
  input: "Const_6"
  device: "/device:CPU:0"
  attr {
    key: "T"
    value {
      type: DT_FLOAT
    }
  }
  attr {
    key: "_output_shapes"
    value {
      list {
        shape {
          dim {
            size: 1
          }
          dim {
            size: 3
          }
        }
      }
    }
  }
}
node {
  name: "Const_9"
  op: "Const"
  device: "/device:CPU:0"
  attr {
    key: "_output_shapes"
    value {
      list {
        shape {
          dim {
            size: 1
          }
          dim {
            size: 3
          }
        }
      }
    }
  }
  attr {
    key: "dtype"
    value {
      type: DT_FLOAT
    }
  }
  attr {
    key: "value"
    value {
      tensor {
        dtype: DT_FLOAT
        tensor_shape {
          dim {
            size: 1
          }
          dim {
            size: 3
          }
        }
        tensor_content: "}\206=?=!\350>\000\000\000\000"
      }
    }
  }
}
node {
  name: "Mul_4"
  op: "Mul"
  input: "Const_9"
  input: "Const_6"
  device: "/device:CPU:0"
  attr {
    key: "T"
    value {
      type: DT_FLOAT
    }
  }
  attr {
    key: "_output_shapes"
    value {
      list {
        shape {
          dim {
            size: 1
          }
          dim {
            size: 3
          }
        }
      }
    }
  }
}
node {
  name: "Const_10"
  op: "Const"
  device: "/device:CPU:0"
  attr {
    key: "_output_shapes"
    value {
      list {
        shape {
          dim {
            size: 1
          }
          dim {
            size: 3
          }
        }
      }
    }
  }
  attr {
    key: "dtype"
    value {
      type: DT_FLOAT
    }
  }
  attr {
    key: "value"
    value {
      tensor {
        dtype: DT_FLOAT
        tensor_shape {
          dim {
            size: 1
          }
          dim {
            size: 3
          }
        }
        tensor_content: "\352\211j?\275\247!?\000\000\000\000"
      }
    }
  }
}
node {
  name: "Mul_5"
  op: "Mul"
  input: "Const_10"
  input: "Const_6"
  device: "/device:CPU:0"
  attr {
    key: "T"
    value {
      type: DT_FLOAT
    }
  }
  attr {
    key: "_output_shapes"
    value {
      list {
        shape {
          dim {
            size: 1
          }
          dim {
            size: 3
          }
        }
      }
    }
  }
}
node {
  name: "Const_11"
  op: "Const"
  device: "/device:CPU:0"
  attr {
    key: "_output_shapes"
    value {
      list {
        shape {
          dim {
            size: 1
          }
          dim {
            size: 3
          }
        }
      }
    }
  }
  attr {
    key: "dtype"
    value {
      type: DT_FLOAT
    }
  }
  attr {
    key: "value"
    value {
      tensor {
        dtype: DT_FLOAT
        tensor_shape {
          dim {
            size: 1
          }
          dim {
            size: 3
          }
        }
        tensor_content: "OT\244>\214IB?\000\000\000\000"
      }
    }
  }
}
node {
  name: "Mul_6"
  op: "Mul"
  input: "Const_11"
  input: "Const_6"
  device: "/device:CPU:0"
  attr {
    key: "T"
    value {
      type: DT_FLOAT
    }
  }
  attr {
    key: "_output_shapes"
    value {
      list {
        shape {
          dim {
            size: 1
          }
          dim {
            size: 3
          }
        }
      }
    }
  }
}
node {
  name: "Const_12"
  op: "Const"
  device: "/device:CPU:0"
  attr {
    key: "_output_shapes"
    value {
      list {
        shape {
          dim {
            size: 1
          }
          dim {
            size: 3
          }
        }
      }
    }
  }
  attr {
    key: "dtype"
    value {
      type: DT_FLOAT
    }
  }
  attr {
    key: "value"
    value {
      tensor {
        dtype: DT_FLOAT
        tensor_shape {
          dim {
            size: 1
          }
          dim {
            size: 3
          }
        }
        tensor_content: "O\004\231>\313\332.?\000\000\000\000"
      }
    }
  }
}
node {
  name: "Mul_7"
  op: "Mul"
  input: "Const_12"
  input: "Const_6"
  device: "/device:CPU:0"
  attr {
    key: "T"
    value {
      type: DT_FLOAT
    }
  }
  attr {
    key: "_output_shapes"
    value {
      list {
        shape {
          dim {
            size: 1
          }
          dim {
            size: 3
          }
        }
      }
    }
  }
}
node {
  name: "Const_13"
  op: "Const"
  device: "/device:CPU:0"
  attr {
    key: "_output_shapes"
    value {
      list {
        shape {
          dim {
            size: 1
          }
          dim {
            size: 3
          }
        }
      }
    }
  }
  attr {
    key: "dtype"
    value {
      type: DT_FLOAT
    }
  }
  attr {
    key: "value"
    value {
      tensor {
        dtype: DT_FLOAT
        tensor_shape {
          dim {
            size: 1
          }
          dim {
            size: 3
          }
        }
        tensor_content: "\331G\220>\224\2431?\000\000\000\000"
      }
    }
  }
}
node {
  name: "Mul_8"
  op: "Mul"
  input: "Const_13"
  input: "Const_6"
  device: "/device:CPU:0"
  attr {
    key: "T"
    value {
      type: DT_FLOAT
    }
  }
  attr {
    key: "_output_shapes"
    value {
      list {
        shape {
          dim {
            size: 1
          }
          dim {
            size: 3
          }
        }
      }
    }
  }
}
node {
  name: "Const_14"
  op: "Const"
  device: "/device:CPU:0"
  attr {
    key: "_output_shapes"
    value {
      list {
        shape {
          dim {
            size: 1
          }
          dim {
            size: 3
          }
        }
      }
    }
  }
  attr {
    key: "dtype"
    value {
      type: DT_FLOAT
    }
  }
  attr {
    key: "value"
    value {
      tensor {
        dtype: DT_FLOAT
        tensor_shape {
          dim {
            size: 1
          }
          dim {
            size: 3
          }
        }
        tensor_content: "\r\023\350>\271aM?\000\000\000\000"
      }
    }
  }
}
node {
  name: "Mul_9"
  op: "Mul"
  input: "Const_14"
  input: "Const_6"
  device: "/device:CPU:0"
  attr {
    key: "T"
    value {
      type: DT_FLOAT
    }
  }
  attr {
    key: "_output_shapes"
    value {
      list {
        shape {
          dim {
            size: 1
          }
          dim {
            size: 3
          }
        }
      }
    }
  }
}
node {
  name: "Const_15"
  op: "Const"
  device: "/device:CPU:0"
  attr {
    key: "_output_shapes"
    value {
      list {
        shape {
          dim {
            size: 1
          }
          dim {
            size: 3
          }
        }
      }
    }
  }
  attr {
    key: "dtype"
    value {
      type: DT_FLOAT
    }
  }
  attr {
    key: "value"
    value {
      tensor {
        dtype: DT_FLOAT
        tensor_shape {
          dim {
            size: 1
          }
          dim {
            size: 3
          }
        }
        tensor_content: "\200\355\224>\'\251%?\000\000\000\000"
      }
    }
  }
}
node {
  name: "Mul_10"
  op: "Mul"
  input: "Const_15"
  input: "Const_6"
  device: "/device:CPU:0"
  attr {
    key: "T"
    value {
      type: DT_FLOAT
    }
  }
  attr {
    key: "_output_shapes"
    value {
      list {
        shape {
          dim {
            size: 1
          }
          dim {
            size: 3
          }
        }
      }
    }
  }
}
node {
  name: "Const_16"
  op: "Const"
  device: "/device:CPU:0"
  attr {
    key: "_output_shapes"
    value {
      list {
        shape {
          dim {
            size: 1
          }
          dim {
            size: 3
          }
        }
      }
    }
  }
  attr {
    key: "dtype"
    value {
      type: DT_FLOAT
    }
  }
  attr {
    key: "value"
    value {
      tensor {
        dtype: DT_FLOAT
        tensor_shape {
          dim {
            size: 1
          }
          dim {
            size: 3
          }
        }
        tensor_content: "I\316\031?\227\343_>\000\000\000\000"
      }
    }
  }
}
node {
  name: "Mul_11"
  op: "Mul"
  input: "Const_16"
  input: "Const_6"
  device: "/device:CPU:0"
  attr {
    key: "T"
    value {
      type: DT_FLOAT
    }
  }
  attr {
    key: "_output_shapes"
    value {
      list {
        shape {
          dim {
            size: 1
          }
          dim {
            size: 3
          }
        }
      }
    }
  }
}
node {
  name: "Const_17"
  op: "Const"
  device: "/device:CPU:0"
  attr {
    key: "_output_shapes"
    value {
      list {
        shape {
          dim {
            size: 1
          }
          dim {
            size: 3
          }
        }
      }
    }
  }
  attr {
    key: "dtype"
    value {
      type: DT_FLOAT
    }
  }
  attr {
    key: "value"
    value {
      tensor {
        dtype: DT_FLOAT
        tensor_shape {
          dim {
            size: 1
          }
          dim {
            size: 3
          }
        }
        tensor_content: "\200JW>|\245\177?\000\000\000\000"
      }
    }
  }
}
node {
  name: "Mul_12"
  op: "Mul"
  input: "Const_17"
  input: "Const_6"
  device: "/device:CPU:0"
  attr {
    key: "T"
    value {
      type: DT_FLOAT
    }
  }
  attr {
    key: "_output_shapes"
    value {
      list {
        shape {
          dim {
            size: 1
          }
          dim {
            size: 3
          }
        }
      }
    }
  }
}
node {
  name: "Const_18"
  op: "Const"
  device: "/device:CPU:0"
  attr {
    key: "_output_shapes"
    value {
      list {
        shape {
          dim {
            size: 1
          }
          dim {
            size: 3
          }
        }
      }
    }
  }
  attr {
    key: "dtype"
    value {
      type: DT_FLOAT
    }
  }
  attr {
    key: "value"
    value {
      tensor {
        dtype: DT_FLOAT
        tensor_shape {
          dim {
            size: 1
          }
          dim {
            size: 3
          }
        }
        tensor_content: "f\027X?\246,w?\000\000\000\000"
      }
    }
  }
}
node {
  name: "Mul_13"
  op: "Mul"
  input: "Const_18"
  input: "Const_6"
  device: "/device:CPU:0"
  attr {
    key: "T"
    value {
      type: DT_FLOAT
    }
  }
  attr {
    key: "_output_shapes"
    value {
      list {
        shape {
          dim {
            size: 1
          }
          dim {
            size: 3
          }
        }
      }
    }
  }
}
node {
  name: "Const_19"
  op: "Const"
  device: "/device:CPU:0"
  attr {
    key: "_output_shapes"
    value {
      list {
        shape {
          dim {
            size: 1
          }
          dim {
            size: 3
          }
        }
      }
    }
  }
  attr {
    key: "dtype"
    value {
      type: DT_FLOAT
    }
  }
  attr {
    key: "value"
    value {
      tensor {
        dtype: DT_FLOAT
        tensor_shape {
          dim {
            size: 1
          }
          dim {
            size: 3
          }
        }
        tensor_content: "\342\214\037?\347\031\021?\000\000\000\000"
      }
    }
  }
}
node {
  name: "Mul_14"
  op: "Mul"
  input: "Const_19"
  input: "Const_6"
  device: "/device:CPU:0"
  attr {
    key: "T"
    value {
      type: DT_FLOAT
    }
  }
  attr {
    key: "_output_shapes"
    value {
      list {
        shape {
          dim {
