node {
  name: "global_step/Initializer/zeros"
  op: "Const"
  attr {
    key: "_class"
    value {
      list {
        s: "loc:@global_step"
      }
    }
  }
  attr {
    key: "_output_shapes"
    value {
      list {
        shape {
        }
      }
    }
  }
  attr {
    key: "dtype"
    value {
      type: DT_INT64
    }
  }
  attr {
    key: "value"
    value {
      tensor {
        dtype: DT_INT64
        tensor_shape {
        }
        int64_val: 0
      }
    }
  }
}
node {
  name: "global_step"
  op: "VariableV2"
  attr {
    key: "_class"
    value {
      list {
        s: "loc:@global_step"
      }
    }
  }
  attr {
    key: "_output_shapes"
    value {
      list {
        shape {
        }
      }
    }
  }
  attr {
    key: "container"
    value {
      s: ""
    }
  }
  attr {
    key: "dtype"
    value {
      type: DT_INT64
    }
  }
  attr {
    key: "shape"
    value {
      shape {
      }
    }
  }
  attr {
    key: "shared_name"
    value {
      s: ""
    }
  }
}
node {
  name: "global_step/Assign"
  op: "Assign"
  input: "global_step"
  input: "global_step/Initializer/zeros"
  attr {
    key: "T"
    value {
      type: DT_INT64
    }
  }
  attr {
    key: "_class"
    value {
      list {
        s: "loc:@global_step"
      }
    }
  }
  attr {
    key: "_output_shapes"
    value {
      list {
        shape {
        }
      }
    }
  }
  attr {
    key: "use_locking"
    value {
      b: true
    }
  }
  attr {
    key: "validate_shape"
    value {
      b: true
    }
  }
}
node {
  name: "global_step/read"
  op: "Identity"
  input: "global_step"
  attr {
    key: "T"
    value {
      type: DT_INT64
    }
  }
  attr {
    key: "_class"
    value {
      list {
        s: "loc:@global_step"
      }
    }
  }
  attr {
    key: "_output_shapes"
    value {
      list {
        shape {
        }
      }
    }
  }
}
node {
  name: "global_step/IsVariableInitialized"
  op: "IsVariableInitialized"
  input: "global_step"
  attr {
    key: "_class"
    value {
      list {
        s: "loc:@global_step"
      }
    }
  }
  attr {
    key: "_output_shapes"
    value {
      list {
        shape {
        }
      }
    }
  }
  attr {
    key: "dtype"
    value {
      type: DT_INT64
    }
  }
}
node {
  name: "global_step/cond/Switch"
  op: "Switch"
  input: "global_step/IsVariableInitialized"
  input: "global_step/IsVariableInitialized"
  attr {
    key: "T"
    value {
      type: DT_BOOL
    }
  }
  attr {
    key: "_output_shapes"
    value {
      list {
        shape {
        }
        shape {
        }
      }
    }
  }
}
node {
  name: "global_step/cond/switch_t"
  op: "Identity"
  input: "global_step/cond/Switch:1"
  attr {
    key: "T"
    value {
      type: DT_BOOL
    }
  }
  attr {
    key: "_output_shapes"
    value {
      list {
        shape {
        }
      }
    }
  }
}
node {
  name: "global_step/cond/switch_f"
  op: "Identity"
  input: "global_step/cond/Switch"
  attr {
    key: "T"
    value {
      type: DT_BOOL
    }
  }
  attr {
    key: "_output_shapes"
    value {
      list {
        shape {
        }
      }
    }
  }
}
node {
  name: "global_step/cond/pred_id"
  op: "Identity"
  input: "global_step/IsVariableInitialized"
  attr {
    key: "T"
    value {
      type: DT_BOOL
    }
  }
  attr {
    key: "_output_shapes"
    value {
      list {
        shape {
        }
      }
    }
  }
}
node {
  name: "global_step/cond/read"
  op: "Identity"
  input: "global_step/cond/read/Switch:1"
  attr {
    key: "T"
    value {
      type: DT_INT64
    }
  }
  attr {
    key: "_output_shapes"
    value {
      list {
        shape {
        }
      }
    }
  }
}
node {
  name: "global_step/cond/read/Switch"
  op: "RefSwitch"
  input: "global_step"
  input: "global_step/cond/pred_id"
  attr {
    key: "T"
    value {
      type: DT_INT64
    }
  }
  attr {
    key: "_class"
    value {
      list {
        s: "loc:@global_step"
      }
    }
  }
  attr {
    key: "_output_shapes"
    value {
      list {
        shape {
        }
        shape {
        }
      }
    }
  }
}
node {
  name: "global_step/cond/Switch_1"
  op: "Switch"
  input: "global_step/Initializer/zeros"
  input: "global_step/cond/pred_id"
  attr {
    key: "T"
    value {
      type: DT_INT64
    }
  }
  attr {
    key: "_class"
    value {
      list {
        s: "loc:@global_step"
      }
    }
  }
  attr {
    key: "_output_shapes"
    value {
      list {
        shape {
        }
        shape {
        }
      }
    }
  }
}
node {
  name: "global_step/cond/Merge"
  op: "Merge"
  input: "global_step/cond/Switch_1"
  input: "global_step/cond/read"
  attr {
    key: "N"
    value {
      i: 2
    }
  }
  attr {
    key: "T"
    value {
      type: DT_INT64
    }
  }
  attr {
    key: "_output_shapes"
    value {
      list {
        shape {
        }
        shape {
        }
      }
    }
  }
}
node {
  name: "global_step/add/y"
  op: "Const"
  attr {
    key: "_output_shapes"
    value {
      list {
        shape {
        }
      }
    }
  }
  attr {
    key: "dtype"
    value {
      type: DT_INT64
    }
  }
  attr {
    key: "value"
    value {
      tensor {
        dtype: DT_INT64
        tensor_shape {
        }
        int64_val: 0
      }
    }
  }
}
node {
  name: "global_step/add"
  op: "Add"
  input: "global_step/cond/Merge"
  input: "global_step/add/y"
  attr {
    key: "T"
    value {
      type: DT_INT64
    }
  }
  attr {
    key: "_output_shapes"
    value {
      list {
        shape {
        }
      }
    }
  }
}
node {
  name: "Const"
  op: "Const"
  device: "/device:CPU:0"
  attr {
    key: "_output_shapes"
    value {
      list {
        shape {
          dim {
            size: 1000
          }
          dim {
            size: 1
          }
        }
      }
    }
  }
  attr {
    key: "dtype"
    value {
      type: DT_FLOAT
    }
  }
  attr {
    key: "value"
    value {
      tensor {
        dtype: DT_FLOAT
        tensor_shape {
          dim {
            size: 1000
          }
          dim {
            size: 1
          }
        }
        tensor_content: "W\222\231?\266\341S@&\250\022@\315e\035<\211\312\355?J/\204@\215(\247@\\\017\236@\312t\016@\316~\310@\357L\"@5\236\254@<d\245@Qa\332=\216.\321==\020\257@s\213\224@\306\365x@%\334\224@\320M6@\316=Q=\305>\354=\320\034&@\202\025h?,\331V@\002\251\202?\331T\274?4L)@\025#R>}\262\230@\255\260?@\3508\203?\004\226\273@R\022\242?\355\033n?\032(\213@F\356\230?\271nT@\341\344\227@\240\022`@\201\272!@\215v\241@,\336\204@\363\"U@\320\271\276?\373Z\300@\335\3716@\'>\367?\211J\271@X\362\346?P\013\243@\370\234\224?%\020\000@?}\375<i$S@\2563\267?\306\\\232@\222\230\037@{\3239?\363\260\224@\217\241\250@\021\344E@\235\202\242@9\376\223?\305\250H@\305PR@t>\226?b\367i@\366HJ@\375&N?C\034\264@\026\370U@`\361\207@\017\006\244@O$\261@E\005{@\327=\r@\024`\242@KZ}@\360\t\177@\'\355\254>k\345\034@\360RX@\275\360\275@\316\303\262?\206\207c@\227\305\202?h\270\203@,F\254@\377s}?o\260\260@\030\325\364?g\3379@\t\232\300@\325\202\267@\210\371\203@N~\301@\020\211s@\316\343%?Z\273\320=\210\236%@\370B\306@s\342(=?FA@7\007[@\272\257`@\365\034\227@\304\225\177@\030\030\207@\352\177\236@\027\014\303@\204\365\016?0\324\005@\321={@\246\020\031@\tc\222@\023\2468@\317\3032@@\220\034@@\235\225@\253\014\\@@7\246@\232\006=@\245\317\232@\016\345b@\352\344\224@\2343\304?Fl\271?\344\252[@UN\241@\270\216\r?\335$\242<\205\270\202@\245\214\216@\352r\365?7\343)@\253\301e@\273\n9@hU[@\211\321\247@\367\332\303@\267}0?\276\270\306@\225iR@,l\r@\305\3201@\321\201\222@6\022\225@\277\313 ?Xi$@\241\266\241?;\302\223@\301b\220@2d\213@={t?A\212\214?\340#\276@\301P\266?\025z_@\r\302\210@\204\216\250@\224\372\240=\322\224\252@X1:@9\214\036@&z\227?x_N@I\363\027@\200y2@\371\260\002@\021\301@@\363\205E@\210\217\240@n@\022@\211S\343?\325$\004@\231\276\217@h\022\243@*x\232>\265\330\366>\023V\356?d\323\330?\203:{?\001\004\255@|=\262@\350W\201?\364\261\256@C\230f?\310b\177@\"\206\007>\342\342\222@\224:\252@\261\342 >$c\266@\324d\203@\020:\264@\201\206}@K\007]@\022\301\020@X\210\255@:y\227@P\254\275@\305\3270@\350\211@@F\244\204=c~\274@\274h\274?\372J+@j\213\020@\374+8@\304\335v?\374xW@\200\255\275@\304\336\246@\232\023\204>\021\206\035>\232A\263@\23626@R(Z>X\304\201@pCh@\3215\260@\'l\260@H\322{@\023:\206@\024\253)@4S\364?T\305m?\000\312\307@\276z9@\234\\~?5\215m?$\251\247?\252f\276@\253w\277@X#\251@\014\034\205?\332y\230?I\317(@\313\364\222@g\217\202@\320\0359@\265\004\026@t\036\203@\241\361\261?NE\250>\007V\301?\001up@\224\006L@n\356\033=^\253\337?\031n\234@\375\347\300@\017\353\346?B\224\223?w\301\332?\250Q\226?=@\203@^\321\344?\301\214\253@M\312\224@\0104\205@%.\255?k)\253@,\2332@\246v\"@1o\257?\307\230\221@\"\304\025@\274\317\"@\t1\370>>M<?\032\375G@\322\367u@\013{_@\307\263\256@\357mZ@L\021\241@\327u\"@\245~i@\277\342\250@\356\343\245@\306\226\223@\233\313\307@\212hp?\241\250\217@30f?\334\362\261@:\005\254@\264h\021@\337\335\331?\211\302\261?x\253\303>_\337\243?\014@W?\352\333n@\313\262\003>[x\371?h\343w@\344\343\261?A:\224@\265\203\025?\255\371X@O\\\201?\253\303,@\360\246(@\300\231\375>\355hN@&b\244?\253\331\237@\346R\271@d\302\224> M\250@L\000\247@\303\376\210@\346\204\241@\245{4@2\273F<\253~\305@\223;\021@\001\261\210>\366\204p@\212\241\273@\253F@@\033\323\037@\372aQ?9\221\016@#\262\317?N\310\017@B\340\257@\027\356\035@w\353y@N\315*;\277\236\201>\027\317Y@\314\224\216?\n(\220@\007=\230@\251\234\206@\363\211\302@\036\313\'@\006W\221@\307)u?\335^\n@Oc\230@\276\266\261>\3400\005@\014\257g>\215n\036@\322\235\215@\313\013\232@\303\245\252@_\220\005@\276&\210?\246\335\222@\306\245.@LbW@\005\313\211@\246\254\244@\2033\246?\034\273\206>)\213#@y\361??\254M\257?N\204\304@Q\010\213@h\223\200?\312)\223@\214\233\307@\357\275\253>L\247\205@\027L\221@\004\304\225@\344D\267@\020\271\201@\356*0?\332\021\356>\016;g@\232\2115@hv\t@a<\200?&\264\235@\001g\303@\203o\207?\273~\245@t?\310>\326\025Y@\206\220|@\316\345\020@\260\022\376?\202\206\357?.x\211@\000\364l?9,\212>\334[\220=\342\217\225@X]\354?\206T\010@\260\325\200@#A\206@\364\nZ@\006\231\304@\2375Q@\350\017\255@\"L\241@\021\\\231@\272Kw@\342\373\220@\033mc@\271\266\273@\374\373\224@\210\021\220?\003\023y>\231<\201@u\r\310@\375\206\025@fJ+@\364\030\267@\307\024\213?\250&j@<W\275@\202c\272?\302sv@\026v:@v\007\267@p\325\261@\317\203\001@\200\214z?&{o@\220?Y@\222)Q@\233\367\264@m\277\202?O\020,@\037\300`@\231\270[@\322\300O@\346\300+@\017R\307@\302\313W@<\244\232@\367\211\272?\345\257p@\014\313\331?\273\213\361?\212\224\212>g\341\234@\030\023\210@\361\"u@r\213\002@;\246*?0\226\305@p\277;@:\325\000@;\220\300=\035\r\204@\024\n`>\211\003\301@\265<\n@\237\204i?\244\375\002@\005&K@\226*\304@/\366\274@\306\252\224@-\255!@Q\243|@j!\212@\000\343\252@\353\002\301@I\311\276?\262=\212@O+G@\3515\323?\337\216\210@80\221@S4\364?\323k\227>\371\016{@\272D\272@\025/\340?\026\nM@\353\242\262>\264\243\246@\307\237\231>\360\2666@l\014\217@\222\251\257@L[\245@\034\006\243@b\262 @\001\005L?m`A@\256\206{@\222w\266@\355\250\270@\004s\215@-a\232@\352Gs@q\212r@>\0342>\372r\306>\247\337~?\323\353\342>#\220\025@\'Oe@\341\357\345?}>\235?\322\226\245@\264\326\222?\302f7@\341f\357<\255\206\277@\374\217\220@\\U\326?oa\270@\312\360\213@\374\245\003?\t\n\'@\025\323\252@\036\240\260@\021\275\256@\217\000\237@\000g\202@F7q@5\023\221@\377u\300@\021\251\214@\276\354V?\257\336\343?&_\203@\034\360\014?QE\277?\006\310\314?b\313^?\215\032\033@\220#\260@\223\3454?\000\341\227@\331\316)@\246\020\007@\027\245\220@\254\330\275@<PX@\323\356\242>\336O@@\355\264W?\0371I@\275uI@\301I\247@\301T\243@\2627\302@k`\237?\002\003N>\017\344\226@$\205\252@\0254\236?\227\0048@Z\332\271@m\017\221?;\005\310@\321\245\245@\003iC@\273\213\271@\234\243\310@\330\210\022@$\227\302?f\024\263@\362\004\272@\263\352\222@nk.?\031\2566@\271y\246@\265\253\255?WE\275?\257\3173>\330\007\315>\017\330\246?\322`\220@\205\324\201@\346=\273?\'\t\231@\361kF@\255\274)?q\354\245@\314\220\377>5R\271@\264\327u@S,2@\030\260\303@2\351\270@N\210\234?A\206\240@\346\260}@\233\223\342?i\305\261@4\340\255?\323.\000@\037\014\227@\203W\310@h\037\210@\235(r?\226^M@y\006/@\313C0@g\226]@$\034\265?J\341\250@3\375\301@;\236\306?\363\034\263?\372\326\026@\222\340s@\201$5@\004\037\272@\005\352h@\253\037\013@\321i\254?\031b\262@\t\363\t@\205\0209@\314\240g@\313\231\252@\324\266\241@C\277y@\317\356\014@\001\362D?\266\260\200@\'\270\216@\220\311m@\315\304\243@\225\032\030?\250\211M@\347\327H@\270Ac@\323!\214@\200\036O?N\235\314?\344\303\203@\330#\034@zu.@i;\306@Yf6@\361\240\216? n\240>\357Y\255@\352\231{@\310\024\226?g\035\340?\267I\275@G>/@\260(\317?l\034\324>S\267\224@$?\263@~\212j?\370\r\264?\030\255\033@\362\301\010@\240\373\236@\016;\274@\253\204\026@\376\376_>>\202\226@k\305,?#v\266@\315\301\345?\\\224h>\017\013\236?\355{\210@\377\351]@\337\035\321=\321\332\347?\300\232\241@w\314\226@N\205\352?y\275\306@\205p\276>[C\257<\341aA=\031c\353?}\337\276?\315\250\266@\200\242I?#\027\243@a\340\257?\230\2420@\374_%>\272O\203@7\246\236@\244\021\200?{\r\272@#d\271@\303%\024@c\323\220=\2675\315?)K*@\231\351\264@u\201j@I\020b?\013\322\207@\236\353\363?\001O\201?k%\006@\014\373\035>\021dn@o\036\236@\320?\271@v~\266@\325\n\327?8\027\242@\325)\275?\223\nE@\325]y?\024\026\266=\265K\310@\272Q7@\356\375j@O\036\341?\230\023\240? \3473@h\357\307@\214\266+?\323R\013?\3754\266@\021\036&@?\302\234?n\277\237?\305\2431@\372)\254?v\345\005@d\204\215?t.P>\023@\344?\276\031-@G\037\267@\340\356z@\250\260\006=\316\265k@\n\321\245?O\3125@\211\305\024@N=\300@c;\301@\305B\230@g\027\332=C\307\210@\327C7@\031\316\307@v\030A@\353\030\255@D<m@\356z\263@o{\212?z\353\221@>h\332>\225(\231?\274O\t@\350-\270?\245\373\271@D\373:?\331\241\227@G\3447@y\240-@\031p`@\256@1@\336\201\257@6\267\337?\325\033\224@\332\r_?\245\276r@A[\314?\r\227\226@\005\211\016>i0\233>\024\367\232?\261j\213@#\265\002@\317%\265?[_t@\246\347~>\370\317\216@\020\267\241@:\317\021;\314?\277@\337\211l@\230\035B@\327\331\002@`\363m?\342\243I@\243\231\226@\203-\n@Q^m@I\' @\235@\237@\3548\220@\031\3242@x_7@\252\025\275@q\233\362?^\221\255@\340\305\031?\211\254\325?\371\313\267@Sa.@d\302\254@S\317r@\205hi@\321\306\006@\032\312\253@\312\260~@Qt\276@\320}\213@\224\033\213@X\235\240@\203\216\221?\257&\222@\233\316\263@\316|\324?\251<\242@[\336\001?U\020s@U;\223<V\003\037@~J\202@\317\035\275@\327\r\204@=\372\254@K[I@F\226\203@\346\301R@\222Y @\367T(@\010f\257>\332O\345?3f\312?\030\207Z@\254)\001@\340U\246=\017\374\237@#-\035@\276\003.?^\031e@\035X\207@5\225\303@(\037\311>\263\311W>\347b\230@\360\002N@J\013\242@(!T@\'\376\203@\303\3334>\351S\263@\276\\\260@\\\362\347?B\256{?\355\345\207@@\027\253@)\004\201@Z7\345>@\247\262@\336\337\210@\257\325\212@\332\020K?\213(O@^\004;?fF\214@\334\332\211@\344-\311? \005-@\240\371\321?\nk\202@9\024{@*\341\265@\361\337\337?f\331n?\022\201\367>\250\251u?\273\276\204@\227?\305@\222L\217@\2415\363=Pk\276@d\325[@\\\010\236<\326\232\270@\n\220\222@\275\260\261>\020\365\306?\017\002\340?\201P\201@\2377\006?y8A@~\235<?+E\246@\226?+@\304\255\237@\013x\240@\371\2439?\"\271?@\312\005\255@$a\204@^\345\027?\036e\235@\2553\026@&\304\214?O\224n@oP\225@g\373s? \260\240?\247\017\302@\315\326\t?\263RB>l\300\307?g\302\030@5\023\373?\201w\245@\rc\301@\300L\260@\371@d@I\245\003@\312Q\200?\177\326\017?\337\022R@\244\241N@\020\367\206?\030\031\241@\257\361\310@E\372\355>\376p7?JoZ@\200\351\260@\365\233\264@\033\351\225?h(\244@\346\016\345?\335\350\205@^\303\375=\255>h@ 8\031?\2215\247@\337`\201@\312\216\215@tR\027@n\023\255>Q\017\300@\231\335\300@\025\360\273@\372\377\304@9\213\212@\316w\247@\310\363\223@\237\335\233@.\223.@\211`p@\337\273*@\334\271\021@\307\305\273@\200\347\247@\014aZ@Sv\005?*\241\240?/\254\375?bT\337>\371\241\307@\206\203\201@d\274[?\210(i@\016\326&@\254\034d>c\355z>\013\330\310@\325\375\312?\217\263\215@\247\376\234?!\365{@\005\207\237@\202\221\211@\251\220\216@h]\302@\331}\246?\223\212\331?\272\313\204@\034\317a@h\323\231@\366\271\223@uI\322?i2\257@Pe\273@(\366V@\026\013k@7\221\226?\372\265>@/\364\370?]\254\261@\276\020\272@V5W>\211\276\025@ \177\243@"
      }
    }
  }
}
node {
  name: "Const_1"
  op: "Const"
  device: "/device:CPU:0"
  attr {
    key: "_output_shapes"
    value {
      list {
        shape {
          dim {
            size: 1000
          }
          dim {
            size: 1
          }
        }
      }
    }
  }
  attr {
    key: "dtype"
    value {
      type: DT_FLOAT
    }
  }
  attr {
    key: "value"
    value {
      tensor {
        dtype: DT_FLOAT
        tensor_shape {
          dim {
            size: 1000
          }
          dim {
            size: 1
          }
        }
        tensor_content: "\004\277\322=_\216\032?\374\232t?\212\246\302>{xO>\345L\355>\033wu?\'\236%>W\345\201>\271\014k?\004O\246>n\224y?\343\010x?O\273\034?\023\210L?\004\023Y?\333;)>\001\244>?\271\220\201>%V\323>\325-\315>\221\241\006?\260Q\262>\013\330\243=8@\022?\rT\177>\321\014\013>\364\3571?\n\031\314>\230\304\300>9\323\305>\310\322T?xZ\227>]a)?\211u\034?S\372\034?\340\361\202>,\357\t?\333\264\250=\366\010b?W\005\344>7\031\210>B\301\240>\302B\372>\256W\"?9\256U?\031%9?\250\\p?\314#\241>\203\036\334>\210\203\365<\024Nw=ag\224=\277)>?=~\354>\334\022\246>\014D\033>$\221L?%W\365>\315\220#?Hk\354>3\366\243>Q\355b?\007T#>]\341\317= \214B?\222\260[?O\261\034?Fpj?U\211k?xx\307>\2574#>\306z\360>\347Ag?,\212-?\251\021\223>{Y\314>\327\204B?\372\374m?nW\264>u\246M>\354\207`?\34547>\233o:?\345]W?k\333V?\247\246<?\tQ\036?\2651\r?\303\201\254>\213o\307>\004\214.?#\310C>\343\236\205>\203\326\244>\331\002@>\300\204\320<\221O\007?d\223m?\362y\273>\274n\263>\365{\315;\355\364A>\0265\265>\221\222\322>\214#L?\373\322\215=iq\247>\237^*?g\336\342=D\262$?%\325=>:\206\214>y\263i?\325!\030?\314\313S?\341\356\204>,d\027>\302\214\277>7\335x?bL\264>\2274`?\257\001<?\002\302J?\315K\365>hZb?P\0307>\0277d?\365\232\277=\206\230w?r|\211=ua\030?6\201{?\373\345T?\210\372m?b\346\036?\220&\000?6l\022?;\272\031?\310\356\362>v\030\272>R\261\"?\334kN?g\361%=bp.?\204s\310>\n\260\013>\004\025+?\301\347\345>\364\344\014?\304\313\363>\031\361\177?\002\010v?\252G8?\005C ?\316-\017?\207$\362=&K:?,!\004?\373\206\245=\256\n\223>\350\341\276>\375F=?#&J?\251^@?\312\252(>Z\365\026<\237\314_>Y\000K?_\022\277=\010\t\324>\373\261c?\355\332\002?\022\230\316>1R6>?\342\330>\227\021\343>\n\341\363>\000H{?\216\377_?\350g\251=\211j\024?H*\023?\224\350/?P\006\316=\250\301\321>\361\307>?\025\271\030?\326DJ?Ydn?\346R\200>\247\252\305>\247\344\301=&\235\313>q>J?Y\256\375> \304K?:D\362=f#v?\207jF?4>\231>\303\010]?\'\2105?\342\337\235>\241\267\034?e\023\r>/\215\251<A\231>>\347\311\376>}\2258?o\336l>S\225z?\361\306!?\376\273C?\341N\022>/\200$?\201\227t>xL\346>\337C_?\006+\035=\006ox?\r\026k?4|Z?}\331]?\241uJ=<\024\243=;\353\354>\276]!?\026\324W?A\252P>-\013c>\014\001\007?z\277U?]\371,?\347\345\001?\"\211\373>\002|\017?e\2519?\266oD?\305\0244?\242<\022?{\373_?\305>j?\271+\222>\005\016\301=<\0328?\375\365\210>\330\001\037?\306\212\000?\033}\347>RsI?\275._?l\323M?\r|^?ho\006?\253\320>?w\345\024>\263{\016?\014\374\">\271\007&?\tZj=1[\271>\245\344m?\021Z\031=\200\366\374>\025\274\010?%\205->_v\364>]:j?>\345T>+\2131?\322\342\200> \226\371>\224\377}>\222&k?C\263\307>\333\334\034?\254\217\032?S\212\230>\225\2626>\211\345\321>\004\243\205>\225\267\013?\346\035\261=\037\207S?O\t\263>\034\265\010?D\374\005?\343=8?j\023\346>.\202\022?\266r7?\240\300\023>\300Gd?_\365o?Q\233\031?\\d\344=5Y\\>\0374!?\375\372\317>\233C\231=\263y\310>;\333W?\255\025W>\263I:?W\035\366>\211\302v>\242\tD?B\211\032?[\305\250>\226\225G?\320V\205>B\366P?@+\000?6\n\334>\26023?=9\235=\310@\221>J\221\325>\022\312#?\022\266\007?a/B>\365\244L?\215f\251>m\177\021=\255gm?]Kf?e\247u?\257El=\256\025\274>\232\210I?\317_:?\310\267\027?f\300)?\227\006S?o\263t?\014\210\234>\355\354\376<\265\341M?\254\366F?C\211:<\375\267|>\250/(>c\341K=\337\037P>\276\255n>\222%\005?\020.f?\303\244\032<\3546G>\361,\374>\233\351\330>\014C\217>A\377\020?iK\"?T\364\200>x\227\"?w\240^?\026\313\370=\375+>>\313!\240=&&\321>\006\244!?\332|\022?\367,\002?%\235\263>:\004\274>\001\352\'<\273\351\212>\033Ef>\306\226V?#\246\177?\347x\231>je\272>\221\373(?\264\035I<\016J6?\220\341Q?\010C\000?V\032\235>wc\031?\320\013O?\312\005D?~\222V?\016\300\266>z\233^=\332;Z?\325\325G?v\026\004?\007\277}>UW\020?u\273\233>\307\232,?\367_\024?\007M\311=\373\227[?\212:x?\273\345\203>\364\026\250>\256>\025>>\004@?;_q?\352i`>\257\236\346>C\301;?\302\222+>\344\337\340>\347\366\234=5\3424?fP\355=\300\'<>\r<-?\363\310~=\356\3432?H\360\237>\233\346o?\373Bd?SS\031?\215\357\206;r\322\322>-c\031?\017~\206>\376\245\304<1&\000=\266\000,?\305;\361>\205p\021?\303y\001?\271\254\037?\327q\t?+\274\242=\200h\230>\201.[>\306\3752?\300\242\324>^W)?n\235p?\233\317\007;\306\236p?\036e^?E\346\002?\235\2625>zws>^\r\273>\320#\232>\215\2263?\201Bn=\306\021+?\222\246\031?Z \177?S}\271>\263\2211?\333\014y?.\327P?\367\346?>l\372Z?p\007p?.\001\324>U\375u>\271\234\371>\332P\303>\373\313g?\3213\342>/\2310?P\207.?$q\234>f\204\340>e\240$?\374V]?8\373>?,\277\013>MA\032?\035\331\342>)2W?\251[\342>\31348?\335^z?\037\335\004?\307\037\273>\240^P?\252\005\237>\n\247\315=~k\302=\226\323b?v\010\225>\366Ys?,\316X>\353\352S?\354\357\242>\t5%?\366\031v?)\307\017?=\316\307>n^\013=N\320\254>a\352V>\373\\\332<\245\032(=\001\002h>>\273\365=\002AP?\311\347\331>\036Dt?\370\006\347=\223\275\236>4\353\016?\036Ev?*\265U>\340$I?\265\331\262>%vB?s\354R?\317n(>\223\020\246>c\330u=PnA?\201\022\007?\351#\367>\031\232F?\356\256]>\304J5?|\356\022?wZg>\356\313%?\322\362\257>\035 9=,\363p?\241\221\021<\252S\336>TX\317>\305\"\272>EP\305>}6O?\347\211\232=}\260s?p:\255>\016\355\006?\211\314>>\213q\301>\340\003m?-6(?\033.\014>\221H\023?4mw?\020\323\264>\263\371\312=Z\355v?\253\261\244>\325\2137?\367\245\032>\313\373\347>z{\"?\343\021\000?\024\004\361<\356\036N?U\342p>\232\322\215>\262\226\177?IU;?]|\344>\355\244S>\220%`?<\350\032?\366;\306=\205\252\357>\322G;>\003\277\346=\350\020\000?A\024`>sB7?\250\376D?}\033\020= \250G>\241A^>\305\233\024>\035\3327?\003\361i?\201G\177?\3451j?!|\007?\342\033B?\216S\221>R?Q?w{@>\227\366W?\364T\t>\223\203&>\204Z\314>\251wr?\035s\355>9\341+>\007\003Q?/\361\036?\3729\246>1\206\360>\307\020\r?R\246K>\032q~?\'v\034?\370_@?\253\310$?\202\360\024>\243\317\360>\000\326\023?6\233\327>\273e6?\364\341u?\236\370\202>\232\330D?\312\302j?q\366\251>\242\034\332=\301\340\367;\376\250\224>\323\232f?\240\324=?\262!\001?\247\003\013?\001\005\016?\014\326E>8l\325=j\001(?\200iD?\016*\365>-\001\230>\002k\200>^\325\"?fRW?=\201V?\003\003-?o\'\312=\375iK?@_\035?\251\313\204>\350\345B?A\331W?\247\366\202=B\320\221>\334\002\215>\3532\363>\375\226c?\224\327\302=\211lr?j\317\204=R\2053=\306\267\031?\2303\007?\007\253b>\354FE?G\212~?\344js?HY\341>\205\317\013?\223\032\202>=\014k?4H+?J\370f?\310\224\327>\265\\\r?\203Q\213>N\016\335>\037\346C?\366\202I?\007\025\014?\322\032\t=\243\211\237>`\022\311> G\031?\005\022w?\002\374\020>\034\332\214>5\202!?\326nS?\345\255\024<\266\351\267>C\332\246=\254\256\027?\343]\020>(\226\212=\215-\022>h\030\003?\242\354\216>q\241\340>\0301\370=!\023:>\274:\004?\360\003Q?\205\252d?\277\016Q?6\2152=<\210|?\\nw=\266\306\265>\270>?>\177|Q?9\037\327>H\201J?2\334\322>\210l\320=\314\t\224>N\034&?U\201\220>\037A ;\272M-?l\356\004?B?\n?\004\267\033?\311C\334>\333\254C?-\253\220>\313\263y>8\315\361>S\"\177?\307$g?\341\3250?\324u+?\337\330\024?\342\207{?\222[\r?z\3513?0u\177>\322\250\t?\237K\023>#\001\314=\223S\237>\350\352\027?\364\311w=K5\344=.\031\033?\212\352\022?\032\032q?\006Fy?\357\341V>T\372\201>;s\002?I>k>\"\215B?y\345\304>\345\270s<\226\340\002?\224\255\306>#T%>\202\3353?\313\036\325>\276\010|?\364m\000?\367\255\330>oK<?(\256\016?\356b\357<i\257\036?\227:B?\200\013\220>\325\361`?\267\022\031?k\301\031=3]\031?\260G\270>S\370>?\334\270\372>\217_p?a\004-?\304\231Z? \3173?\202D=?\367\360\347>\000\272W?7^6?\343\337\367>\036\364u?_\310&=I7)?\376\365\\?#\355>?o\001\013>Tln?w\200l?\t\244b?\221UV>{*\240>X\205\234=\355%G?P\341\376=3\rY>\243i%>0\317O?\231%\312=_d\">g]\027?\341)a>\023\034\n?\272\306\275>\210\214[>\275\014\375>E/\260>n\207\324>\373:4?H\000F?H\217\306>Z\375\353>\260p\010?\275\014h?\177\314\244=]\276\003>Oy\005>\272\253D?\002\237\\?Q\327v?L\t\305>\300:\275>\343f.?\224\362\346>\377\312\200>\371\210#>\366\375\024?\31445?\007\034??\356\362]?\221\302^>\3619\032?|y%?\266\353\376>\002m\233>\251<\266>\354%\003?%Q&?\335\233\270=\357\214\316>\274\233\247>\243\317\224>\370K3=\302\340W?\244\032A?\201P\003?\251\177\016?\270C\026?\"\2070>\370\3155?\0227\260>\223\323\024?\226.\035?\230\223\370>\305\212t?\243e\257>\312\245M=\350w\312>|\267C?tN\034?\315%\017?\340\013\030?\026o,?sH\034>H&w?\253z\017?c\322T>\017\335j>QS\214>\206o\312>\262`n>c\226(?p\353\r?\323\336d>\031\360\330>\335\257m?\311=$>6\0277?W\352`>\013\276\"?\032\327\027?\'e\023?\362J\032?\327\253Q?\'\262y>\017\360\000?\361\241(>,\220\301>\271KD>Q\r\023>\265\0068?\220z\t=u\002\343>-\251\'?\231\307 ?\355\350k?\023\271~>\r>$?\215f5?\370C\310>R\234\214>\241?\231>\355\222!>\236/,?cY)?\017\231V?+\246\231=\021Bf?\235\373`>\236%\263<\202P\033>\370\215E?\240\356\246>\"\\0>\311\"d?\344\002\361>-\366\253>U\201\236>\'\253`?c\252<?1A\376=\207\3317<\313G\n?\323d ;Q\3416?#f\215=i\322\024?1]_>\317\273\001>\"\332\r?.\007\260=[VU?L\317\345>\025\226@>\314\252\345=L!\255>\232W\034?\227\213\362>\215Pj>\t\346\227>\226\030\202>\336b\207>\374M\377>\260\337X?6\275n?+\353\225>\213\037C?!w\222=|\276\r?\322\235\013?\307iQ?\233\365D?\306\"\265>^\225\177?\217\3661?\036\t\030?\360|\230>\n\304\200>x`\004?\215\322f>\217Y\342>\027\016\005?\200H\357>\256\035e?\313\3378?]\316@?\362-q?\000\367\323=\034<G?}&\">\321\246G>\361\037R=V\357\r?H\017\030?`\002\260>c\023\330<9\024\241=}B/?\230\301G?\363+\333>\243\305\016?\246OM?\305\370J?\211\364c?\025\335\205=\360\031m>T\305\311=\210\276w>\036\250t=/\320}?V\030\275>\210\310!?\326\200\333>\244\267\332>\352\013(>2\375a>\013\372}>\316\r9?\202\t\037=j\210\\?h\253\210>\317\341&?\0264\014>&\234o>\034 #?\256\033#?xIr?\332\003i?\211:\252>\220\234]?\036\372\014?\017k\204>"
      }
    }
  }
}
node {
  name: "Const_2"
  op: "Const"
  device: "/device:CPU:0"
  attr {
    key: "_output_shapes"
    value {
      list {
        shape {
          dim {
            size: 1000
          }
          dim {
            size: 1
          }
        }
      }
    }
  }
  attr {
    key: "dtype"
    value {
      type: DT_FLOAT
    }
  }
  attr {
    key: "value"
    value {
      tensor {
        dtype: DT_FLOAT
        tensor_shape {
          dim {
            size: 1000
          }
          dim {
            size: 1
          }
        }
        tensor_content: "]0>>\361\220\245@]\321w@\023\027,@1P\233@+\303o@\265\305-@w\326\216@\263v\263@\356\335\366?\035\210{@TI\231@\275\351\224@\3330,?;1\241@\335W\024@\2518\265@r\277a@\311\264\241@\263\230\005>5\036\221@\222\320 @r\231e@\334z\304@b\033\312?ZR\212@\036\301\004?3\270\221@hTa@\200\0254@\374\301\317?\227\326|?\367\002\237@r\216\227@\033\227\252@\262\n\261@\237\362\n?\245Y\022@\t=c@d\017C@\317\370\242@\255\211\206@ \026\\@\277\333\255@\311.\202@ED\220?\270`\266@\346\323d@\n>\273@f \223@`>\207@\234\256\t?\034#&@Xz\271@\036\202\034@\236\225\242@\237\324\023@\323C\275@\341\n\274@`\035,@\200\234\330?#\377\213@zY\350?G\037\241@\252[Y?&\201\307@\013\354%?F\216\007?\022\027\326>qY\245@7\354\227@\321\226\262>\345.v@\211<\324=\300`\033@\274\277\277@\352[\275@D\377\203@\335\255B@h~^@\235\302r@O\210\337>\371s\026@\374&\262@\325\366\315?Y\350\274?m\266O@\343\305\275@\260\210\320?\302\332:@[\017m@\230\350^@\213\333o@60J@\350\243\215@\0224\257@\276w7@\357\217\347?\261\271\272?\016~\305@\220\r\227@\177\334(@\235\333Z@\201?\340>\203*\006@+\376\271>\020iY@\345\031\220?\025\364[@\311\026\270@\371j\007@s\001\t@\327\337k@\020[\225@\224U\n?V\203\365?\3438\352=u;A@\031\363e@\tX\255@\247\013v@@\367\025@\220y\217@\347\223\271?\326\324\213@2\246t@,Z\213@w\363\312?\242\304\024?X@W@E\304J?IY\240@\002\005\227>\277\210\034@@\322\200?\234w#@{\r\237@\033\320\244@h\364\033@\242I\256>\007j\364>\365do?\360\356\032@]\337x@\316\261\227@f\213\237@\033\334\261?\223L\371?`\213\244@\270\350\032?\'\215\253@Oj\262?\002\363\241@G\201$@\031\0339@\347#\256@\313\214%@\252\320c@\342)w@\215\212\007@}\327-@V\030\205@\252\207\001?\017Q_@\265\203\013?\305\331\000?\363\225\244@D96>\244\322\214@\225\022\241?/-\234@\3008\224>\227\210N@\\\033\013@,\314\250>\220\017\274@`*3=\263\032\302@\246\376\252@\327\320\233@\026Ut@\032\300\247@|w\031@\031O\240@\256\325\255@\300\007\224@\014\301\326?\312\332\346<\350!\235@AW\257@\003\273\274@E\232M?\350\032D>\324TZ@\312?\227=7\020J@\223)\307>C\245\250>RlK?E\033\203@C4\256>\257?\301>YCN?F\341>?g\264\304?\006\034\207@u\3127?3a\027@\177\311\244@\273\225\241@p\351\026@\306\304\262@\014v\245@\251\356\273@_\345\032@2_\211@\201\002|@\211\234\270@\370u\240@\3072D@\003^\226?\215\tq@\315HG<h\326\002@\213\007\225@L\324*@\351#\204?W\366\017?\324h\233?\001\207\320?P<\264@yT+@\210\236\023@\003M\242@Q`p@z`\005@j\263,@\037\000\242@\257\000\277@\372\002\251>\352\010\237?\352\363\232@\276)\230@$\330\252@\024\215\261@\337{\300@\221T\267>QY\262@7\233\204@L\276l@u\314\222@ot\345?\033zq?`\016\003@/\036`@\006\345\275@9\237k@\010i\004@\232\034w>\376-O@\212\270\277?\266\020\265@\367\005\222@\271\266\211@\275\276\310?\362;`@.\027b@\234Y\266@t\333\273@\253\033U@\325\217\207?\266\303\236<\310\307\311>\023|\030@\200!\241@\024\337\032@\206\364A?\3106\007@\0142p@\233\210g@\023\352C@\334\3232?1J\232@}\376\254@w\350\n@\236\253\233@\211 0@\345\005Y@G\340<?\344\241f@\2740q@\"\3643@m\202\305@\026N\265@\245\305\\?\315V;@\232\027\221@\001\264\261@9\017s@\360\303\033@\363\351\214?k\327\213@4\335:@\3002\260@\317\022:?Q\332s?\230]\021@\340q\207@$\242\270@J\344\302@\253\310\220@\370J$@\341\225%@F\341\253@+k\272@\374\347Z@\r\335\000@\3566q?\230\255\253@\216\275\246@-\263\251@\303\211\031@\3644\215@<-W?\261#\321>\t\255O@\316\366o?i_b@U\372\037>`\n\361?\373s\270@\352zI@\217\231\261?\275\227\240@6\t\202@\301\252~@:qZ@\252\256\013>\316\365\252?H^B@<J\371?T\202I@\326\321\237@\360\340`@\314\256\341?\223\274\020@D\252\273@6.E@\\\215\212@\367\301\231=\313\001\263@6\271\325?\342\266\257@\257&\320>\r\201\221?\2754\260@I\327\202@\345\352\235@)\235\303@\342oP@\327\346b>JC\275@D\241)@\304D\312?:\250E@6 :@j\230\007@e\005d@\\\t\014@\247\260\032@\253\301\265@\246<~?\000\021\003@\224\257\263@\363\275\242@\347\227\215@\213\025D@\204\247u@\233\272\315?\203.\274@\233\225\202@s\245\217?\327\000E@t%S@\024U\231@\324\020I@I\312$@9y\366?O{\271@\266\350\377?\235Nq@B\323\247@\344-\304@\363\017L@@\363\276?$\'\016@gw+@\022\002\235@\255t\270?\031P\255?\363z\006?~\247\265@\004\037\230@Z\226\225@\322Y\274?\213=\023@_\242\023?H\003\020?\\\333\333?\333\273\006?7\037m@@q\307@Wg\256@\006\237\306;\314&\232@d\214\272?;p%@A|b@\210\364\320?\242\010\235@q\260\034@/\312\271@e\177\005@t\247\226?\366$-@\206\244\212@\332\231\210@$\2755@k\322\354?\331\216\240@dh\357?\207v\247@KW\276@i\367\271?\035\321\256@\001\351\267@qS\263@\256P\260@\250\006\222>\013A\306>\347\214\354=\'\267Y@\001\334R@\376\205\216@Z8\261@\212\363\304@\274Ch@|G\266@\232\277P>\223[\234@.3/@BKb@\375S\333?\377\310S@p\251/@!q\007@d\n\312?\0043\207@\231p\007?#]\005=o|\305?\206\246\004@\351\357\014@\273\345\177?\247*\033@\306\274\001?`/\364?a\215\302@Q\017\226@\313\'\272@\257\014\016@\316\261\250=J[\203@\203L\255@\025\363\267=\251\007\337>ji\264@4\364\013@\007\232\225@\2242\305@\026\365L@\365MR@\222\334\261@\272\260\257@\204\237P@m\001\311@\030\304\201@\317T\253?\205\237$@m\334\306@\242\205\352?\2515\266@G\006\221@\222\346\233@\017\362\311>\251\376\031@\t\"\367>\221&h@\014Q\307@.\362\234?\336\027z@S#\014@\004E\250@\225\314\260@\230}J@d<\004@QM\334?H9\267@\340\325R>\347e\211@\":\320?\240\203\001?\261\304\371?\2241l@\023\276\233@\3413\272@)\331\252@\210\351^@\006\001\220@\270\330\010@\213ch@.\355\253?\335E\235?\377\266\301@#2\245@!-.@\340\236\244@\333T@@\035\343\253@\357j\002@)\265\244=Z\365O@U\342\372?\036LP@\\38@P\327\275@\342\014?@2T\255@\rg\301?\217\255+?2^\300@\301{\252@\361L\205@\311\360\\@\341\273\355?\303\332\204>\004A\231@\036\202\301@\336\360a>\351\201\253?\013\376C@\242\324b@\266\211!@7p @el\245@\024\217V@p\030\177?l\225\275@\313\2770@\002\3114>\303o\312=\366\027\322?\311\001#?D\307\204>\216i[@`6\310@\0040\014@\314?\245@\377\334.@\244\313;@C\266\272@In\303?C\310*=\251\034\260?\216=\303@\r<\253@\272<\264?\245,\242?`l\247@G\030N>-\010\222?@\261\300@\t\205\026?-\211d@\024\352\364?\307i;@\010\010R@{8\321?.ub?h\\\006?\275A\271@\322\025p@-\274\347?\346\004\246?}\351\035?Q@\203?\310\201i@\362W\235@\003y\312?3\275\001@Q\305u?M\223\253@\037{\302@LU\333?\033\270\275>\017\322\222@^`\000@ K?@\034\n\213?\312\377X@\276\006]@\357^M@a\177\212@\345\337\232?L!\276@Pd\302@\232\250\303@\244D#@\244\234\305?7\242\307@\301e\201@yta@3W4@\007\340\271?\037\266\224@\274\016\037?\263\332w@\340[\303@D\202\266?\220\025\303@q\253\364?\264(\023@\376\362\223@\247\310\266@\325\356$@q\212\210@\205\223Q?\020\307x@$\270\260@,yq?\226\242\014@\330Ap@\220\202\t>\344\024;@\277\217\260>\215\315\201@\254^\254@\257\262\262@\231I\251@\315\007\005@\2444\255@\310\2409@\023\260\013@\224\207\264@\235:8@H\021\213@\2028\274?oJ\004?\302]*@\304\025\023@~\202\213@\343A\030?O+\017?\374\246\225@\230M\214@\003\353\234@E\366\\@\223*\r@\367.\233@\242D\244@\267\341\261>\226\233C@\335\027\001>(CL@v\353\226?s\014H@j\354C@u\315\252@\327\377\307@\245\261\231@\037=M@\366\343\277@\313\355*@\211\t\030@\345.u@\177\242H@+\272\254@\2646\355?\362hO@\312\325\323?\n\263\240?>\001#?\002\370\264@>\211\310?\254/\247@\337*\266@Ta/?\256p\375>\2053\027@Y\321\200@\207%\204?w\023;@y\322j@\357q\035@\035\025/@+\306\317>J \240@&d\300@,l\013?a\003\264@\320\341\201@X-;?=\021s@\245_<=t\256\354?\367\254`@\221C\207@\224\2724@\235\245\361?\35181?;\030C?NCb@\246\334x@h\361\277?\302\351\361?N\000\267@\0311-@)\201\266@\252Z\321?R\200\303@S\250\300@wa\377?\"\256\304@\343\036\231@a\372\270?-\027\266@\0021\371>@%\243@Ey\013@^\214\004=zC\300@\346\364y?\252wp?\350\000\243@\r\016\352?\025\357\217@\327\232^@\240Vt?\3528X@\252\005\307@\376\200\330;\234\200\013@\313[F@\311\013\201@.\317\233@\257h\201@i\354\275@\242<\207?\004\214\201@Y2\262@.k\277@\010&)@\327\357\327?\354\'\317?\341\351<@\213\374\225@)\215\031@\233\035w@G\333r@\000;\241@j\300 @q\204\242@X{\007@\365`\013@b(\263@+\347E@i^0@\364\t\233@!p\242@\372}\241?\202E\203@\343\244\007@M~i@\321\215\177@\225;\253@\tjt?\356s\215@\336U\214@\256\214r?\006hH@0\'\253=\357a\225@\330\202\235?\262\030~@\217B(@!\026\341?\335i\237@\3246\215?]\275\304>\227\273\023@\026i\334?\324y\221@\007\316\025>\325\006n@\360\322\264>\264\334\310?\021\313\250@\331\007\212@\222P}@@\344f?uZ\266@LJY@\351Q\352?\335\307\262@\t\370\207@\220\310\"@@\014\201?\034\035?@L\375Q>\356\240\206@\345\247\256@\305W\303@\276c\000?\225\244j@\202\311\033@\336\325t@\205\033G@\272\263\201@\327@3?*Cf@o0#@\020\016\037@\302u]@\242B\314>Y\005\234@\240_Y@\322\224\345?\206\245\251@\216fc=\3477\223@8\354\377?\346g\231@\024t\202@\334\027\204>\230\007\351?\303\365I@X\033\264@\020\216\307?\373%\344?\372\032\272=\354M=@[\316\302?\253W*@;\206\275>\030}\217@n\351/@\2359\005@\245\207[@_RF@7p\010=\004{\226>\np\351?p\326\301@\366\277\310@4\025\261@\025\367\250@\241d\"@\232\313\307?\232\264f@=G\273=G-Q>\264\237\267?\355\362~@v\317\304?\000\362\374>\245\355\302?m&E@F\016\262@eq\t@\372\264\266@\250\310\301@\316\333\264?\333\334\274@\260$\271@[\214\202?\372\214\234@~\002\026@\315\207\264@y\326)@\253\360\245@\305g#=\022^\227@d+\364?\021\363\245@^<8@I\007o@\310su?\304jh?\'pb@\205\247$>\344\033l@\'F!>_\222\241@\351\272\374>\213\025\242@\006\255\252?\230\233\026@nN\204?lX\364?\036n\331?\345\351\013@\014M!@\347\3423@\300\262e@\231zG@\261\020\036?\017\362\010>7N\270@\265q\274@-\275G@ZX\264@;\203\212@\232+\362?\332\366)@\244\3033@\023\351\310@\025\205\273@\356\024\r@Y\177\361?\311\201\231@t\255\240@Cs\004@\376(\036@Ru\267@\002\3473@\200\010I@\264\304\022@\320Z\231@\243\242\035@j\236\214@\007m\234@j\035x@\256T|>\2705X?\303O\033@\ry\231@\250\004\260@1T\320?=\302\277@\317\250\217@mX\213@6\212s@\236&\216@\254/\225@\377\n2?\373!(@?R#@\315\005{@\031-\016@\220@\250@q\266\307@P\374\003@Z\204\345>\013\016B@!}K@W)\262@k\272y>- R@\375E5@\267Sv?\035g\257@4W\211@i\024\205@+j\266@\303\320\303@\304\224\217@\332\247\305@\234=\237@T=\033?\020\232\233?R\301\231@\236qS@n\344\305@?N)@EO\261@Z*\223>\336\347\313?\031\265\231?\266\307\263?\'\327\243>\247\3102@7`\260@\237Lv@\2735\241@\317\375\265@9\022\216@\367Q~@\006:\217@\250H\000@\231,\375?"
      }
    }
  }
}
node {
  name: "Const_3"
  op: "Const"
  device: "/device:CPU:0"
  attr {
    key: "_output_shapes"
    value {
      list {
        shape {
          dim {
            size: 1000
          }
          dim {
            size: 1
          }
        }
      }
    }
  }
  attr {
    key: "dtype"
    value {
      type: DT_FLOAT
    }
  }
  attr {
    key: "value"
    value {
      tensor {
        dtype: DT_FLOAT
        tensor_shape {
          dim {
            size: 1000
          }
          dim {
            size: 1
          }
        }
        tensor_content: "\304\222\010?\200\375\350>\353va?\0260\313>\316\247\010?[\317P>\352\033,?\3101K=B\035\331>g\372\001>\224\221B?\003\024\014?5\014\000?\304S\002?\373X0>k%r?#\272h?a]\234>*y\331>\373W\026?\352\202\305;O\373\207>?\323\006>\241uM?_\367\007?\253\362\251>\213e[=\315\366g?\202\241\026?G\372G? \202#?\243\\\023?6k=?(\321\314>>\031\003?\331\312V?\255\320\320>\\\360p?\236\237Z=*\014\010?\252\353\224>\340Cc?\343P\034?u\313\034>ln\333>brM?\226_\013?0\267o?\353e\256<\270\000x>\365\006o?\341\207M>\037\352&?+3!?\276\233\001>\'-\322>\321\"Q?\317ER?H!K?\315\300\r?y\225t?\000\366\336=v\031\310=/\312\206>wvC?\357\245\322=\322n\345=4\375j?N\"Y=\257\2634?\272\327)?\360yA>\376\3740?\234m\227>\020_s?\230J1?\311\207\240=\210\251\230>\2432\003?\207\202g?@\314h?G8\202>p3\010?\374\273\264>\271\303\372>D/\253>N\205\003?\356\021e?>\021\374>S\374\031?C\336\025?oU<?\024\254\017?E:-?7\020\233=\322\301u?\342|\001>\177.W?\364$\222>\007\222\334>\243\302\035>\004\331>=\347\035\346>g\270r?\275\031\007?mE\006?k\374e?\272r\022?77\"?_\3442>\2218\021?oQL?3er?\0349i?\233}\217=\211\332V>\031\235\344>\372\232<?\224n4?\236o\236>\0324\375>\271\221\322>\355\343\342=\250\340K?\226<%>\222\t\314>\014N\366>)\326l?\214\\_?\020\306%?\252bd>\224\327\032?\242($?\330\324!?\013\014 ?\250%\344=\366\017\234>\037\220X?\023\231\206<\356\303U?\206\340\010=\265\226W?\2077\357>\235\327Q?\371\027\013?\324\007\305>m \265>O\350]?T\0004?\rF4?\223(\n=\241,b>\226B\221>\226\250\n?\3050\006>\366\235i?\007Z\006>\230\326\265>\240/\033>\235\361\013<\021\203\021?Dz\242>Jx\324>\372\264~?\027\242\000?\006<\376>\007q\233>n\223\365<|\261s<M)\\?\022\226\324>\260B_?\367 M?c\271^?\212\000\355=EJj?\014\300\230>\377\r!?hd\321=Ka&?\217\243:?\234\\\006?\013\255\017?\336MI>\256\212y?\2206r?\326\201>?y\361\242>\271\020\324=J2-?n\014\264>W\270\257>\255<\321>\n\371\327>\237w\250>4\253\002?\030R+?:n\352>rrI?\035\253\311>\rg\364>\231\316V?\274\312\224>\353\373|>\302J7>\202c\000?S\273{?\025\347\326>\345\341\276>$\234:?\346(`>}0\341>\311\024\252=\276\306\027>]R\261=r\004\027>\\Ng?\245cn?\356%\332>oh+?\207\342>?c\354\252>\331\240g?\2028G?\320\3672?S\026\361>\352!\037?L)B>\336\317k=\027\373\240>\270\204\026>\262 \201<\2020\210>v\304\350>-\330\t?\371;c=\2276\327>\230m\261>x(Z?`\023c?\374\262|?\241\2018?.X\232>\277\374\306>\205\221\026?\340T\027?4C!?\251\220\021?7\323s?\331\332C?m\037z>o^\252>\316\n\300>?\323\213>\\\006N?\260\335@?\314r=?\205\275\222=\271wi?\337\326{>\351cA?\\\332??\206\034\264>\017\3221?<\017_?;m\030?o\300\307>Tkg?j\263\024?h%\260>\n;\271>\354h\235>K\2421?SY_?\260rY>\256b8?\253_+?t\334\251>f\253/?\025\341\300>\276|\214>\206\375\024?\257\223\207>\223\027s>\256\003\004?\223\275u<\003\034\033?ZLW?\340pL?\252G\004>\326\223\207>\323\364\020?\315\316%?\n6@?\025\003\322>\257\201%?\226c\356=a\367r?\253\177\\?\350\014\352>\303\n`?!\252\007?\320\240\364>Zt\326=\364\t\361=\244\017g?\007\372G?\200@\030?\336\331\246>\310}\007=2i\024?J\023\021?\200Rb?\177>\361=\263\223&?\323C\255>\200`\034?\310\237~<\370\340\220=\341\311/?\303\242g?|\251\202>\347\226\367>W\252\006?\313dn?Z\2071?\014\264k?cM\247>\301U\327=\351\304i> \371:?\225Lk?s\272\004?Q\225:?3I\031?\200Yc?TWn?h\2225?\212\200\341>\262\374:=\021\232F?~\352\220>5\2564>q_\350>%\207\355>\350e%>\334\300\036>`\027\201<\3623@<\233\321\223>!\210\250<\374\275\021?I\216\n?\232\226*?a\017\032>\315\232\240=\022\332z>h\373\212>x\006\324>l\035H>BNE<(Wx?\260Xb?\314\207c?\352\240\251>\337q\275=\217\'L>\202\333R?t>_?QR\324>\255\235\370=\221\367I?\317*\201>\341\276\\?W}s?\333\024Q?G!\033?\353A\231>\267oQ?{\243a?\nX^?)\2202?3n\002>\331V^?dY\356>\002\353\007?\206O\261<\027B2=B\214\321=c\245-?R#\262>\214DU?\324\"`?\262 \017?M\261\034>\244\352\007?\316\254\305>\010)\220>\300n\370>\324^>?\332\340\004?\006\200\031?\200\375=?\302\032\202>\353Z\200>\031\322b?:\004\267>\023\321E? KC<F\177\236>\3127;?\037 P>\356>\000>+\253v>\033r\033?ry5>C\315m?\226\313a?\232\002\324>\0177i?\360\266P?\355\322\360>\352L\250>\340\305\025?\300\\\244>\316\020\357>>\3244?{\227\347>\374\277\020?\362M\035?\273}\210>\265\242\211>\350~\307>\360\010\243<\323\3576>\275\3358>$)I?.\344\025=Mj\231=\204Mn?)k\324>\003\025^?\204\344\241>\254u\331>t\210\210>\337\320\n?\261s_>F\177\177?\347\305,=\034\253^?\013\240\003?\221NL?*oi?\2466\027=\300\300\323>\377\337\200>&\240\206>(x:?\003+\323>\t-^?\220\247\"?\022\323\255>\267(\014?\000\325E=\307M2?>v;?\346\224#?\304$\r>\341g\031?6\362j;\317\030\222=\341\033.>\356\027a?C\363&?\271\335Y?Vu\017?\340}`?\364\271-?`.\254>\351u.>\025G\211:\330n\000<\372\234v?\222\242\344<\017\027E?\000C\264>\322{\327=\273\243:?\3568\266>\350,\220>\265\243C?=V\260>\333I??z\207@?\002\220u?\340\252\027?,(\t?UL`?\360{\373=\377\'e>D\361\256>\361p\"?/\305\255>\330C\014??\266\001?\3237^?a\t\255<&\251s?\217\241\303>\313\t\003?\027\271\220>\255\310n?\034\335\212<\306\376(? \255\301=4\3264>\326\255)>\036\0008;\260/\r?\026\347\014>\210x\326>\337K\037>\204>\215=O\023;>\323\273\007?\251\315\347>\000\024\034?^T}?\204\\t?\221\322x?P\\<>\213\246\\?\315\026\202>\327\017\270>&\265\301=\345$9?\373\313\244>{3t>[\206\234>\035\017l?;\256Y>FM&>\317xU?\232\210v?\356\221\215>A\357:?!=\277=J\300\331>\263\036??\264-1?8\214\004?[* >\326r\030?\276\371\277>6\021\242=I><?\324k\303>\261U\275>\313|\272>FO\265>\220\262\276>\261<\020>\241\030Z?{\306%?\266\325\022? \'a?\026[\204>s\210e?\337:\332>\251\345\221>y\336\240;\005\347\"=;\254o?(M\'?\rl\272=G\001\323>\252\261\\?a \025=\2724\\?L\253f?C\303\345=\026d\276>\353\237\312<\242\214M?\261\222*>\n(\247>\177\363F>\243\276\"?\374\233z>D+\350>\332\363Z?&\031|?\310\366\037>Tm\372>\3248^>\244:s?/\323\n?\034\252\352>O\023\306=\347\2059<\206x\215=\324\233r?\232h\244;\343<\203>>\013m?\363}\341=\340,\337<2\341\245>r\017\r?JN\365>Q\223B?| \032?.\027l?m\275\241>\266E\345>X\230*?3\303\333>`\340h?\007\365f?\363A\014?Q\272:?\277\274\334>\246\034\253>\017\307W<\331\270c?\236\325u?L\243\016?\361eF?<l\001?.\313\247=M@W?\200\317\217;\355\223M?\274\240`>\2029E?N\\,?\352\371^?\203^u?+\342Q>\303\336\033>W\262U?$\377\003?\013\222x?\220\211}>#O\215>\326\376\263>f\321<?\320@\371=\0243a?\370\'\261>\304TQ?/et?S`P?\337\230\332=0\275\326>\225\373\314<\234\023\032?0\225z=\340\265\223=\360\314\215>m\257B?n\370c>\302/\224>\232B\032>\226[\021>\371\273\336>\373\317\006?7\306\232>\234?\017?\036\362B?c\006<?\307\241\337>\rb^?}\034C>\1778\003?i\0061?\n\367|?L\251a>&6N?P\t\034?\010\177r>\316\314H>\275\016\351>\273Iv?\213?\\?\374GB?TQV?H\226\315>\247\237\322=\020\026e?n\303\035?\310\302E?\376=\250>^4[?\201\211x?\323\210\021>x\364j>=a\017?*ee?\335\376\357>\240\360\207>\233%S?\277I\036?i\246\345=z\220.?\310\210(?\n9u=.b\032?\261\371\272>\266H\022=\223I\n>\033{\361>\341hJ?\235\334a?p,\020>V&\225>y\232\372>\034]\341>\301P{?\216\3151?\371\334:?\306\271e?M\377\020>Z-U?`\244\032>\351\265\035?\233\266(?\241\304\322>)\3569?1\004O?\263=\005?X\241H>\301\217o?{\203\315>\350*\202=*!P>\216\025\000?\t\352t?C\312p?5\271\r?m?U?\221/\310>\014\315B?%a\262=G\006\342>\250\220\333>\32246?\240\034\224>)\320X?\252\203\366>\234\363\227>\350\240m?\274\354-?\320\345]>\3746P<&\243\003>\0306\213>\242\251\010?\357\203\177?hA!=\223\020t?\245\333\014?\376\004\331>\370\360\367>\204*\034?f\320o?\217\264\217>\305\022\303>\300\222B?Gqg?\3124z?Y\235\007?R\202`?>A ;p\363\330>bV4>\205\301\000?r?\026?\202<\016?\335\340\200=x\250E?\247\026p?\346BD?\200\024F?\342\225R?L\252=?utb>zCw>\003\366\036=\311\006T?\316\377\231>\332\010o?\377ro?\250l4=\315\306P?\355c\020?\253\361\372>\0141\r?\3278Z?\'\037\001?\307\",?\304t\030?S\212\201>\332\230W?E\031l?+D\217>\336>\003?\244\246>?\331\333%?m\2551?\357\277r>\\\005\332=z\372O?a;w>L\334\014=:\255\370=\'\237\211>3x\241=g\013\010>J<M?L\247\213<rV\352>n\273\336>\212\307<?\210\017\336=\255\350M>\363\016\236>\300_\330>|31>\224\220\\=|\246\372=\033\265C?\325\215W>F\262+=yoB?uq\242>\177\020\016?\026m\304=\021\004\026>*}\311>8e%?S\276\313>\231\\3?\016%\321<\327/\253;\352\222i?W0\020?\377\2302?\257\315*?\210\221\204;/\314\346>l\006\030?\022\323D>X\305G?\222Ak=\237\354\336>\371\303\307>\336dh>\007_1?\275\276\316>$\024>=\332>\007?\304\264\316<\230\205m?\005J\">7\031\365>\244\377o>\361^c?\220\266\002?[\333$?=\315\221>#\267\000?\033\352`>\312\365e?9d\346=dk\201=u/\000?\237UG?\366\310\257>n\\w?\023\270[?\021\025%?\324\003\273>\036-\260>\252\271\263>\303\367$?\033\236\001?uf\237=\3773_?\224A;?\002\364\t?\356\376\024>\361\306\022?\334\232\352>.)\353>\375\n\376>]\321\334>o<\226>v\2169?\271{\231>\347\\O?\372j\002?En,?\025\262\035?\215\3128?\330\223\350>J`c>\230\312\002??\177@>\027\032T>,\237\341>\204\'\361>}%\251>R\312K>y\322|?\372n}?\\2\247>j\024\241<2/\252>H\353\261=\345\215\261>\032\272=>M\000-?\326\334g?\371&,?\354\224\005?D\351\212<\271\256\240>\267\351\036?\263|B?\2542+?\351Jl>K.\310=j\326(?\253_\004?{\'z?\271\247|>\345#f?\0276??\\E\320=\362\024\273>\246LB?)\307/<D$P>j\314\311>Eb\006=\256\223W>\334d\351>O\344\241<kCF?\341iF?\255\376\344;\236o\242>\302\337\030=\036],?h\242\236=\232\204\343>\246y#?@\005\311=\227\310e?\302Eo?\247\305{?O#1?\372\364R>b\235\362=\200]1?\213\314\t>\036\316F?\275\346@?\013(\010?<\330:?\020\365\225>\372=\250>\3347\001?\025X\021?\037H\342>\347x\265>\307E>?vd\303=\010\2134?\267\2332?\373\230w?\222\2750=8n\025>\246\365^?\304\000T?\265\264\237<SO\377>e!c?eCe?\000Z\357>\345JE>]T\n>\346\221\231=\355\216p?\212H.?14\352>\312\274=>\35420?\201\321y?"
      }
    }
  }
}
node {
  name: "Const_4"
  op: "Const"
  device: "/device:CPU:0"
  attr {
    key: "_output_shapes"
    value {
      list {
        shape {
          dim {
            size: 1000
          }
          dim {
            size: 1
          }
        }
      }
    }
  }
  attr {
    key: "dtype"
    value {
      type: DT_FLOAT
    }
  }
  attr {
    key: "value"
    value {
      tensor {
        dtype: DT_FLOAT
        tensor_shape {
          dim {
            size: 1000
          }
          dim {
            size: 1
          }
        }
        tensor_content: "\257\310\272@G\370\237?\242\242U@\352\362\255@Y\300\242@[\003\257?TW\240@\231\365Y@\243Y\241@\307`\376=\254\340N@\r \327>\215\306\261?\217q\236@\343]\260@\340~K@\271If?\224\360\255?\221\372\310@\345\317\371?: \267@\362\221J@\327%\324=A\'\233@\2323\035>\2402\300?\210h\322?e\237\266?<\372\257?\364\351\335?_\007\263@\022\204\210@cc\206@\355\001:@\207\212\211<]\n\330?\211\376n@\r\237\217@$\344X@\306\010\347?0\333l@y\204\272@\210\326\364?\325\245Z@\032\304\277?\023\305\300>\377\344\265>\252h\231@O\210\004@R\306X@$\254!@U\215\021@\242\360\021@\365\031-?\021\367\330=\315w\206@\034z\023@\"\360\216@\233\235\021@N3s@A\322\350?*\303g@\374\037q>\004\177r?\026\020\325?\360\215\223?\357T+@\340#\220@\334=\240@@R\205@1~\246@2\177\345?\331\374\274@\266^\224@\356B\227@pO*?\207\'\236@\311\220.@\241\n\254@\322\353\207?\311\013\273@\304L\271@\3642n@\373e\r@\r\360`@\323\034\254@\213\305\035@w5\333?iZ\361?w!\266?={\001@\331\201B@\327\023g@Bv\231@\236\254R?vt\002@\270\311\262@l\216D@\005\254b>\353J\025@\207\354\333?\227\034\216@\214sB@\326\223\254@\214U7@\331\235\250>\300\005\r@\222K\010@n\326\351?G\350\307>\320\223\224?O9n@L\304\001@\300\217\236?G\216\277@\231\205\221@\371O\303?|\250\232?\2549^?*\037\204@\327\326\266@\"<\221@\372\030j@\375\372<@\333B\227@k\275\\@\324\362\302@\245I\251@p\243c@\270\032\025@\020\202M@\247-\277@&w!@_5\313?G8\253@\352\t\363>\241\335\270@\002\351C@q\344\232@D\360D@\356 \274?\213\307\263?\237\207\260@\260\345J@\216\357p@,\227\233@-\315b@st\354?\313\274\301@gf[@\215\036\035@\234\021\226@\020=\021@\3523\247@0~b<+\201\033@N\361\023@\302),@\216$\302@[S\030@\303k\304>\357s=?tx\017@G\035\201@\013\032\301@\034\200\252?\2400\033@K\300c@\334L\271@\371]m@\000\206\226?\326\364\237@\351\362\207@N\352\344?\016\330\237=x#\324?\205z\366?\357\3364@\236\r\250@!\365\212@\236\0071@\3353)@rk\230@\346\347\250@\201\337g?\245\277\322?\240=\277@`\034\253?\017\026p@\262\224V@\240\027\r@\332\206\201=\367=\361?)\253\201?6\230|?\002\302\316=+\2514@\251\277\265?:P\226@F%9@\244d\364?\\\357\262@\307T\004;\202!\257@\302F\224@|\330,@;D\257>9\020\207@6\375\213>\271\304\\?x\253\226?\n\t\013@_\211\277@\025\317\235@]\337Q>g\017?@\262\037\n>3y\202@9\240\274@\334\352r@e\331\206@\264\334\245@\013e\021@9\016\241@\031+\253@f\372\261@\273\231\374?y\324\254@\330\300\211?sxx@\016w\265@\0318\261@\021\ny?J5\243@\377\313\020@\r4>@\036\003\243?\244%z@\374\353\310@\217\234\203@?\314\267@\254/\271@#\207O?\000o(?\215$\300@\224]+?,\250f@x\320\270>\004BE@$\034\'@x\214\303@\337\027\251@\205:j@=L\350>\t\300\251@\205Y\302@\266X\270?!\3323@\004\341\260@\2672\204@\361\273\204@\026\337_@\347\336g@6\256\223@\260\242\270?\203\026\270@Rk0@A}[@\027\254\374?\006T\246@\203\332\241@\255\254]?d\224\202@\316\356\261@\222\267\006@\201~\034?\301\367\344>4\330\246>\332t.@7^J@\220\023R@\313C\004@\377\301\317=c\366\256@\333\323\210@\251\304:?\215.c>NOz?\032J1@.\253\221?\231\211\251?\265\247e@\303\226\363>\202\367\314?\354\352\020@\014\327\203@\235\203\207@\265\204\245@\215gc@\005^\201@\367\023\276@{\262\241@>\177\000@\007\325\231?%G\365?C\357\270@\311\267\036@(Cf@Y)]@Y\\\277@\033\024J@\177\264\204@\273\212\342?\240\026\356>\335\226\216@\352w\243@\365@\273?R\315B@\253.\342?\244C\221@\247\240:?\024\255\025@k\232\210@\n\220\303@%>\013@\225s\257@A\\\313?\344`M@\237\231\305@Q1\373>\352|!>\256\245\344>\241\314\007?\'\035E@\204\277\240@\207;\254@\207\241\301@\346u[@t\2110@\307\234\021@\322\242\242@\367H\241?\232\213\315?\362\211\024@a9\304?\236\2274?\002\332]@\013O\240@x=O?\220[4@\273\177\247@~+\032@m^\211@\331[\244@\\S\024?\253\361G@\212\264\215@\205\263\255@\021\360\265?+\272*@\376\334\262@\273iV@\235@\304@\2352\265@\376\272\'@f\324\025@\210s\272?\257\376\214@8\031\267@\324p\275?(\351\251@\215\345\306?6\240\300?\360\025\307?4{\342=\226\255\022@\321I\250@\014\035\205@@js?\361E6@N_<@\265:\004@\332\270\337?\312^\251@\300e\234@\255zM@\360Y\352?\036\206\274>MxU@\241\333\317?A\304b>ip\177>\247\341\270@!\334\300?i\211c@F\302\260@\3315\203?\270\316\304@\363\024\253@A\350$@h\303h@\033\213\345?\250\014.>\300Qw@m\346\002@\264\"*@\263\222\244?$\031\356?\264YD@\265e\216@\232\234\255@\222\302\024@o5\332?\211\250\274>\223:\304?\300\206\205>tH\277@\312\241\226??Z\252?\310/B@h\303M@;\252i@\3276\277@3\307\247@\370|S@I\025\255@\365C\305?\312Y\220@\320\302\213@\312\305\337?\201q\302@\313\264\037@\365<\020@DG\211@Z\311\031@1/\021@\337\217j@\320\020\241@\035\267\306?\330]\234@HH\234@f\342\010=[ \221@yw\006=\307\331s@E\021\266@\316\230\353?\315@o@\204\254\272@V51@\014\311W@r\210\266@\025%\253@C\037\233@\014h\310@\365\376\r@\210\322o@3D\222@k\210\303@\215\345\301@\033\373\037@G\001\354?\345f\037@\366\256\224@\275\025\221?2\334,@\025Ha@\005\3237>{E\273@\237\n\274>\225\252\224?\016\277\274@\232\220\211?`\0273@\204\362\245@\230f\221@\002-S@yT{@\'\362\022@\245\245\251?N\330\246@\026\207\302@0F\260?\260e\255?mYk?\332\336N@\214W\034?\216\263\211@FM\007@\353\337%@\036C\262?=\003o>q\010\275=\341\202\275@xi\240?\376\361\027@\252\242\254?M\253z@L\342\014@/\001(@%\302\r@!O1@\332,W@\223)\246@\234\321\023@\r|\212@\272vW@\364j\366?D\254]@\036\316\272?1\222\301@P\362\302@\221OP=\343l\216@m\321c@D\240R@>\211[@lF\242@\322Sj@\220Tl@Sn+?Ebu@\333Qq@H\326;@~\211r@et\266@\236:\205@\203\177\223@[\347\252@g\3359@\324C\265>\304r\217?\353\271s@\240\234\222?^Q\243@\220\211\226?\234\374\257?O\330\224@b\211\230@\251a\264@Y(\306@\230\256\206?\000r\304@!\240\257@\211\375\025@:\231\237@9R\274@\2453\232@\307\213%@\034?\272@\242a2@\205n5?\016\020\211@\006\343\366?!\216]>\323\247\231@.\373\227@V\204\233@\027\'\235@ w\t@\225\315q@\351\361e@\343\036\216@\352*V@^\013m@\271g\036?:\3746@f8\361?\215$\325?\227\001\217@\3064Z?7^\242@\253\232\237?\2649\211@\370,\313>\212\t4@$\371\205?o\316\020@@\263 @\304\362\313?)\304&@\352\364\201@Lcg@\326\032m@\233\027\302@v`v@\346p\354?a\010\014@\276\320\240@\032\273z@T/\n@\304A\035@\210\225\226?\341Rd?\252\020\221@!\256\250?\030\016\215?\206\350\261@\026\362@@^bH@;\336\031@\221\t\220@GT\302@\233\307\310@\2409\300=F\023\236@\010\205\217@W\224\223?\2107\005>\364\376A@5\325\257@\257[\037@N\033\270@\242\225T?\266\026\215@\326<\266?\006\236K@\350\372\320?^3\031@|\211Q@\335\006\211?\362\250\224?\241\304F@\266\255\263@\223)\212@t\326=@\342im>\n\n\270@z\243#@]{\264@\010\004\\@i\036s@u)8?\365\005N@\t\007C?\235\272\005@\200\364\233?C\344\t@y=~?\36149@\376\305\216?\026.=@^\013e@\031\n\032@\375\004\224?.\277o@\226&*@\302\025b@\275\211\251@\263\376g@\204\221\245@|\037\217@\347\214\226?\024<\242@FO\251@\306\325\222@Y\302\243?9\364\365>tGk@\330M\251?C\227\223>\315X}@\263\304\337?v\0347@$\3145@\315D\026@\003b\212@\036A\241@\254dE?7sT@\'\274\257@\014\024\334?\262h\020@\014\240U@\222\305\321<\377g\213@\315\342\200?\2507\223>\364\025/@\313$\205@\005\035?@\306\332\360?\356\315\374?\365\264q@\331F\262?\020\376*@\265 q@[t\227>oO\265@:c\272@\223=\352>\003F\252?\314GS@\030\274\307@_\257\300@>\373\223@\325\301T@\363\317\301@/L\353?Z\276\017@\315\217H>\220A\370>\342e\222?`U\236@\nLk?\013\315-@\214Qk@in\033?\222\214\245@Y>\214@\263D\201@7\345\333?\201\010\227@!aY@\337\322h@\'kM@\265\024\000@\341\334\034@w^[@T8\306@\266\242\266@\240\340\272@\301\0013@\220\311\261@\362!\t?\341\n\251@\016\001\241@\007\335\300?\212U\201@Si7@\246H\214?\375\266\020>\334w\267?\250d\305@\325\200\260@\332E\316?\332\264\205?\002\001\247?\222\333@@\336&\004@%q5@\231\326\252@\244L\273@\356\034\256@\177\307\236@\235\017 ?\355\344\215@\360X\366?m\222(@s>\001@;\036\277@u\327\257@\2503\270?\341\026H@\243G\206@\270H\270@+\035\004@\263Z\264?\262U\306@r\027\305@,\364\006@\272\365\212@W\214\255@\327\320\330?\376N\014@\010\030\250@$/\275@\362\n\226@\035c\254@\205\324\224@$n\366?\235\367\237@$]|@\357t\216@\307\275\232@\310\361\255?\240q@@\272U\006@\027\2308@M\374\310@e\030\265>x)G@\023\"\205@!\243\274@\002!\t@Ih\250@W+]?q\253\216@\273\301\234@i%.?%\3552@\261\014z@\240\010\271@\260\207~@\253\225T@\253@9@\326z\227@\221\212\315>\315\212\254@/\"\035@1\244+@a\236\252@\024k\277>\327\007\370?\246\0276@\031\244\021@^\335\266@ld^@\266\355p@v\351\250@\262+\206@\304l\257@  b@m\206\276@/\210s@\345\n\276@\223\203*@\332=\255@\264\rg@Xc\266@J\207\322?\024\236\251@\241\232\225?\036\022\302@0\\\276@\254FI@\320\355\033@80\273?C\323\275@\310\010\251?\267\216\327>6\004\310@o\031\262?\257\262\273@\021\273\261@Q\240Y@B\022\013@i\230\233@\365\255\215@\177\337\025?1\314c=\205X\235>R\237\371>g\254\023@\265[O@\225\236\002@\225\262\306@\327\231\362?\036j/?$Qb@\027\311\275@o.g@y\2545@\\\"N@\377\206!@e\212\013@\346\327\370>\203\3050@V\314\230@\203i_@\227w\221@E\307\203@t\321\036?\262\204^@S\206\215@-\331?@\207\316*@\311<\205@\300\241.@K\357\225@\240-\235@\220\356B?\261\230\203@\370\nT@\356\326\347>&l0@\032\213\202@\373\310\025@\203]d@\200\350\213@\346\"\321?SRw@8e\300@\216\250\307?3\214\251@L\203\202@\375\224\325?\241\256\232?\300\035&@.\035\245?\255W\257@\233Vz?\027R\203?8\270\256?\021\230\254@dw\226@\227\031\227@*\257\310@\014E\026?\233\037\004@\250\336a@\303\262N@\375\220\227@\376<\344?Y\005\262@\3114\201@k\322\r?\211\252\210;\220r`@\034Lm@}=\257@`\334\177>B5\034@\205\020/?\020@\007@\266\237\255=u\2131@\361\303\213?\251\333\210?\250\362\017@\003\251R@\210^/@\027\243\246@\251\201\204@\305A\220@B\027\031@>/\304?\247\230\255@\336\242\372>\000/\243@k\000_@\235\327\204@\346\177\327=\240\340\241@\020\325\237@f?\304?\252\356\336?\336\225\306@Bl\231@\337\355]@\025\034\023?\000}a@\214W\262?w\331o@\213\037\361?\347.\306@\014\372`?<p\277?<h\302>\t\317\203@\371\375W@\337\325\243=\216h6@\223\267\263?\200\360!@\031\277)@\276\204\240@\016\n\250@\351\013\242@\367\320P@\301L\247>\300v\241@\220\304`@\014V6@==\263@u\377\266@j\013)@\355\212\017@\237\0311@\200GL@Q\234\371?\274*}@{>>>\332\213\225?\361.\031@E\313\326?\276\343x@\351u,>?!<@\376\031\224@\243\315\351?\n\335\202@&\2033@`T\234@\0053\235@\027\027\304>\026\253\256@\257c\217?\262k?@\020\277\264?\221\036\242?&\273\240@\277\322\274>\001\037Y?^N\225@U\253\257@\214\360\206@2\235\210@\211#\305@\370\232\237?"
      }
    }
  }
}
node {
  name: "Const_5"
  op: "Const"
  device: "/device:CPU:0"
  attr {
    key: "_output_shapes"
    value {
      list {
        shape {
          dim {
            size: 1000
          }
          dim {
            size: 1
          }
        }
      }
    }
  }
  attr {
    key: "dtype"
    value {
      type: DT_FLOAT
    }
  }
  attr {
    key: "value"
    value {
      tensor {
        dtype: DT_FLOAT
        tensor_shape {
          dim {
            size: 1000
          }
          dim {
            size: 1
          }
        }
        tensor_content: "\036k\241>\351\374a?h\035\356>\nL\";\326g%>7k\'>\003\3038?\364bO?\306\244J?\310\2126>Z\322\306>\022P >=\203\030>\013\014z>\271\256\222>\376a\021?A\361\216=$\377_?aJa?1a\206>\036\356S>}\201X?0\266G?B\273u?\360F\260>\344\321o?\307\3308?J\320@?\3650A?\333FU>\305F1?\004\301;?o\356\276;\214\200\013>\375\212\347>\272\264a>\236\255\213>\214#r>\332T\251>\376\037~>\254}Z?\220 \327>\024Hs?\337$\t?\253\366\233>C\301\342>\210\177!>\222\321o?+\'H?\212\003x?7S\033?\264\025L>\377\245\267>v\004\357=\224\267\026?\276\301/?\t\370\255=\007\300\372>\201`\240>(\346#=\326\372\321>p\260\207>`\004\030?\326\006\340=\025\223\206=st\357=X\037\020?\221\"\224>\300\230\254>a\r|?nx^>;y_>hR\326>\250G\245>a\300\024<\352G\276>P(\203>&Z\272>H\210#?-\006\210>\343Yl?\323^N?fy\002?.N\372>n\346\336=#\255e>RV\006?5\201\266=\363\213}?n\2310=w\276\250>\322\\\n?\255\013\330>\261\003(=\331[\306>\334\364\010??\300\002?\271HN?V\217\373=\000\\=?V\203\003?yD\237>\326Zp>\331\022\362=l\375\215>\310Ny?\\\245\213>K\232\003>\305\177\263>\330\346\032>k\252v?\255\375\262=\035<F?\331\326g>9\2430>7\177a?\231g\027>\343`d?\250w~>/\323\305>\334\300\222=^w\314>\271g\037?\340\322\304<\363\000\250>\370U;?\222\356^?\204{\316>\273\253a?\242!j?\214v5?\006\250\007?$2%?\233\375\231>\201m^?w>\204>q\007\026?[#\024?,\227t?R\243}>\271\035\034?\027n\353>\320\270%>{7\374>r\013F?\017Gt?>\"\001=\237\377$?\202\274\260>\337xD?\356>\351>\362j{=\341P\207>\003\365\n?Mwh?\362\217\376>\030\341\340=\212{\016?\025\343b>\027\300,?65e?\021P\322>\316\360t?Y\342d?2B\273>\211\363l?\260\357\022>]\202\256>\257\340\250>\271g\004?\r\364<?\346Cs?\304\364$?\257g.?4dX?O\344X?\263\003=?\020\354^?$\327Y?E\365f?@\003G?\016U\020?\306L\023=D\235\323>\230\365\262=A\nq>\311(\272=\212\323:?\206\013\020?\\\275\311>\233\345*?\377v\362= iz>uv\332=~=\253>\301\201\004?\307\244^<\247wh?\236\205\372>|\026\017?/E\354>\001r\351=\233**?\373\236\363<\230\307\026?\322\225\t?co\364>g\004\266=\013\375c?\301\0013=\240\264\327>\007<z>\256\2348?l\365\007?\022\214U>7\305\360>\370\311\350>\024\021\255>\255\322Y?}\205\206>;Dl?&\230\022?\366\330<?tT\213><`\304=\317\230\217>\003\246\200>\362e\200>O;\021?\210\264p?\221\303\262=\005\372\370>\'\022\373=\253\217l?!\365\265>\367B\204>\001\257\027?-\362T?\266\324g?\263\2359?-\352x?\336\367\210>,5\033?\023\340t>H|E?\\?q>\017\305\203>\323\231[?t\331\310>\0034\343>\240\263\177?\354CB?\305)\215>\234o\367>\375\306E>\025r\255>\255\275\000?\247\361?>~\333\220=)\365\234>\031c\344<\007&<>\370k\225>+_m>\240\227+?^\215e?\200\200\250>\3229$>\016\274j<\326\374\245>\034xT?\266\352\177>\005\032=?\255\036\032?bZ\003?k\336\214>C\'\032?\262\376\364>\023\000\235>\233\334g?`Y\375>5t\014>\360\273??\356\230\372>\265 \222>\003\001\336>\350\264\177>\355\206\321>\024\333\'?\037\367Y?\311\026\027?\263\3253?H\006h?\276@=?\236p%>\004\331\250>:\375#?\246\256^?\353\347U?#IQ?W=\n>G\177\232>\320\367h?{.e?H\221W?WB\022?\344\221[?\352l\r?\220\277t?\226\3660?zq\\>\201\246[?\r\376.?\252\225\003?\316\350C?0\333\020?n\"I>\031f\">\314\367\216<\361\375S?*\316U?\263?-?*\'`?\334_\345>\255\032v?b1G?2)I>\243\014i?\220\3378?\220{\226>\302aR>\224j\346>\213u/?\002#\321>`\322\356>D1\220>E\221\265>><\033>\224H\003>1\333v?\224\277\213>\327\006\325>J\220X?\272\036\316>\275G\t>\277\337d?H\231\001?\000\337E>\210\003k?\371\2720?O\036e?\214~\001>k1S?\201U6>\257\205\014?\"\270e??\005\006?\025R\035=\216Z\253>\263[\017?\0171\320=p\346W?}\212\370>?\027\020?(\252u?}yN?w\377\002?\326\016y=h\372T?P\203\216>\215n2>R\230t?\310\017\227=\026\255\312>\203\021\023?0\t<?\231\325\324=V\0171?_\037g?\363\230T>\247\356m?\334\354\207>\343\247%?\354\t^>^\320\221=Y\364|?\346\277\022?A\273&??\016y?\306\002\313>\211\3606?\253\000\325=D*\215>1\200\233<\337\270*?\220\341W?\3204E?&T/?\270\353\307>\033[\247=z[#?\001\325\251>\322\\!>k\346\017?\023|x?U*\304>\272se=\006\217\001?\314\272p?\277?!?Y\207\254>\177LX?2V\376>q\353\t?\276\317\216>]\352\016>ycV?\372c??\035\254\020>IaW?}\215|?\344\t\326>#;\343>\017-\360>\361\013a?\3634s>\007\004\246>\0034<>\216\030 >\357\377=?: V;Ir9?*\271\364>\2757W?\032\264Y?\016\350\353>\246@_>\304\276\234>\245Es=$E\n?\332\033\007?K;\033<\217\222\360<{\317\216>L\'\276>\225n\022>\224?\001?\326n`?\204gZ?T\034s>\326\322\372>\265uY?\201c{?\277{\024?\322\007\025>\276^\264=\336\032D>\027\243U?\005\336J?\267\305\277>\"\035\334>&\256~?\347\264\023>\006\343D?=\017)?\377\200i?1]O?\360\376\'?\013\251\304><\n+?>nr<\312\344+?\327\014-?{\254+?\267H2?\203n\036?\364\254\346>0\272\343>u\330\250>\312\322f?>\234\327>\322\361R>IF\226>A\322K?\234\0379> \323\325>X+b?OB\273>\370jW?\3631\357>\314\253\244>`\200<?O\223\336>\006\263\030>r\352\214>?i\310>\027\337\277>\222D\220>P:U?\222\022\346=\030\306\332=\225\211\010?\272\264n=\332N\306=\345_k?\367])?\371\355r?\340\007:?\314\337\032?\357\302\326=\363HC?\376\216\036<\033\"\001?\014\237\270>,\003\037>([>?\345\010\324>;\340_?[\260P>\267\212\036?\305\326<?\242\241\370>F\210\243>~\\\"?\004\3706?\257V2>T\243U?B\tj?\203\260V=BM\240>Nd\370>\316\025r?\365\031K>ZQ:>\022\2160>\241V\315>b\214\036?\273\275W?Y\326B?C\243O?\370\3564?\205\2602?&3\370=\017\330\346>\t\337\005?K\307\013?\265\022]?k\207i?\353\260%>\317\236\325>3\317\027?\222\367d?\3525\251>Q\270\232>h\224\313>i\267,?\320\213G?\034\227\225=\337\213%?\307\263\034>\227:%?\213\275\017?\240\352\231>~|\342=\223\nC?\023\270\326>\344\375P?@^Y>q\'w?W\315(?\316\0238>\3113S?S\355\006?\231S\000?i\366t?m\334\322=E@V?\216rM?H\013q?\370#g>\305Jp?\356W\t>\235\006/?b\250\332=\331@i>\n\266\331>x\321\027?\370\273~?\206\224\353:4\210\255>\302\207*?\036i\t?\270\215\023?h\035F?~I|?\320n\216<\306\364U?\310\234;><\2226?\354\005t?R\035G?Q\"B?\315p\030?`\324X?\016\250\253>\300\374\262>Q\311\'>]\266&>\203\324:=\275\323\\?i/P=\3275/?f\3341?\034\005%?\025$\r?m\177\361=\367S\375>P8.?\366\3213?^\225Z?u\201\031>\326A\017>\270 \325=\"y\206>\302\0276?\225\037\016?\313\003\210>@\267\351=\\\200\223>\322]R>[\022a?i4Y?x\"\324<\3261\212>\216\231v?ujD?\366\3541?\324\224\305>\326\345\004>&#\036?\251\245\312>\355Ra?\322\322\007>P\nO?\001\301&=#\332Z?\203\2732?\255\377\245>l\220\025>\327\362:?g\030\211=\224+\020?a\250\027?\331\2213?P&\266=\351\006>?\027B\321>\034\220\010?\202\366\000?e\227\315>{\374\260>J\257`?\254\213[>\223-r=\022\2623?\'P7?\202\254K?\200\236u?\250\274v?\331Mi?\255r\340>q\350\261>\251\277/?]01?\307<>>\234\301\233>\305\231\327>\177E~?:.\266<z\210\320>v\375.?\331+\220>\256H@?\324Y\003?\326\323-?}\t\265=\315\325Q?<\202\261>\032\322a?\215;\000<\315J7=p\227P?\250gQ?\261\001j?\367+\000??\335-?\\5\027?z\007\206>m0\002?\034\377u?\321Fc:.\230\274>\3224\256>(\2101?\013\307\t?\252\007\216=\207\222=?\322rs?\376\301k>\327\316y?4\214\n:z\271*?d\363\216>tG\206>\271\tp=\n\307^?\370\216p>\271\364\r?9\231\221>\303\0235?r\325\340=#Yq?+\207\024?y\202X?\256l(?:\333z??\000\326=U\202\207>\232\024\344>\240\017h>\"-\216=\362\203\323=\321\'8?3\211\235>\342{\210>\357\204\305>\210\211j>Q\211l?o\t\316>\257\350\014?\336i\364>\312\023>>N\'\254>[\0300?Hf$?v\266\376>\322\207a>\246Sh>\225\212=?d\324\016?+\013\210=\260\270=?r\\W?=E*?\225&\036?{\221.?k\201s?\254e\272>\336\313\327>\306\'\376>\024\306\351>\350(W?L\351-?i\261\245>\177_k?l\201\203>\257Mm=\371\235\033?\306XY?\234\000|?\312\365\357>\377\212\332>\277U\006?2\341.?\350\005|>\312O\010?\327\371U?R\214\036=\256\014\022?\374\371Q>\267$\021?\030F\037>`\200j>\365\276:>\211\374(?$@\262>\331]\252<\220\177G?\013`\373=\302~4?\344\266q?\334v\235>l?)=\255\324\305>\364\207\347=\330\224c?\267Dt?CC:=\314\350\353>\014\203w>\270\221\264=.\375#?\013B\231>Z\006F?\341\343i>\222\310\303>\341\001r?v\377<??\251 ?\304\352N?\324\362X>\365\n\026?\232y\025?\212\2434?C[\202>\200GB?\327zM?\266\310\276>\257{s?\322\027/?\350\323\344>)\367\345=\335\353\030?\350mQ?]\321\361>\213\000\022?D}i?6\232\321>n\027x?\251\376 ?&\323o>;\257\336>\261\237K?d\323\006?A\234M>\212\035Y?!\302\206>\324K\020?\272\320C?L\270\270>?\346\027?Q\346\r>\325\013\371;c\371\325>\315\233\340>\004\216\"?\3746\220>\205\371\201<\244\257->-\314\035>Mq4?\346\235b> \340\212=\351\330\346>\332\016\031?\311\245L?$\004\\>\033?(>\2530o?l6|?\371\003\326>\001\246\374>Nr\002?\014|\025>\033N\247>\337\3777?*V>>e\227:>\343\251\234>\023g\212>\355\001[?1\307\325=!\261!?T_->|\016\237>\354\257\271>\266\272\256>\ty3?\231\021.?\212W\\?Exy?q\006\021>\374\224p>\226A\370>\247\037\027?\260~\313>7\325V?HA\025<\034\370D?m\373\374>\177FV?@2D?\273\227\364>\344e\200>\245\370\234>g\357\000?<y\206>\243\322\225>\327\200A?_\034\236=Z\316\317>K\252\255>\367K\244>\241\022\350><\300\t={\267K?\301\\~?a\364m?9u5?rHn?\003Lr?\273\005\330=S\241u?\262\255z=\013\306A?\021\207a?\303x\377=\231R!?\201\357\231=\2133\346>\036\013\032?\020\264\250<\255\014G?S\301!?\"X9?\034k\212=\315yh?d\234~>\027\305\331>3\274T?\351O\306>J\341\245<\355\260p?v\'\345=)_\026>\215-^?%^2?w\355s?\270\244\027?e$g?\226\341\252>\227\355??40\004?\002\332\002?\351x\345>7r/?n\rC?\250\'~?ix\030>\0050\305=Z9\030?\021!\025?\327c\023?\334d{<W\243\343>V\363V?\2515\334>\351\005\370>]\306\320=<\004}?\254\211\355>\024N\002?\235)\'>7\374@=\312\001A?jo\374>\375\336:?xS\025?\212\331\214>u(\021;\211\t\314>\2500E?\257\014\301=\345,\022>\'\n\036?\247\264!>\244+8?d\3024?\264\231d?p\272`?wB\031?\010g8?\3756\372><\004`?\251xi?_\370Z?\305\322O?\0340\343>\000i%?\016zs?\367#:?\343\222,?!\006\022?\303\212t>\376gZ?\030V\353>*\210B?v\301x?\223\360 >\235\351Z?"
      }
    }
  }
}
node {
  name: "concat/axis"
  op: "Const"
  device: "/device:CPU:0"
  attr {
    key: "_output_shapes"
    value {
      list {
        shape {
        }
      }
    }
  }
  attr {
    key: "dtype"
    value {
      type: DT_INT32
    }
  }
  attr {
    key: "value"
    value {
      tensor {
        dtype: DT_INT32
        tensor_shape {
        }
        int_val: 1
      }
    }
  }
}
node {
  name: "concat"
  op: "ConcatV2"
  input: "Const"
  input: "Const_2"
  input: "Const_4"
  input: "concat/axis"
  device: "/device:CPU:0"
  attr {
    key: "N"
    value {
      i: 3
    }
  }
  attr {
    key: "T"
    value {
      type: DT_FLOAT
    }
  }
  attr {
    key: "Tidx"
    value {
      type: DT_INT32
    }
  }
  attr {
    key: "_output_shapes"
    value {
      list {
        shape {
          dim {
            size: 1000
          }
          dim {
            size: 3
          }
        }
      }
    }
  }
}
node {
  name: "concat_1/axis"
  op: "Const"
  device: "/device:CPU:0"
  attr {
    key: "_output_shapes"
    value {
      list {
        shape {
        }
      }
    }
  }
  attr {
    key: "dtype"
    value {
      type: DT_INT32
    }
  }
  attr {
    key: "value"
    value {
      tensor {
        dtype: DT_INT32
        tensor_shape {
        }
        int_val: 1
      }
    }
  }
}
node {
  name: "concat_1"
  op: "ConcatV2"
  input: "Const_1"
  input: "Const_3"
  input: "Const_5"
  input: "concat_1/axis"
  device: "/device:CPU:0"
  attr {
    key: "N"
    value {
      i: 3
    }
  }
  attr {
    key: "T"
    value {
      type: DT_FLOAT
    }
  }
  attr {
    key: "Tidx"
    value {
      type: DT_INT32
    }
  }
  attr {
    key: "_output_shapes"
    value {
      list {
        shape {
          dim {
            size: 1000
          }
          dim {
            size: 3
          }
        }
      }
    }
  }
}
node {
  name: "Cumsum/axis"
  op: "Const"
  device: "/device:CPU:0"
  attr {
    key: "_output_shapes"
    value {
      list {
        shape {
        }
      }
    }
  }
  attr {
    key: "dtype"
    value {
      type: DT_INT32
    }
  }
  attr {
    key: "value"
    value {
      tensor {
        dtype: DT_INT32
        tensor_shape {
        }
        int_val: 1
      }
    }
  }
}
node {
  name: "Cumsum"
  op: "Cumsum"
  input: "concat"
  input: "Cumsum/axis"
  device: "/device:CPU:0"
  attr {
    key: "T"
    value {
      type: DT_FLOAT
    }
  }
  attr {
    key: "Tidx"
    value {
      type: DT_INT32
    }
  }
  attr {
    key: "_output_shapes"
    value {
      list {
        shape {
          dim {
            size: 1000
          }
          dim {
            size: 3
          }
        }
      }
    }
  }
  attr {
    key: "exclusive"
    value {
      b: false
    }
  }
  attr {
    key: "reverse"
    value {
      b: false
    }
  }
}
node {
  name: "Sin"
  op: "Sin"
  input: "Cumsum"
  device: "/device:CPU:0"
  attr {
    key: "T"
    value {
      type: DT_FLOAT
    }
  }
  attr {
    key: "_output_shapes"
    value {
      list {
        shape {
          dim {
            size: 1000
          }
          dim {
            size: 3
          }
        }
      }
    }
  }
}
node {
  name: "Cumsum_1/axis"
  op: "Const"
  device: "/device:CPU:0"
  attr {
    key: "_output_shapes"
    value {
      list {
        shape {
        }
      }
    }
  }
  attr {
    key: "dtype"
    value {
      type: DT_INT32
    }
  }
  attr {
    key: "value"
    value {
      tensor {
        dtype: DT_INT32
        tensor_shape {
        }
        int_val: 1
      }
    }
  }
}
node {
  name: "Cumsum_1"
  op: "Cumsum"
  input: "concat"
  input: "Cumsum_1/axis"
  device: "/device:CPU:0"
  attr {
    key: "T"
    value {
      type: DT_FLOAT
    }
  }
  attr {
    key: "Tidx"
    value {
      type: DT_INT32
    }
  }
  attr {
    key: "_output_shapes"
    value {
      list {
        shape {
          dim {
            size: 1000
          }
          dim {
            size: 3
          }
        }
      }
    }
  }
  attr {
    key: "exclusive"
    value {
      b: false
    }
  }
  attr {
    key: "reverse"
    value {
      b: false
    }
  }
}
node {
  name: "Cos"
  op: "Cos"
  input: "Cumsum_1"
  device: "/device:CPU:0"
  attr {
    key: "T"
    value {
      type: DT_FLOAT
    }
  }
  attr {
    key: "_output_shapes"
    value {
      list {
        shape {
          dim {
            size: 1000
          }
          dim {
            size: 3
          }
        }
      }
    }
  }
}
node {
  name: "Mul"
  op: "Mul"
  input: "concat_1"
  input: "Cos"
  device: "/device:CPU:0"
  attr {
    key: "T"
    value {
      type: DT_FLOAT
    }
  }
  attr {
    key: "_output_shapes"
    value {
      list {
        shape {
          dim {
            size: 1000
          }
          dim {
            size: 3
          }
        }
      }
    }
  }
}
node {
  name: "Mul_1"
  op: "Mul"
  input: "concat_1"
  input: "Sin"
  device: "/device:CPU:0"
  attr {
    key: "T"
    value {
      type: DT_FLOAT
    }
  }
  attr {
    key: "_output_shapes"
    value {
      list {
        shape {
          dim {
            size: 1000
          }
          dim {
            size: 3
          }
        }
      }
    }
  }
}
node {
  name: "Sum/reduction_indices"
  op: "Const"
  device: "/device:CPU:0"
  attr {
    key: "_output_shapes"
    value {
      list {
        shape {
        }
      }
    }
  }
  attr {
    key: "dtype"
    value {
      type: DT_INT32
    }
  }
  attr {
    key: "value"
    value {
      tensor {
        dtype: DT_INT32
        tensor_shape {
        }
        int_val: 1
      }
    }
  }
}
node {
  name: "Sum"
  op: "Sum"
  input: "Mul"
  input: "Sum/reduction_indices"
  device: "/device:CPU:0"
  attr {
    key: "T"
    value {
      type: DT_FLOAT
    }
  }
  attr {
    key: "Tidx"
    value {
      type: DT_INT32
    }
  }
  attr {
    key: "_output_shapes"
    value {
      list {
        shape {
          dim {
            size: 1000
          }
          dim {
            size: 1
          }
        }
      }
    }
  }
  attr {
    key: "keep_dims"
    value {
      b: true
    }
  }
}
node {
  name: "Sum_1/reduction_indices"
  op: "Const"
  device: "/device:CPU:0"
  attr {
    key: "_output_shapes"
    value {
      list {
        shape {
        }
      }
    }
  }
  attr {
    key: "dtype"
    value {
      type: DT_INT32
    }
  }
  attr {
    key: "value"
    value {
      tensor {
        dtype: DT_INT32
        tensor_shape {
        }
        int_val: 1
      }
    }
  }
}
node {
  name: "Sum_1"
  op: "Sum"
  input: "Mul_1"
  input: "Sum_1/reduction_indices"
  device: "/device:CPU:0"
  attr {
    key: "T"
    value {
      type: DT_FLOAT
    }
  }
  attr {
    key: "Tidx"
    value {
      type: DT_INT32
    }
  }
  attr {
    key: "_output_shapes"
    value {
      list {
        shape {
          dim {
            size: 1000
          }
          dim {
            size: 1
          }
        }
      }
    }
  }
  attr {
    key: "keep_dims"
    value {
      b: true
    }
  }
}
node {
  name: "Shape"
  op: "Const"
  device: "/device:CPU:0"
  attr {
    key: "_output_shapes"
    value {
      list {
        shape {
          dim {
            size: 2
          }
        }
      }
    }
  }
  attr {
    key: "dtype"
    value {
      type: DT_INT32
    }
  }
  attr {
    key: "value"
    value {
      tensor {
        dtype: DT_INT32
        tensor_shape {
          dim {
            size: 2
          }
        }
        tensor_content: "\350\003\000\000\001\000\000\000"
      }
    }
  }
}
node {
  name: "zeros/Const"
  op: "Const"
  device: "/device:CPU:0"
  attr {
    key: "_output_shapes"
    value {
      list {
        shape {
        }
      }
    }
  }
  attr {
    key: "dtype"
    value {
      type: DT_FLOAT
    }
  }
  attr {
    key: "value"
    value {
      tensor {
        dtype: DT_FLOAT
        tensor_shape {
        }
        float_val: 0.0
      }
    }
  }
}
node {
  name: "zeros"
  op: "Fill"
  input: "Shape"
  input: "zeros/Const"
  device: "/device:CPU:0"
  attr {
    key: "T"
    value {
      type: DT_FLOAT
    }
  }
  attr {
    key: "_output_shapes"
    value {
      list {
        shape {
          dim {
            size: 1000
          }
          dim {
            size: 1
          }
        }
      }
    }
  }
}
node {
  name: "concat_2/axis"
  op: "Const"
  device: "/device:CPU:0"
  attr {
    key: "_output_shapes"
    value {
      list {
        shape {
        }
      }
    }
  }
  attr {
    key: "dtype"
    value {
      type: DT_INT32
    }
  }
  attr {
    key: "value"
    value {
      tensor {
        dtype: DT_INT32
        tensor_shape {
        }
        int_val: 1
      }
    }
  }
}
node {
  name: "concat_2"
  op: "ConcatV2"
  input: "Sum"
  input: "Sum_1"
  input: "zeros"
  input: "concat_2/axis"
  device: "/device:CPU:0"
  attr {
    key: "N"
    value {
      i: 3
    }
  }
  attr {
    key: "T"
    value {
      type: DT_FLOAT
    }
  }
  attr {
    key: "Tidx"
    value {
      type: DT_INT32
    }
  }
  attr {
    key: "_output_shapes"
    value {
      list {
        shape {
          dim {
            size: 1000
          }
          dim {
            size: 3
          }
        }
      }
    }
  }
}
node {
  name: "Const_6"
  op: "Const"
  device: "/device:CPU:0"
  attr {
    key: "_output_shapes"
    value {
      list {
        shape {
          dim {
            size: 1
          }
          dim {
            size: 1
          }
        }
      }
    }
  }
  attr {
    key: "dtype"
    value {
      type: DT_FLOAT
    }
  }
  attr {
    key: "value"
    value {
      tensor {
        dtype: DT_FLOAT
        tensor_shape {
          dim {
            size: 1
          }
          dim {
            size: 1
          }
        }
        float_val: 0.00999999977648
      }
    }
  }
}
node {
  name: "Const_7"
  op: "Const"
  device: "/device:CPU:0"
  attr {
    key: "_output_shapes"
    value {
      list {
        shape {
          dim {
            size: 1
          }
          dim {
            size: 3
          }
        }
      }
    }
  }
  attr {
    key: "dtype"
    value {
      type: DT_FLOAT
    }
  }
  attr {
    key: "value"
    value {
      tensor {
        dtype: DT_FLOAT
        tensor_shape {
          dim {
            size: 1
          }
          dim {
            size: 3
          }
        }
        tensor_content: "\371\257%?\327\3563?\2030\010>"
      }
    }
  }
}
node {
  name: "Mul_2"
  op: "Mul"
  input: "Const_7"
  input: "Const_6"
  device: "/device:CPU:0"
  attr {
    key: "T"
    value {
      type: DT_FLOAT
    }
  }
  attr {
    key: "_output_shapes"
    value {
      list {
        shape {
          dim {
            size: 1
          }
          dim {
            size: 3
          }
        }
      }
    }
  }
}
node {
  name: "Const_8"
  op: "Const"
  device: "/device:CPU:0"
  attr {
    key: "_output_shapes"
    value {
      list {
        shape {
          dim {
            size: 1
          }
          dim {
            size: 3
          }
        }
      }
    }
  }
  attr {
    key: "dtype"
    value {
      type: DT_FLOAT
    }
  }
  attr {
    key: "value"
    value {
      tensor {
        dtype: DT_FLOAT
        tensor_shape {
          dim {
            size: 1
          }
          dim {
            size: 3
          }
        }
        tensor_content: "i\341\"<\347\221\026?\010\265B?"
      }
    }
  }
}
node {
  name: "Mul_3"
  op: "Mul"
  input: "Const_8"
  input: "Const_6"
  device: "/device:CPU:0"
  attr {
    key: "T"
    value {
      type: DT_FLOAT
    }
  }
  attr {
    key: "_output_shapes"
    value {
      list {
        shape {
          dim {
            size: 1
          }
          dim {
            size: 3
          }
        }
      }
    }
  }
}
node {
  name: "Const_9"
  op: "Const"
  device: "/device:CPU:0"
  attr {
    key: "_output_shapes"
    value {
      list {
        shape {
          dim {
            size: 1
          }
          dim {
            size: 3
          }
        }
      }
    }
  }
  attr {
    key: "dtype"
    value {
      type: DT_FLOAT
    }
  }
  attr {
    key: "value"
    value {
      tensor {
        dtype: DT_FLOAT
        tensor_shape {
          dim {
            size: 1
          }
          dim {
            size: 3
          }
        }
        tensor_content: "\222{|?\360\245c?\002:\276>"
      }
    }
  }
}
node {
  name: "Mul_4"
  op: "Mul"
  input: "Const_9"
  input: "Const_6"
  device: "/device:CPU:0"
  attr {
    key: "T"
    value {
      type: DT_FLOAT
    }
  }
  attr {
    key: "_output_shapes"
    value {
      list {
        shape {
          dim {
            size: 1
          }
          dim {
            size: 3
          }
        }
      }
    }
  }
}
node {
  name: "Const_10"
  op: "Const"
  device: "/device:CPU:0"
  attr {
    key: "_output_shapes"
    value {
      list {
        shape {
          dim {
            size: 1
          }
          dim {
            size: 3
          }
        }
      }
    }
  }
  attr {
    key: "dtype"
    value {
      type: DT_FLOAT
    }
  }
  attr {
    key: "value"
    value {
      tensor {
        dtype: DT_FLOAT
        tensor_shape {
          dim {
            size: 1
          }
          dim {
            size: 3
          }
        }
        tensor_content: "\312N\320>\221`\'?FN\177?"
      }
    }
  }
}
node {
  name: "Mul_5"
  op: "Mul"
  input: "Const_10"
  input: "Const_6"
  device: "/device:CPU:0"
  attr {
    key: "T"
    value {
      type: DT_FLOAT
    }
  }
  attr {
    key: "_output_shapes"
    value {
      list {
        shape {
          dim {
            size: 1
          }
          dim {
            size: 3
          }
        }
      }
    }
  }
}
node {
  name: "Const_11"
  op: "Const"
  device: "/device:CPU:0"
  attr {
    key: "_output_shapes"
    value {
      list {
        shape {
          dim {
            size: 1
          }
          dim {
            size: 3
          }
        }
      }
    }
  }
  attr {
    key: "dtype"
    value {
      type: DT_FLOAT
    }
  }
  attr {
    key: "value"
    value {
      tensor {
        dtype: DT_FLOAT
        tensor_shape {
          dim {
            size: 1
          }
          dim {
            size: 3
          }
        }
        tensor_content: "\341\3063?\207V\354>`\205\222>"
      }
    }
  }
}
node {
  name: "Mul_6"
  op: "Mul"
  input: "Const_11"
  input: "Const_6"
  device: "/device:CPU:0"
  attr {
    key: "T"
    value {
      type: DT_FLOAT
    }
  }
  attr {
    key: "_output_shapes"
    value {
      list {
        shape {
          dim {
            size: 1
          }
          dim {
            size: 3
          }
        }
      }
    }
  }
}
node {
  name: "Const_12"
  op: "Const"
  device: "/device:CPU:0"
  attr {
    key: "_output_shapes"
    value {
      list {
        shape {
          dim {
            size: 1
          }
          dim {
            size: 3
          }
        }
      }
    }
  }
  attr {
    key: "dtype"
    value {
      type: DT_FLOAT
    }
  }
  attr {
    key: "value"
    value {
      tensor {
        dtype: DT_FLOAT
        tensor_shape {
          dim {
            size: 1
          }
          dim {
            size: 3
          }
        }
        tensor_content: "t\377\000?\234\'|?\321\253D?"
      }
    }
  }
}
node {
  name: "Mul_7"
  op: "Mul"
  input: "Const_12"
  input: "Const_6"
  device: "/device:CPU:0"
  attr {
    key: "T"
    value {
      type: DT_FLOAT
    }
  }
  attr {
    key: "_output_shapes"
    value {
      list {
        shape {
          dim {
            size: 1
          }
          dim {
            size: 3
          }
        }
      }
    }
  }
}
node {
  name: "Const_13"
  op: "Const"
  device: "/device:CPU:0"
  attr {
    key: "_output_shapes"
    value {
      list {
        shape {
          dim {
            size: 1
          }
          dim {
            size: 3
          }
        }
      }
    }
  }
  attr {
    key: "dtype"
    value {
      type: DT_FLOAT
    }
  }
  attr {
    key: "value"
    value {
      tensor {
        dtype: DT_FLOAT
        tensor_shape {
          dim {
            size: 1
          }
          dim {
            size: 3
          }
        }
        tensor_content: "(\322N?0\243\000?\374,\034?"
      }
    }
  }
}
node {
  name: "Mul_8"
  op: "Mul"
  input: "Const_13"
  input: "Const_6"
  device: "/device:CPU:0"
  attr {
    key: "T"
    value {
      type: DT_FLOAT
    }
  }
  attr {
    key: "_output_shapes"
    value {
      list {
        shape {
          dim {
            size: 1
          }
          dim {
            size: 3
          }
        }
      }
    }
  }
}
node {
  name: "Const_14"
  op: "Const"
  device: "/device:CPU:0"
  attr {
    key: "_output_shapes"
    value {
      list {
        shape {
          dim {
            size: 1
          }
          dim {
            size: 3
          }
        }
      }
    }
  }
  attr {
    key: "dtype"
    value {
      type: DT_FLOAT
    }
  }
  attr {
    key: "value"
    value {
      tensor {
        dtype: DT_FLOAT
        tensor_shape {
          dim {
            size: 1
          }
          dim {
            size: 3
          }
        }
        tensor_content: "\025\262\316>\213W\352;jC>?"
      }
    }
  }
}
node {
  name: "Mul_9"
  op: "Mul"
  input: "Const_14"
  input: "Const_6"
  device: "/device:CPU:0"
  attr {
    key: "T"
    value {
      type: DT_FLOAT
    }
  }
  attr {
    key: "_output_shapes"
    value {
      list {
        shape {
          dim {
            size: 1
          }
          dim {
            size: 3
          }
        }
      }
    }
  }
}
node {
  name: "Const_15"
  op: "Const"
  device: "/device:CPU:0"
  attr {
    key: "_output_shapes"
    value {
      list {
        shape {
          dim {
            size: 1
          }
          dim {
            size: 3
          }
        }
      }
    }
  }
  attr {
    key: "dtype"
    value {
      type: DT_FLOAT
    }
  }
  attr {
    key: "value"
    value {
      tensor {
        dtype: DT_FLOAT
        tensor_shape {
          dim {
            size: 1
          }
          dim {
            size: 3
          }
        }
        tensor_content: "\263\352\352>\347\267\226>08p?"
      }
    }
  }
}
node {
  name: "Mul_10"
  op: "Mul"
  input: "Const_15"
  input: "Const_6"
  device: "/device:CPU:0"
  attr {
    key: "T"
    value {
      type: DT_FLOAT
    }
  }
  attr {
    key: "_output_shapes"
    value {
      list {
        shape {
          dim {
            size: 1
          }
          dim {
            size: 3
          }
        }
      }
    }
  }
}
node {
  name: "Const_16"
  op: "Const"
  device: "/device:CPU:0"
  attr {
    key: "_output_shapes"
    value {
      list {
        shape {
          dim {
            size: 1
          }
          dim {
            size: 3
          }
        }
      }
    }
  }
  attr {
    key: "dtype"
    value {
      type: DT_FLOAT
    }
  }
  attr {
    key: "value"
    value {
      tensor {
        dtype: DT_FLOAT
        tensor_shape {
          dim {
            size: 1
          }
          dim {
            size: 3
          }
        }
        tensor_content: "\352\177\322>\276\371j?2\373\312>"
      }
    }
  }
}
node {
  name: "Mul_11"
  op: "Mul"
  input: "Const_16"
  input: "Const_6"
  device: "/device:CPU:0"
  attr {
    key: "T"
    value {
      type: DT_FLOAT
    }
  }
  attr {
    key: "_output_shapes"
    value {
      list {
        shape {
          dim {
            size: 1
          }
          dim {
            size: 3
          }
        }
      }
    }
  }
}
node {
  name: "Const_17"
  op: "Const"
  device: "/device:CPU:0"
  attr {
    key: "_output_shapes"
    value {
      list {
        shape {
          dim {
            size: 1
          }
          dim {
            size: 3
          }
        }
      }
    }
  }
  attr {
    key: "dtype"
    value {
      type: DT_FLOAT
    }
  }
  attr {
    key: "value"
    value {
      tensor {
        dtype: DT_FLOAT
        tensor_shape {
          dim {
            size: 1
          }
          dim {
            size: 3
          }
        }
        tensor_content: "\375l\231>{5v>W2\345>"
      }
    }
  }
}
node {
  name: "Mul_12"
  op: "Mul"
  input: "Const_17"
  input: "Const_6"
  device: "/device:CPU:0"
  attr {
    key: "T"
    value {
      type: DT_FLOAT
    }
  }
  attr {
    key: "_output_shapes"
    value {
      list {
        shape {
          dim {
            size: 1
          }
          dim {
            size: 3
          }
        }
      }
    }
  }
}
node {
  name: "Const_18"
  op: "Const"
  device: "/device:CPU:0"
  attr {
    key: "_output_shapes"
    value {
      list {
        shape {
          dim {
            size: 1
          }
          dim {
            size: 3
          }
        }
      }
    }
  }
  attr {
    key: "dtype"
    value {
      type: DT_FLOAT
    }
  }
  attr {
    key: "value"
    value {
      tensor {
        dtype: DT_FLOAT
        tensor_shape {
          dim {
            size: 1
          }
          dim {
            size: 3
          }
        }
        tensor_content: "e>\260>>\3512?k\334s?"
      }
    }
  }
}
node {
  name: "Mul_13"
  op: "Mul"
  input: "Const_18"
  input: "Const_6"
  device: "/device:CPU:0"
  attr {
    key: "T"
    value {
      type: DT_FLOAT
    }
  }
  attr {
    key: "_output_shapes"
    value {
      list {
        shape {
          dim {
            size: 1
          }
          dim {
            size: 3
          }
        }
      }
    }
  }
}
node {
  name: "Const_19"
  op: "Const"
  device: "/device:CPU:0"
  attr {
    key: "_output_shapes"
    value {
      list {
        shape {
          dim {
            size: 1
          }
          dim {
            size: 3
          }
        }
      }
    }
  }
  attr {
    key: "dtype"
    value {
      type: DT_FLOAT
    }
  }
  attr {
    key: "value"
    value {
      tensor {
        dtype: DT_FLOAT
        tensor_shape {
          dim {
            size: 1
          }
          dim {
            size: 3
          }
        }
        tensor_content: "\277Y\027>%5\253>\007\317\037?"
      }
    }
  }
}
node {
  name: "Mul_14"
  op: "Mul"
  input: "Const_19"
  input: "Const_6"
  device: "/device:CPU:0"
  attr {
    key: "T"
    value {
      type: DT_FLOAT
    }
  }
  attr {
    key: "_output_shapes"
    value {
      list {
        shape {
          dim {
            size: 1
          }
          dim {
            size: 3
          }
        }
      }
    }
  }
}
node {
  name: "Const_20"
  op: "Const"
  device: "/device:CPU:0"
  attr {
    key: "_output_shapes"
    value {
      list {
        shape {
          dim {
            size: 1
          }
          dim {
            size: 3
          }
        }
      }
    }
  }
  attr {
    key: "dtype"
    value {
      type: DT_FLOAT
    }
  }
  attr {
    key: "value"
    value {
      tensor {
        dtype: DT_FLOAT
        tensor_shape {
          dim {
            size: 1
          }
          dim {
            size: 3
          }
        }
        tensor_content: "\261\254m>\223b\037<#\003\024="
      }
    }
  }
}
node {
  name: "Mul_15"
  op: "Mul"
  input: "Const_20"
  input: "Const_6"
  device: "/device:CPU:0"
  attr {
    key: "T"
    value {
      type: DT_FLOAT
    }
  }
  attr {
    key: "_output_shapes"
    value {
      list {
        shape {
          dim {
            size: 1
          }
          dim {
            size: 3
          }
        }
      }
    }
  }
}
node {
  name: "Const_21"
  op: "Const"
  device: "/device:CPU:0"
  attr {
    key: "_output_shapes"
    value {
      list {
        shape {
          dim {
            size: 1
          }
          dim {
            size: 3
          }
        }
      }
    }
  }
  attr {
    key: "dtype"
    value {
      type: DT_FLOAT
    }
  }
  attr {
    key: "value"
    value {
      tensor {
        dtype: DT_FLOAT
        tensor_shape {
          dim {
            size: 1
          }
          dim {
            size: 3
          }
        }
        tensor_content: "\266\306v?]\335\232;\231\232\007>"
      }
    }
  }
}
node {
  name: "Mul_16"
  op: "Mul"
  input: "Const_21"
  input: "Const_6"
  device: "/device:CPU:0"
  attr {
    key: "T"
    value {
      type: DT_FLOAT
    }
  }
  attr {
    key: "_output_shapes"
    value {
      list {
        shape {
          dim {
            size: 1
          }
          dim {
            size: 3
          }
        }
      }
    }
  }
}
node {
  name: "Const_22"
  op: "Const"
  device: "/device:CPU:0"
  attr {
    key: "_output_shapes"
    value {
      list {
        shape {
          dim {
            size: 1
          }
          dim {
            size: 3
          }
        }
      }
    }
  }
  attr {
    key: "dtype"
    value {
      type: DT_FLOAT
    }
  }
  attr {
    key: "value"
    value {
      tensor {
        dtype: DT_FLOAT
        tensor_shape {
          dim {
            size: 1
          }
          dim {
            size: 3
          }
        }
        tensor_content: "\372\306\242>\242=w?k\024p?"
      }
    }
  }
}
node {
  name: "Mul_17"
  op: "Mul"
  input: "Const_22"
  input: "Const_6"
  device: "/device:CPU:0"
  attr {
    key: "T"
    value {
      type: DT_FLOAT
    }
  }
  attr {
    key: "_output_shapes"
    value {
      list {
        shape {
          dim {
            size: 1
          }
          dim {
            size: 3
          }
        }
      }
    }
  }
}
node {
  name: "Const_23"
  op: "Const"
  device: "/device:CPU:0"
  attr {
    key: "_output_shapes"
    value {
      list {
        shape {
          dim {
            size: 1
          }
          dim {
            size: 3
          }
        }
      }
    }
  }
  attr {
    key: "dtype"
    value {
      type: DT_FLOAT
    }
  }
  attr {
    key: "value"
    value {
      tensor {
        dtype: DT_FLOAT
        tensor_shape {
          dim {
            size: 1
          }
          dim {
            size: 3
          }
        }
        tensor_content: "\235\357\024=\213\256=?s\301n?"
      }
    }
  }
}
node {
  name: "Mul_18"
  op: "Mul"
  input: "Const_23"
  input: "Const_6"
  device: "/device:CPU:0"
  attr {
    key: "T"
    value {
      type: DT_FLOAT
    }
  }
  attr {
    key: "_output_shapes"
    value {
      list {
        shape {
          dim {
            size: 1
          }
          dim {
            size: 3
          }
        }
      }
    }
  }
}
node {
  name: "Const_24"
  op: "Const"
  device: "/device:CPU:0"
  attr {
    key: "_output_shapes"
    value {
      list {
        shape {
          dim {
            size: 1
          }
          dim {
            size: 3
          }
        }
      }
    }
  }
  attr {
    key: "dtype"
    value {
      type: DT_FLOAT
    }
  }
  attr {
    key: "value"
    value {
      tensor {
        dtype: DT_FLOAT
        tensor_shape {
          dim {
            size: 1
          }
          dim {
            size: 3
          }
        }
        tensor_content: "\364f\326>e\256o?K3\223="
      }
    }
  }
}
node {
  name: "Mul_19"
  op: "Mul"
  input: "Const_24"
  input: "Const_6"
  device: "/device:CPU:0"
  attr {
    key: "T"
    value {
      type: DT_FLOAT
    }
  }
  attr {
    key: "_output_shapes"
    value {
      list {
        shape {
          dim {
            size: 1
          }
          dim {
            size: 3
          }
        }
      }
    }
  }
}
node {
  name: "Const_25"
  op: "Const"
  device: "/device:CPU:0"
  attr {
    key: "_output_shapes"
    value {
      list {
        shape {
          dim {
            size: 1
          }
          dim {
            size: 3
          }
        }
      }
    }
  }
  attr {
    key: "dtype"
    value {
      type: DT_FLOAT
    }
  }
  attr {
    key: "value"
    value {
      tensor {
        dtype: DT_FLOAT
        tensor_shape {
          dim {
            size: 1
          }
          dim {
            size: 3
          }
        }
        tensor_content: "`\333a>\220\\a?\3377\247>"
      }
    }
  }
}
node {
  name: "Mul_20"
  op: "Mul"
  input: "Const_25"
  input: "Const_6"
  device: "/device:CPU:0"
  attr {
    key: "T"
    value {
      type: DT_FLOAT
    }
  }
  attr {
    key: "_output_shapes"
    value {
      list {
        shape {
          dim {
            size: 1
          }
          dim {
            size: 3
          }
        }
      }
    }
  }
}
node {
  name: "Const_26"
  op: "Const"
  device: "/device:CPU:0"
  attr {
    key: "_output_shapes"
    value {
      list {
        shape {
          dim {
            size: 1
          }
          dim {
            size: 3
          }
        }
      }
    }
  }
  attr {
    key: "dtype"
    value {
      type: DT_FLOAT
    }
  }
  attr {
    key: "value"
    value {
      tensor {
        dtype: DT_FLOAT
        tensor_shape {
          dim {
            size: 1
          }
          dim {
            size: 3
          }
        }
        tensor_content: "\267y=?~\244J?\276L\273>"
      }
    }
  }
}
node {
  name: "Mul_21"
  op: "Mul"
  input: "Const_26"
  input: "Const_6"
  device: "/device:CPU:0"
  attr {
    key: "T"
    value {
      type: DT_FLOAT
    }
  }
  attr {
    key: "_output_shapes"
    value {
      list {
        shape {
          dim {
            size: 1
          }
          dim {
            size: 3
          }
        }
      }
    }
  }
}
node {
  name: "Const_27"
  op: "Const"
  device: "/device:CPU:0"
  attr {
    key: "_output_shapes"
    value {
      list {
        shape {
          dim {
            size: 1
          }
          dim {
            size: 3
          }
        }
      }
    }
  }
  attr {
    key: "dtype"
    value {
      type: DT_FLOAT
    }
  }
  attr {
    key: "value"
    value {
      tensor {
        dtype: DT_FLOAT
        tensor_shape {
          dim {
            size: 1
          }
          dim {
            size: 3
          }
        }
        tensor_content: "\361\351\030?\002\004\211=N\262x?"
      }
    }
  }
}
node {
  name: "Mul_22"
  op: "Mul"
  input: "Const_27"
  input: "Const_6"
  device: "/device:CPU:0"
  attr {
    key: "T"
    value {
      type: DT_FLOAT
    }
  }
  attr {
    key: "_output_shapes"
    value {
      list {
        shape {
          dim {
            size: 1
          }
          dim {
            size: 3
          }
        }
      }
    }
  }
}
node {
  name: "Const_28"
  op: "Const"
  device: "/device:CPU:0"
  attr {
    key: "_output_shapes"
    value {
      list {
        shape {
          dim {
            size: 1
          }
          dim {
            size: 3
          }
        }
      }
    }
  }
  attr {
    key: "dtype"
    value {
      type: DT_FLOAT
    }
  }
  attr {
    key: "value"
    value {
      tensor {
        dtype: DT_FLOAT
        tensor_shape {
          dim {
            size: 1
          }
          dim {
            size: 3
          }
        }
        tensor_content: "X\202\346>\220\016\351>\321\254\037?"
      }
    }
  }
}
node {
  name: "Mul_23"
  op: "Mul"
  input: "Const_28"
  input: "Const_6"
  device: "/device:CPU:0"
  attr {
    key: "T"
    value {
      type: DT_FLOAT
    }
  }
  attr {
    key: "_output_shapes"
    value {
      list {
        shape {
          dim {
            size: 1
          }
          dim {
            size: 3
          }
        }
      }
    }
  }
}
node {
  name: "Const_29"
  op: "Const"
  device: "/device:CPU:0"
  attr {
    key: "_output_shapes"
    value {
      list {
        shape {
          dim {
            size: 1
          }
          dim {
            size: 3
          }
        }
      }
    }
  }
  attr {
    key: "dtype"
    value {
      type: DT_FLOAT
    }
  }
  attr {
    key: "value"
    value {
      tensor {
        dtype: DT_FLOAT
        tensor_shape {
          dim {
            size: 1
          }
          dim {
            size: 3
          }
        }
        tensor_content: "\234\250\335>\031.S? m\235="
      }
    }
  }
}
node {
  name: "Mul_24"
  op: "Mul"
  input: "Const_29"
  input: "Const_6"
  device: "/device:CPU:0"
  attr {
    key: "T"
    value {
      type: DT_FLOAT
    }
  }
  attr {
    key: "_output_shapes"
    value {
      list {
        shape {
          dim {
            size: 1
          }
          dim {
            size: 3
          }
        }
      }
    }
  }
}
node {
  name: "Const_30"
  op: "Const"
  device: "/device:CPU:0"
  attr {
    key: "_output_shapes"
    value {
      list {
        shape {
          dim {
            size: 1
          }
          dim {
            size: 3
          }
        }
      }
    }
  }
  attr {
    key: "dtype"
    value {
      type: DT_FLOAT
    }
  }
  attr {
    key: "value"
    value {
      tensor {
        dtype: DT_FLOAT
        tensor_shape {
          dim {
            size: 1
          }
          dim {
            size: 3
          }
        }
        tensor_content: "\314\265\356>g\356l?\004\034L>"
      }
    }
  }
}
node {
  name: "Mul_25"
  op: "Mul"
  input: "Const_30"
  input: "Const_6"
  device: "/device:CPU:0"
  attr {
    key: "T"
    value {
      type: DT_FLOAT
    }
  }
  attr {
    key: "_output_shapes"
    value {
      list {
        shape {
          dim {
            size: 1
          }
          dim {
            size: 3
          }
        }
      }
    }
  }
}
node {
  name: "Const_31"
  op: "Const"
  device: "/device:CPU:0"
  attr {
    key: "_output_shapes"
    value {
      list {
        shape {
          dim {
            size: 1
          }
          dim {
            size: 3
          }
        }
      }
    }
  }
  attr {
